#version: 0.2
Ã Ĩ
Â Ĭ
Â ¢
Ã ¿
ÃĨ ÃĨ
Â Ģ
Â ł
Ã ¾
Â ¥
Ã ĩ
Â ļ
Ã §
Ã Ķ
Â ¨
Ã ¹
Â Į
Ã Ĵ
Â ¤
Ã £
ÃĨÃĨ ÃĨÃĨ
Â ©
Â §
Â £
Ã ½
Ã µ
Â ı
Ã ´
Â ĳ
Ã º
Â ´
Ã ¼
Â Ł
Ã ³
Â¢ ÂĬ
Ã ·
Ã Ī
Â ľ
Â ¸
Ã ©
Ã »
Â İ
Â ĵ
Â Ķ
Ã ²
Ã ı
Â ¦
Â Ĵ
Ã ¤
Ã ĵ
Â ŀ
Ã Ĳ
Â ķ
Â µ
Â Ĳ
Ã İ
Â ª
Ã ļ
Â ģ
Â Ń
Ã ī
Ã Ħ
Ã ¦
Ã Ĭ
Ã ĳ
Â ĥ
Ã ¥
Ã ħ
Ã ĸ
Ã Ģ
Ã ľ
Ã ª
Ã «
Â ĸ
Â ¹
Ã į
Â ·
Â ±
Ã ¨
Â ¿
Ã Ń
Ã Ľ
Ã ł
Â Ĥ
Ã ¯
Ã ¶
Ã ĺ
Â ĺ
Ā Ā
Ã ®
Â ħ
Ã ģ
Â į
Ã ķ
Â Ĩ
Q E
Â «
Ã Ł
Â ¡
Ã ¢
Ã ±
Â Ļ
Ã ŀ
Â ®
Ã Ŀ
Ã Ļ
Â ¶
Ã ĥ
Â Ī
Â Ĺ
Â ĩ
Â ³
Â Ŀ
ā ā
Â Ħ
Â ²
Â »
Ã Ĺ
Â ½
Â ¬
Ã ¡
Ã Į
Ã Ĥ
Ã ĭ
Ã ¸
Â ī
Â º
Ã ¬
Ã °
Â¢ÂĬ Ā
Â ¾
Â Ľ
Â °
Â ¯
( Â¢ÂĬĀ
Â ¼
ÃĨÃĨÃĨÃĨ ÃĨÃĨÃĨÃĨ
Â ĭ
Â¢ ÂĢ
(Â¢ÂĬĀ (Â¢ÂĬĀ
Ĕ Ā
ÂĬ (
Â¢ÂĬ (
@ ą
Ā Ĕ
( Â¢ÂĢ
Â¢ÂĬ( Ā
@ą Ĕ
Ă ÂĬ(
ā Ă
Â¢ÂĬ(Ā Â¢ÂĬ(Ā
ā Ā
ĀĀ ĀĀ
āā āā
ÃĨÃĨÃĨÃĨÃĨÃĨÃĨÃĨ ÃĨÃĨÃĨÃĨÃĨÃĨÃĨÃĨ
(Â¢ÂĬĀ(Â¢ÂĬĀ (Â¢ÂĬĀ(Â¢ÂĬĀ
āĂ ă
Ã¿ ÃĦ
ÂĬ Ā
Ā Ă
Ą ą
Ą Ą
Ā ğ
Ĕ ā
( ā
Â¤ Â¥
F G
ÃĶ Ãķ
ÂĬ ÂĴ
Ć ć
8 9
Â¢ Â£
Â§ Â¨
Ę ę
S T
Ã¹ Ãº
I J
ā ă
ÃĪ Ãī
Ã´ Ãµ
Ã§ Ã¨
U V
i j
6 7
ÃĴ Ãĵ
d e
Z c
Â¢ÂĬ(ĀÂ¢ÂĬ(Ā Â¢ÂĬ(ĀÂ¢ÂĬ(Ā
b r
) *
g h
ā "
Â¶ Â·
( Ă
ÂĶ Âķ
Ã² Ã³
Ã£ Ã¤
ÂĻ Âļ
ÃĻ Ãļ
ÃĨ Ãĩ
ÃĤ Ãĥ
Ã© Ãª
Âĳ Â¡
Â² Â³
s t
v w
ÃĦ Ãħ
Âĸ ÂĹ
C D
ÂĪ Âī
X Y
& '
Ã¥ Ã¦
y z
ĀĀ ā
ÂĨ Âĩ
Âĥ ÂĦ
Â¤Â¥ Â¦
ĉ Ċ
āĀ ă
Â§Â¨ Â©
ÂĬÂĴ Âĵ
ė Ęę
Ã´Ãµ Ã¶
de f
E FG
UV W
Â¶Â· Â¸
Ãĺ ÃĻÃļ
ÃĶÃķ Ãĸ
Ã¸ Ã¹Ãº
Ã¢ Ã£Ã¤
5 67
ÃĪÃī ÃĬ
ą ĄĄ
Âĺ ÂĻÂļ
&' (
Ćć Ĉ
u vw
Âº ÃĤÃĥ
H IJ
x yz
ÃĦÃħ ÃĨÃĩ
ÂĶÂķ ÂĸÂĹ
Ã¿ ÃĽ
ÃĨÃĨÃĨÃĨÃĨÃĨÃĨÃĨÃĨÃĨÃĨÃĨÃĨÃĨÃĨÃĨ ÃĨÃĨÃĨÃĨÃĨÃĨÃĨÃĨÃĨÃĨÃĨÃĨÃĨÃĨÃĨÃĨ
āĂă Ąą
Â¢Â£ Â¤Â¥Â¦
ST UVW
Ã§Ã¨ Ã©Ãª
ij st
ÃĴÃĵ ÃĶÃķÃĸ
Zc def
gh ijst
Ã²Ã³ Ã´ÃµÃ¶
CD EFG
ÂĪÂī ÂĬÂĴÂĵ
XY Zcdef
Ã¥Ã¦ Ã§Ã¨Ã©Ãª
ÂĨÂĩ ÂĪÂīÂĬÂĴÂĵ
ėĘę Ě
Ã¢Ã£Ã¤ Ã¥Ã¦Ã§Ã¨Ã©Ãª
567 89
ÃĪÃīÃĬ ÃĴÃĵÃĶÃķÃĸ
ÂĺÂĻÂļ Â¢Â£Â¤Â¥Â¦
&'( )*
uvw xyz
ÂºÃĤÃĥ ÃĦÃħÃĨÃĩ
HIJ STUVW
ÂĶÂķÂĸÂĹ ÂĺÂĻÂļÂ¢Â£Â¤Â¥Â¦
āĂăĄą ĆćĈ
ghijst uvwxyz
CDEFG HIJSTUVW
XYZcdef ghijstuvwxyz
ÂĨÂĩÂĪÂīÂĬÂĴÂĵ ÂĶÂķÂĸÂĹÂĺÂĻÂļÂ¢Â£Â¤Â¥Â¦
ÂºÃĤÃĥÃĦÃħÃĨÃĩ ÃĪÃīÃĬÃĴÃĵÃĶÃķÃĸ
CDEFGHIJSTUVW XYZcdefghijstuvwxyz
ÂĨÂĩÂĪÂīÂĬÂĴÂĵÂĶÂķÂĸÂĹÂĺÂĻÂļÂ¢Â£Â¤Â¥Â¦ Â§Â¨Â©
Ā Âŀ
Ā ?
R Ãĳ
Âļ Ā
(Â¢ÂĬĀ(Â¢ÂĬĀ(Â¢ÂĬĀ(Â¢ÂĬĀ (Â¢ÂĬĀ(Â¢ÂĬĀ(Â¢ÂĬĀ(Â¢ÂĬĀ
Ãĺ Ã¿
Ĝ Ě
Ę Ĕ
Ę Ĝ
Ĉ #
Ā đ
Ą đ
ă Ă
F I
Ā Đ
Ą ă
ć "
| Âļ
ă Ą
Ā }
A Q
Âľ ÂĢ
b F
Ė $
ÂĲ Â¸
Â¢ Â®
n p
Ġ Ė
ă đ
Ã² Ãł
Ē !
$ $
Â¥ Ā
Ãİ ÃĲ
Ĉ Ĕ
Ă đ
a q
ÂĪ Â®
ġ *
Q a
4 0
4 4
ē "
t f
f p
Ā Âı
ÃĬ Ãİ
Ġ &
đ ā
, ,
$ "
z x
Ć Ē
R Ã°
Ć ē
Â´ Ā
ÃĪ Ã°
ġ :
Ā =
Ã½ j
ā ĀĀ
Ġ ĜĚ
Ā Ąđ
J FI
Đ ĀĂ
Ĉ āĀ
Ā āĂ
ą Ē!
Ā āā
ă āĀ
ÂĢ ÂĲÂ¸
ÃĬÃİ ÃĨ
ÃĨÃĨ Ã¿
Âģ ĈĔ
Ã¢ Ã²Ãł
ĀĂ đ
đ ĀĂ
bF J
ÂĪÂ® ÂĬ
ăĄ ć
br Ãĳ
Ąą !
RÃĳ Ã°
Âģ ÂĳÂ¡
Ąă ą
P tf
ÃİÃĲ Ãİ
r fp
ÂĳÂ¡ Â±
Ĝ $"
ĀĀĀĀ ĀĀ
ÂĤ ÂĥÂĦ
ĀĀ āĀ
āă ăĂ
ĀĀā }
ĠĖ ĘĜ
đ Ąą!
Ã¸Ã¹Ãº Ã¿
āĂ ĄĄ
ÃĺÃĻÃļ Ã¡
ăđ Ā?
% &'()*
4 56789
Ā āĂă
ā ĀĀĀĀĀĀ
ą āāāā
Ė ėĘęĚ
Ã¿ ÃĺÃ¿
ÃĦ ÃİÃĲÃİ
Ã± Ã²Ã³Ã´ÃµÃ¶
āā ĀĀĀĀ
ĀĀĀĀ āĂăĄąĆćĈ
āāāā āāāā
ÃĨÃĨÃĨÃĨÃĨÃĨÃĨÃĨÃĨÃĨÃĨÃĨÃĨÃĨÃĨÃĨ ÃĨÃĨÃ¿
āĂă ĀĄđ
Āğ ĀĀā
Āğ āĀă
āă đā
ā" $$
ā" ĀĂđ
āĀă ā"ĀĂđ
ÃĺÃĻÃļ Ã¢Ã£Ã¤Ã¥Ã¦Ã§Ã¨Ã©Ãª
Ã¸Ã¹Ãº Ã¿ÃĦ
ąĄĄ ĀāĂ
ąĄĄ ĀĀā}
ÃĨÃĨÃĨÃĨÃĨÃĨÃĨÃĨÃĨÃĨÃĨÃĨÃĨÃĨÃĨÃĨÃĨÃĨÃĨÃĨÃĨÃĨÃĨÃĨÃĨÃĨÃĨÃĨÃĨÃĨÃĨÃĨ ÃĨÃĨÃĨÃĨÃĨÃĨÃĨÃĨÃĨÃĨÃĨÃĨÃĨÃĨÃĨÃĨÃĨÃĨÃ¿
ėĘęĚ &'()*
Ã¢Ã£Ã¤Ã¥Ã¦Ã§Ã¨Ã©Ãª Ã±Ã²Ã³Ã´ÃµÃ¶
Āđ ĈāĀ
ÂľÂĢ ÂĪÂ®ÂĬ
Ăđ ăđĀ?
zx rfp
ĠĜĚ Ĝ$"
JFI F
ĐĀĂ āăăĂ
Āāā ĀĀāĀ
ăāĀ ĂđăđĀ?
ÂĢÂĲÂ¸ ÂľÂĢÂĪÂ®ÂĬ
ÃĬÃİÃĨ Ã¿ÃĽ
Ã¢Ã²Ãł ÃĪÃ°
đĀĂ āĂĄĄ
ăĄć ąĄĄĀāĂ
ÂģÂĳÂ¡ Ĉ#
Ąăą ąĄĄĀĀā}
Ptf zxrfp
ĠĖĘĜ ĘĔ
Ã¸Ã¹ÃºÃ¿ Ãļ
ÃĺÃĻÃļÃ¡ Ã¢Ã£Ã¤Ã¥Ã¦Ã§Ã¨Ã©ÃªÃ±Ã²Ã³Ã´ÃµÃ¶
ĀāĂă đĄą!
āĀĀĀĀĀĀ āĂăĄąĆćĈ
ąāāāā āāĀĀĀĀ
ĖėĘęĚ %&'()*
Ã¿ÃĺÃ¿ Ãł
āāāāāāāā āĀĀĀĀĀĀāĂăĄąĆćĈ
āĂăĀĄđ ąĒ!
ĀğĀĀā ąāāāāāāĀĀĀĀ
ĀğāĀă āāāāāāāāāĀĀĀĀĀĀāĂăĄąĆćĈ
āĀăā"ĀĂđ āăđā
ÃĺÃĻÃļÃ¢Ã£Ã¤Ã¥Ã¦Ã§Ã¨Ã©Ãª Ã²Ã³Ã´ÃµÃ¶
ÃĨÃĨÃĨÃĨÃĨÃĨÃĨÃĨÃĨÃĨÃĨÃĨÃĨÃĨÃĨÃĨÃĨÃĨÃĨÃĨÃĨÃĨÃĨÃĨÃĨÃĨÃĨÃĨÃĨÃĨÃĨÃĨÃĨÃĨÃĨÃĨÃĨÃĨÃĨÃĨÃĨÃĨÃĨÃĨÃĨÃĨÃĨÃĨÃĨÃĨÃ¿ ÃĢ
ĀđĈāĀ āĀăā"ĀĂđāăđā
ĐĀĂāăăĂ ĄăąąĄĄĀĀā}
ĀāāĀĀāĀ āĀĀ
đĀĂāĂĄĄ ăĄćąĄĄĀāĂ
Ptfzxrfp n
ĀğĀĀāąāāāāāāĀĀĀĀ ĀĀĀĀāĂăĄąĆćĈ
ĐĀĂāăăĂĄăąąĄĄĀĀā} āĂăĀĄđąĒ!
Ã¿ ÃĻ
ăāĀĂđăđĀ? Ā
Ã¾ T
ÂŃ Ā
Ã¾ t
K E
( Â¢
Ā <
Ā :
- Ĕ
( Ā
Ã¼ Ã¨
Ě Ā
ÂĶ Ā
Ā |
Ãº ÃĶ
@ đ
@ Ď
Ã¾ Âµ
@ Ē
> ÂĶ
Ãĳ E
> Â´
Ā ÂŁ
Ãº P
@ ĕ
Ğ ÂĶ
Ā *
Ãº ÃĲ
Ãº S
Ā Ğ
Ã½ i
? *
Ãº Ãĵ
I E
= )
? Âķ
@ Ė
Ãº T
Ā Ě
Ã¼ Ã©
? ÂĿ
Ā ÃĹ
Ã¼ Âª
~ Â´
Ā >
? :
~ ÂĶ
Ğ Â´
Ã½ h
Ã¾ Ãº
( ă
Ã¾ Ã¹
Ãº Ãķ
ÂĢ Ė
J Z
Â¢ÂĬ(ĀÂ¢ÂĬ(ĀÂ¢ÂĬ(ĀÂ¢ÂĬ(Ā Â¢ÂĬ(ĀÂ¢ÂĬ(ĀÂ¢ÂĬ(ĀÂ¢ÂĬ(Ā
} )
@ ď
% Ĕ
ğ Âķ
Ã¾ U
Ãº R
Ã¼ Ãª
@ Đ
ą Ĕ
Ãº ÃĴ
ÃĶ P
Ã½ Ãĳ
@ Ĕ
Ã¾ u
Ā Â®
@ ē
ą Ā
Âĸ ÂĢ
ğ ÂĿ
Âĸ ÂĬĀ
Ā ĕ
Â¥ Â¤
Ā ÂŃ
Ă ÂĬ
ÂĢ ĝ
Ãº U
Ã¹ Q
@ ę
Â¨ Ă
Ã¾ y
@ Ĉ
Ã¹ P
Â¥ Â¢ÂĢ
= *
Ã¼ h
R ÃĴ
Â´ ā
Ã¾ z
Ā Â¯
} *
Â¨ ā
Ā ^
Ã½ Ã¡
Ã¹ Ãĳ
z P
ğ Ã·
Ã¹ ÃĲ
(Â¢ÂĬĀ(Â¢ÂĬĀ(Â¢ÂĬĀ(Â¢ÂĬĀ(Â¢ÂĬĀ(Â¢ÂĬĀ(Â¢ÂĬĀ(Â¢ÂĬĀ (Â¢ÂĬĀ(Â¢ÂĬĀ(Â¢ÂĬĀ(Â¢ÂĬĀ(Â¢ÂĬĀ(Â¢ÂĬĀ(Â¢ÂĬĀ(Â¢ÂĬĀ
Ã« R
> Âķ
O Ã»
Ã¼ i
Ã¾ Ã¨
R ÃĲ
Ã¼ j
Ā ÂĲ
? Ã·
= Â©
Q H
Ā Âį
z S
ÂĢ $
z ÃĲ
Ã© N
Ā \
Ĕ Â´
ÂŁ Ã·
z Ãĵ
ÃĢ Ã´
Ãµ Âª
ć Â¥
- ĔĀ
Ã½ Ãĵ
Ã« N
Âŀ ÂĶ
Ã© K
Â¢ÂĬ( ā
Ā &
Ã¹ T
Ã¾ Ã°
Ā ]
ĝ )
Â¢ Âĵ
Ã¹ S
Ā ġ
Ā !
ÂĢ ğ
~ Âķ
? ÂŃ
Ã© R
Ãª i
z ÃĴ
Ãı Z
ÃĶ S
( Â¤
ġ Âķ
Ãº Ãĳ
Ãı J
ÃŁ Ã³
Âİ ÂĶ
@ ė
Ãº Q
Ā Â´
Ã½ Ã£
Âŀ Â´
Ã¨ i
ÂŁ ÂŃ
G Ã¶
Â¿ Âķ
Ãĩ J
Ã© M
Ã´ Âª
z T
ġ Âį
Ā -Ĕ
z R
Ãĩ Z
ÂĢ ,
Ã¹ Ãĵ
Ã¾ Ã©
Ãª j
Ã« Q
G Ã¥
ġ ÂĿ
Ā Âĸ
= ą
z ÃĶ
Ã« M
Ãı Âµ
ÂĢ #
Â¢ ÂĴ
Q L
Ā -
Ã« V
? Â¥
ÃĪ Ãµ
Ã» Ãĥ
Ğ Âķ
Ā ā
Ā Â¿
ÂŁ Â¥
Ã© Q
Ã½ Ã³
Ã© H
Â¿ ÂĿ
Ã© L
Ãĳ I
ġ ÂŃ
Q K
Ã¾ Ã±
Ã« S
ğ ÂŃ
Ã¨ j
Ã¹ ÃĶ
Âı Â¥
Ā ă
= (
/ Ã·
ÂĢ %
ÂĢ ě
Ã¹ R
ă Â¨
Ã½ Ã´
Ã¼ Ã³
ÂĶ ā
Ãª h
? Ě
Ã¨ h
@ Ě
Ã« H
O Z
c Ã¿
Ã½ Ãµ
Â¿ Ã·
Ã¾ Ã¸
Ã½ z
Ĕ ÂĢ
Ãī Ã¿
Âİ Â´
Ã¹ ÃĴ
Ā )
O J
ġ Â¥
ġ Ã·
@ ć
( Â¢ÂĬ
Ã½ Ã²
(Â¢ÂĬĀ(Â¢ÂĬĀ (Â¢ÂĬĀ
Ã© F
Ã¸ P
Ã« L
Ã© V
Ãĩ Ã¿
Q M
Âı ÂŃ
Ã¼ Ãį
Ă ÂĢ
Ã¤ Ã¿
Ā Âİ
F h
Ã¾ Ã»
Ã· Â©
Ā ~
F i
Ã« O
A E
Ã¾ x
ġ Ě
@ Ć
Â¢ ÂĲ
ÂĶ Â´
Âĸ ÂĴ
Ãı j
Â¨ Ā
Q I
o Ã¹
ÂĮ ď
q Ã¿
Ā ĝ
ğ Âį
Ã¸ ÃĲ
Ā Ã·
Ã¼ Ãħ
Ğ ÂĤ
ÂĢ *
Ã¼ Ã´
Ã« K
Ã« U
Ã» ÃĶ
Â¢ÂĬ( Ă
Ã© O
} Â©
_ Ã·
Âİ )
ď Â¥
h Ãį
Ãĩ j
Ā `
M E
s Ã¿
Ã§ Ã¿
Â£ ă
ÃĶ R
' Ã·
Ā {
ÂĢ +
- %
Ā Ď
ÃĶ T
Ãı z
Ã© U
Ã¥ G
} (
Ã« I
ÃĶ Q
ĔĀ Â´
ÂĮ ÂĮ
Ã¾ B
Ã« P
Ã© I
Ã§ Ãļ
Ãı Ã¿
Ã¹ U
Ā #
ď ÂŃ
ÂĢ )
Ā Ĝ
R Q
K I
ÂĢ &
Ã« J
Âĸ ÂĲ
ć ÂŃ
Ã» Ãĩ
: ÂĬ
: Âļ
Ĕ ÂĨ
Ā Â¦
Â¯ Ã·
ÂĮ Âı
O Ã¹
@ Ę
Ã© J
( Â¥
ć #
) )
Ã§ Ãĸ
Ã© S
O j
d Ã¿
ğ Â¥
Âŀ )
Ã¸ T
Ã¸ S
Ãº Ãĸ
ÂĢ -
Âĳ Âľ
Ĝ ÂĮ
z U
ÂĢ Ē
ÂĢĖ ÂĬ
Ā Â«
Ã» T
m Ã¿
Ãĩ Âµ
Ā ď
Ā ;
z Q
@ Ā
Ãº V
Ã´ Ã¿
ÂĢ '
Â¤ Â¢ÂĢ
Â¢ÂĬ(ĀÂ¢ÂĬ(Ā Â¢ÂĬ(Ā
ď Ã·
ÂĢ Ĝ
- Ā
ÃĶ Ãĵ
ÂĢ ę
Ã« F
Ã¹ Ãķ
Â£ Ĕ
Â£ #
Â¢ÂĬ )
ĝ *
Âŀ Âķ
I Ã¿
O Ã®
Ā Â¥
O Ã¯
Ã´ P
Ã§ ÃĴ
ÃŃ R
Ã± Ã¿
Z J
Ã½ Ãª
z Ãĳ
Ĕ `
Ã¸ ÃĶ
Ã¸ Ãĵ
Ãµ Ãį
z Ãķ
ÂĢ "
Ā (
Ãĳ Ã¿
@ Ĝ
Ãĩ z
o Ã»
ġ ÃĹ
Ã½ Ã¶
ă Â©
Ãĭ Ã¿
ÃĲ P
Ã£ Ã¿
R P
Ā Â¸
Ã½ Ãļ
ÂĬ )
Ãº Ã´
Ãĩ Ãĸ
Ã· Â§
ÃĶ ÃĶ
Ã¾ Âº
9 4
Âĳ Âİ
Âı Ã·
Ā ÂĢ
Ā Âģ
Ĝ ÂĬ
Ğ Â¢
ĝ Â©
? Âį
Ã© P
Ā .
Ġ ÂĮ
Ğ ÂĨ
G J
i Ã¿
{ Âļ
Ã¾ b
Ãł Ã¿
Ãı Ãĸ
( Â¦
Ã£ ÃĴ
Ā ć
a E
ÃĲ S
O z
K H
ÃĲ ÃĲ
@ ĝ
Q Q
ÂĮ ÂŁ
Ãİ i
ÂĬ( Ā
} ą
e Ã¿
Ā '
ÃĶ ÃĴ
Ã· Â¦
8 4
ÂĮ ğ
ÂĢ ė
ÃĶ ÃĲ
Ã£ Ãĸ
q Ã¾
Ā Ę
O E
ć ę
Ã¥ F
ÃĲ Ãĵ
ÃĨ i
Ã³ Ãį
G Ã¿
Ā ÂĴ
Â¨ Â¤
Â£ '
a Ã¿
ÃĶ Ã¿
ÂĢ ē
Ã¸ Ã¿
ă ă
Ã¾ f
Ãĩ ÃĴ
Ã· Â¤
Ã² Ã¿
ÃĲ Ã¿
# #
ÂĬ @
G Z
Ā _
Ā [
Ã¯ R
Ã» ÃĨ
ÂĤ ÂĬ(
s N
ć ĝ
Âį Â£
Âģ Âİ
Â¿ Â¥
( Â¨
ÃŃ Q
ġ Â¸
ÃĨ q
Â¢ ÂĽ
i h
Ãĩ Ã¼
Ã» ÃŁ
Ā Â¬
Ą `
ÂĢ Ę
Ãİ q
Ã½ k
Â¿ *
Ã£ Ãŀ
Ā Â©
O Ãĸ
Ãľ Ã¿
Ã§ G
o Ã¿
Ă ÂĲ
Ãģ Ã¿
b Ã¿
Ã« Ã¾
- ĀĔ
Ãµ Ã¿
Âľ Ď
Ā Âĳ
Ã© G
Âļ ÂĬ
> Â¦
ā Âģ
s H
Âİ }
Ãº Ã¿
ÂĢ Ě
ă $
Ã« T
ÃĪ Ã¿
~ Ĕ
Ã½ Ã¯
O ÃĴ
Ā ę
ć ć
ă '
Ā Â»
Ā ,
Ã» ÃĤ
Ã¹ Ã¦
Ãī Ãµ
ÂĮ Âľ
Ã¯ Ã¿
ÂĢ .
Ã§ Ã¼
Âĥ Âİ
Ãģ Ã´
Ā Âķ
ÃĶ U
ÂĢ !
ĕ %
Ã¥ Ã¿
Ã½ E
Ã« G
ÂĢ ć
ÃĲ T
> ÂĨ
x Ã¿
Ã¸ Q
Ā ÂĮ
ę Ę
q N
Â© Â¨
Ãĥ Ã¿
Ã£ Ãļ
Âĸ ÂĬ
Ã¾ ÃŃ
Ãµ Ãħ
Ã´ Ãį
Ã¸ R
Âĳ ÂĮ
r i
Ã» Ãķ
ÂĢ :
s M
ă ÂĮ
Ã¾ Ãµ
Ã¯ N
Âģ Âľ
$ ÂĮ
Â¨ Â¨
Ã½ M
I Ã¶
Ã§ Âµ
Ã¸ ÃĴ
8 8
Ą Â¢
ć Â¡
Âĳ Âĥ
Ĕ Ĉ
Ā Â§
ÂĢ ď
G z
Ãı ÃĴ
Ã½ ÃŁ
ÂĢ Ĕ
ć =
Ã¤ g
Ã» Ã¦
N i
Ď )
Âµ Ã¿
G j
Ā Âľ
s R
Ã» P
Âİ *
g Ã¿
Ď :
Ãĩ Ã¥
Ã· Â¨
@ ă
ÂĬ \
ć '
Ã§ F
ę Â¦
Ãł g
Q U
Ã¸ U
Ã§ Ãŀ
ÃĽ Ã¿
W Ã»
Â¢ Âģ
Â¨ ă
Âĥ Âľ
Ã´ Ãħ
@ ā
ÃŃ N
O Âµ
Ã· Âı
Ã¸ Ãķ
Ã£ Ã¾
( Ę
s Ã¾
Ã© Ã¾
9 9
Â¤ ă
ÃĲ ÃĴ
Ã¼ Ã±
q R
Ĝ Âİ
Â£ ÂŁ
Ã¤ S
Ã¼ Ãµ
ą Â¢Âĵ
{ Ě
Â§ Ã·
F E
Ã³ Ã¿
Â¨ Â¦
y Ã¿
Ã¤ c
Âļ ÂĴ
ć <
A Ã¿
O ÃĬ
Ã¹ Ã¿
ÃĨ s
Â© (
Ãº Ã¦
ę ę
Ą Ğ
ÂĮ ÂĬ
ÂĢ Đ
ă Âľ
ă <
A ÃĪ
Ã¨ Ã¿
Ā ÂĿ
Ã« W
R y
ġ Â»
Âĳ Âŀ
Âĵ Âİ
Âµ E
ę Ĕ
ě Âĩ
ÃŃ Ã¿
Ā Â¨
Ã¤ P
p i
Ã» S
F q
Â¿ :
ÃŃ M
o ÃĬ
Ãİ j
ę Â¤
Âĥ ÂĮ
ÂĲ ď
ă Ĝ
2 3
Ã« Ã¿
: ÂĬĀ
Ã¼ Ã²
Ã£ Âµ
Ę Â§
Âĥ Âŀ
ÂĴ ġ
Ã¼ Ã¿
p q
Âĵ ÂĮ
Âģ ÂĮ
Ãİ s
$ `
ć Ĕ
Ãĩ Ã»
Â¥ Â¦
u Ã¿
Ã¸ Ãĳ
ÃĻ Ã¿
Â© Â©
ă Âİ
ă Âŀ
Q P
Z C
Âĵ Âľ
O Ã¿
9 8
Â¿ ÂŃ
Ã® i
Ã¡ Ã¿
E Ã¿
Â£ ć
ÃĲ ÃĶ
ă Âļ
o Ãİ
Q Ã¿
q M
q H
s Ãĵ
' '
ÃĪ Ãģ
Ã· Â¥
K Ã¿
Ã¤ T
Âľ Âľ
ÂĤ ď
X Ã¿
Ĝ Ď
j J
C Ã¿
ÃŁ Ãŀ
t Ã¿
Ã¡ G
s L
Ā Âĵ
Ā Â±
> ÂĤ
Ã¯ S
Ã¤ Ãĵ
ÃŃ V
Â¥Â¢ÂĢ ē
Ã© T
Ġ c
Âİ Âķ
Âº Ã¿
s Ãĸ
O Ã³
Â¢ Âĺ
Q T
Ã¾ Ã¯
Âĥ Âĳ
Ã¼ Ã»
q Ãĵ
k Ã¿
ć Ę
i i
@ ě
Ā ē
Ă ÂĴ
Ĝ Ĝ
ÃĪ Ãĩ
Ã® h
ÃŃ L
Â¢ ÂĻ
Ã¤ Ã£
{ ÂĬ
Q Ã¶
q Ãį
ÃŃ H
q Ãħ
ÂĢ ā
ÂĢ Ğ
Ĕ }
Â¥ Â¨
Ġ Âİ
ÃĶ Ãĳ
Ď ď
# Ĝ
Â© *
Âĵ Âŀ
Ã« Z
\ ġ
Ā %Ĕ
q L
ÃŃ P
q ÃĴ
) (
Âģ Âģ
j Z
o Ã®
Â¢ Â«
Ã¾ F
Ā @
Ã» ÃĴ
Ãł c
- !
Ãĵ Ã¿
$ Ď
o Ã¯
2 1
ÂĮ Ĝ
Ã© W
ć Ĝ
Ã» R
Ā Â¡
Ã© Ã¿
Ġ Ã¿
# Ą
Ãħ Ã¿
H Ãĩ
Ġ Ĝ
s ÃĴ
Âŀ *
Â§ ÂŃ
q Ãµ
O Ãµ
Ã© E
Ã½ Ãĥ
Ā /
Ãł Ã£
ÂĬ `
q Ãĸ
Ã· Â«
ÂĻ Â£
F A
I Ã¦
ÃĲ R
$ ÂĴ
ÃĨ j
ć Ą
Ã¯ M
Ã¯ Q
Ġ Ã¤
Ã» Ãĵ
r j
Ā %
Ė ÂĬ
Ãī Ã´
Ãĩ Ã¾
ÃĨ y
Ã© Ãħ
ĝ ą
Ã» Ã¿
Ãł T
ę #
d g
Ā "
@ Ą
Ã© Ãį
Ã¯ H
q Ãĩ
ÂĢ Ď
O Ã²
Ã¤ Ã§
Ę #
Âľ Âŀ
} Â¨
Â§ Â¥
q Ãı
Ā ÂĦ
Ā $
Âģ Âŀ
Âĳ Âĳ
r G
Ã¯ L
p j
Ă ÂĮ
p G
I ÃĢ
z Ã¿
F O
Âĳ Âı
Ā Ĉ
Ãı Ã¾
Âĥ Âļ
Ġ Ã§
Ā Â¤
Ã· Â£
Âĵ Âĵ
ÃŁ Ã¾
Ã« E
ă #
H Ãģ
ÃŁ Ã²
Ã¬ i
ÃĲ Q
( Â¸
Ã½ Ã±
Ã¯ Ã¾
ÂĲ :
$ Âŀ
Â¨ Â£
ÂŁ Âĺ
Ĕ ÂĶ
ă ÂĬ
Ãĩ Ã²
Ã© Z
Â¢ Âļ
Ã¬ h
Ã¯ V
s Ãħ
ÃŃ S
Ã¶ Ã¿
= Âį
r O
d P
Ĝ Âľ
s Ãį
Ġ Ã£
ÃĪ Ãı
Ą ÂĶ
Ĝ Âŀ
= ć
Ġ g
Â¢ ÂĿ
Ġ `
Ġ Ã´
ÂĮ Ď
Ã© Y
Ã¶ Âª
T Ã¿
Ğ Â¦
ÂĢ Ć
Ã« Ãħ
ÂŁ Âķ
? Â»
Âģ Âĵ
Ã§ Ã¾
@ ğ
= ď
s K
ę $
Âĳ ÂĬ
' Âļ
Ã» Ã¨
o Ãµ
Âı Âĺ
q Q
ÂĲ Ď
Â¨ Â¥
Ãł S
Ã« Ãį
s J
A Ãģ
Ãİ O
ÃŁ J
Â¤ Ă
ÃĨ G
Ã¤ R
Ĝ Âļ
Ą ÂĮ
Ã£ Ã¦
Ġ Ğ
= Â¨
ę '
Âľ ÂĮ
Ã¥ N
Âĥ ÂĬ
Ã¤ ÃĶ
ĕ Ĝ
Ã° Ã¿
Ã½ s
E E
Ę Â©
Ã¤ ÃĲ
ÂĤ Ĉ
ĕ Ĕ
s Ãµ
Ãł Ã§
ă Ĕ
Ãĩ ÃĮ
Âİ :
Ę Â¦
Ã¥ O
c Ãľ
Âı ÂĽ
r I
Ã½ Ã°
Ĝ Ğ
_ Â¥
ă ĝ
Ãº Ãµ
ÂĢ Ā
Ãī Ãı
# ĝ
ÃĴ ÃĴ
Â¨ Â§
r y
ÃĪ Ãİ
Ãī Ãĩ
Âļ @
G Ã§
Ã½ Ã¦
Ã¼ Ã«
ÃŁ Z
Ã¼ Ã¶
r z
g Ãļ
Ã¯ Âª
ÃĢ Ã£
Â© #
Ã½ Ãģ
w Ã¿
Ã¯ U
o Âº
Ď ÂĶ
Q N
ÃĢ Ã§
ÃŃ K
F Ãĳ
Ãł Ãĵ
Ã· Âĩ
Ã½ t
Ę Â¤
Ã» ÃĲ
ÃŃ U
ÃĪ ÃĪ
Ā Ē
s Q
ă Â¥
Ã¯ P
ÂĬ ÂĬ
ę ĝ
Ã« ÃĴ
ÂĮ Âİ
Ă Â£
ć Â¯
Ĝ `
Â¢ Â¢
$ Âľ
} Âį
Ã¹ V
o j
Ġ u
Ã§ Ã¦
q V
ÃĲ Ãķ
Ãģ Ãµ
8 5
Ď *
Ę Â¥
Âį Â§
Ā Ć
q Ã´
Ã£ Ã½
ÃĲ U
ÂĮ Âŀ
ÃĽ Ã¾
C Ã¾
Âĥ Âĥ
q K
Ã® j
s V
) Â»
) ÂĴ
Ãł P
ě Âı
Âİ ď
Ãİ h
Ãį Ã¿
Ã¤ ÃĴ
Âĳ @
Ã¤ d
Ă Âļ
ĕ ^
H ÃĪ
ÃĨ x
Z Z
N h
Ã» U
Â´ ÂĶ
; Âı
F F
ă ÂŃ
" ÂĲ
Âľ Ĝ
ÂĢ (
ÂĤ )
Âģ Âļ
> ÂĻ
Ē ÂĬ
O S
s Ãĩ
$ Âİ
ÃĢ Ãı
(Â¢ÂĬĀ(Â¢ÂĬĀ(Â¢ÂĬĀ(Â¢ÂĬĀ(Â¢ÂĬĀ(Â¢ÂĬĀ(Â¢ÂĬĀ(Â¢ÂĬĀ(Â¢ÂĬĀ(Â¢ÂĬĀ(Â¢ÂĬĀ(Â¢ÂĬĀ(Â¢ÂĬĀ(Â¢ÂĬĀ(Â¢ÂĬĀ(Â¢ÂĬĀ (Â¢ÂĬĀ(Â¢ÂĬĀ(Â¢ÂĬĀ(Â¢ÂĬĀ(Â¢ÂĬĀ(Â¢ÂĬĀ(Â¢ÂĬĀ(Â¢ÂĬĀ(Â¢ÂĬĀ(Â¢ÂĬĀ(Â¢ÂĬĀ(Â¢ÂĬĀ(Â¢ÂĬĀ(Â¢ÂĬĀ(Â¢ÂĬĀ(Â¢ÂĬĀ
ă ę
Ġ đ
G Âµ
ÃŁ t
# ć
< ÂĬ
ÂĲ Ć
Ã¯ J
s I
o J
ÂĮ {
Â© Â¦
Ãĳ Ã¶
} Ĕ
s Ãı
ÂĢ /
Ã¬ j
Â© Â§
Ĝ đ
Ã£ Ã²
Ą Âİ
Âľ ÂŁ
ÂĮ `
' ĝ
Ġ Ãł
Â¢ Âĭ
Âģ ÂĬ
o Z
ÃĨ h
ĕ $
G Ã³
ÃĢ Ã¿
Ã¼ Ãĩ
G ÃĴ
Ã² Ãĵ
Â¢ Âİ
ĕ =
G Ãļ
Ã³ Ã¾
Â° \
Âĳ Âļ
Âģ @
ę ć
ā =
M Ã¿
H Ãı
ÃĨ O
d c
Âĳ ÂĤ
ÃĶ Ãĸ
Â§ Ĕ
2 0
Ãģ Ãĩ
Ã¹ Ã¨
ÂĲ ġ
Ĝ Âĥ
q J
* ?
Ã» D
Ã¢ Ã¿
S Ã¿
Âľ Âİ
ā Âĵ
ğ Âĺ
Ę `
Ć )
G Ã¼
S ÃĶ
Ā (Â¢ÂĬĀ
ĕ -
ÃĪ Ãħ
Âı ÂĶ
Ãĭ Ã¾
N j
ÂĮ Ě
s ÃŃ
9 5
> Â£
T P
Ã¯ K
ÃĢ Ãĩ
Âľ `
Ãı Ã¡
F Ã¡
Ãı Ã¼
Â¤ Ą
Ãı ÃĮ
ġ ÂŁ
# ę
I Ãī
ÂĴ ÂĬ
Ĝ ÂŁ
) ā
Â¤ Â¨
$ Âĵ
Ãľ T
Â© <
t P
q I
Ã½ Ã¿
Ãł d
Ã£ Ã¥
p A
$ Âĳ
ă Âĵ
Âľ Ğ
Ãİ x
) Ā
Ãı Ã¹
O A
O Ã¥
h Ã´
ÂĢ đ
Âı Â´
Q R
Âļ `
ÃĶ V
ÂĴ ď
Ã¤ u
Ãª k
i Ã´
(Â¢ ÂĲ
Ãľ ÃĴ
~ ÂĤ
Â¤ ā
Ã¤ Ã³
p Ã¿
[ ġ
ÃĿ Ã¿
ÃĹ ÂĬ
ÂĤ :
Ę Ğ
Ãİ y
ÂĮ Ğ
Ã½ Ãķ
Ãŀ ÃĶ
ę Â§
; ÂĬ
Ã¤ Ãµ
Ãĥ Ã¾
? Â¸
s O
Â· Ã·
S Q
Ã§ Ã²
Ãĳ L
ă ÂŁ
Ã« Y
) ÂĪ
Ĉ =
G Ã²
Ãī Ã¾
F j
* ď
_ ÂŃ
ć Â¨
@ =
* ÂĮ
? Âĺ
H c
ÃŃ I
Âģ Âı
d R
ÃŁ B
ÃĹ Âļ
Â© Ę
# <
ÂĮ ġ
Ã® Ã¿
N O
Âª Ã¿
Â± ġ
ÂŃ ę
Âı -
Ã¬ Ã¿
ć ?
Ãı Ã§
H Ãİ
0 1
Ãĩ Ã³
Â¨ Â®
Â· ğ
Ă Âľ
ÃŁ ÃĿ
R Ã¢
r q
p z
Ã§ Ã¥
Ã¹ Ãĸ
p O
Ă Â«
Ĝ ğ
Ã½ Ãħ
T m
Ą Âŀ
Âĳ ÂŁ
Ã¤ U
Ãľ Ãĵ
ÃĢ ÃĢ
Â¦ !
Ãł ÃĶ
ÃĴ Âª
Ã¤ Ã´
v Ã¿
Ã¼ z
Ãı Ã¥
ÂĴ }
# '
* )
= :
I Q
H Ã¿
Ã§ Ã³
5 5
Â© Â¤
Â© ÂŃ
N Ã´
# Ę
# ğ
ć $
Ã« Ãĸ
ć Â§
ÃĪ Ãį
ę <
Ãľ S
ă &
Ğ Â£
ÃŃ J
Â© $
Ãģ Ãı
H ÃĢ
Âĳ ÂĲ
A Ãĩ
L ÃĴ
Ġ d
Ãİ G
Âį Ā
(Â¢ÂĬĀ(Â¢ÂĬĀ(Â¢ÂĬĀ(Â¢ÂĬĀ (Â¢ÂĬĀ
Ã¤ t
I Ã¥
Ãł u
Ā Â·
h Ãľ
q Ãļ
q U
ÃĽ Ã³
ę Ą
ă Âģ
ă Ę
Ã¯ O
( Â§
2 9
m Ãĩ
Ã» Q
ÂĲ Ĉ
q F
Ă ď
Â« Ĕ
r s
~ ĕ
d z
ę ?
ÂĢ ĕ
' $
ÃĶ QE
p s
ġ Â´
ā Ę
) <
ÂĴ ÂĬĀ
ÂĴ @
l c
q O
ÂĿ Â£
ÂĴ ć
Ă Âĵ
Âİ =
S M
) ÂĢ
Ã¾ Ãª
Ā Âĥ
H Ã£
R T
Ą Â´
Ã· Ĕ
ă Âı
Ã½ Ã¥
Ã¼ Ã¼
ÃĢ Ãī
Ď Ĉ
ÃŃ O
" ÂĮ
ÂĴ Ć
ÃŁ Ã±
0 9
ÂĬ Â¯
Âľ ď
# ÂĮ
A Ãı
ć Âļ
ÂĬ }
ě ÂĨ
A Ã¶
( ę
Ã½ Âª
Ă Â¤
G ÃĻ
L Ãĳ
Ã³ Ãħ
4 Â¹
F Ãľ
0 3
Ĝ Âı
Ã© Ãĸ
Ãİ z
Ã© ÃĴ
q Ãĺ
Â¢ ÂŁ
Ãĵ Ã¼
Ãī Ãī
Ĝ ā
ă ğ
0 8
r h
Ā Â£
Âĵ Âģ
N I
# =
Ġ ğ
ā '
Â¢ ÂĮ
? /
Ãł ÃĲ
N G
Ãł R
v Ã£
f Ã¿
\ ,
ę Â¥
Ã½ Ãĸ
ć ğ
Â¨ Â©
Âı ÂĹ
Ę Ę
ÃĨ z
Âľ Âļ
Â¡ Â§
G Ã¾
ÃĪ Ã£
ÂĲ }
Ĕ ÂĦ
Â¢ Â¡
> Âĺ
Ãı Ã³
Â£ Âļ
ÃĨ I
ă Â·
Ā ÂĬ
Ã³ ÃĴ
ÂŁ ÂĿ
Â® ġ
Âİ ć
Ãĩ Ãŀ
T d
Ãĩ ÃĬ
h Ã»
Ĝ {
Ĕ Âŀ
Ã» Ãĭ
h Ã¿
c Ãŀ
Ę Ã·
p x
F s
Q J
Âĵ ÂŁ
Âĳ ÃĹ
p Ãµ
Âĳ Âģ
ġ Â«
: Ě
Ã» Ã«
ÃĪ Âª
< Ě
p y
O ÃĮ
Ã¾ Ã³
q Ãī
ÂĬ Ć
O Ãİ
@ #
F y
Ãĵ Ãĸ
ć Ã·
l Ã¿
c Ã³
Â© Â£
Ãµ Ã¨
ÃŁ Ã¿
Ã´ S
ă =
ÂĢ ;
ÂĬ Âİ
Â¤ `
Â¥ Ĕ
Ã¦ Ã¿
Ãµ Ã©
, ė
Ãł t
r Ã¿
ę =
Ā Â¶
r x
Âĵ Âļ
p h
Ã¯ I
r H
Ę ğ
Ġ Ď
ÂŁ ÂĶ
Ãª ÃŁ
ÂĴ )
O Ã§
Âľ ā
Ę ĝ
ÂĬ Âĸ
Âľ Ě
Ã¥ H
ÂĬ Â±
ā ĝ
Q O
ÂĹ Ĕ
s S
ę ĕ
Ã³ S
ÂĻ $
G Ã»
Ãł ÃĴ
K Ã¶
Q Y
q S
Â¤ Âİ
ā $
Ã¡ N
Ãı Ã£
q ÃĪ
Â¦ Âļ
^ ÂĶ
Ã¾ Ãł
ę Ĝ
Ã¥ I
Ĕ ġ
} ć
ÂĴ :
Ãħ I
Ãł U
Ãļ Ã¿
Ãĵ Ã¾
ÃĢ Ãµ
ÃŁ F
ă Âĥ
Ġ ā
Ã² Âª
Ę Â¨
g Ãĺ
ą -
Âĩ Â¥
ă Ğ
Ĝ ď
Ã¹ G
Ĕ ÂĮ
Ãģ Ãģ
F x
Âľ ġ
Ãľ ÃĲ
Âİ ġ
Â® ?
s U
Ã¨ ÃŁ
" ÂĢ
Â¢ Â©
Ã³ c
' =
X d
r Ãĩ
F M
ÂĮ Âļ
ġ Âĺ
Ć ÂĿ
Â¸ Â§
Âŀ :
q Ãŀ
q Ã²
Ă Âĺ
^ Â´
ÃĢ Ãį
Â¤ đ
Ā ÂĤ
Â¦ "
# Âļ
Ãı Ã»
Âľ đ
Ġ Ãµ
z g
: ÂĢ
. ?
Ã¾ A
Ĕ Âĺ
Ā Âī
Ă Ĉ
ÂĨ Ę
( Đ
ÃĦ Ã¿
s Ãļ
? ÂĻ
Ĝ Âĵ
Q p
Â¢ Âĸ
Ă ÂĿ
Â« ġ
q P
Â¤ ÂĴ
X Ã£
Ãľ P
Ā: ÂĬ
Ġ Đ
Âģ ÃĹ
' <
ÃĨ N
Ã¼ M
Ā ÂĶ
Q V
Ã« Ãĵ
R I
Ã§ Ã°
ġ !
ă Â¯
ÂŃ ě
Ãī Ã¦
R Ãĵ
Q G
A Ã¾
Q F
Â¥ ě
Ď ć
r F
Âŀ Â£
Ã¹ Ã¤
w c
Âľ ğ
# $
Âİ ?
Ą Đ
r N
p H
Ã§ Ã½
Â© ę
Y Ã¿
ď Âĺ
Â¨ ÂŃ
Âļ Âĸ
ÂĮ đ
J u
ğ /
Âĵ ÂĬ
' ę
Âĥ ÂŁ
Ď Â´
( ĝ
ă Âĳ
Ć :
Âĸ =
ğ )
Âľ ÂĬ
Ã» Âµ
ć ĕ
Â® )
A Ãµ
(Â¢ÂĬĀ(Â¢ÂĬĀ(Â¢ÂĬĀ(Â¢ÂĬĀ (Â¢ÂĬĀ(Â¢ÂĬĀ
Ã» Ãª
l g
ā Âİ
L c
q Ã³
ÂĴ ÂĢ
Ã¾ Ã¢
@ $
Âĵ Âı
Ãı ÃĬ
ÃĪ Ã§
ÃŁ T
Ğ Âĩ
ÃŃ F
h Ã²
Ãł Ã´
Âį Â¸
~ \
ÂĮ }
Ã· ĕ
Ã¯ T
s Ã´
ě Â±
z V
I Ã§
Ãĩ Ã§
Ã» Ãĳ
Ãł Ãµ
Â¢ÂĬĀ (Â¢ÂĬĀ
Ã¶ Ãħ
ÃĹ Ĕ
p Ãĥ
v Ã§
Â© Â«
Ã¤ Ãķ
Ą {
Ã£ Ã®
Âŀ Â§
# Âĳ
ÃĲ Ãĳ
Ãı Ãŀ
Ē ġ
' Ę
Â© Â¥
Â¦ )
Z Ã¿
Ã¾ Ã´
Â© ?
' ÂŃ
Ãĩ Ã£
Q KE
ÃĨ F
ÂĴ Â£
H Ãī
q Ãģ
Ãĳ U
Ğ Âĥ
ÂĴ =
Ą Âĳ
> \
Ã³ Ãī
Â¸ Â¦
ÂĿ Â§
Âį Ã·
Ã½ ÃĨ
z Ã±
ÂĬ <
> ÂĢ
R Ã¿
2 8
Ã³ Ãļ
Ã¾ Ã¡
P I
Ã£ Ã¼
s Ãŀ
ÂĢ ą
P Ã¿
$ đ
> ÂĬĀ
ÂĲ Â£
) ę
Â¨ Â«
Ã¹ W
ÃĪ ÃĢ
ĕ ĕ
? ÂĪ
' Âĸ
h Ã³
Â¡ Â¦
Âĥ Âı
ÃĶ f
Âļ \
Â¥ -
Ã¾ Ã²
ăÂ¨ Â¦
Âķ #
z c
L Ã¿
Ãı C
Ĕ ÂĽ
Â¤ ÂĮ
Ą ğ
S Ã¨
Ãĳ H
Âĳ Â·
ÂĴ Ĉ
Ã¶ Ãį
ÂĤ =
ÃĹ ?
p N
Âŀ ÂĿ
Âĺ Â£
Ãı N
Ãª M
Ã£ Ã³
Ā ÂĹ
Q Ã½
Ã§ Ã±
q ÃĽ
Ãĸ Âª
Ġ Âı
> Âĩ
Ã» Ã¢
Ãĩ ÃĿ
Âļ Â±
ÂĴ ;
Ã· ġ
ā Âı
ÂŃ !
Ãĳ Q
q ÃĢ
Ď Ď
Ã¸ Ãµ
ā @
Ã© A
X Ã¤
( $
Ãľ ÃĶ
S Ã¾
Â¢ÂĬ( ă
~ Â¦
G E
Ã» Ãį
R H
Â« Ė
Â¡ Â©
? Â´
Â« đ
? )
' Â¥
> Â§
ĕ #
Ĝ ē
h ÃĽ
z u
Ãĵ ÃĴ
} ġ
Â¨ $
V Ã¿
Â¸ Â¤
( Â£
ÂĤ ;
c Ã²
* ě
c Ãļ
Ā ÂĨ
Ã³ Ãĸ
Ãº Ã¢
ą Â¤
# Âİ
Âį Â¤
2 2
j Ãħ
I Ã¤
ć ă
Ãĩ N
Ę <
Ġ Âĥ
Ĝ ~
ġ #
Ā Âļ
ā Ą
Ġ ÂĲ
Ãı Ã²
W Ã²
ÂŁ ÂĹ
ÂĢ =
Ę ă
} +
Ã· Âį
Ā Ą
Âľ Âı
Ã· ğ
z Ã£
s Ã²
* +
Ãī ÃĢ
@ \
Ãľ R
Ã§ Ã´
ÃĨ A
ĕ ,
Ĝ Âĳ
Ğ Â§
Ãº f
Ġ Âĳ
" Âĵ
& ÂĲ
Â¦ Â·
Â¢ Âĳ
Ă Âĸ
S ÃĲ
Ġ Âŀ
Ãħ H
> Âĥ
O Ã±
{ ġ
F Ã£
| Â§
ĕ ě
Ãħ X
Ĝ ÂĴ
ā ć
ę Â£
s Ã³
Ĝ ġ
Ã´ Ã¢
c Ã¼
Ãª Ã¿
ÂĻ Ĕ
ÂĢ }
Â¸ Â¥
c Âµ
Ãı L
S I
E V
Â» Âı
Ă Â¬
Ã· ?
z b
O Ãŀ
# Â¥
ÂĮ ā
= ?
Ġ Ē
Ãķ Ã¿
ÂĮ ~
i ÃĶ
Q ÃĶ
Â¦ ā
Âļ Âļ
ÃĨ H
d Ã£
Â¢ÂĬ(ĀÂ¢ÂĬ(ĀÂ¢ÂĬ(ĀÂ¢ÂĬ(Ā Â¢ÂĬ(Ā
ĕ Ą
R G
Ã¾ Ãĳ
P H
d S
Ã³ H
Ã³ Ãĳ
Â¸ Â©
ę Â¨
Ã¤ Ã±
' Âĵ
Ãł Ã±
Ã´ Ã¦
ÂĬ Ą
p F
Ã£ Ãµ
Â¢ Âı
Âĥ ÃĹ
Ãł Ãķ
` Ĕ
s Ãī
ÂĻ Â¤
Â¯ Â¥
) $
r ÃĦ
} ?
" ÂĿ
) Ę
Ď =
ÂĬ .
Âķ $
Âľ ~
Ĝ Âģ
ÂŁ ÂĽ
Ãĵ Ãµ
q ÃĨ
? .
Ă Âģ
T Ãµ
ĕ ĝ
` ā
Â® *
# Ĕ
ğ ÂĹ
Ă Â¡
ÃĴ y
d Q
Ą ~
< Âļ
- ĕ
" Âĸ
N y
Â¬ ġ
ÂĢ Ĉ
Ãĳ Ã½
Ć Ĕ
S H
Ãĩ Ã¦
z Ãĸ
F Ãļ
Ã¼ x
R ÃĶ
Ã§ Ãµ
Ãĩ Ã¡
Ãģ ÃĪ
ć ÂĬ
ÂŃ :
# Âŀ
Â¸ ?
O C
| Â£
Â¦ ă
O P
Â¢ Âľ
Ã¾ Ãį
Ãº b
Ãı ÃĿ
Âĺ ÂŁ
Ãĵ Ã´
Âĥ ÂĲ
Ā ĚĀ
" Âı
# ÂĬ
ÃĴ ÃĲ
# Â¡
Ć ÂĲ
Ġ Ã²
ÂĢĖ ÂĬ(
% ĔĀ
Ãİ I
Ãİ p
Ã¨ k
Â« Đ
F Ã¿
Â£ ġ
= =
Ġ Ã³
} ď
Ā ě
, ġ
Ę ?
# Âľ
ÃĢ Ãħ
A N
ÂĢ ?
Â¦ *
Ğ ÂĿ
Ã¹ Ã¢
Â© Ą
Ãĳ N
Ĕ ÂŁ
Âŀ Â¦
Ãľ c
Ã¤ f
Âĵ ÃĹ
Âļ }
Z u
Âį Âĭ
O Ã°
Ę $
Âŀ Âĩ
ĂÂĬ )
ÃĮ Ã¿
ÂĢ ă
Ď @
Ć *
' Â¯
ÃĨ r
Ď ÂĤ
Ãı Ãº
Ãĩ n
Ãı S
l Ã£
) Â¤
Âŀ ď
Ġ Ã»
h Âª
' Â©
> _
Ãľ Ã§
ğ (
Âľ {
RÃĳ E
K Q
Ġ t
; Âļ
ÂĮ ÂĴ
ÃĨ Ã¡
Â£ $
n Ã£
~ ÂĨ
Ã¾ Ã£
Ãİ Ãĳ
Ā Âĩ
ă ÃĹ
Ā +
Âģ ÂĴ
= ġ
N x
s P
z t
s F
ÃŁ Ã®
Ãĩ L
ÃŁ Ã½
Ãµ Ãµ
ÂĤ @
ÂĮ Âĥ
ÃĶ n
ÂĲ ć
Z A
e Ãľ
ę Â©
Ă Â¨
Â¤ Âĳ
Đ ď
Ãĩ Ãĭ
Ã» L
ě ÂĹ
T R
Ã¡ I
' ÂĬ
T U
Âŀ ÂĤ
X c
Z B
Ã· Â¿
Z F
Â§ ĝ
N A
H ÃĬ
Ā Â°
Âģ ÂŁ
Âľ ē
(Â¢ Âĺ
Âľ Âĥ
G Ã£
ÂĤ *
R f
Â£ >
< ÂĮ
Ã± Ã¯
đ Âİ
ą Ę
H d
Â¡ ÂĶ
Ãı A
] Â£
L Q
ď Â¡
O Ã¾
p ÃĢ
Ĕ ÂĤ
ÂĲ ā
' ă
; Âİ
ÂĲ )
Ã¼ Ãĥ
ÃŁ Ã¼
Ãħ W
" Âĺ
Âļ )
ÂĬ Â«
Ą ÂĴ
Âĳ ÂĨ
Â§ Â¡
Ã´ QE
Ãĩ Ã¹
> ^
ā %
Ġ P
Ã¹ O
Â¦ ą
Ã» B
Q Ã¦
G Ã¦
Ã½ Ãŀ
ÃĶ b
Âĸ ?
Ã» ÃŃ
G C
F H
Ã« A
ĕ ę
M Ãĥ
y c
Â® :
Â¢ ÂĹ
Âĳ Âĵ
Ãĩ Ãº
Ć ą
p r
Ą Ă
R n
Ã¥ V
Ã² ÃĽ
" Âľ
ÂĲ {
Âī $
Ą Ĕ
w Ãµ
d b
= Ĉ
" ÂĴ
Ę Â£
Âļ <
Ġ ē
Âķ Ĝ
Ď ġ
Ã² Ã£
H b
Âŀ Âĥ
\ ÂŁ
Ãħ K
ÃŁ Ãª
p I
Ã³ Ãŀ
C Ã¶
Â¨ Â¬
ÃĦ c
Ă ÂĻ
Ã© Ãŀ
Ãģ Ã¾
R b
Ãľ U
R F
(Â¢ Âģ
< ÂŁ
Ď ;
h Ãī
* @
C ÃĴ
ā ÂĬ
Ã² Ãĩ
Â« Â´
Â¢ ÂĶ
ĝ (
Â· ?
Âĥ @
Â¢ Â¤
Âŀ ÂĻ
' ğ
Âļ ġ
Ã£ Ã±
ÃĢ Âª
# Ć
> ÂĿ
ÃŃ W
# ?
$ ÂŁ
Âİ ;
T g
' ?
ÃŃ Ãį
Ã² i
ć Â©
Â¹ 8
z Ã§
Â¢ÂĬ(ĀÂ¢ÂĬ(ĀÂ¢ÂĬ(ĀÂ¢ÂĬ(ĀÂ¢ÂĬ(ĀÂ¢ÂĬ(ĀÂ¢ÂĬ(ĀÂ¢ÂĬ(Ā Â¢ÂĬ(ĀÂ¢ÂĬ(ĀÂ¢ÂĬ(ĀÂ¢ÂĬ(ĀÂ¢ÂĬ(ĀÂ¢ÂĬ(ĀÂ¢ÂĬ(ĀÂ¢ÂĬ(Ā
Âİ ÂĿ
~ ÂŁ
ÂĤ ā
Âŀ ?
Ã¹ Ã¶
Ãı Ãµ
C E
. ġ
F N
Â´ ÂĨ
Ã» Ã¤
G Ãĸ
P ÃĬ
ę ğ
- Â¿
Ĕ ÂĴ
Â¦ Ă
Â§ ĕ
ÃŁ ÃĴ
z f
Ã¥ U
Ã¥ A
Âľ Âĵ
ÂĬ ÂŃ
d Ã§
đ Âĳ
s ÃĽ
E U
Ã¤ b
ğ ÂĻ
H ÃĨ
E R
Â¢ Âķ
ă ÂĤ
O Q
Ã¥ R
g Ã¼
` Ď
ă Ā
Ã½ Ã©
h Ã¾
Â¢ÂĢ ě
Âİ ą
r M
Ą Ĝ
ÂĬ ÂĨ
Ãł f
Ă ÂĶ
đ ÂĲ
* Â¬
ÃĪ ÃĽ
z Ã¢
Âģ Âĳ
D Ã¿
ÃŃ E
Ã¾ Ã¿
Ãµ Ã¢
ÂĮ ē
Â¤ ÂĬ
Âĭ ą
} Â¢
Ã¬ Ãĳ
q Ãİ
Âŀ Â¿
b I
Â¸ ğ
Â¥ [
Ĕ Ē
Â¯ ÂŃ
O Ã¡
$ ÂĲ
i Ãĺ
d t
Âİ Ĉ
Ā ė
Âķ ę
= }
ā <
# Â¨
Ãĵ Ãļ
T c
ÂĮ Âĵ
Ãī Ã¹
Â£ ğ
* [
j Ã¿
Â£ Ğ
ÂĬ Âŀ
w g
Â¢ÂĬ(ĀÂ¢ÂĬ(ĀÂ¢ÂĬ(ĀÂ¢ÂĬ(Ā Â¢ÂĬ(ĀÂ¢ÂĬ(Ā
Ã¼ Ã°
Âĩ ÂŃ
S L
' Ĕ
Ď }
| Â¿
N H
m ÃĢ
s ÃĪ
ă ÂĲ
Đ Ĉ
ÃĨ Ãĳ
m Ãľ
r A
O ÃĿ
> `
Âī ?
C Ã¼
Âİ @
Ãį I
K Ã¦
Âµ I
V h
Ãİ A
# ĕ
j j
R R
ÃĽ Ã²
; Âģ
Ã¹ Ãª
Ą Ē
Ãµ Ãª
T Ã´
ÂĬ *
Ãĺ Ãĵ
Ă Âĳ
Ãħ F
Ãĩ Ãµ
ÂĴ {
Ã³ N
- Â´
$ ā
E W
j Ãį
H Ã¤
Â¤ ą
Ãŀ Ã¿
d Ãº
Ãĩ Ãį
Â¹ 4
Ã§ Ã®
Â¨ ġ
ÂĴ ?
' Âľ
d u
c Ã¾
$ ğ
ÃĴ Ã¿
G ÃĮ
Ĕ Â´Ā
; ÂĪ
ÃĨ Ã¬
Ă ÂĽ
Ĝ Â±
Â½ 1
' Âĺ
U Ãļ
Ã© Ãļ
Ĝ }
+ ÂĮ
L ÃĲ
Âŀ ÂŁ
Ã¯ F
Â¦ Âĺ
q Ãľ
ę Ğ
J d
ÂĹ ğ
& Âĺ
n Ã¿
' Â§
Ãł z
H ÃĽ
Âį Âĥ
Â¦ Ą
Ã· ď
ă Â§
+ Âİ
ě Âī
* *
ÃĶ Ãµ
" Âķ
F r
Ã« Ã½
l Ã§
p Ãĩ
N N
; Âĩ
Ã¥ M
ě ÂĪ
/ Âĸ
Âı ,
s G
& Âļ
Â¦ Âĵ
K Ã¾
Â¦ Â¨
Â¹ 9
Ã¸ Ã¶
Ãĺ S
t Q
Ãī Ã§
> ÂŁ
ā ę
ě Âİ
Ãľ g
ą Â¢ÂĴ
Â¸ Â¨
Ę =
Ā Âĺ
+ Âľ
! Âİ
# Â¯
Â« Ē
$ Âį
(Â¢ÂĬĀ(Â¢ÂĬĀ(Â¢ÂĬĀ(Â¢ÂĬĀ (Â¢ÂĬĀ(Â¢ÂĬĀ(Â¢ÂĬĀ
T r
ď ÂĶ
ÃĶ m
Ãĵ Âµ
x Ã£
Ã¡ H
Ď ?
j z
Ġ Âľ
Q Ãį
Ãľ Ãĳ
Âŀ Âĺ
) Âģ
R Ã¹
Ã¾ Ã½
) Ĉ
ā Âļ
ÂĬ >
ÃĪ P
ÃĹ ğ
q ÃĲ
Â¦ ÂĲ
Ć =
N Ã¢
Ã¨ Âª
' Ĝ
Âĸ Âĳ
F Ã»
ć Â¿
Ãħ G
W h
R A
Âİ Â£
P Ãĥ
Âļ ?
# ÂŃ
Â¸ `
* }
# Âı
Â¦ ÂĽ
> Â¿
Ãĵ Ã¨
Ãľ Ã£
Ã¡ E
Ã¾ ÃĶ
Ãľ F
Ĕ Âĳ
$ ġ
q Ã¼
ÃĨ E
Ãı Ã´
d V
Ā Â¢ÂĬ(Ā
Âŀ ÂĨ
L g
Â» Âİ
Â§ `
Ã¾Ã¨ Ã¼
* /
Ãİ N
J Ã£
n i
o A
R Ãĩ
ÃĴ Ãĳ
Ã¹ Ã£
ĕ Ę
& ÂĿ
ĕ <
Â¥ Âİ
\ `
Ã»Ãĥ Ã³
đ Âľ
Âĩ Â¡
Ą Âĵ
O a
Â£ Â©
Ć }
Ć Âĺ
ġ Â¬
Q Ãħ
# ÂĲ
ÂĮ Â±
Ă `
Ã¾ Ãı
ğ Â»
Ãĺ Ã£
q E
Ã³ ÃŃ
Â¢ Â¨
) ?
) Â´
ÃĢ Ã¤
o z
o Ã¶
Ã¦ h
; Â±
" Âļ
/ Âĺ
Ă Âİ
@ ?
Ă ÂŁ
Âĸ Âĵ
Ą Âľ
ÂĬ ÂĤ
ă Â°
Ą Ď
Â¢ Âį
ÂĴ ā
K Ã¥
' Ā
Z L
Ã« Ãŀ
Ã½ Ã¢
Ã¯ Ãµ
Ã« ÃĲ
Z i
c ÃĴ
\ ď
ÂĮ Ē
Ğ Âĺ
\ Âı
c Ã¦
H Ã§
d d
= Â±
6 1
Ã¾ Ãķ
s E
R i
P y
Ą ÂĢ
; ÂĨ
Âŀ ÂĢ
Ã° Âª
ÃŃ Ãĩ
Ă Â¢
Ĕ Ď
m Ãĥ
q ÃĶ
Q ÃĴ
Ãľ Ãķ
I Ãĩ
A Ã¼
ÃĨ p
Ġ ÂĤ
@Ď Â¢ÂĽ
{ ğ
Ã« Ãļ
G ÃĬ
ÃŁ Ãĸ
c Ãĸ
z Ã¦
Ãľ o
ÂŃ +
~ _
Ã» Ã¬
J C
g Âµ
Ğ ÂĻ
Ã· ć
v Âª
Â· Â¥
$ Âı
Ã¤ Ã¤
ĕ ą
% Ā
< Â±
s Ãģ
ĝ ď
Ă Â©
( đ
V e
Ãł Ã³
Â® ď
Ãĵ Ãŀ
{ Âı
Ć Âļ
P i
Ãĺ T
Ã§ N
K M
; Ě
' Âŀ
Âİ Â§
\ ÂĮ
$ Âģ
ÂĬ ~
F X
? (
H Ãĥ
Âĳ Â¸
& Âĵ
Â© -
Ĝ Ē
Ĉ Â¤
Ã» Ã£
Âĳ ÂĢ
ÃŁ Ãļ
Ġ Ã¶
Q Z
ÂŁ Â»
$ Ē
ÃŁ ÃĬ
* Â¤
Ã¸ V
Ã· ė
ÂĽ ğ
h Ãģ
Ã¾ ÃĲ
2 6
ÃŃ Ãļ
Q Ãī
F Ãª
ÂĮ Đ
ĝ :
H e
Â© "
Ãĵ M
S ÃĴ
Âķ ć
Âĳ Â£
^ )
Ã¯ Ã¹
Âķ Ę
( Â°
Â¡ Â¤
Ć Â¤
ÂĶ `
ÃĹ Â¥
Â¢ Â¬
ÃŃ T
ā Â¸
Ãĺ ÃĶ
ę ă
ÂŃ ;
@ <
S Ã¼
q Ã©
Ġ ÂĬ
! Âī
\ ğ
Z E
Ĕ ą
ÃĪ Ã¹
A Ã´
Ã¨ E
ÃĪ Ã´
Ã¤ Ãº
ÂĮ Âģ
= +
ÂĨ Ĉ
Âľ }
m Ã£
Âİ Â¤
Ā ą
ÂĻ #
` ď
ÂĪ ġ
s Ã©
$ Ğ
Q Ãľ
p E
F Ãĵ
Ã¼ y
T u
s ÃĲ
Ĕ Â±
# Â§
Ãİ H
0 0
Ă Â§
* ;
Ãµ Ã¦
! ÂĪ
RÃĴ P
" ÂŁ
Ãģ Ãį
Âĵ @
ÂĬ Âļ
Ą ÂŁ
Â´ ÂĮ
ÃĢ Ãł
" Â¬
Âŀ ą
Ãı Ãĭ
ÃŃ Ã¾
Ãª E
Ġ Ā
~ ^
d U
Âª I
? Âĩ
Ã« B
h Ãļ
ÃĿ Ãĩ
Ãĺ P
Ã± Ã¾
ÃĮ Ãĳ
đ Âĥ
: ÂĲ
L P
ÃĢ c
Âľ Ă
S Ã³
ÂĬ Â®
m ÃĽ
Ã¯ E
Ą ġ
ÃĦ g
Âª O
s ÃĶ
# Â¸
Ã½ Ã¬
Âª Z
Ã¾ Ã¬
? {
Ã¡ M
S V
* Ĉ
Â´ ġ
S U
E Ã¶
T l
Ď {
Ę '
Ĝ Đ
ĝ Â¨
Â© )
Ãī Ãħ
Ãľ H
ĔĀ ÂĶ
ĕ ć
F p
Ę Â«
W Ã¿
ĝ Âį
Ĝ Â¨
ÃĲ Ãĸ
Ę Ā
Ā} Ě
Ġ ď
đ ġ
Ĕ ÂĻ
S P
Ĝ ÂĢ
# ă
T f
F Ã¬
J i
S N
Ã¸ Ã¹
x Ãı
t U
Â¤ ÂĲ
Ą ÂĲ
S Ã²
G Ãŀ
Ĕ Â»
< {
7 7
ÃŃ Ãĸ
Â¤ Ē
Â¢ÂĬ *
? #
ÃĪ Ãª
ÃŃ Ãħ
Ãī Ã¶
đ Âı
Ć Âķ
Ãī Ãį
Ãĩ Ã´
v Ãµ
Âĥ ÂĤ
ÂŃ *
ÃĢ Ãİ
Ĕ Â¸
Âį Â«
Ãĺ ÃĴ
ÂĮ Âĳ
Ãĺ ÃĲ
Âľ Âĳ
ÂĹ ?
ĕ \
$ ÂĬ
] Â§
N M
Âľ ÂĴ
< `
s Ã¼
) Â¦
ā Â´
ÃĪ U
7 4
S E
ě [
Â¿ Â»
Ãģ Ã£
Q Âº
Â± Â¨
) Ą
V V
" Â¤
Ġ ÂĴ
ÂĿ Â¸
Q ÃĲ
Ã¡ O
Ã³ Ãµ
Âķ ğ
ÂŃ &
r p
Ć ď
Q A
j H
! Âı
Ãī Ã£
Ã¥ P
| Â¸
Âĵ Ã·
ć Â·
s Ã«
# Â·
Ġ ă
ÂĬ ÂĮ
= Âĩ
Âŀ Â¸
! ÂĨ
d Ã³
< Âİ
Ã® Ã¾
~ Ã·
ā Ĝ
ÂĻ ?
S R
ė ğ
I Ãı
H ÃĿ
f Ãľ
d T
< ġ
. ć
g Ãŀ
G Ãį
Â½ 8
s ÃĢ
L Ãĵ
Ą Âĥ
Ã¯ Z
ÃĮ p
' Âĳ
Ã© B
Ã¤ Ãł
Âŀ ÂĦ
Â¦ ÂĴ
Â£ `
Âľ Đ
ÃĨ Ã£
$ ÂĢ
. Ė
Âļ Âİ
ĕ ğ
= (ā
. ď
Ć ?
ĝ Â¿
c Ã¥
Ć ;
Âµ b
T n
o Ã±
Â¦ Â´
ā #
ÃŃ Ãµ
Ãħ Y
Ā |Âļ
) ě
Ãİ M
X ÃĶ
Q Ãĸ
\ Âİ
Ã© Ã´
F Ãŀ
Ã§ Ã»
Ã¾ Y
ÂĻ Ę
( Â¥Â¢ÂĢ
Ġ b
G R
Ġ Ă
d f
ÂĤ ć
d Ã´
> ÂĶĀ
F z
I n
L S
Âĳ Âķ
Âŀ ġ
Âµ U
y Ãĩ
* Âĸ
ÂŃ -
ÃĨ Ãŀ
Ãİ r
) Âŀ
5 4
ÃĮ T
) ď
Ą Âģ
h Ãĺ
Ã² j
A F
ÃĪ Ã¤
Â² 1
# }
ĝ Âĩ
Ã¦ i
ă ÂĴ
* :
Ãį K
Â¦ ġ
Ã¾ Z
ÃĬ Âª
ă ?
Ãĳ M
Âŀ Âľ
Ãª O
ā ÂŁ
' ÂĮ
f Ãļ
Ã³ M
Ą Âı
Ã¢ Âª
Âĥ Ã·
Ă Âķ
Ã¹ i
& Â¬
ă ĕ
' Âİ
) #
Ã³ ÃĨ
Ã¹ q
; Âī
Ē ď
S K
Ĕ Â¬
Â£ Âı
* (
| Â¤
Ã± H
m Ãĺ
$ {
ÂĴ Ĕ
x Ãĩ
Ãī Ã¨
ÂĬ Âı
Â· Ĝ
Ã½ Ãľ
C N
Ãĭ c
= Â¿
# Ğ
; ġ
ÂĬ ÂĲ
Ãł Ãł
< Âľ
ÃĮ ÃĴ
P h
Âļ Âŀ
Âį Â¿
đ ÂĮ
Ãĳ IE
Ġ 9
) \
Ã£ M
ÃĨ M
Ã½ Ã®
Ãģ Ã§
T Ã¤
A Ãª
ÃĦ d
A Ã§
Ć Â¥
Â§ #
ÃĮ P
ÃŃ Ãı
Ġ U
v Ãľ
s Z
S Y
Ãģ Ãħ
Q Ã³
Ă :
Ĕ ÂĬ
Ĕ \
_ ġ
Â« ĕ
x Ã´
v Ã®
Ã¼ k
Âĵ ÂĴ
g Ã»
{ ÂŁ
ÃŃ Y
ā Â»
Â¸ ę
Âĸ ÂŁ
" Â£
Â´ `
Q ÃĪ
[ Â¨
ě ÂĽ
Â¦ ?
ě Âģ
o Ã°
Ã· ÂĹ
Ė ÂĬ(
' ć
Âŀ ć
Ãį M
Âª z
Âľ Â±
ÂĲ Ā
ÃŁ Ã¯
ÃĬ Ã¿
@ Â§
2 7
ă >
Ãĩ Ã½
Âİ Âĩ
Âļ Ć
Ãİ Ã¬
Â¦ ÂĿ
Ãª I
Âİ ÂĤ
w n
o Ã¾
q Ã«
Ãĳ P
ÃĨ Ãľ
Ãĥ Ãĸ
U Ã¿
Ãł Ã¤
Âŀ =
Ġ Ãĵ
Ã³ L
ÂĨ ć
ğ ÂĶ
Ã¸ Ãĸ
ÂĢ ġ
A Ã¦
6 3
% Âī
Âĸ <
! Âį
Ğ [
ÂĲ Ē
N z
Ğ ÂŁ
i X
Ãº d
Ãº Ã¾
ÂĢ {
ě }
đ ÂĤ
Ã¼ E
ÂĨ ę
Ã´ Ãı
Ã© C
Ãİ Ãŀ
Ã¹ Ã¹
ĝ Â±
Ã£ V
Ãĺ Ã§
+ ÂŁ
Âµ f
ÂĲ ;
Â¶ ?
Âŀ Â¤
P Âª
U Ã»
Â® ;
) ć
R E
Âİ ÂĻ
A Ãī
# Âĵ
J c
% Âı
Ã¯ W
ĕ "
F ÃĴ
ÂĲ *
% Â¸
ÃĬ Ã£
Z k
ÃĽ Ãĸ
Âĥ Âĵ
ÃĶ Ã´
Â¦ Âķ
ÂĹ '
S S
\ }
ÂĬ _
^ ġ
ÃĿ i
ÃĶ c
! ÂĶ
Â¥ Â¸
Ã½ Ãł
T w
r Ãĥ
B Ã§
Â¦ Â¬
q ÃŁ
Ãı Ãį
" Â«
Ā} Ĕ
m ÃĦ
ă Ã·
Ã® Ãĩ
ĕ ÂĻ
ÂĹ #
Ą ÂĤ
ğ .
Âı ġ
ÂĿ Â¤
Ã± Ãį
Â¨ ?
Ĉ ć
ě Â¸
Ã¤ v
Ãľ y
Âī Ę
Âİ (
O Ã¶
Ã½ ÃĻ
Â½ 9
Â± Â©
Ğ ÂĦ
j X
Â¶ )
{ ď
ÃĢ Ã¹
Â¡ Â¥
Ĉ <
Ē )
ÂĬ Âĳ
ě ė
I Ã´
t S
Âļ _
Q Ãŀ
Ć ÂĢ
q W
ÃĹ ÂŃ
Ă Â¥
Â§ $
Â§ ę
Ã± L
ĝ Â¸
ÃĶ g
Â´ ÂĢ
m ÃĿ
s ÃĨ
ā ÂĨ
" Âĳ
G A
Âķ =
Ę ć
Âĭ Ã·
Ğ )
Â£ &
Ã± M
Ãģ Ãİ
Ġ Ã¾
Â¶ Âį
Ē :
O Ã´
ÃĪ ÃĨ
Ãĩ C
Ãģ r
Ã® Ã£
Ã§ M
] Â¤
Âļ ÂŃ
* Â»
m Ã¤
Â¨ .
Ď Ć
Â§ ğ
Âļ Ą
ÂĲ Đ
ÃĲ V
ġ Âĳ
Â¿ Âį
m Ã¾
Ãį V
Ã³ J
Q Ã¥
X Ã§
Ē ć
Â© !
Ã³ Ãķ
Â§ Ą
Ãº Ã¨
@ '
ą ğ
Âª H
U Âº
Ãį H
Â¢ÂĢ +
Âİ {
Ã¹ c
Ď Â¤
Âİ Âĺ
Â¯ Ĕ
ÂĬ Âį
ÃĪ T
ā Âŀ
ĝ ć
Â¨ Ę
Ã± Ãµ
Â¤ Âį
Ć Â£
y Ã£
" ÂĽ
s ÃŁ
Ã¥ W
ÂĻ ę
ÂĴ [
( Ą
\ Âľ
Ā-Ĕ ÂĶ
O Âº
y Ãı
Âİ Âľ
| ÂŁ
Ãĩ A
Ĉ Ę
ÂĮ ÂĤ
-ĔĀ ÂĶ
Â§ ć
H z
Ġ v
\ Ĝ
l d
Âģ Âĥ
Âĳ Âĺ
c R
ÃŁ b
@ Ă
Â¢ ġ
Ğ Â¤
ě Âĺ
Â« Âķ
S Ãħ
Â¶ *
Â£ ?
Ã¡ V
Â£ Ā
j ÃĮ
Âļ >
ÃĪ Ã«
Ĉ Â¥
P G
$ Ĝ
r r
A Ãİ
ā Âĳ
Q Ãı
Â¦ Â¤
+ Ē
S Z
J Ã§
Ĕ ÂĲ
Ã´ Ãī
ÃŁ Ã«
ā ÂĶ
Â© '
ă Â¸
Â« Ě
O N
Ć Ę
Ãľ I
y i
T Ã£
Ã± Ãħ
Âģ ÂĢ
ą [
L d
ÃŁ Ãµ
ġ }
ÂĪ Â¿
a Ã³
Ã¤ Ã²
ÃĶ Ã¢
Ć Ā
# ÂŁ
~ Â¿
j ÃĦ
R d
Z d
ÃŃ ÃĽ
ÃŃ ÃĴ
Âļ |
# Ā
Â§ *
Âį ě
Ãī ÃĨ
p p
Â± ÂĮ
Â§ =
ÃĬ Ã§
\ Ď
< Âı
+ Âı
Ãģ Ã¶
ġ ÂĪ
? Âĳ
Ã³ O
Ã½ Ã¨
ÃĻ Ãĩ
ÂĬ Âĵ
Â¦ ÂĢ
ÂŃ Ě
ÃŁ o
? ÂĲ
Ã° i
Â£ Âķ
ą ;
G n
ā ÂĴ
Ãł Ãº
Ã¯ c
Âĳ ÂĶ
Ã¤ h
o Q
R S
- Â»
Ă Ď
O L
+ Âŀ
V Ãļ
ĕ ÂĽ
Â· Â·
Â§ ă
ÂĶ ġ
Ã£ Ã´
s Ãİ
ÂĬ ,
" Â¢
Ā ÂĪ
~ ?
Â£ Âĳ
S Ãĸ
Ć Â¬
Ã¯ Ãį
C M
, {
Ā ÂĽ
q Z
Âĺ ġ
Ã¾ Ã¾
= Â«
Ã» ÃĢ
ÂĻ Â¥
Â§ '
ÂĤ }
Â© Ĕ
Ã¾ Âª
+ Ď
Ã¸ Ã´
ą Âī
T e
< Âŀ
Ã² c
Ã¡ F
Âķ ě
Ãľ v
Â§ ?
ć Ā
Ã§ V
n Ãĩ
Ã³ Ã´
ÂŃ [
Â¨ Â¡
Ã£ Ã°
R w
Â· ĝ
t Âª
Ã¹ Ãµ
* ÂĴ
& ÂĽ
m ÃĻ
ÃĪ Ã¢
Z h
Ã¡ b
A Ã¨
Âĭ Âģ
Ğ Âľ
Ã¾ Ã«
U K
Â» ġ
Ã§ h
Â£ Ĝ
Â¤ ġ
ē ÂĮ
U I
Âĸ $
Ã³ Ãĵ
Ã¥ E
) Âĳ
Ã¤ Q
= Ĕ
ÃĿ j
S Ãĳ
5 2
Ą ÂĬ
V f
' ÂŁ
Ãľ G
N Ã¬
c Ã½
= ;
U b
Ã¦ Âª
Â§ Ę
Ãĺ Ãĩ
N q
Âī #
ÃĨ w
s W
F Ãģ
Ă Âŀ
z Ã´
Ć Âĵ
ÃŃ Z
Ã¥ K
ÂĮ ÂĢ
ÃĨ ÃĴ
Â¡ Â«
X Ãµ
Ã¥ T
Â¨ ę
` Ĉ
g Ã³
ą Âļ
` Â¸
ÃĨ Ã®
Âĺ Â¿
Â§ Â·
ā ÂĢ
Â© ĕ
Ã© Ãµ
ď ġ
Âĵ Â¸
* Âľ
Â¡ Âģ
Ã± N
Âķ ĝ
Ãİ v
d Ãĵ
Ã± Âª
Âİ Âĥ
ÃĽ ÃĽ
S J
Ãİ Ãĵ
Ãİ Ãľ
Â² 3
Ã£ p
Ã» Ã§
ă ć
Â½ 3
$ Â±
ā ÂĮ
< Ď
- Ĕā
z w
ė Ã·
- ÂĮ
Â´ ÂŁ
Ã» V
ě ÃĹ
( Ĕ
Ã¯ Ãħ
Đ ġ
. )
Ã³ I
! Âĳ
ÂĤ Ď
< Â¶
Ãı n
E I
Ãį X
Â¤Â¥ Â¤
Â» ğ
4 Â¾
Â£ Â¥
ÂĬ Â¬
> Â´Ā
H ÃĻ
J b
Â´ Âĩ
E P
Ãİ F
G ÃĿ
Ġ R
X Ãł
Âİ Â¸
A ÃĢ
Â§ ,
Âı Â¯
Ă Â±
ÂĬ Â¡
" ÂĶ
a Ã²
Ġ Ã¹
Ãĭ n
Â´ {
< Âĥ
ÃĨ Ã¢
G Ãĺ
0 2
T s
Â¦ }
Ã± Ãļ
Ã¡ W
< ğ
K L
Â¤ Â·
ÃĶ r
đ Â·
Â¤ Đ
Ę ĕ
Âĵ ġ
ĝ Â»
Ãĩ Ã°
7 1
Âļ Âĳ
Ã« C
Ą ē
* Â®
Âį Âĩ
' Â°
( =
Ãľ q
ď ÂĹ
M Ã¾
ĝ }
> ÂĬ
* ę
) ÂĮ
ÃŁ x
+ +
# ą
Â© ġ
Âµ F
< Â¨
R m
ÃŁ f
Ć ÂĽ
Âİ ÂŁ
ÃĽ Ã¼
J ÃĮ
< Âĵ
ÃĽ Ã®
Â© ć
Ā (Â¢ÂĬĀ(Â¢ÂĬĀ
ā ğ
Â¦ ÂĦ
Ã¸ Ã¸
E f
Ãł w
R Ãĺ
i Ãĳ
Ą Â±
Âį ÂŃ
E X
Â§ Â¯
F Ãħ
T b
Ġ w
p ÃĦ
Ĉ Â£
ÂĨ ?
) |
Âµ Y
j Ãķ
Ãŀ Ã´
ÃĢ P
U Y
Â¥ Â·
Ã£ Ãĵ
S Ã»
Ġ Âĵ
Â¸ ÂĮ
Â¢ÂĬ +
* Ć
H ÃĮ
Âģ ÂĲ
ÃĪ Ã¨
ÃĪ Ãĥ
ÃĶ u
K c
) >
Ã¥ S
Ã² y
ÂĬ ]
' ÂĴ
Ã³ Âª
( `
6 9
_ Âĺ
Ĝ ÂĤ
Ā%Ĕ Â´
ÃĮ ÃĲ
Ă ā
ÃĪ Ã©
Â« ğ
Â² 0
ě ÂĶ
ą ÂĪ
ÂĬ |
R ÃĽ
Q Ãļ
Ã¥ X
Ã¼ ÃĦ
Ã¥ J
ÃĪ Ã¦
h Ã¦
q Ã¦
Ãĩ l
Âĸ Ę
t T
Ãĩ a
` ġ
Ãį W
6 8
I Ã¨
Ă ÂŃ
ÂĬ Âĥ
v Ãł
! @
Ã¥ L
Â¬ [
e Ãļ
Â» Âģ
ĕ ]
< Ğ
ĕ Â¡
N ÃĶ
q Y
Â« ē
m Ãı
Â© ĝ
Â© >
Â« Âĸ
` `
Ā Ė
Ĕ Âį
* {
n ÃĿ
N s
ÂĨ ĝ
Ã² G
Ġ }
Â¨ Â¢
& ?
Âĵ ÂĢ
( ć
@ Â¤
Ć ÂŁ
Â¨ >
Â¸ ġ
* ġ
ÃĢ Ã¶
* Â±
Âĳ Â¶
Âµ H
ÂĬ Â»
Z Âª
Ă ÂĹ
T t
Ă )
* ÂĦ
V Ãľ
Âķ Ĕ
T Ãł
Ã¥ Y
* Ę
ÂŃ .
T Ã§
Â´ ÂĦ
O ÃĨ
ÂŃ "
g Ã¦
g Ãľ
Â± ?
Ã¯ ÃĴ
R ÃĦ
ÃĬ Ãĥ
Âµ X
ÃŃ Ãŀ
# Âĥ
ÃĢ ÃĨ
Ã» ÃĦ
Â» Â·
Ã± Ã´
Âģ Ã·
Âļ ÂĲ
Âļ Â¯
ā Âľ
Ć ÂĶ
Âļ Â«
ÂĬ ?
Âļ Âį
Ãī Ãİ
Â¸ ĝ
Âĸ Âĺ
g Ãĸ
Ãĺ Ãķ
I Ã¾
U k
Ã¤ z
M n
x Ã¶
ÃĶ w
Ě ÂĴ
\ Âŀ
m Ãģ
ÃĬ r
Âĸ '
đ Âŀ
Âİ ÂĨ
Z b
c Ãµ
Ġ f
S O
Â¥ Âı
Â¦ Âĳ
} Âŀ
Ĉ Â§
Âģ Â·
V Ãª
Ã© X
ÃĶ Ã¦
[ ę
Ã¯ G
Â» ÂĨ
A Ãį
Â¦ ÂĻ
d ÃĲ
ÃĿ Âª
Ć Ć
Â± Âľ
ą Âı
ġ: Ā
C Ã½
ć Âĳ
ÃĮ r
d r
ÂĬ ġ
Â» Âĩ
Q Ãĩ
Â´ ÂĴ
C H
Ĉ ?
Ã¤ w
Ġ S
ÃŁ Ã¬
Â¥ ?
Ã´ Ã´
Ã¼ Ã½
ÃĹ ĕ
Â° ġ
Ã¹ Ã§
E Y
A Ãħ
ď \
ÃĨ Ã¿
Â© Ē
Â¡ Â¨
G l
Â© Ā
& Â¤
Ă Â®
j I
* ÂŃ
Ã¥ Ãµ
Ă Âı
ē Âľ
i ÃĽ
d Ã²
Â« Ã·
F ÃĽ
Â§ <
U X
g Ã½
c Ãĵ
Âĳ ÂĴ
$ ă
* ğ
Â© ,
R Ãľ
ė ę
M Ãĺ
Ãī Ãģ
s Ã¨
i v
R Ãķ
Â¶ ġ
s T
Âĳ Ã·
+ Đ
ÂĬ Â¥
Z V
A Ã¤
G Ãµ
q T
S Ãĵ
Ğ ÂĢ
i w
Q Âµ
4 Â²
M I
Ãł b
H Ãħ
T Ã»
$ Âĥ
Â½ 0
ā ě
R ÃŃ
ÃĶ Ã£
= (Ă
# ;
Âį Â·
d ÃĴ
ÃŃ G
ÂĬ Âĭ
ć \
Ã½ Ã¼
Ĉ ę
Â¬ Â¿
Ā Âĭ
Âļ Â¡
= Âı
Ġ Ę
Âĳ Â»
M X
Ě Âĸ
Ã± Ã³
ĕ _
I Ãµ
Ć Âľ
" Â¨
j F
Âµ V
ÂĬ Â°
A K
Â¸ Ĝ
Ã· ÂŃ
Âª ÃĴ
= {
ÃŁ Ã£
Âª Ã²
d Ãµ
Â¢ Âŀ
x Ã§
C n
C L
ÃĪ Ã¼
H Ãľ
ā Ĕ
Ā (Â¢ÂĬĀ(Â¢ÂĬĀ(Â¢ÂĬĀ(Â¢ÂĬĀ(Â¢ÂĬĀ(Â¢ÂĬĀ(Â¢ÂĬĀ(Â¢ÂĬĀ
U f
W Ã³
N E
ġ đ
> Âľ
Â¦ Âĸ
Ãļ G
ÂĮ ă
Â± Â§
Ãģ Ã¹
W i
Âİ Ć
H Ã¶
ÂĻ ě
" Âŀ
Ãİ Ã¡
Ă Ę
T y
Â¦ [
@ Â¥
Ã³ Ã³
ÂĹ ă
C c
Ã¤ V
j ÃĿ
ÂĦ `
Ã§ Ã¯
ġ ÂĻ
Ã§ O
< đ
* Â¸
Â£ ,
H Ãª
| ġ
M P
Ĕ Â®
Ãī n
ď ^
Ã¶ h
' Ą
Âļ ]
Ĉ $
ÃĴ P
Ã´ Ã¶
Ġ e
Â± Âı
Ãĥ n
Ã¥ Q
ą !
ÂĶ ÂĢ
- Â¸
ÂŃ %
Ã¤ Ã¾
" Â®
Ãĭ g
ÃĪ ÃĬ
@ ÂĦ
Ē Ć
R O
J J
v ÃŃ
Ãī Ã¼
Ğ Â´Ā
Ãľ Ãĩ
d l
' Â·
Ãģ ÃĨ
Ãľ V
Q S
ā Â¥
; {
Â£ <
Ãĺ U
Ã± Ãĵ
Â² 2
P z
Q W
Z Âµ
Ãį Y
X g
ÂŁ Â¯
Âļ ÂĨ
ÂĽ Âı
= Â»
ÃĢ Ã¦
+ ÂĴ
& ÂĢ
F Ãł
& )
ÂĮ Ă
ÃĪ Ã¶
j E
Ã¥ Âº
ÂĬ ď
~ `
Ě Â±
ą ę
H Âª
I Ã£
Ãµ Ãĩ
Âĳ [
ÂĽ '
Â¢ Âĥ
ÂŃ #
Ãľ z
Ãħ A
Ġ ÃĶ
ÃĴ f
% Âİ
h ÃĿ
Â¤ ÂĨ
C Ã¦
Â¤ Âĵ
O n
Âı Â»
* Â´
q Ãª
| Â±
Ĝ ă
" Âģ
ÂĹ ć
Ġ r
! ÂĲ
T S
Â£ Â¸
Ġ ĝ
Q Ã¼
Â¥ Âī
. Ć
Ď ā
' #
v Ã´
Âĥ Âģ
} (ā
F Ã®
\ ÂĴ
Ãĥ Ã¦
Ãª J
A ÃĴ
~ ġ
V Ã»
H Ãĺ
ĕ [
* Âİ
@ ÂĪ
U y
ĝ =
Ã§ L
ġ* Ā
X Ãķ
Â« ÂĶ
E ÃĢ
ÂĿ Â¿
j h
Â¢ÂĬĀ (Â¢ÂĬĀ(Â¢ÂĬĀ(Â¢ÂĬĀ(Â¢ÂĬĀ(Â¢ÂĬĀ(Â¢ÂĬĀ(Â¢ÂĬĀ(Â¢ÂĬĀ
Â· đ
Ãľ ÃĦ
ÂŃ ?
ÃĤ ÃĦ
ÂĤ ?
m n
" ÂĨ
J Âª
< Ĝ
Â¶ ÂĮ
ă Â¡
h Ãħ
Q Ã¾
Ã« Ãµ
N Ãħ
ě ÂĢ
Ã¤ Ã¦
p Âª
k B
Ã½ Ã»
Âį Â»
; ÂĢ
Âĳ Â°
Ãı l
V l
Âķ Ą
y Ãį
Ă Â¯
Ġ Ãº
z Ã¾
ÂĬ ć
F Ã¢
Ġ Ã±
Âļ (
c ÃĲ
ĄÂ¢ ÂĸÂĬĀ
Â¢ÂĢ ę
& ÂŁ
% -
e b
G Ã¤
Â· Ē
ÃĢ Ã¢
Q ÃĬ
Ãł Ã¢
ÂĤ Ć
! ÂĮ
Â¦ ÂŁ
j i
ÂĬ Âī
U U
Ãĩ Ãļ
Ã§ Âª
ě Â°
Ġ $
Ğ Â¿
Ġ Âį
< ~
Â§ Â§
Ã³ W
ÃĨ Ãł
Ã£ Ã¯
ÃĪ ÃĿ
Ã® Ã§
Ę Ą
Ã¹ ÃŃ
# `
& Âı
Ĝ ÂĲ
ĕ Âī
Ã¹ Âº
_ -
_ ÂĶ
Ãŀ Âµ
Â¬ Â¬
Â£ ÂĴ
; ÂĶ
& ÂĶ
G Ãĭ
ÃĢ u
ÃĪ Ãĳ
Âķ %
O Ã¢
Ã½ ÃĴ
S Ãķ
: ÂĴ
d Ã»
Ã¡ L
Ãģ Ã¦
# ,
ÂĤ {
Â´ Âİ
Ġ ÂĢ
H Ãį
Ă Âĥ
+ .
Ĕ Âľ
) Âį
y Âª
E g
Ãŀ Ã¾
S i
Ãł v
Ãĳ Ãį
Âµ K
Â´ Âĥ
Â© %
ÃĤ Ã£
; ď
Ğ Â¸
2 Â¹
Ġ 0
* ÂĢ
: ÂĮ
Â¦ ď
" ÂĹ
1 8
L R
Âŀ {
c p
z Ãµ
Ã± ÃŃ
> [
Âķ Âĩ
G q
; Âĺ
' ÂĻ
Ã³ R
ÃĽ Ãļ
Âı \
Â¹ 5
Ãı a
Âª J
ÃĨ T
Ãľ w
Ã± ÃĴ
V b
] ġ
V E
Ġ p
Ãĵ Ã©
c Ã»
G ÃĽ
Ē Ā
ā Â·
` ÂĮ
ÃĨ X
g ÃĴ
Ã¹ f
Z v
y k
y Ã¶
B Ã£
h Ãĳ
ÃĤ Ã§
: Âĵ
Ď ~
ÃĽ ÃĴ
c n
Ã¤ Ã¶
Ġ n
Â© |
ÃĬ ÃĦ
; Ĕ
" Âį
ą ĝ
Âļ Â·
< Âĳ
Â¿ ÂĻ
Â» Ĝ
F W
Y X
Ãĵ Ã²
A R
Âŀ }
Â« Ğ
g i
Ġ Ě
Ãĩ Ã±
G P
ę ě
O Ã¼
ę >
Ãĵ Ã±
[ Âı
) Â¿
ĕ ~
Â¸ Ę
Ã³ ÃĲ
\ Ē
ė ?
ĕ ē
j C
ÂĬ Â§
Ă @
Â® ć
Ã¤ n
Â« Ć
Â» Â±
< ď
S Ãį
Ã¤ Ã»
ÃĤ Âª
r ÃĻ
ÂŃ Ĕ
Â¢ÂĬ(ĀÂ¢ÂĬ(ĀÂ¢ÂĬ(ĀÂ¢ÂĬ(Ā Â¢ÂĬ(ĀÂ¢ÂĬ(ĀÂ¢ÂĬ(Ā
+ Ć
Â© Â¬
T W
Â¦ Âį
Ãł Ã¶
ÃĶ W
Âĳ Â¤
Â© ā
Ã¹ Ã©
ă Â±
Âŀ ;
Ã¹ I
Â© ÂĴ
ć Âľ
Ãĺ Ãİ
q Ã¨
Ãķ Ã´
Ć ÂĹ
Âº i
Â¸ Â¬
Â¥ &
Â¥ Ĝ
+ Âķ
ÂĲ ÂĢ
$ (
Ã¡ U
? !
Ã¤ Ãĳ
ă Ē
Âĵ #
T V
y n
r ÃĢ
Ãª ÃĽ
Q Ã²
j Y
1 Â¹
J p
* Â°
" ÂĻ
* Ď
z v
Â© Ė
T Ã®
, ÂĬ
\ Â±
Ā Â¢
j k
l n
Ã¨ F
Ã¯ Ãļ
Ã¼ ÃĢ
[ Âī
< Âģ
Ã½ Z
Ãª x
Ã¯ Ãĸ
K p
Ã» F
ė '
H ÃĦ
ÃĨ Âª
ÂĻ ġ
) ;
y Ã´
( Â¬
s Y
ÂĮ ÂĲ
Ã¤ Ã¢
! Â¸
Ġ ġ
ÃĪ Ãł
d n
Â¡ Âİ
ĕ ÂĪ
Ã« Ã´
ě ġ
ĕ ÂŁ
Ãĵ Ã®
Ãľ u
Ã² ÃŁ
Âĺ Â¤
Ãī Âª
H Ãĭ
K g
K n
N Ã£
C Ã¥
K m
Âķ ÂĨ
@ą !
ÂĿ ÂĬ
U v
ÂĶ ÂŁ
Â§ ġ
ÃĴ Ã¦
Ã½ Ãĺ
- Âľ
ă %
Ã½ u
Ġ ÂŁ
Â£ ~
m Ã´
E G
o n
Â¨ <
Ã¯ Y
O B
" Â¥
Âķ '
(Â¢ÂĢ Đ
ă Â®
6 2
Âķ Âĺ
Ă Â´
m ÃĬ
Â¦ Âī
ÃĶ Ã¶
| Â¶
$ ď
; Ď
ÃĻ Ãı
R Ã¦
R c
ē Âİ
[ ÂĪ
ÂŃ (
Ãĥ c
Ã¸ Ãº
ÂŃ Â¿
y l
J ÃĴ
Ã¾ Ãİ
A Ã¹
x Ãİ
Â¥ =
r Ãĺ
Ãļ H
Ĝ Â¬
G N
ā Â§
Â· ę
Ãī Ã¥
Âŀ (
ÃŁ z
Ã¾ Ãĭ
ğ _
B I
! Âģ
Â½ Â½
đ ÂŁ
Ã¬ Ã±
Â£ ę
Â¢ Â¶
Â« +
Â¨ #
J m
% ĔĀÂ´
{ {
ā \
^ Âķ
Ã¾ Ãĵ
ĕ ÂĿ
Â¸ Âİ
B p
Â£ ÂĻ
Ãº Âµ
q Ã¹
o ÃĿ
ė ĝ
} Â¿
ÂĴ (
Âª ÃŃ
l P
Â¤ ğ
Ãİ X
E F
Ã² Ã®
Ã§ n
G Q
ď ÂĻ
J v
Âĳ Â´
R z
Ď Â§
Âľ ÂĲ
Âª Ã¶
+ Âĸ
y Ãħ
G L
JZ J
ă ÂĢ
c P
ġ |
Ãľ s
Ã² Ãĺ
Ā ÂĻ
Â¥ Âį
Ãļ I
ÂĶĀ Â´
ĕ Â·
Ã° j
ÃĨ v
Ā> ÂĬ
( ?
Â¶ ÂŁ
q Ã¥
Ãł Ã¦
Ãµ Ãı
ÂĴ Ā
Ã¼ Ã¾
Â» ė
Â¦ :
= @
B ÃĦ
Ã· _
Â¶ ď
6 0
ÃĿ ÃĽ
o ÃĴ
J z
ĕ `
ĕ *
Âª ÃĦ
Ã² Ã¤
Âº h
Ãī Ã©
' Âı
Ġ ÃĲ
U e
Â¥ !
Ãİ ÃĴ
$ Â·
ÂĶ ÂĨ
< Â·
ÃĬ H
Â« ÂĮ
Ãĸ Ã¿
E T
ÂĹ ę
Âĺ Ď
m ÃĮ
Â¤ Âĸ
K r
i n
Ã§ R
Ę Đ
Ã· ÂĽ
ġ {
ě ğ
Ãĸ Âµ
X w
$ Âĸ
Âģ Â¸
M Y
P ÃĢ
ĕ Ğ
E e
y Ã§
Ã· Â¬
Ã² Ã§
" Â©
Ã¦ F
Ãī Ãª
P A
Â¥ .
H ÃĴ
Ãį F
ÃĶ t
Ę ÂĲ
Â¥ `
ē ÂĢ
0 Â¹
O Ãº
ÃĽ ÃĪ
ÃĨ W
Â¢ Â·
P r
U o
% -%
Ą Â¥
D c
j Âµ
Ãĩ Ã®
Âĳ ġ
Â£ ÂĬ
" Â¡
Ġ ~
K q
$ Ā
x Ãµ
Â´ Âį
ā Â±
C u
ÂĨ =
Ã½ ÃĲ
Â¤ Â¤
ÂĨ Ą
Q Ãĵ
& ÂĴ
Ē @
" Â¶
S Ãļ
ć ÂĮ
ÃĢ Ã¼
Ãĳ Ã¥
' Âķ
n Ãħ
% ÂĪ
\ Ğ
N Ã¦
Ĕ Âĩ
| Â¬
Ãĳ p
Ã¤ i
ď ÂĽ
Ě }
Ġ 8
ÂĶ ÂĮ
Ã£ i
x Ã¢
ÂĬ Â©
ÂĿ Âĩ
@ Âĩ
ē ÂŁ
x Ãħ
Âĵ Âĥ
Ã³ ÃĪ
% Â·
R Ã®
Â¤ Âı
Ã£ Ã»
ă Â¿
Â£ ĝ
ĕ &
> Ã·
R B
Ã¹ d
_ Â´
% ĀĔ
Z I
j Âª
Ãª G
] Â¸
ÃĶ v
ÃĪ Ãľ
Â¢ Â¸
h ÃĻ
T Âµ
x Ãģ
Ġ Â·
N Ãŀ
Ãļ F
Ă (
+ Â¸
Ď Âķ
ÂĬ Â·
ę Ā
b B
; ÂŁ
Âı Â±
A ÃĨ
Â« Â±
Â¨ \
Âľ ă
ĕ ė
Ã¹ r
- '
Z l
X Ã²
j Ãº
Â¢ Â´
ą :
Ãī Ã«
ą =
# *
} Â¡
Â¤ Â¶
Âľ Âģ
ğ Âĸ
& Âķ
n Ãµ
ÂĴ Ď
Âľ ÂĤ
n Ã¶
Ãĵ Ã³
ÃŁ j
V Ã¨
3 4
ÂŃ Â´
A Ã©
Âľ Â·
Âª Ãį
Ã§ i
M Ãį
Ãİ Ã£
Â² 6
ÂĲ ÂĮ
ÂĢ Ă
1 9
Â© ě
ÃĶ Ã±
, ÂĮ
ÃĹ ĝ
ÃĤ Ã¿
d v
Ãĭ o
Ã» Ãĺ
Ãĥ Ã¥
Ã´ ÃĪ
Ãķ Âº
ÂĲ ?
+ Ė
, ć
Ãı Ã¶
Â© \
ÃŁ Ã°
F v
Â£ Ă
G Ã¹
A U
X Ã¶
O Ãį
Ãº g
O Ã½
H Ã®
ÃĦ ÃĴ
K u
Â§ Âļ
N p
Â© ğ
$ ē
ÂĢ ~
ÃŁ Ãİ
k r
Ã¬ ÃĲ
Â½ 2
Ã¸ Ã¾
I Ã¼
ÃĨ Ã¥
h ÃĪ
L Ã£
# Ē
# ÂĴ
F Ãķ
Ĉ Ą
Ġ ÃĴ
Âķ <
Ã´ Ãĩ
ą ÂĨ
Âİ Â¿
Ã± Ã®
m Ã§
Âİ ÂĦ
+ Â»
+ Â´
S Ã©
Â£ ÂĮ
Â¶ :
Â© .
Ã¸ Ã±
Ã³ Ã¯
Âķ `
Âľ Ē
ÃĻ Ã£
ÂŁ \
, }
ě Ę
= Ā
& ÂĮ
L Ã§
Âļ ÂĤ
Ãĵ i
b Âª
ÃĽ Âµ
P Ãľ
ě Â¿
_ ÂĽ
Ĕ {
Â¢ Â¥
ÂŁ ÂĻ
Ãħ E
Ã¢ i
a Ãľ
Ãķ Âª
Âĵ Â»
ÃĢ ÃĪ
Â¬ ÂĽ
Z M
Ãĩ c
Â· ÂŃ
ÃĢ Ã©
ÃĢ Ãģ
+ :
Âļ Âı
5 Â¹
' ÂĹ
T ÃĶ
U Ãľ
; Â°
T Ã²
Ãĳ G
Ã¾ Ãī
L Ã»
' Â¡
Â® ~
f ÃĿ
L n
Ãĭ Ãª
Âĵ ğ
ÃŁ Âµ
Ã£ N
w Ã¼
Â¿ Âĺ
Ãħ M
j d
T a
ąÂ¢ÂĴ ÂĬĀ
! Âĩ
J Ãł
Ãħ C
W v
Â· <
j V
& Â¥
} (Ă
* Â¨
Âķ ÂĪ
Âĺ Ē
ā ÂĪ
O Ãĭ
Ã³ K
ÃĪ ÃĲ
I l
Â· Ę
X Ã´
Ãī l
S Ã¦
Ã¼ Ãº
u Âª
; ÂĹ
ă )
Ã³ Ãİ
I Ã¹
6 6
Ãħ D
ÃĶ Ã§
Â¸ Â«
đ Âģ
ÃĨ Ãĵ
Ã¹ g
ÂĴ Ę
r Ãľ
I c
X ÃĲ
Âļ .
Ě @
Âľ )
o ÃĮ
] Â¬
Â± Â¤
Ă ?
ÂŃ ġ
ğ Âĳ
Âī Ĕ
J Ãĥ
N Ãķ
Ãª y
+ ÂĲ
Ãļ ÃĦ
[ Ę
S W
Â« Ĝ
B Ã®
Âĸ ę
Â© `
. :
Ãĺ R
Ġ ę
ÂŃ $
B Âª
e H
+ >
ć Âŀ
" ÂĤ
Â¸ Âį
ÃĽ Ãŀ
Ă Â¦
Âĳ ÂĪ
Ãį G
Ã½Ãħ Ã¼
J ÃĬ
< Â°
# (
ğ ÂĽ
Ć ġ
Ã¼ ÃĻ
% Â±
h Ãı
\ ē
O R
ÂĴ ~
; }
P ÃĿ
Âĵ ę
Y H
Ă }
Âĺ Ã·
- Âİ
Â¬ Âĭ
A V
C Ã³
X Ã®
Ą ď
Ãį E
] Â¿
Â¥ ĝ
^ :
Ã¾ Ã¼
, Â¤
ÃĢ g
a ÃĲ
Ĉ >
ğ {
q Ã¯
Â¥ ė
S Ã®
Ġ Ã¦
Â© Ã·
t V
Â« }
$ ÂĤ
Ġ 1
Âĸ Âļ
Ã» Ã¾
p ÃĿ
Ã¸ Ã³
ĕ Âķ
ă Đ
Â¸ ÂĲ
& Â®
Ã¨ Ãĥ
ÂĨ #
& Â£
o Ãŀ
A Ã£
ÂĬ Â£
c F
ÂŃ =
ĕ @
ÃĪ ÃĴ
ā ?
n Ã¢
x P
Â´ Â´
Âī ę
Â¸ Âĳ
Ć Ĉ
Ã» ÃĻ
Ã¡ T
đ @
Ãĩ Ã¯
Â¸ Â¿
Ġ T
ÃĽ Ã½
Â¸ ă
& Âľ
ÃĲ b
Ãģ Âª
Ġ Â¹
ÃĪ Q
Âĺ ?
! ÂĴ
n c
O Ã¦
Ã£ R
ć ÃĹ
i ÃĻ
Ãģ Ãī
Âļ ÂĮ
Â¸ =
Ãĩ q
Â¡ Â£
Ã¤ r
ÂĤ Â¤
Ã» J
Ã® ÃĶ
U u
F Ã¦
n Ã¬
Â¦ Âĭ
Ã´ T
Â§ Â©
Â° Â®
H ÃĤ
< ÂĴ
Âļ Âĵ
ą $
Ãĭ p
ÃĢ Ã¨
ÂŃ Ã·
Ã± Ãª
Ã¶ Ãµ
ć Âİ
Ę ÂĮ
J r
J Ãĳ
ā ^
Ã¼ Ãĺ
Â« Â¶
Ãĭ u
# Â¶
Ã® M
Ĝ Â¯
] Âĭ
Â¬ Â»
ą ě
G p
" Âİ
G a
Ġ {
ă ě
ÂĲ Ĕ
Ãĩ Ãĵ
Ãħ U
C m
P ÃĦ
Y c
Ã¹ h
Z m
Ãĳ T
I KI
` :
ÂĲ =
G Ã½
ÂĽ Âĩ
s Ãª
| Â´
Z w
F Ãĥ
. [
. (
Â« ÂŁ
_ ,
Ġ Âģ
ÃĶ d
Â¦ ;
Ă Ć
v Ã¬
Ãİ E
Âª w
ÂĲ ē
# Âģ
Âľ Ã·
q ÃŃ
\ Â¨
O l
Â¢ÂĬĀ (Â¢ÂĬĀ(Â¢ÂĬĀ
ÂĶ Ĝ
n Ãľ
N r
Ã± Ã©
. >
Ãħ V
ÃŃ Ã£
Ã¬ k
$ ÂĪ
E Ãļ
, @
* =
Y w
C g
Ã³ V
< Â´
" Â´
\ Đ
Â¦ Ć
$ ~
Âļ Â°
: ğ
Âļ ÂŁ
# Â±
ė Ę
Â¢ÂĬ(Ā Â¢ÂĬ(ā
Ã§ U
Âķ Âī
Â© Â¡
Ã³ Ã®
Ã¾ ÃĬ
Âŀ [
Âķ ~
Ă =
# Â°
Ã± Ã«
Âµ B
Ã¯ Ãŀ
Ã£ Ã¸
N F
H Ã¹
t n
Ă Ě
Â© Ĝ
i ÃĢ
Ã¤ m
Ãĭ m
Q Ã¹
+ Ğ
j K
Âı ÂĻ
Ãħ J
Ã§ Ã¸
Ãİ w
* ÂĿ
n ÃĽ
Ãı E
ć Â±
ÃĬ ÃĽ
ÂĬ Â¤
x Ãį
Â¥ ğ
j U
@ )
Ãł Ã¾
; [
Ã© D
Ã± I
Ã¡ R
E Ãľ
h Ãŀ
q X
Â¥ $
ÂĢ `
Â¤ =
Â· Âĸ
e X
ď Â¯
+ )
, Â¿
' ÂĶ
Âĵ Âĳ
. Ĉ
v Ãĳ
Âª Âª
U ÃĽ
Â« ~
? ÂĹ
_ ÂĹ
t R
ą Âĩ
ÃŃ Ã´
s Ã½
ÂĤ (
\ Â¶
O c
N Ãł
Â¡ Ĕ
ė $
Ē Ĉ
Ġ Ã·
H Ã¢
ÂĢ Â±
ÃŁ Ãľ
Â¥ Ė
ĕ Â£
Âŀ @
Ã©K H
e P
Ãĥ g
a ÃĶ
Ē Ĕ
Â´ Âĳ
p Ãĺ
Â¸ '
Y A
x Ã¦
Ă ;
Â¸ Â£
E A
Â¡ ÂĪ
Â» Â¶
Â¤ ÂŁ
Ã¥ Ãĩ
Ã« ÃĶ
/ ÂĻ
? _
Â¥ Â¶
Âī ġ
ě Â·
Ã© Ãĵ
Ã¤ Ã®
ĕ Ē
Ãĳ Ã¦
Â© Â¢
ÂĤ Â§
7 9
+ Âģ
& Âį
Ã´ Q
Â½ 4
ā Âĩ
Â¤ Ė
Ã³ P
ĕ Âı
ÂĶ Đ
Ãľ r
* ć
Ã» ÃĮ
Â¨ ^
U Ãĺ
Â« Ď
Ć Âģ
Â£ Âİ
Ã² h
Ġ s
U ÃĬ
N T
v Ãļ
. ā
ÃĮ Q
E D
ÃŃ ÃĢ
ÂĶ ÂĲ
Â¥ ÂĨ
Âµ Z
ÂŃ Ę
A P
Âĺ ď
b y
Ã§ H
i c
n O
ÃĪ c
p ÃĬ
Ãľ t
Ã§ Ãĵ
: Âı
Ã² I
l u
ÂŃ Ĝ
Ã± J
Ã· Âĵ
* Â¶
A L
Ã¡ K
$ Âī
F ÃĢ
w Ãį
r ÃĽ
h Ãĩ
' Âģ
e Ãı
S Ã½
$ }
Ãº c
Â§ }
Âĭ ā
r ÃĬ
: ÂŁ
y m
" Â±
Ãİ Ã®
M ÃĦ
ć Âĥ
p ÃĽ
Â¦ ÂĹ
] Âĩ
ě Â¶
Ã³ G
$ Đ
Ġ m
Ĕ Â¿
Ãĭ OÃ®
S G
Ãĭ Ã¦
Ã§ I
Âŀ Ĉ
; ÂĽ
Â» ÂĹ
& ÂĻ
d m
- Â·
>Â´ ā
Âı ^
# >
ÂĲ Â¨
Âļ Âī
ć Â®
Â© Ě
Ã§ Ãª
s Ã¦
Ĕ Âĵ
E u
v Ãħ
~ ÂĶĀ
ć Ğ
Â¦ @
V R
Ã¹ Ã¸
Ãĩ ÃĶ
Â» ÂĪ
" Â°
n b
, [
J w
ÂĤ ġ
~ Â§
L T
Ãŀ Ãķ
Ĝ )
ď Âĸ
Ę >
Â¥ ę
ě ě
J B
Âĭ ÂĢ
n ÃĨ
h Ã£
H H
A Ãļ
F ÃĿ
Ĕ Âĥ
, ā
n Ãģ
Â¥ ;
Ã± Ã²
Ã¸ Ã»
ÃĮ I
Ã§ o
Ĕ Âģ
Ĝ Ã·
: Âľ
Âķ \
Ã¹ Ã¬
Â¥ đ
ÃĪ b
* Â£
ÂĹ `
Ã²Ãĵ Ã»
Â® [
Â¸ ÂĴ
! Â·
Y Âº
ÂĮ Ã·
ÂĲ [
Â¬ ÂĬ
Â¦ Âı
ÂŃ )
ÃĶ Ãī
@ Âī
X Ã³
y Ãµ
* Â¥
Ãį D
Â© Ğ
* Ė
ĕ ă
Ă Â°
ÃĪ S
ÃĢ Ã«
7 8
ÃĴ Ã¹
Âİ ā
h Ãİ
d Ãľ
Â¦ ÂĬ
ć Âĵ
~Â´ ā
? ÂĦ
ą Âĺ
Ã£ w
E l
Â¥ '
ÃĦ r
@ >
W Ã®
+ }
i Ãľ
V v
ę \
: /
* ė
Q ÃĽ
` {
. }
Â¡ ÂĨ
z d
Â¤ ÂĢ
Â¯ Â¿
i Ã¶
OÃ» Ã¨
H a
p Ãľ
C q
ÂŁ ,
Ē }
Ě ÂĨ
ĕ ÂĹ
J F
z Z
J I
X Ãº
Â¤ Âŀ
# Đ
H Ãł
Âķ Ā
Ã¤ q
+ ē
ÂŁ _
Â¥ Ę
Â¨ ĝ
Ãļ Âª
ÃĹ =
Ã´ Ã£
N Ã¡
Âķ ÂĻ
r ÃĿ
A S
Â¤ Ć
ÃĮ ÃĬ
Â¤ ÂĤ
Ãĩ o
H Ãĳ
A Ã³
Â· Âĳ
ė đ
Ã» Ãĸ
ÃĮ R
n Ã¡
K t
Ã½ Ã§
Ã¹ j
Ď Ā
Ã± R
Ĕ Â¶
Ã· ÂŁ
Ãĵ h
Ãħ O
Âĸ ÂĽ
Â¦ Â¶
Ãĵ I
% Â»
c ÃĽ
ą _
Â« ÂĲ
, ÂĦ
ÃĮ U
# !
V U
ÂĬ( ā
, Ć
Ãµ Ã¼
Ãį Ã¾
Â± $
Ãĺ Ã¢
C I
ÂĮ Â·
~ÂĶ ā
ĝ Ĕ
đ Âļ
Â° Â§
v Ã²
V m
| Â¨
ĕ Âĺ
Â« Ă
ÃŃ Ã«
G c
j Ã¥
S w
Ã¤ s
, ÂĪ
p ÃĻ
Ã½ Ãı
. Â£
Ď >
ć ÂŁ
+ ÂĤ
ě ÂŁ
J M
Âİ Ā
Ã¤ Ãĩ
@ Â¬
ÃĪ Ã¾
Ãģ Ã¼
Ãļ y
E K
j M
F T
ĕ ď
~ Â£
ÂĬ ÂĪ
k Ã´
Ã³ Ã²
ÃĬ ÃĬ
Âļ ÂĻ
Ġ Ãķ
Ã» b
) ÂĨ
ć Â¦
Â© ă
t Ãį
Ġ Ã¨
v Ã¶
đ Â¸
ÃĿ Ãı
Ã² Ãı
Ãģ ÃĢ
ÃĲ f
Ć Â¢
Ĉ ĝ
Ã¹ Ã´
J ÃĦ
W Ã¯
J H
) Â¸
ē ġ
Â· '
Âĳ Âĩ
Â« $
Ĝ (
Ě `
Âľ Â°
Ã¥ Ãľ
Â© Â®
Z O
Ĕ Âĭ
J l
Â¤ {
Âķ ?
Ã± Ãĸ
) ą
Â© =
Âĳ Âī
Âį Âĺ
c o
ā ÂĽ
Ã¡ A
Ãŀ Âª
+ &
F P
Ć ÂŃ
T T
Â« ÂĴ
F b
ÃĪ Ãĺ
Â« (
ÃŃ A
ÂĬ ÂĽ
ĞÂĶ `
Âµ W
ĕ Âģ
@ ÂĨ
/ Â¿
d Ãł
Ã» Ã¶
ă Â¶
Ă ÂĤ
Ã² O
ÂĮ Â®
ÃĮ Âª
ÂĻ !
) Ĕ
Â» Âī
Âļ Â®
R r
% Â°
ÃĽ ÃĨ
Ē ÂĬ(
Â¤ Âĥ
F ÃĬ
Ġ Ã®
* Âķ
) ÂŃ
: ď
Â© Ĉ
" Â¦
h ÃĢ
Ãģ Ã©
ÂĹ Ę
Ã» ÃĿ
Ãĭ t
s Ã¥
i E
* Ā
Â£ Âŀ
Ã· Â¢
ÃĮ Ãĵ
ć >
đ Âĵ
$ Â¶
Â» }
U P
ÂĬ Â¨
Âµ G
+ Âĵ
M M
N ÃĴ
Â© Â´
Ã· [
Ãª Ãĩ
N Ãĳ
ÂĲ Âľ
Ą Âį
Âı Â§
ć Â¥Ā
Âİ ÂĢ
- &
Ãº t
Ã¹ Ã«
x ÃĨ
\ ÂĤ
Ď Âĩ
ē Âĵ
g Ã¥
# Â®
! Ę
B ÃĬ
, ÂĴ
? ÃĹ
+ ÂĢ
Â« Âĳ
Ã§ Q
ÃĪ Ã¬
Ãı c
Ã¹ s
Â¤ [
Ãµ c
Â½ 6
ÃĪ ÃĻ
ġ ÂĦ
Âļ ~
Â£ Â¨
Â© &
Ć @
j A
ě Â¨
đ ÂĴ
Ãļ r
Ãµ Ã´
+ "
l ÃŃ
n I
Ã¬ Q
g Ã²
ÃĴ Ã®
ÂĲ Ė
n ÃĢ
y r
U ÃĶ
Ãµ Ã¶
Âķ >
ÂĻ %
Ãĩ Ãľ
Z p
ē Âģ
ÂŃ Â¸
J O
b X
C V
Ć {
ÂĲ ~
a I
U Ã®
v Ã¢
Ĉ Â¡
D d
Â£ Ę
R p
Â£ Â·
?: Ā
ÃĪ V
F Ã¥
ÂĻ ğ
* ā
Ď ą
} ĔĀ
# Âį
Âı Â¶
Z t
U c
>ÂĶ ā
ÂĬ Ă
Â¤ Â§
j O
! Âķ
Â¢ Â±
ĕ Â±
ÃĮ q
Â« )
Âĩ ğ
4 1
Ě <
Â© ą
ÃĪ ÃĦ
Ãĺ Ã¦
. @
S Ã¥
Ãļ O
Â» Â°
i ÃĤ
Ġ Ã°
ÃĴ Âµ
L Ã²
Ãł s
+ ;
Âı Â·
H Ã¬
E r
Â« ė
* Â¯
ÂŃ /
F Ãĸ
Ã§ P
Ã´ ÃĢ
ē ÂĴ
R ÃĻ
Ġ Â±
Ã¤ Ã¼
& ÂĹ
x Ãī
ÃĶ l
Â¦ ÂĶ
Âį Â´
i Ãģ
ě ę
Ãµ b
E S
! ę
ă Ė
ā Âĥ
ÂĤ Ę
ÂĲ Â®
Â½ 7
B ÃĴ
a Ãĩ
Ã³ Ã«
F c
U Ãī
( <
% ÂĶ
> ġ
F e
ď Ĕ
I Ãľ
Ã½ T
; ~
* Â§
Âĩ ę
Â» ę
ÃĿ ÃĢ
ÂŁ Âį
H Ã¨
Â¤ ,
ÃĮ ÃĽ
' Â¿
Ğ ÂĶĀ
Ã¡ P
ÃĶ s
. =
Â£ -
i r
" Â·
Âļ ÂĽ
j u
ē Âı
Â¸ $
ē Âŀ
ÃĿ ÃĨ
+ Ĝ
H X
ÂĬ [
Đ Ď
Âķ ÂĶ
Q Ãµ
đ Â±
ĝ ?
Ãª z
J Ã¿
Â» ÂŁ
ĕ Âĳ
ÃŁ Ã´
ÃĪ Ã»
ÃĪ ÃŃ
l m
Âį Âı
ÃĦ q
Ą ?
( ğ
I L
Ã¾Ãº Ã¿
ÂŃ >
ÃĿ Ã©
Â« Âı
Ć ÂĻ
ÂĢ @
Ã¬ Ã£
ÂĲ Â±
ā ÃĹ
ÃĨ Ã¦
Â¨ ,
ą \
Â» Âľ
c Ã®
+ ğ
` }
N Ã¿
Âļ ,
Ć Â¡
Ġ Âĸ
Ãĵ Ã¦
K y
Ã¹ Ã¯
Ć Ą
Â¨ '
ÂŁ /
E Ã¾
Â½ Â³
Â« Âľ
Â¸ #
Âİ Ę
Â« [
a Ãı
Âł Âł
ÂĨ $
Ãº Ã§
A M
Ãµ Ã£
g p
~ Âĥ
Đ }
5 6
r Ã§
ć Âĸ
ĕ ÂĶ
Â¬ Ę
+ Ă
Ć ÂĴ
Q B
& =
T Ã¶
ÂĦ ÂĮ
Ãģ Ã«
ĕ '
Ãį L
r Âª
Â¥ Ē
Ãľ p
V ÃĿ
H Ãļ
ĝ Ĉ
Ã¡ J
Â² 9
ć Âı
Ã³ ÃĤ
Z D
Â¤ Âģ
ÃĽ Ãī
ÃĮ c
b Ãĩ
F ÃŁ
Ã¬ ÃĴ
) Â¥
ď _
Âĵ Â´
Â« Â·
l ÃĴ
) ÂĽ
ć ;
Ġ q
& Âŀ
Â¦ Â¿
i ÃĨ
Ą }
G S
Â° ?
& Âĳ
Ãĵ Ã¥
Ãİ Ãķ
Ãģ Ãª
Z U
( \
Âª Ãĸ
) Â±
Â¨ -
ÃĢ Ã¾
ÂŃ Ĉ
# Âķ
Đ :
Â® {
i Y
ć ^
ÃĽ Ãĩ
Ġ Â¸
Â² 8
5 Â¼
Ã§ K
Âī Â¿
u Ãĩ
ÃŁ ÃŁ
ÃĪ R
Ã¹ b
ÂĬ {
C R
P Ãĩ
ÃĦ Ãĳ
Âĵ Ę
ÂŃ Ğ
Â¯ ?
B Ãĩ
Â· ÂĮ
ÃĮ Ãĥ
W p
B Ã¿
+ /
Ãŀ Ã½
Ĝ Ă
+ !
Â« Â°
. Ď
Ã³ ÃĬ
Ãĭ Ã²
Ã¾Ã° Ã¼Ã¨
ā Ã·
Â¥ ÂĪ
Â£ Âĵ
Ãħ Ã´
ġ ď
Ą _
n Ã¦
Â« Â¸
ÂĲ đ
Âª j
Â§ Âİ
Ã¤ Ã°
} Â¦
C t
Ãķ k
Â¡ Âĩ
% Ĕā
ÃĮ ÃĢ
Đ Ā
) Â¬
e r
H Ã¼
Ãĺ Ãı
O U
' Â±
Ã· ě
Â¤ Ď
Ć ę
Â§ ÂĬ
Q X
Ć Âŀ
Âĥ ÂĴ
B ÃĽ
E Ã¦
n Ãĥ
Ē Ď
B i
Âį ğ
ć Â°
y Ãī
ÂĲ Â°
ÃĶ Âµ
ĕ Ě
Ã´ Ã§
Ã¬ Ãĭ
Â¦ Âŀ
ą ?
T v
Â¡ Âī
Ã³ Ãĩ
% Âį
Ġ Â¥
Ãľ Q
f U
Ãľ b
ā >
O ÃĤ
$ Ă
P O
F ÃĻ
Ãľ Ã¾
Â» Â¸
ÂŃ ,
ĕ !
Â¨ ÂĴ
l r
h Ã¤
Â¦ ÂĨ
Â¤ ?
ÃĴ R
n Ãł
Âª Ãħ
B Ãł
Ã³ U
Âģ ÂĤ
7 0
ÃĹ Ĝ
E Ã¥
d w
e ÃĽ
K v
Â« "
ÃĬ z
ÃĶ y
) !
Â¥ Â±
Â¬ }
Ć >
t ÃĲ
Â¿ ğ
ÃĮ Ãĩ
ÃĶ Ãº
ė ă
~ Âĩ
E Q
Â£ Âľ
e Ãĺ
Ġ Ĕ
Âķ Â·
l Ãł
Ã² ÃĨ
ā [
ą '
Â§ Ĝ
a Ã¾
Â§ Â±
ÂĦ ÂĴ
ā Â¤
x Ã¤
Â© Â±
Ãį J
ÂĽ ÂĨ
S d
( #
F w
X Ãī
Â¨ [
Ġ Â¶
Y I
ā ~
n Ã§
n y
Âª Ã®
Â¤ Â¦
ÂĲ Â¬
ÃĮ OÃ¯
Â¯ ġ
p T
n G
, ÂĢ
ÃĽ Ãĵ
" Â¸
, Â¬
+ Âĳ
, Â±
+ ĕ
Ã² Ãľ
Ã² ÃĪ
ÂĲ \
Ã¦ Ãµ
ÂĽ $
o Ã¥
q G
/ ÂĶ
r Ãº
. ~
Ãģ E
v ÃĨ
F U
M H
Âĸ Âģ
c Ãī
Ā Â¢ÂĬ(ĀÂ¢ÂĬ(ĀÂ¢ÂĬ(ĀÂ¢ÂĬ(ĀÂ¢ÂĬ(ĀÂ¢ÂĬ(ĀÂ¢ÂĬ(ĀÂ¢ÂĬ(Ā
Â¤ Âī
Âµ j
Z Ãļ
d Ãļ
Â¢ ÂĤ
Â® }
Ġ #
, ?
ÃŃ Ãī
Ã¥ Ãı
Ã» Ãł
Ã¾Ã¢ Ã¾T
ā &
S Ãª
Âļ ÂĶ
ÃĴ Q
Â® Ĉ
Ĕ Ă
ÂĹ $
Ĕ Âİ
Y T
C p
Ãķ b
) =
ÂĲ @
Ã£ ÃĬ
Â» ÂĮ
Ãĥ p
ÂĻ Ĝ
Ãİ Âª
Ãĺ ÃĨ
ĝ ÂĪ
ÃĻ Ã¶
' >
Âļ ÂĢ
Ã¯ Ã¶
ÃĿ Ãį
Ã½ Ãº
ě Ĝ
Ğ `
h ÃĪÃµ
Ãİ Ãł
i s
Ã¹ y
Â¥ ÂĶ
ÃĮ ÃĦ
7 2
Ãĭ Ã³
Ã« D
+ Â·
) ÂĶ
ÂŃ ÂĮ
Ġ a
ÃĹ ÂŁ
, Âĥ
Â¦ Â¢ÂĢ
Âĳ ÂĿ
Âĸ ğ
ÃĿ Ãī
ă !
Ãĺ Ã¤
P ÃĽ
Â³ 4
Ã« FG
Â² Â¹
U W
Â» ÂĢ
M Ãĩ
x Âª
đ ÂĢ
U r
j m
Ć Âį
B Ã¤
ā Âī
J Ã®
Ã± Ãĩ
Â¦ Â§
Â£ =
Ã¶ Ã¢
Â» Ę
j e
| Â°
Ą ^
R h
Ã² H
N Ãľ
Ã± F
Ã¹ k
Â¨ ğ
ÂĬ Âķ
j L
S h
K o
Â« ď
T Q
Âĩ ?
ÂĬ ÂĶ
R D
Â» [
; Âĵ
J Ã¤
N Ã®
ĝ ġ
Âı Âķ
R s
Â¥ >
x ÃĢ
Âļ Â¬
Ă /
ą <
Â¤ Ĝ
Ãº W
Âĸ %
Â£ ď
Ãı ÃĶ
Ã£ Ãª
ÂĨ <
Ć Â«
Â§ Â¸
Âļ Âķ
Ã£ v
KI K
G o
Ã¯ Ã´
Ã» Ã´
ÂĽ ġ
ĕ đ
ÂĬ Âģ
Â¥ (
Âº P
c Ã´
p X
E H
Ã¶ Ã¦
~ Â´Ā
l Ã¤
N X
o Ãļ
Âĳ Â±
m b
: ġ
j Ãĳ
ÃĪ r
Ã« Ãı
) Â®
ÃĲ Ã¦
Ãº u
w Ã»
n Ã´
Âľ |
ĕ >
Â¦ Âģ
ÂĨ @
, `
5 8
^ *
Ĕ ÃĹ
ě {
e V
Â£ Ē
+ đ
N Ã¥
Ã½ ÃĽ
Â¦ Ĉ
ÃŁ C
) '
Ãĺ ÃĽ
Ãĭ r
B H
Ã³ Ãģ
$ ÂĦ
Âĩ Ę
Y W
ÃĢ S
l T
U ÃĿ
+ Ě
ÂĬ ÂŁ
i V
Ã£ L
ÂĻ Â¿
Â¨ =
w Ãļ
J L
ÃŃ Ãģ
Ã¹ X
n Ã®
ÂĻ "
ÂĴ >
\ Â°
F Ãĩ
Âĥ Â¸
Âļ ÂĹ
Ãł r
ÂĲ (
s Âµ
i Ãµ
c h
y Ã©
j D
Â´ ÂĿ
Ď Ę
Q Ãģ
Âı Â°
ÂĮ |
Â§ Â°
Âµ M
ė #
Âĵ '
Âı ÂŁ
g ÃĽ
f P
ğ \
* Â·
/ ÂĹ
Â¡ Â¸
Âµ D
Âľ Â¶
Ãİ Ã¢
Ãħ T
d a
ÂĿ ÂĢ
ÃĬ I
H Ãµ
3 1
Âĺ Âĩ
Ã¾ ÃĴ
Ã² ÃĲ
Ãĭ q
\ Â·
?ÂĿ Ā
Âª Âº
ě ?
Âļ {
ÂĦ ÂĢ
ÃŃ b
Ã² ÃĶ
Âı )
ÃŃ B
Âĳ ÂĹ
J e
Ġ Ã¢
l t
! $
Â¥ #
Â» ÂĶ
Âĥ Â·
J Q
U m
X ÃĨ
Â¨ Ą
ÂŃ ]
Â® >
n Ãŀ
Â¹ Â½
Âĺ ÂĨ
Âļ %
Ã¦ Ãĩ
n Ãļ
ÃĹ ę
U i
ÃĪ Ã®
U w
S Ãī
Â¦ Âľ
o C
Ãĳ Ã¨
ÂĬ ;
Ã¸ Ã¼
u Ãı
l Ã®
j Ãĸ
R M
ě ć
Â´ }
Ã¶ Ã´
R Ãĥ
ă `
Đ ć
Â£ Ą
E C
Â´ Âŀ
n Ãķ
ą Â¸
Ã· Â¡
Âĸ @
Âĺ Â±
m Ã¹
d Ã¤
Â¨ ć
ÃĬ A
Â¥ Â°
v Ãį
ÃĤ Ãħ
o Ã¦
ÂĬ Ę
Â¦ ÂĪ
* ÂĲ
c M
ÂĮ Â°
S Ãĩ
v Ã¼
k F
J V
j B
j ÃĴ
v Ã¦
# ÂĤ
Âĵ Ĕ
Âª Ãª
Ãķ I
Ãµ Ã§
ÂŁ Â§
ÂĬ Ĉ
ÂĻ ė
ÂĮ (
R Ã½
Ã¯ A
Ã³ Ãı
ÃĿ Ã¾
ÂĬ ÂĦ
ĕ Âĩ
Â¼ Â¹
m Ãİ
Âį Âī
ā Ğ
Z z
Ã£ ÃĶ
- ÃĹ
Ãķ Y
ÂĽ Â±
- "
Ć Âĳ
c ÃĶ
Ã¬ ÃĽ
) ÂĲ
Âķ Âģ
3 0
Ã¹ Ã¡
ÂĶ }
, Âĩ
b H
Â£ "
+ (
ě Âĥ
S ÃĽ
l Ãĵ
ă Ď
F ÃĮ
' ÂĲ
E B
Ã§ w
a Ãģ
) Âĵ
Â© Âĸ
ÃĻ ÃĽ
Âĺ Đ
Ã¹ x
Ć <
Â¢ Â¦
Â¬ Âį
q Âµ
] Âī
F ÃĦ
Ãį Z
y Q
ÂĻ ď
ÃĿ M
ĕ .
ÃĪ ÃĮ
Ã§ Ã¢
> ÂĦ
` ć
ÂĢ Â¸
j ÃĬ
T o
c Ã¨
G r
ā ÂĲ
Ã³ z
) Â·
Â¶ ÂĲ
Ã¡ Q
L D
q Ã½
f Ãŀ
ÃĦ P
E Ã»
Ę Âİ
Â¸ {
Ġ Âķ
T Ãķ
Ãī Ã¢
# .
N W
ÂĿ Â¬
: {
H Ã¦
Ã§ ÃĲ
Â¿ /
A Ã«
Âª ÃĽ
\ Âĵ
Â³ 1
ą {
Ĝ Â°
ÂŃ ğ
= [
h ÃĶ
Â¦ Â£
ÃĻ ÃĨ
ÂĻ ĝ
v Ã³
Âĳ ~
m Ã¥
Ãį O
Â© ^
ĕ Â¥
Ã© h
Ãī ÃĪ
ÂĽ Ę
C Ã²
ÂĨ ;
E q
c Ã«
Âĺ Âī
Ãı Ã°
Âĩ ĝ
Â¦ ć
ÂĿ @
, ď
H ÃŃ
I Ãļ
ÂŁ |
Ãģ Ã¢
E M
K P
Âª r
Ć ā
ÃĬ Ãł
X Ãĺ
Â³ Â¹
Ĕ ă
Ė ÂĴ
Â¦ (
E b
Â§ Âĳ
d Ãĳ
v Ã¤
ÃĬ G
# ě
\ Âĥ
n Ãĳ
) ğ
Â´ ÂĤ
Ġ Ą
Ãħ B
ę Âī
A Ã¥
x ÃĪ
t Ã¦
ÂĶ ğ
Âķ ^
Ãī Ã¤
Ãİ W
J k
Â£ ÂĲ
Ĕ Ğ
Â§ Âĸ
V P
\ ~
Ã³ Q
X Ãļ
m l
Ãľ Ã´
ą &
Â· _
Âļ ÂĪ
ÂĹ <
$ Âĭ
@ *
Â· Ğ
ÂĽ Â¸
R C
' Â¸
Ãİ Ãĸ
1 1
] ÂĪ
Ãĭ Ã¥
Ã® ÃĨ
e Âº
J ÃĪ
U n
V u
\ đ
F ÃĲ
: (
ę %
(Ā Â¢ÂĬ(Ā
Ė Ę
ÃĮ ÃĶ
Âį ÂĢ
ē Â¸
Âĳ Âĸ
Ã£ Ã©
ć Â¸
Â¬ ÂĪ
ĕ Âĥ
Âı _
Ãĩ Ã¤
ę Â«
a ÃĪ
Â´ Âĺ
Ã® ÃĽ
. ė
Ġ ,
Ĕ Â¢
Â¬ ?
Âķ Âķ
; ā
i Ãª
+ *
@ď Â¢ÂĻ
U Ãģ
ÂĬ ÂĢ
[ }
ÃĿ Ãĥ
Ã§ Ãĭ
Ġ *
ÃĢ n
# Âĸ
Ã½ Ã¤
ÃĮ W
Ą ÂĪ
t Ãħ
?Âķ Ā
đ Â¶
Ãł Ã²
Ġ (
J h
b O
Ď Âĥ
d q
Âī Â¤
X ÃĽ
Ġ |
ÂĮ Â¯
Ãł q
t Ã¢
/ ?
Ē ā
c Ã¸
! Âĭ
Âľ (
Ĝ Â©
Ãı o
^ }
ÃĿ I
& (
R v
ą ă
) Âı
Ã§ ÃĽ
) ĝ
Ãķ f
\ ÂĲ
Ă Đ
b G
Â± Âİ
ÂŃ Â»
" ?
` Ā
Âµ h
w Ã¶
Ãļ Ãŀ
ÃĿ Ãħ
đ ÂĨ
R j
Â§ Â¿
F Y
Ġ '
Â± Â¦
i ÃĬ
Ã© Ãĩ
@ ÂĤ
x Ã¼
Ą ÂĽ
ÂĬ ÂĻ
Âĩ Ã·
y g
Ã¢ h
ÂĿ Âĭ
ÂĦ ğ
d ÃĶ
Ãª A
Ġ l
` ~
k Ã¾
Ć Â§
ÃĴ H
Ã¹ Ã¥
ÂĴ *
V c
Â· ă
J ÃĢ
I ÃĨ
(Â¢ÂĢ Ě
Âļ Â»
Ãı Ã¦
ÂĦ ă
Ã¸ Ã½
4 2
T Ã³
t Ãµ
Â© Â¿
U a
ÃĶ Ã¾
Â¨ Â¢ÂĬ
Ą Â¶
ÃŁt Ã½
Ą Ě
Ġ ?
ÃĦ ÃĲ
Ã¨ M
Ã¬ M
Ã» f
ÃĿ Ãľ
< ā
ÃĮ l
Â¦ Âİ
v Ã±
Â¡ @
Â¤ ÂĪ
& Âģ
Â± Â¿
E h
Â¨ Âĸ
ÃŁ g
Â¥ ÂĬ
O Ã£
u Ãľ
Ď [
Âľ Ā
Ãĩ b
Ć (
, Âĭ
+ Â°
C s
A Ã²
Âī ě
Ãī Ã³
D r
Ć Âĸ
Â¥ :
g Ã¯
w d
H n
ÂĿ Âĺ
ÃĽ G
ÂĬ ÂĹ
ÂŁ -
ę Ã·
ą Âİ
Â¶ ÂĴ
Ā Â¢ÂĬ(ĀÂ¢ÂĬ(Ā
Ã¹ N
Âĵ Â·
Ãµ Ãī
L Ã³
c i
J q
ď Â¨
e Ãģ
t Ã´
Ĝ Ā
Ãµ Ã«
Âļ Âĭ
` ğ
Âĩ #
y Ã«
Â« ÂĤ
J n
Ãĺ b
Â± ğ
Â´ ÂĽ
ă Âĸ
H T
Â¸ ć
v Ã¡
Ãµ Ã¾
Â´ Â·
Â¶ Âı
@ ;
ÃĿ Ãª
F B
Ã¯ Ã¼
u Ãħ
ÂĨ )
Âĵ ÂĤ
. ;
Ã¸ G
\ Â®
Ãº Ã±
ÃĮ O
ÃĬ Ã¤
Ã¸ Ã°
a r
u Ã¦
-ĔĀ Âĺ
ą Âĭ
N ÃĤ
! `
A I
Q v
h Ã¶
Ã¹ l
3 2
Ą Âĸ
Q ÃĢ
Ãĺ Ãĳ
Â« ě
Â« :
Ă ġ
Ãŀ Z
ÂĽ ę
Â° Ę
Â¦ =
z q
[ Âĺ
Â¸ Ğ
X ÃĻ
Â¬ ÂŃ
Ã¥ ÃĽ
f b
Â¬ {
} :
Ãļ Ãĥ
Ãĺ Ã¶
ÃĦ Ãĵ
X Âª
* Âŀ
Â± ÂŁ
Ã¾Ãº Ã¾t
Â¶ Âĳ
$ |
Â£ Âĸ
A n
Âģ Â»
e e
l S
ă .
Â¢ Â§
Z JZ
ÃĬ ÃĢ
Ã§ p
i Ã²
Y Y
R K
y d
U B
ÃŁ Ãº
A b
ą @
$ Âļ
ÃĨ ÃĽ
E s
Ã¹ Ãį
ÂĲ >
X Ã¢
Ã© Ãı
E o
l ÃĲ
Â¦ Â¯
Â´ ÂĬ
Âķ -
I Ãİ
' Â¨
Ãľ O
X Ã°
` Âİ
Ãģ q
Ãª H
j x
ÃĤ Ã¤
Ğ ď
X n
Â¢ÂĬ( Đ
% ÂĮ
l R
2 Â¼
ÂĦ ġ
y Ãİ
e Ãī
` Ĝ
C r
Ę ġ
y Ã¦
- ?
[ ğ
Ã¥ Ãī
(ā (Â¥Â¢ÂĢ
Ãĥ r
Ă ē
ÂĲ Â¤
Ã« Ã½Ã¡
Ę ĞÂĤ
ÃŁ h
5 7
d p
Ė ę
Â¸ Ā
+ Âĥ
a N
F Ã¼
G B
ā Âĺ
Ã£ h
Ãķ i
Âļ Â¿
ÃŃ ÃĿ
ÃĴ m
I Ãģ
ÂĽ ÂĪ
Ĕ ÂĿ
Ãª W
ĝ Âı
g b
k u
Âĳ \
y R
Ãĺ Ãµ
; ğ
Â¥ ,
ĕ Âĭ
C O
ÂĻ Âĺ
_ Â»
Ãĩ S
Â« Âİ
Ãį U
g Ãĭ
Â¥ Âĺ
Z r
ÂĬ =
Y v
Ã¾ ÃĮ
ĝ @
Â¸ Ą
x Ãķ
Ã£ o
ć ÂĲ
g n
Ă ě
Â± \
Ã¹ Ã±
Âį Â¬
Âķ ÂĢ
ĕ Ĉ
S v
m Ã®
Ē [
ÃĪ W
Ãł Ã°
I P
Â· Â¯
ÃĶ ÃĢ
i Ã¢
Â£ đ
Ã² F
Âį ÂŁ
! Âĸ
ĕ Đ
* &
ā ÂĤ
B ÃĢ
I Ãŀ
Ãĵ L
V F
3 Â¹
ā )
ÂĿ Â»
5 1
Âŀ Âŀ
Ã¼ ÃĿ
Ãł p
Âĩ Ą
Ė ?
Ã² ÃĻ
Âı |
c Ã¯
X Ãľ
K s
ÃŃ Ãľ
Q Ãİ
Ă Â¶
Ě Âİ
Â· $
! ÂĹ
Âķ Ğ
m Ãĭ
Ãŀ Ãµ
ă ,
ÂĲ Ĝ
y q
y o
e f
Â£ {
Ãĩ s
Y Ãļ
Â¥ ÂĴ
ÂĿ ė
ą (
Ã® Ãķ
Â« *
ą .
Âµ r
ÃĽ H
t Ã£
m ÃĨ
Â© ;
c q
k p
ÂĬ Â¿
z Ã¶
Âª ÃĮ
c Ãı
ÂĽ Â°
ą ÂĶ
> Â¸
Â® Ď
Â¨ Âļ
Â¤ '
R Ãł
Ă ÂĸÂĴ
ÃĲ Ã¢
Â¨ Ã·
Âĺ ÂĪ
Ã´ Ã¼
Â¥ \
Ã§ Ã«
" Â¯
R ÃĢ
[ ÂĨ
Â® Ć
! Âĵ
Ě Âŀ
Âĳ $
ġ Â¯
c v
S Ãģ
ÂĮ Ā
k b
Q Ã§
Ã¤ p
Ãħ b
Ã® ÃĿ
ě Â»
Â´ Â¿
[ Âĸ
X Ã¾
Âķ ĕ
R ÃĬ
T p
< ē
Ã³ ÃĮ
ÃĴ I
Â± Ę
& @
+ ď
{ ~
J Ã¬
" ğ
c V
Â· Ą
Â· ÂĲ
ą >
Ã· Âĭ
S ÃĪ
Ãª q
M ÃĽ
Âķ Âı
) Ě
R x
. Ę
Âº ÃŁ
Ãļ s
H Ã«
Q Ãķ
Â¤ ĝ
Ãį h
; Ĝ
. Ĕ
i Ã¦
Ãļ Ãľ
Ãĩ p
Ãº Ã£
Â¹ Â¹
5 9
ÂŃ <
ÃŃ Ã¹
N Ãĵ
Ã½ r
Âļ ÂĦ
Â¬ ď
B Ã²
ÂĤ ÂĢ
e ÃĿ
ÂĻ '
ÃĻ Ã¢
J W
P s
Â« Âĵ
Ă ğ
Ġ 2
Ãħ Z
ÃŁ ÃŃ
Âļ ē
ÃŁ u
Ãı Ãĵ
) Âİ
- Âŀ
Â¢ÂĬ) Ā
Â¬ Ĉ
ÂĢ Â§
M K
Ã¡ Y
Â´ Âı
g Ã¾
ÂĴ ÂĶ
% Âĺ
ÂĴ ė
ÃĻ Ãľ
?* Ā
, ~
Ãķ K
c Ãĭ
F Ãİ
O o
ÃŃ ÃĨ
E t
Â· #
Âī Ã·
ÂĮ Â¨
Ğ *
Âı >
: Âĳ
Â· ġ
o Ãº
Ĕ (
ĝ ;
Ġ z
ÃĬ Ã®
e a
ĕ ?
ĞÂĶ ā
: Âİ
Ă Ė
j P
@ `
ÃŃ Ãİ
Â£ Â§
ă Â¦
Â¤ Ā
Ã¥ B
S Ãµ
Â« ;
Ã¹ w
Âķ ]
+ ?
Ãª C
H Ã²
ÃŃ C
Ã¶ x
% ÂĨ
+ ÂĨ
Âį Ğ
Âķ ÂĹ
Ã³ ÃĽ
5 0
j v
Â© ~
y ÃĨ
R ÃĿ
y Ã¢
ĝ Âī
ÃĶ Ã®
ÃĬ Ã»
ÃĮ d
H Ã´
Ãª F
(Â¢ÂĢ ?
Âļ Âĺ
Â¤ _
Â« Â»
[ ÂŁ
Q ÃĨ
Ã¥ ÃĨ
Z W
} Â±
ÂĦ Ă
* Âį
Ãį B
Ã§ v
> Â¤
` ?
Ã¹ Ã®
E p
ÃĮ N
m ÃĪ
Ãģ Ã¨
Ã¬ Ã»
b p
Â£ ĕ
s Ã¸
ÃĪ Ãķ
Âª W
g Ã«
Â¡ Âį
ÂĽ ÂĹ
Â¯ ĝ
Âĳ ÂĻ
Ĕ ď
Ã³ Ã½
Ã§ J
e l
S D
ÂĢ Â¤
Ãŀ ÃĨ
Ć \
ă |
Â£ ÂĶ
Ć Â´
( '
ÃĪ A
ÃĦ Ã£
M Ãľ
Âİ Ď
ÂĹ Ē
ÂĽ #
Âģ ÂĨ
Â± ę
O q
* Â©
ÂŃ Ė
Ãļ W
Ã¡ Ãª
M ÃĻ
Ã» Ã¸
ÃĲ c
U ÃĪ
ÃŁ y
: ?
Ãĵ H
Âĳ Ę
f ÃĽ
Âļ ď
j Ã£
: Âĥ
ğ ^
L h
Ã¡ Âº
Â¸ Âı
g Ã®
R Âª
) ÂĤ
Â¼ Â²
P N
m Ãī
Â¦ Ę
Ã² Ãī
g o
Ãĺ Ã¾
Ãĺ Ãĸ
Ã± ÃĪ
Ã£ Ãİ
Ã© i
Âĸ (
Ã± Ã¼
Â¥ _
Ã£ I
R Ã¬
Â© đ
* ÂĨ
Ć ~
E i
g Ã°
ă "
ė ,
+ ġ
Â¥ <
Â© ÂĪ
X u
> ÃĹ
Â§ -
. $
z s
& Â¡
k y
\ Ă
Âķ Â¤
Â¬ ÂŁ
Â· `
ÂĹ đ
ÂĬ Âĩ
ÃĽ I
Ãĺ Ãł
r ÃĮ
Âİ >
Â° ć
S ÃŃ
f i
Ã» d
Ã¹ Ã¼
Ãĺ c
Âī "
Â· Â§
e Ãĩ
Ĕ Đ
ÃĤ ÃĪ
Ě (
Â© Âĵ
Â» ē
ÃĹ Â¯
ě ÂĤ
Ĝ |
ÃĶ q
w Âª
Ġ ą
ě #
Â· ć
Ĕ Âı
) @
S Ãľ
Â¦ ÂŃ
Â¥ @
! ÂĢ
Â« Â¨
Âĭ Âı
Ġ ÂĨ
ÃĢ b
ÂĶ ÂĴ
Ã£ q
Ē ;
Ãª ÃĦ
Âģ ÂĪ
V B
E n
Âľ /
Ãŀ b
ğ ÂŁ
ÂĬ ĕ
j ÃŃ
Âĩ Â¨
l v
t Ã§
< }
Âľ Â®
J ÃĽ
ą %
Ãŀ c
X Ãĵ
R W
Â± Â¸
C w
ÃĤ Ã®
< Â¿
ÂĿ Âĥ
E Ã¤
+ `
Ãĺ ÃĪ
K d
ÃĿ ÃĪ
ÃĬ Ãĩ
i Ãĭ
Ã³ d
Ã£ ÃĮ
f f
ÃĢ d
K w
Ãĺ Ãī
Ã¯ Âº
+ ę
Ã½ÃŁ Ãĸ
u Ãį
Âĩ ć
Â£ Ć
Ã¹ Ãĩ
Âį Âį
[ Âģ
H U
K Ã§
Ãı Q
Âĩ *
n P
Ã¸ Ã²
* ÂĤ
Ě Â°
Â» ÂĲ
Ãĺ Ãľ
ÃĬ ÃĮ
S ÃĢ
X Ã¥
ğ ?
ĕ Ď
z Ã³
ÃŃ ÃŃ
Â¤ ē
Â« &
Ã¹ Âª
J Ã¥
Â» ď
Ĕ đ
[ ÂĴ
D Ãĳ
ě $
Â¾ 3
? Âĭ
c U
Â¬ ÂĮ
Ãİ Ã¦
Ĉ Â®
Âī ė
J A
Z P
j Ãĥ
Ĉ ~
) Ĝ
m Ã¼
l b
Ã£ O
ÂĸÂĴ ÂĢ
Ĕ ~
Âĭ Â¸
t y
Ĉ '
Â¨ ~
S B
] Â±
Z Ãľ
\ Â¯
Ã¬ Ãĥ
h Ãĥ
ā Â¡
Âĥ Â´
ÂĹ Ą
Â» ~
Âĵ ă
R q
h Ãķ
Ę Âı
Â£ }
Â» Âĺ
Â© ÂĮ
* Â¿
ą ÂĢ
Â° ĝ
^ =
Â¥ ă
Đ {
Ġ V
Ãĺ ÃĢ
Ãĳ Ã¤
ą #
Âģ ę
ÂĻ ć
Â£ ÂŃ
Ã½Ãĳ Ã´
ÂĲ ÂĴ
! Â¶
k t
G s
) %
ÃĮ Ãķ
^ [
Â¨ %
Ãı Ã±
j Q
ÂĶ Ē
ÂĨ ÂĿ
Ãŀ I
+ Â¡
Â¤Â¢ÂĢ ĖÂĬ
{ }
Â¨ `
N ÃĢ
Ĉ Â¦
2 Â¾
Ĝ Â·
? Âī
\ .
| Â·
Ã± Ã¹
ÃĪ Ãĭ
c b
Â¬ Â¤
o ÃĤ
Ãı Ã½
m Ã¦
ÂĽ Âī
V W
Ã§ ÃĶ
Â° ę
Â¢ ÂŃ
# Â¿
" Â§
2 Â²
Ď ÂĦ
J U
ė Âĸ
J Ãħ
J Ãį
Âº ÃĶ
Ě Âı
e W
Ãļ q
Ãĺ Ã´
Ã© KE
Ãİ Ãħ
F Ã²
G Ã¯
# đ
ğ -
ÃĲ Ã£
ÂĲ ĕ
" ÂŃ
* ÂŁ
Ã© Ã²
Â¥ ÂĮ
Âļ ÂĬĀ
i p
@ ÂĤÂĬ(
) ġ
Ę Ē
@ Âĭ
y I
k q
Ãª s
c L
\ Âĳ
Ă ę
ā Â°
a Ãī
$ ÂĨ
c Ã¹
ÃŁ Ã»
Â« .
Âī Đ
Ã¬ P
Â¨ ÂĮ
ą Â±
ă Âķ
Â» Âĵ
( ġ
ÃŃ Ãĥ
" ÂĦ
ė Ą
Ã¦ E
Ãľ d
ą ġ
f Y
Âĸ Â£
Ã§ Ã©
Â» ĝ
n s
5 Â³
7 6
C K
$ ?
Ě ÂĤ
Ã£ H
Ã£ ÃĽ
& ć
p W
Ãľ D
Ã± Q
Ġ Ãī
ÃĮ y
Âļ Â§
' ÃĹ
h ÃĲ
Â® =
ÃĨ Ãĸ
+ #
< Â¸
t Ã¶
Âĸ _
Ġ Ã½
i d
Ãĺ v
Ĕ ğ
Âİ ~
| ÂĮ
a T
a Ãµ
ĕ Âĵ
Âģ Âī
ÃĴ n
% Â¿
a Ã¼
q Ã¸
) ă
ĕ Ā
F Ã¨
R Ãħ
Â¡ ÂŃ
` ÂĬ
m Ãĳ
Âµ k
b ÃĦ
Â³ 0
Â¡ Âĺ
ÂŁ ^
Ě ÂĮ
: Âŀ
p Ãģ
Ã¤ Ãĸ
` Â±
Âª Ãļ
+ Â±
Ã¬ V
, Ĉ
I U
ÂĲ ÂĲ
Â¨ Â¿
Ă *
Ğ ġ
! Ā
ÂĶ Âŀ
H Ãķ
Ć [
Ãª N
Â¡ ÂĤ
j y
Â§ Âĺ
ÃĬ O
ÃĮ w
h L
a P
Y C
ě ď
Ă ć
= ąĀ
ÃĢ Ã®
Âµ n
ÂĪ ?
Â´ Â±
S Ãı
( Ĝ
Â· ÂĴ
Ě Ą
Â§ \
Âª Ãĳ
Â² Â²
U x
Â© ď
t Ãĵ
Ã³ g
Ã± V
a Ã´
ÃĽ Ã¥
ĝ Â£
Â¸ Âĵ
Â¡ $
Ã¬ q
ÃĽ Ã¯
, ÂŁ
- Â¤
Ã» C
y Ã¾
ÂĶ Âľ
; Âĥ
Â« Âŀ
, Â£
Âģ Âķ
d s
m Ã¢
c Q
ÂĲ Â©
Ġ ÃŃ
Ã£ Ãľ
e I
j b
Ć ÂĮ
! \
ÃĨ ÃĲ
r w
Ã½Ã¯ ÃĴ
Ă ÂĨ
Â² 4
^ ď
Â° Â¨
Ã¹ Ã¾
j ÃĤ
Â´ Â¶
ÃĬ Ã²
K Ã¤
B ÃŃ
ÃĢ U
ÂĶ \
Ã¨ G
Ď Â£
ÃĮ z
Âµ J
Âĸ ÂĬ(Ā
ÃĻ ÃĪ
ĝ {
H P
Ã¹ Ãı
Â¥ Ą
Âİ [
Ã¡ S
W ÃĲ
^ Âĩ
i Ãī
Âĭ ÂĮ
ĝ Â¤
` Âĳ
; ē
Ã³ T
ă ē
` Ğ
Âª Ã£
Z x
N Ãµ
ÂĶ Â¶
Ã¹ Ãł
Â» ÂĽ
ā ÂĹ
Z Y
, ÂĽ
Â° ğ
Ãļ p
Âµ Âº
i ÃĴ
ÃĶ Ãł
Â¸ \
X ÃĪ
Âĺ đ
A l
ÃĹ <
ě Â¯
ÂĲ ÂĤ
Â© Đ
U T
] Âĥ
% Â¶
Âĸ #
Â¢ÂĬ) ÂĢ
Âĭ ÂĪ
Â½ 5
Âľ Â¨
Ã¯ B
Ã® G
o ÃĻ
x Ã¾
ÃĮ Ã»
Âį Â±
? ÂŃĀ
Ē (
Â¤ ė
Ã« Ãĩ
Ã¹ M
Â¦ Â±
H Ã¥
ÂĨ ğ
Âļ Ę
i D
ĝ Ā
Â´ ÂĪ
n h
" /
Ãį C
Ã´ Ã©
c w
Â¿ !
Ã¦ Ã¶
Â© Âĳ
ÃĬ p
Ã¨ Ãĩ
Âĥ ÂĢ
ę Ć
Â¤ .
Â¡ Âı
Ãĥ Ã²
f V
$ Âĩ
= Ć
$ .
ÃĹ '
ÃĮ G
] ÂĤ
Ã¯ ÃŃ
Ē ÂĴ
ÂĻ Ĉ
ė <
Âĺ Â¥
j W
ġ /
Ě \
ÂĹ ÂŁ
) Ė
ÃĹ Â§
y Ãĳ
Ġ ě
Â¸ đ
ÂĨ *
U Ãĭ
Ã£ Ãĭ
Ã® c
ÃĦ R
Â¦ Â¢
L r
V Ã¢
Ġ .
Âľ Â¯
{ Ĝ
n ÃĶ
Â¼ 1
Ã¬ Ã§
Ġ ć
ÃĢ R
f Ãī
Ć Âı
ÃĽ Ã¦
Ãŀ Y
ÂĿ Â±
Â· Âĺ
Ã± O
Ã¬ Ã«
ā ]
Âļ [
Â« /
# Â©
Â® Ę
R RÃĲ
ÃĪ B
Âµ i
o Ã§
ÃĢ ÃŃ
X ÃŃ
Â· =
ą Âģ
Z e
j l
J Ãİ
Â¢ Â¯
n ÃŁ
ÃĽ F
Â¦ \
Ãķ M
Â¡ ?
Ã¥ b
Â¥ +
ÃĽ w
Â¡ Ę
@ ÂĬ
Â¸ <
Ã± K
! ć
Ď (
Ã½ ÃĶ
P F
Ğ :
Âĵ ÂĲ
ÂĨ Ĕ
ÃĻ Ãī
A Ãľ
ÃĨ ÃŁ
L C
Âĳ ė
đ ÂĪ
$ Â¬
Ã¼ Âµ
[ Â¯
Ġ Â©
Âª ÃĬ
I o
Ã£ ÃĲ
Ã± Ã§
j p
Ã¶ Ã¶
& ÂŃ
. #
~ ğ
v Ãĩ
X ÃĬ
A H
Âį ÂĮ
& >
A O
Â½ Â¹
W b
Ě ÂĲ
Â¨ ]
Â¤ Âĭ
e Y
T q
ĀĔ ÂĶÂ´
J ÃĲ
& Â´
ę Â¢
ÃĿ G
Ã± Ã£
S Ãŀ
Âª Ã§
k i
Z H
$ ÂĽ
j c
j r
Ĕ ē
< Â¯
Ã² ÃĦ
j w
[ ÂĤ
! Â±
Â¶ Âĵ
? Âı
' Ğ
V Ãŀ
Ã± Ã¬
Ã£ ÃŁ
& Â¢
Ã£ Ã«
Â¡ Â·
" @
Â¤ ÂĦ
B G
ÃĿ Ãģ
g ÃĮ
Â¢ÂĢ *
Âķ @
ÂĻ Â·
Ã¥ Z
ĕ Âį
a H
r W
Â« ÂĨ
Âĳ ď
{ ÂĮ
A q
! Âĺ
Ã´ U
ÂĲ Ă
y w
Ãħ L
* ē
ÃĪ ÃĶ
ė ć
Â« ,
ą ]
Âĳ Â®
a b
Ãİ ÃŁ
Âļ ÂĿ
v ÃĪ
Đ ā
y ÃĢ
n n
Â¸ Ď
đ ÂĬ
- Ã·
C Ãĸ
Â´ Â®
d ÃĽ
ė =
Ã¹ m
Ãķ U
Â¥ Ğ
ÃĨ U
Âľ .
ÂĮ Â¶
đ Â°
Ě Âį
ÃĴ F
a U
ě =
Â¸ Ē
Â¤ Âķ
Ã¼ Ã¸
a O
s A
C Ãµ
Â¦ <
ÃĿ O
ā (
Ĕ Âĸ
p M
j Ãµ
Âµ v
d W
ÃĿ H
* Âĵ
[ Â°
Ãľ f
ÃĴ c
Âµ T
l Ãĳ
Ãĺ Ã®
đ Âķ
ÂĲ Â§
a R
Ĝ Â®
ğÂķ Ā
Ã§ E
ÃĮ S
; Âľ
e Ã¹
L ÃĶ
w u
ÃĿ Ã³
} ÂĴ
Â© ]
` Âĥ
Âĭ Â°
Ãı Ã®
Ãı Ã¯
Ã½Ãµ Ã¿
M Ã¶
Â¢ Â°
ą Â°
I K
\ Â¬
Ãº Ã¶
ĕ (
\ (
x Ã©
Â¥ ]
, Ď
Ą ÂĨ
l U
Ĝ /
Ãķ V
X Ãĩ
Ãĭ s
W k
Âģ Â´
Â² 7
Ãł V
x Ã«
Ĕ Â·
# Â¦
1 4
[ Â¶
Ė @
Ãİ Ãĥ
~ ÂĿ
n Ã¤
Â¡ ÂĢ
3 6
Ġ Ãľ
t o
e p
Âĸ Â¢
Ãį Ã¨
$ Â®
Â´ Â¬
k V
Â« !
ÃĹ Â¿
a Ãļ
Ãª r
i b
Ã± Ã½
x ÃĽ
ă Ě
i U
Âµ N
ÂĤ Â¬
ÂĻ Âı
Ãģ b
M Ã²
Â§ ě
J P
h ÃĬ
Ğ @
Â¥ %
= ÂĪ
ÃĮ H
ÂĽ ė
j ÃĽ
Ãľ Ã¢
Â¡ Â¶
Ď Â¸
Âµ C
1 Â³
Â§ Ĉ
Â« ę
Ã± Ã¥
Ã¸ Ã¢
ā `
D Ã»
Ġ Ãļ
Ġ !
Ã£ Ã¨
Ãķ X
ÂĲ ą
Ã¤ Ã½
ÃĪ p
i A
D g
w m
Ã¥ Ãĺ
[ ÂĮ
Âª Y
T Ãĸ
W Ã¼
a V
t Ãĩ
Ã± ÃĨ
Ãŀ O
R N
c r
Ć Â¦
ÃĲ Ã§
Ã£ P
ÃĬ F
J Ã¨
ÃĦ S
# ÂĨ
o Ã½
ÂŃ ĝ
a ÃĽ
Ãı O
[ ÂĻ
Â¥ *
Ã¥ r
Ě Â¯
Ã£ ÃĨ
Ġ %
Ãł Ãĸ
Ĝ Â¡
i Ãĸ
Âģ Ę
M ÃĢ
d Ã¹
a Âº
Âĸ ;
ÃŃ Ã§
Ãī Ã²
^ ?
c ÃĪ
Âį ÂĪ
) -
ć _
Ãı U
n Ã¹
Âª X
ÃŃ Ãĺ
Ãķ v
\ {
Ã± U
Â¢ ÂĨ
Ã¤ e
= ě
Â£ Â¯
s Ã¯
Â¨ |
Ă Â¸
& Â«
Ě >
ĕ Â¤
) Âī
c Ãį
M Ã»
Ãĳ K
Ġ ÃĪ
ā ď
* Âı
Ã¾Ã¹ Ã¿
G V
ę ġ
Ã³ Ã¼
Ã³ ÃĶ
/ Â¨
ÃĦ Ã§
ė Ē
Âª F
M h
G b
Â© ÂĶ
B Ãĥ
ÃĮ X
ÃĿ E
ÃĤ I
ÂĪ Â£
Ã¦ I
Ãĺ Ãģ
ę _
Ãķ ÃĬ
Â¥ ć
Ãķ y
! ÂĬ
\ ÂĢ
Âķ Â£
\ |
Ã® I
Ă {
Ã³ ÃĻ
) ~
Ġ ÃĽ
l f
Ę Â¢
Â® @
w Âµ
ę Âı
Âģ Âĸ
Ġ 4
M Ãĭ
ą ÂĽ
ā ,
j Ã§
Ã¬ W
e U
Ĝ Â¶
Â¡ ÂĴ
H N
B c
i Ã¾
ÃĲ g
* Â«
Ć $
Ãª Ãħ
- #
Ã£ Q
Ė ĝ
< Âĺ
` Âı
Ą Âĭ
^ Âĥ
Ã¹ Ãħ
Ãĳ F
Ĉ Ā
n N
Ã± Ãı
Âį Âľ
Â» Ď
Y U
( @
n A
Ãľ Ãĸ
Â¾ 1
k v
Âį Âģ
Â´ ÂĲ
Âķ Âİ
Â» ÂĬ
Ãī c
Â¿ ?
Â¡ ğ
Âļ Ă
Â¤ Ğ
Ã° G
M U
ÃĶS w
t Ãı
Â¶ Â¶
Â¡ ę
Â§ +
Ę ÂĶ
C J
a ÃĢ
Ãº Ã©
Âĺ ē
a Ãĵ
I Ãħ
$ Ã·
f Ãª
ě ĝ
Ě )
@ ġ
Ã¡ X
Ãİ Ã¥
x ÃĲ
Ã± Ãŀ
u Ã§
R U
l e
Ã² Ã¢
ÂĻ ā
Â± <
Ã² ÃĢ
Â§ Â¬
Ĕ Ĝ
! ?
Ã£ U
Â» Âĳ
Â¥ Â¤Â¥
W Ã¦
Ãĭ Ãµ
ÂĬ ą
Ă Ē
a Ãĺ
ÃĶ I
ÃŁ p
ć Âģ
: Ĝ
Â¨ Âĳ
Â¦ Ė
Z ÃĴ
ÃĹ Ę
Ãľ Ã¦
n Ã¥
Â¥ {
ÂĪ Â¤
f e
k c
. Ā
Ãĩ r
, Âĳ
m P
Ġ 7
ă ;
ÃĨ Ãģ
Âĵ Ĝ
Âī Â£
Âľ Âĸ
Ã® Ã¶
ÃĮ x
ÂĿ Âģ
ÂĿ @ąĔ
l p
n Ãı
` Ć
L e
+ ÂĻ
Ãĺ ÃŃ
Đ Ć
) Â¢
ÃĶ Ã°
$ _
Âį Âİ
Ã² ÃĬ
D e
Âķ Â¶
m Ãļ
Â§ ą
Âľ Â©
) Â¡
! Ą
ÂĲ ÂŁ
J E
Â± Â«
h Ã§
ā -
q Ã¶
g r
^ ÂŁ
ÂĶ ÂĤ
2 Â³
Ãģ Ã¤
( Â©
ė Âĵ
C Q
d Ã¾
Ġ ÂĪ
Ã´ Ã«
\ Âģ
ā Â©
+ [
ÂĽ ě
Ãĺ Ã¹
ĕ ÂĨ
a Ãª
Âĩ '
H Ã©
Âª Ãĵ
Ã¬ v
] ÂĢ
ÃĤ Ãł
ÃĦ T
f I
Ãį A
) "
| Âĥ
k R
? ÂŁ
Ã¹ Ã½
ÃĪ Ãĵ
ÃĨ Ãħ
Â§ Âĥ
Â· Ĕ
Âį ÂĤ
Ãŀ F
Â¸ Ĕ
Âĺ ę
Â¤ Â¬
ÃĨ Ãĥ
ÃĴ ÃŃ
Â´ Âĭ
Â» ć
+ ą
Ã· Â±
* #
ÂĦ Ĝ
Ã¬ p
Ã® E
Âµ e
Â¥ /
} Â£
Ã® ÃĲ
Ã¬ s
ÂĽ Âİ
@ Â£
Đ Â±
Ãī o
ă ā
Â¿ Â¸
0 6
. ě
Â¤ Â®
Â¨ Ĕ
W V
I Ã½
K Ã½
Ãľ Ãµ
Âĸ ġ
5 3
C o
Ę Âĳ
l q
n T
y Ãģ
ÃĹ Âı
Âŀ Ć
z z
D ÃĽ
Â´ Âģ
Ãħ r
] Â»
ÂĻ Âī
Ãŀ Ãŀ
i Ã£
Ġ 6
ÃĮ V
Â¸ ÂĪ
Ã® O
Ãİ Ãģ
Ãª Z
x Ãĳ
ė ÂŁ
n X
) Ğ
L w
: Âģ
ÃĻ ÃĢ
Ĉ ğ
Â¤ $
Â¤ #
N Ãĸ
{ Âĵ
Ġ Â°
Â¦ Â¥
g v
Ãį ÃĶ
* Â¡
[ Âİ
n ÃĦ
N Ãĥ
h c
ÃĨ B
ÂĽ ?
" Âī
Ã¬ E
Ã® P
M Ã¦
{ Âİ
N Ã²
j Ã¤
Ě |
Â± ÂĴ
Q Ã´
Ãİ T
[ Â·
Ć Â®
Âª Ãĥ
Âĺ ğ
} Â§
Ĉ ÂĮ
Âĺ Ė
{ Ď
Â¬ _
C U
Â¨ Âŀ
] Â¶
Ãª S
ÃŁ w
ÂĽ ~
} Âİ
Âĩ $
C Ã»
H Ã¾
Ãĵ w
Ã« X
Ã½Ã³ Ã¿
f Ã¹
J Ã²
& Âĸ
Ĉ Â¿
C v
Ğ ?
[ Âķ
Âª Ã¤
Ġ Ã¼
r K
Y Ãĺ
Ã£ Ã¢
ÃĽ O
D ÃĴ
Ã· Ē
N Âµ
ÃĿ h
g Ã±
Â· ,
D l
ÃĬ ÃŃ
Â´ Â¸
L m
ÃĿ Ã¼
i Ãĩ
Â¦ Â«
e ÃĢ
Ã» t
ÂĹ ,
Ãĺ V
n Âµ
v Ãī
+ ÂĿ
Ãļ A
Âĭ ÂŁ
H Q
X m
I b
Ã½ D
Ã® Ãľ
O s
(Â¢ÂĬĀ(Â¢ÂĬĀ(Â¢ÂĬĀ(Â¢ÂĬĀ(Â¢ÂĬĀ(Â¢ÂĬĀ(Â¢ÂĬĀ(Â¢ÂĬĀ(Â¢ÂĬĀ(Â¢ÂĬĀ(Â¢ÂĬĀ(Â¢ÂĬĀ(Â¢ÂĬĀ(Â¢ÂĬĀ(Â¢ÂĬĀ(Â¢ÂĬĀ(Â¢ÂĬĀ(Â¢ÂĬĀ(Â¢ÂĬĀ(Â¢ÂĬĀ(Â¢ÂĬĀ(Â¢ÂĬĀ(Â¢ÂĬĀ(Â¢ÂĬĀ(Â¢ÂĬĀ(Â¢ÂĬĀ(Â¢ÂĬĀ(Â¢ÂĬĀ(Â¢ÂĬĀ(Â¢ÂĬĀ(Â¢ÂĬĀ(Â¢ÂĬĀ (Â¢ÂĬĀ(Â¢ÂĬĀ(Â¢ÂĬĀ(Â¢ÂĬĀ(Â¢ÂĬĀ(Â¢ÂĬĀ(Â¢ÂĬĀ(Â¢ÂĬĀ(Â¢ÂĬĀ(Â¢ÂĬĀ(Â¢ÂĬĀ(Â¢ÂĬĀ(Â¢ÂĬĀ(Â¢ÂĬĀ(Â¢ÂĬĀ(Â¢ÂĬĀ(Â¢ÂĬĀ(Â¢ÂĬĀ(Â¢ÂĬĀ(Â¢ÂĬĀ(Â¢ÂĬĀ(Â¢ÂĬĀ(Â¢ÂĬĀ(Â¢ÂĬĀ(Â¢ÂĬĀ(Â¢ÂĬĀ(Â¢ÂĬĀ(Â¢ÂĬĀ(Â¢ÂĬĀ(Â¢ÂĬĀ(Â¢ÂĬĀ(Â¢ÂĬĀ
Ą (
ě Â©
ÂĽ ÂŁ
Â® Â¿
Â¤ ć
ÂĴ &
ÂŃ '
Ã¯ Ãĵ
Ã» u
ÃĻ Ãİ
F ÃĨ
Ď ÂĢ
= ÂĨ
[ Âĥ
ÃĻ Ãģ
Â¶ ć
Ãĺ W
o b
C P
ÃĬ T
Âĺ ÂĮ
Â° ď
ÃĬ Ãħ
i Ã¨
n x
Ã· ĝ
Ãı ÃĦ
/Ã· Âĩ
Âļ -
ÂĬ Â¸
Ãŀ Ã¢
] ÂŃ
[ Â±
) `
ě Â¡
: ā
* !
Ãĺ w
Âº Ãĵ
L b
ÂĿ ğ
Ãĭ b
Ă ė
ÃĪ v
Ė ğ
ÂĿ ÂĤ
Ã¯ ÃĽ
* \
Âĸ `
Â§ /
K b
[ Â©
ā Â£
C d
F Ã©
ÂĲ Ę
ÃĶ ÃĦ
E m
Ãļ B
G Ã°
H f
o Ã¼
ÂĶ Â®
Ã® Ãĵ
Â« Ę
= Ď
ą /
L q
Ġ ÃĢ
ÃĽ Ãľ
Âį Â¶
$ ,
Âĵ Ğ
i Ã±
Ē Đ
ĕ Â©
Ã» N
x Ã¹
Âį ÂĨ
Ãª Ãį
Ãĺ f
ĕ Âİ
$ *
Â§ ÂĻ
& Â¦
ĕ Ć
h ÃĨ
Â¢ÂĬĀ (Â¢ÂĬĀ(Â¢ÂĬĀ(Â¢ÂĬĀ
Ãĥ q
Âª Ã±
a F
O b
? ?
p Ã£
ÃĿ ÃĤ
ě Âķ
Ã¾ Ã¤
Âĳ ÂĽ
i I
! ğ
ÂĹ Ğ
Â± Â·
a Q
c B
k g
Âı ~
y Ã¼
j Ãİ
n r
e v
L Ã±
ÃŁ U
Â³ 3
ÂĿ ÂĦ
Ĕ Â°
Â¥ ^
Ã½ b
Âª Ã¦
Âª Ã¬
ÂĲ Âŀ
Âı /
? Â±
o Âµ
N w
< Â¤
ÃĮ ÃĮ
X ÃĢ
Ã¤ ÃŃ
ÂĮ /
ÂĮ )
# +
Ã² Ãį
Â³ 6
Â¸ Â·
Ã¨ A
a W
ÂĽ Âģ
Ãħ P
g ÃĻ
* ÂĶ
- ġ
Â´ ÂĻ
F V
Â¬ Â®
Ãŀ ÃĿ
; Â¶
Â¸ Âī
Ą ā
k h
a M
ė `
Âĸ ÂĬ(
\ Â©
ć `
Q Ã¤
} =
Ĕ Â¡
ÃĽ q
Ė Ă
Ãª Ãĥ
] Âİ
Â» ÂĤ
} Â®
Âļ ā
a Ãİ
Â¦ ę
Ē ?
[ ÂĢ
- ÂĴ
+ ÂĪ
Âı $
Ã§ W
Ã® b
Ãµ Ã½
} Â«
Ã´ Ã¯
F Ã¹
E ÃĤ
Âķ Âĭ
Ãĵ d
ÃĿ Ãĺ
Ãº w
Â¥ Â¬
L B
Ğ Âŀ
J ÃŃ
: Ď
e O
Âµ R
Â¢ ğ
ÃĹ Âĳ
t Ãĳ
ÃĽ y
; ÂĮ
) Ē
= ā
w b
Ãļ v
ÂĴ ę
e c
i Ãĥ
A u
F Ãī
ĕ Â§
ÂĹ Ã·
3 3
ÂĬ Âĺ
ÃĴ Âº
Âķ ÂĤ
a X
Â¥ Ĉ
- Âı
Â£ Ã·
n W
ĕ Ė
= Â¸
ė Ď
Ą Â¨
Â¦ ě
Â± ĝ
ÂĨ (
Ã¥ v
Z Q
ġ ē
Â± Â¶
Ã¢ Ã½
P q
T ÃŃ
S Ã¯
$ Â¨
m Ãį
Â¤ *
Ã¾ ÃĪ
Z ÃĬ
ÂĲ Âĥ
ÂĴ %
Âķ ÂĽ
[ Âĵ
o Ã¡
ÃĿ Ã²
Ã¥ c
T Ãĵ
ą ÂĬ
Â§ Âĵ
ă ď
J X
Ã¸ Ã¦
ÃĮ g
d Ãķ
r E
Ã³ Ã©
ÃĮ v
Ġ Â¨
Ãĭ Âµ
Ą Ā
U Âª
{ ē
B B
\ ā
< Ã·
Â« `
1 2
l Ã´
ÂĶ Ğ
Ã¥ Ãİ
Ãħ h
Ã¶ Ã«
| ?
ÂĻ >
Ãŀ D
Â¥ ġ
\ Âĸ
Ĝ Ė
Ĉ Ã·
F C
R ÃĨ
Â¬ @
Z K
ă *
Ãº v
ÃŁ i
< ÂĪ
Ãļ ÃĿ
ą Â·
Â´ ğ
Â» ě
Âľ Ė
[ ?
: ÂĬ(
Ġ Âī
Â© Â¸
- ÂŁ
Ġ Âļ
Ą /
Âİ Âŀ
k x
ÃĮ ÃĻ
E Ã§
Ď ÂĿ
Ãľ Ãľ
ÃŁ Ã¶
ÃĮ s
{ đ
Ě Âĵ
Ã¨ B
Â¬ ÂĦ
Ě Âķ
U ÃĢ
ÂĤ ~
Â¡ ĝ
ÃĦ Ã±
. Â¿
H h
S Ãĭ
P x
Ã² z
Âĳ ę
n F
ÃĦ w
ÃĨ Ãķ
[ Â¸
Ã¥ Ã£
Ã¼ ÃĴ
Ã¤ j
Âģ Âį
^ ÂĿ
e ÃĪ
Q Ãĭ
T I
ÂĢ >
Âĩ =
Ãį Ã³
Ã¨ y
Ã¦ B
Â³ 2
K U
. "
} Âı
Â» #
H Ãĸ
r X
Âķ Âĥ
q A
+ Ę
Z y
ÂĴ Â¤
Â® ā
u b
Ãĥ m
ÃĴ Ã¢
I KE
F d
{ Âľ
Ã° h
ÂĨ ÂĲ
% Âģ
Âķ ÂĲ
ĀÂŀ Âĭ
ÃĹ ć
Â§ Ć
Â° Â¤
Ą Â·
@ ÂĮ
' Âĥ
H Y
Ã¦ Âµ
Â¨ Âı
Ġ )
Ãħ N
F Ãĺ
Â° Â©
Ĕ ÂĪ
\ ÂĬ
- Âģ
Ě Ć
Â± Ĝ
' Â¦
Ã´ ÃĨ
Â» ?
J t
Ãī Ãľ
Ă Â·
Z G
+ Âĺ
ÃŃ ÃĪ
ÃŃ Ã¤
: Ğ
] Â·
Â§ Âģ
Âļ Â£
Â§ Â¦
d Ã¼
ğ Âı
Âľ Ć
Ãħ Ã¾
Â» ÂĴ
ÃĶ Ã»
A f
Â¥ ÂĤ
l Ã²
Ã¹ e
ÂĻ <
ÃĿ Ãĵ
ÃĿ Ãĭ
Ãł Ã®
[ ĝ
Ď ÂŁ
D Ã²
Đ @
ÃĢ Ãĵ
p Ãİ
ě ;
Ã¥ ÃĪ
k n
F f
ă ~
Âµ O
ğ Â¯
Â± Âĵ
J a
Â± ,
ÂŃ Ē
Â° {
D b
Ĕ Â¤
Ã¹ z
ė Ā
Ă Ā
ÃĨ ÃĢ
Â£ @
) ÂŁ
i q
o S
Ã« Ãķ
< ÂĢ
L U
Âļ Âĩ
c Ãĩ
: ~
H Ã»
ā Âį
e Ã³
Ġ /
Ãļ Ãĺ
ÂĻ ÂĶ
Â¨ Âį
V Ã²
Ãı s
Z Ãĸ
ą Ą
ě Âľ
Ã¯ Ã½
ÂĮ Â©
Â« Âģ
Ã± P
ÃĽ v
ÂĻ ÂĪ
R Ãĸ
Âĳ ]
; đ
Ã¡ r
ÂĻ ,
F ÃĪ
Âµ P
{ Âģ
ē Âĥ
X Ãĳ
Ã£ ÃĤ
ě ~
Ā: ÂĬ(
& Ĉ
} Âĸ
ÃĲ u
? ğ
Âĺ `
Ãĥ t
S Ãĺ
Ę ÂĴ
ĝ ÂĢ
Ā (Â¢ÂĬĀ(Â¢ÂĬĀ(Â¢ÂĬĀ
Â§ [
ÂĻ -
d Ã¶
Ãĥ ÃĴ
ÂĹ Ĝ
1 Â¾
ÃĮ A
Â¤ !
Ã£ W
ć ,
> Â¢
Â´ Ē
ÂĮ Ć
Â¬ ÂĴ
ě @
Ãļ Ãĩ
Ãł Ãĳ
ġ Â¿
a s
\ Ć
Â¦ #
ÃŃ Ã©
Ą ÂĦ
Ãĭ Ã¹
" Âĥ
Ã£ n
Ã¼ ÃĶ
Âķ ă
ď Â¸
+ ÂĹ
Â» Âĥ
% Âĩ
G Ãº
Ã¼ Ã¹
I Ãª
Ã¬ R
= Â¨Ă
I ÃĪ
V i
ÃĬ Ãģ
Z j
Ã¬ r
Âº j
p w
Â§ Ğ
" Ė
Âª Ãĩ
ÃĨ ÃĿ
Ãį Ã²
Â± Â®
ÃĦ Q
c ÃŁ
n ÃĪ
ĝ Âģ
V Ã¦
Â« Ā
Ã¡ Ã¾
Ã· ÃĹ
* Âĥ
< Â¥
Âļ Đ
U Ãı
Âļ Ė
Ã¦ Ã´
Ãļ ÃĢ
Â¬ ę
Â· Âĵ
Ã¬ Ãĵ
Ĕ Âī
D f
Ãŀ Ãĩ
ÃĽ s
Â¢ÂĬ(Ā Â¢ÂĬ(Ă
Â« ā
Â¦ Â¦
Â» Ė
Ã¶ i
ÂĢ Â£
* _
l l
Âº Ã£
n M
Â¤ Â¸
Ãĸ Ã¢
Âļ Â´
ď Â§
t e
Ã³ Ã¬
ă ÂĨ
Ě Â·
Ġ Ãĩ
X ÃĤ
Â± Â±
& /
Ã³ Z
Ãļ ÃĻ
ÂĻ Ď
đ Âĺ
] Âı
n ÃĤ
2 4
y b
; `
| ÂŃ
Â³ 7
R RÃĳ
U Ãĩ
J x
ÂĮ Ė
! #
ÃĪ N
Ã¬ Ãĩ
E O
Ã¹ A
% @
Â¡ Â¬
Â® Â£
Â» Â¿
\ ÂĨ
ÃĽ Ãı
ă (
Â© ė
M Ã¥
Âĭ ğ
Ĉ ÂŃ
{ Âĥ
ÂĴ Đ
ÃĦ Ã²
ÂĿ ÂŃ
ÂĲ ė
Ãį g
Ã¦ j
+ ě
Ġ 3
Ę Âĵ
ÂĶ Âĳ
ÃĢ Ãª
Â¯Ã· Âĩ
f R
c Ã©
" ÂĪ
ÂĿ Âī
ÂĤ >
ÃĦ l
m Âª
h Ã¥
d Ã¢
B F
' ĕ
Ě Ė
Ãį Ã¦
Ā} ġ
Ãł Ã½
Ãĵ N
ā Ĉ
Âº S
u Ã´
s Ãľ
ÂĤ Ā
Ġ Ãĭ
ġÂį Ā
e R
ÃĢ T
X Ãĭ
Q FG
ÃĽ Ãĭ
ą Âį
ÃĬ W
Â« Âĥ
w p
Ãµ f
ć Âĺ
Ã± Ã±
} Âĩ
Âĭ Ā
B d
Ę đ
ÂŁ (
Ą Â°
Â¶ Âĸ
ğ ,
M W
ě Âĵ
c N
. %
Ã° y
[ Ĝ
x Q
- ÂĢ
: đ
ę `
Âµ g
Ãŀ G
Ă +
Â¦ ,
Â³ 9
ę ÂĪ
r T
ÂĽ Âļ
ÃŃ Ã¼
M o
L v
ÂĦ Âģ
i Ã«
ÃĮ Ãģ
ÃĿ Ãİ
b Ã§
\ ă
t ÃĴ
ÃĨ ÃĻ
Â¥ Âĳ
Ã¥ D
J Ãĸ
Ą Ė
Ã¾ Ã®
Â¶ Âİ
m ÃŁ
; Â¸
E Ãĺ
Âª Ãľ
Ã¬ c
Â´ Âĵ
0 7
Ã£ G
r v
Ą Ã·
< Â©
B y
Â¤Â¢ÂĢ #
n d
u Ãµ
ÂĬ ā
Ĕ Âķ
Ã¶ Ã¼
ÃĬ ÃĴ
Ã¬ Ã²
Â¦ Â®
Â« _
Âı %
" }
ÂĻ Âİ
ÂĲ Â¶
ÃŃ Ãĵ
a Y
Âª Ãģ
| Âĺ
R Ã£
Â« >
e A
l w
ė ā
) Ď
E Z
j ÃĢ
] Âĺ
Â¥ Âģ
^ @
Â» Âĸ
c H
I Y
Ã¬ G
R Ã§
Ć Ď
Âµ Ã´
q Ã®
Ĉ Ĝ
x Ãľ
Ã¹ H
* Đ
ÃĽ p
ĕ Â¯
Ã¾ ÃĻ
i Q
; ą
Â¤ (
r Ã£
U F
Ã« Ã¯
ă +
b A
ÂĮ Â¡
P X
& ď
Ă [
J y
Â¢ ?
Âª Ã½
* ĕ
Ě Âĳ
3 9
Ã¡ c
Âĺ ÂĦ
Â§ (
N ÃĲ
Ã® Ãı
Â» ą
B z
Ã² Ãĥ
Â« Â©
ÃŁ s
Â¸ Ã·
; Â·
Â¤ Â±
; ă
Âµ L
P p
y K
Ãĵ m
Ĉ Â¨
: Âķ
Â© ÂĢ
$ Âĺ
Â£ Âģ
Ãł i
) ]
V n
ÂŁ Â¥Ā
E L
j ÃĪ
Ă Â¿
- Âĵ
ÂĶ ē
ġ Âĩ
f Ãģ
/ Âļ
B Ãĳ
M D
Â§ ÂĮ
3 7
ę Ĉ
ÂĨ `
l Ãµ
ÂĨ '
Â¦ Â°
Ã½ Ã¹
ď Âķ
- ÂĤ
K x
Ã± ÃĽ
ÃŁ Ã¸
Â» ā
> ?
Ã© Ã«
I Ã¢
Ãħ Âº
ÂĦ Âı
i Ãķ
C Ã§
Ě ÂĶ
Â± Âģ
. Â¡
n U
J Ãĭ
Ã¶ Ã§
Ã¶ Ã£
Âī ć
ě Â¥
# Ď
ÃĿ ÃĦ
Ã¼ Ãĳ
ğ *
n Ãĺ
Z Ãĳ
Ãĩ Q
e s
ÂĴ Ė
Âµ m
ÃĮ L
Ã¶ y
F Ã§
ÃĶ ÃŃ
Z Ãį
ÂŁ ~
u Ãģ
v i
K IE
: }
T Ãº
g w
5 Â¾
z Ãº
Â§ Â¢ÂĢ
đ Ã·
X Ã¦
ĝ ÂĨ
Â± ÂĲ
0 4
G Ã±
ÂŁ ġ
Ã¼ ÃĨ
Ã¹ v
Âī Ĝ
Ă Ĝ
Ą |
Â© Âį
Â¤ &
H W
Â· Âİ
s Ã¬
Â° Ā
J ÃĨ
ÂĻ ĕ
j ÃĨ
ÂĴ +
M O
ě Ā
Ã£ Ãį
x U
S Âµ
[ [
J Ãĩ
Â» ÃĹ
ě '
Â¤ Âľ
ÃĴ Ãľ
Z Ãĵ
ÂĴ ą
Ãµ Ãĳ
ÂĶ Ď
Âĺ Â®
ÂĹ *
Â¢ÂĢ ĝ
ÂĮ Âĸ
Ã¯ j
ÃĪ I
Ã¼ Ãĭ
V D
t W
ġ ğ
} Ā
ÃĶ Ã¤
R g
Â£ /
ÃĮ j
ÃĻ Ã¤
^ ÂĤ
C F
c l
Ãº Ãª
) Â¨
Â¯ $
< Â¡
Ā| ÂĬ
i M
Ġ Q
Ă Ĕ
Ãĸ E
Â» Ğ
Ã± Ãī
Âī %
Âı Â¡
\ Ě
ÂĴ $
Ã© ÃĽ
# Ė
Ãł Q
ÂŃ đ
Ãł Ã»
ă @
Ãĥ Ãµ
ė *
R X
Âµ d
Âį ÂĽ
RÃĴ RÃĲ
Âį Ĕ
Â© Âģ
Âİ Ĕ
Z Âº
ÂŃĀ -Ĕ
ć !
ÂĴ ÂĬ(
Ã© ÃŃ
Â´ Âĸ
\ Ė
Ġ y
* Ē
ÃĮ Y
ÂĦ Âĳ
Â¥ Đ
Ã¢ E
Ã½Ãµ Ã¼Ã¨
Â· Â¸
n q
@ą -%
Âł č
Ą .
Âĵ <
Â§ Âŀ
ÃĪ X
Â´ (
A r
Â¤ Âļ
a L
Ã« Ã«
I m
Âª D
Âķ [
Â¶ @
Â¹ 2
} Âļ
V d
Â§ Ā
U s
Ã½Ãĳ Ã¹Q
) ^
p P
Ã¥ C
ÂĻ Đ
Âģ ÂĶ
ę ^
Ġ ÃĬ
j Ãī
Ãĭ d
i Ã¤
c S
ė Ă
~ Âĺ
Ã¨ x
Â¥ Âĭ
Â¬ Â±
Âŀ \
f B
p v
Â² Â¼
?Â¸ Â¿Âķ
? Â¥Ā
Ãħ s
` Âľ
Â· ÂŁ
Â· Ā
Âŀ Ď
ÂĹ ě
w r
Ã¯ Ãĩ
Âª Ãł
Â¯ ğ
Ã® ÃĢ
q Ã¬
l s
ÂĲ ğ
l ÃĶ
Ãľ ÃĬ
R RÃĴP
Ĉ |
ď ĝ
b x
i ÃĪ
ÃĻ v
Â¶ _
: ÂĨ
Ĕ Â¦
Â¯ #
P j
đ Â¨
ÃĦ Ãł
g Ã¹
y e
Â¨ Â¸
a Ãŀ
u Ã£
ÃĹ #
M L
f Ã£
Âĩ <
Â» Âķ
$ /
ÃŃ Ã¶
Â½ Â¼
' Â®
ĔÂĨ Ĕ
Ãļ ÃĽ
Ãľ Ãŀ
b Y
ġ .
Ę Ď
Ē >
Q Ãĺ
Ã´ Ãģ
Ã§ S
Ãı Ã¤
ÃĨ Y
Ã« Ãĳ
Â¬ ÂĢ
Â£ Ď
Â¡ #
Ãľ ÃĽ
Ãľ n
Ã¢ I
Â£ Âĺ
C S
+ ÂĶ
Đ Â´
Ãį R
Â» Âį
v Ã»
T Ãª
Âī Ĉ
ě Ć
Ã§ q
Â© [
Âº ÃĲ
Â· Âı
Ã² Ãķ
b ÃĽ
Ą >
ÃĴ S
X ÃĿ
b E
ÂĻ =
Â· Â¶
ÂĦ ÂĲ
Ã± Ã¦
Ĕ Â¨
Ãħ g
Ğ {
) Âĸ
ġ _
Âı .
Ã³ F
ÂĦ Âĵ
; @
ÂĨ Ā
i B
Ãŀ Ã¦
Ãħ f
C Ã¤
Z a
Â« ÂĢ
ĀÂį Ā
Â¼ Â³
K Âµ
Ã® Ãī
Â© Â¶
ÂĬ Đ
Âį ÂĶ
s Ã»
Â» Ē
e q
A J
Âĺ ÂĲ
X Ãģ
Ą [
k J
Â· ď
c Ãĺ
Ã´ Ãª
Ğ ć
Ãĭ v
Ã¾ Ãĩ
Â¦ ÂĮ
* đ
ā ė
ÂĦ Ē
Ã® R
Â» `
ă /
Ã¬ g
y ÃĪ
Ãļ w
t Ãī
Â¬ Âĥ
< Đ
Â¬ Â§
ÂĨ ď
| _
Ą Â©
ĞÂĶ Â´
Âª Ãķ
Â« ?
Âŀ ÂĬĀ
Â° =
ÃĬ Ã¬
n H
ÃĿ Ã¬
Ã¾ c
Ā< ÃĹ
Ãļ z
n Ãİ
Â± Âĳ
@ :
} ;
ÃĶ Ãª
Â¥ Âĸ
Â¦ Â¡
Ĕā ^
Ãľ Ãł
Â¬ Âĳ
I v
ÃĬ N
h Ã¢
Ã¦ D
Ãļ x
Â¦ $
ÂĿ ÂĪ
U l
s Ãº
Ã£ r
ď Â©
ē ę
đ Âĸ
' ÂĽ
U d
Â¥ ÂĢ
Y d
Ā| ġ
f l
S q
Z ÃĲ
Ė `
ĕ Â¿
Â° Ď
ÃĶ e
Âļ &
Z Ãİ
Âļ Â¸
- Âĥ
I N
Ě ?
ę Âİ
ē ÂĤ
Â¢ (
Ãģ s
ÂĢ$ Â¢Â£
Ãľ ÃĢ
ÃĻ Ã¦
H Ã¡
R ÃĮ
Âª ÃĤ
* >
Âļ Â¶
n e
ÃĦ m
ÂĹ >
g Ãĵ
) Âĭ
1 Â²
H A
! '
ě _
ÃŁ Ã¡
Ã³ ÃĢ
Ãļ C
Â» $
; Đ
ę ÂĤ
Â¿ _
B A
Â¨ ÂĽ
Y J
Ė ā
X e
Â¨ Ğ
j Âº
Ã² Ã¶
S c
ă ą
I Ãį
Âķ Âĳ
Âķ ,
Âį ÂĻ
Âĺ ÂĤ
ÂĨ Ĝ
Â´ Âī
Âª v
Ã¾Ã¸ Ã¿
- Âĳ
ÂĶ Ĉ
Ã© Ã³
ĕ Âľ
Â± Âŀ
" (
Ãı V
/ ÂĽ
| Â¯
ÃĿ o
ě ÂĲ
! ÂĻ
/ ġ
j T
j ÃĲ
Ę \
ÂĬ ÂĿ
c Ã°
Ã» G
Âĸ ÂĮ
Âĭ Âİ
[ $
- .
Ãĵ ÃŃ
Â» Đ
Â§ ÂĴ
w Ã±
I Ã³
a G
m Ãħ
Âĵ $
b i
Âļ Âģ
L u
J s
Ĕā Ĝ
Ãķ W
Âı Â¸
ÂŁ Âĳ
Â° $
Ć ĝ
[ Â¡
Z Ãŀ
x ÃĶ
Â¿ #
Â§ Â¶
Ã¥ s
ÂĿ Ğ
| Â¥
Ġ <
ÃĪ d
Ã¬ O
Âª Ãī
0 Â¼
" Ē
ÃĿ F
B ÃĮ
ā _
ÂŃ Âľ
ÂĬ Ĕ
Ãĭ l
: Â±
Âį @
] Âģ
Ė (
H w
y Ã¤
ÃŁ ÃĤ
A o
Ã¾ Ã¶
T Ãī
t Ã»
Â´ Ď
k N
h Q
v G
Ãĸ Âº
Ãľ Ãĥ
J Ãĵ
ď Â·
Â¿ ÂĪ
Ã§ ÃĮ
} ÂĿ
ÃĽ N
ÂĶ ?
Ãŀ Ãĥ
Â§ ā
X Ã»
Ãľ Ã¼
ě ÂĮ
Ă &
) Ã·
Z q
e Ãİ
Ã¨ O
ÂĽ Ĝ
Ãľ Ã¤
ÃĶ ÃĻ
U Ã¤
ÃĪ O
Ă ĝ
L Ãķ
Âĺ \
ą ć
Â° Â¬
ÂĬ Âľ
/ ÂŃ
ÂĴ <
h b
* %
; Ē
Âª ÃĲ
ď ę
h Ãĭ
ą ÂĹ
k f
ÃĪ w
Ãľ m
Ę Â¬
Âĵ Ě
Ãĺ Ã¼
Ãģ n
ÂĢ Ą
c Ãİ
Ã¾ X
ÃĻ Ã¼
Ãĵ Ã°
U p
Ã½ Ã«
" ġ
6 Â²
Â§ Â¤
ÃĴ b
Âµ ÃĶ
Â» Â¯
ā Â¦
Â¡ ÂĹ
Ãģ T
t Ã«
Q ÃĮ
_ Âķ
ÃĻ Ã§
Âª Ã¥
R l
? ē
1 0
, Âģ
ă Ć
e Ã»
A s
Âª Ã¢
+ ė
; ė
Ğ ÂŃ
Â´ Ĉ
Ã¹Ãĳ Ã¶
W o
Ãı q
ÂĿ ÂĻ
# ÂĢ
Ã¸ H
c ÃĢ
Ă $
Ãķ H
? \
+ Â¨
* Ĕ
Ą Â®
ÃĨ ÃĮ
c E
Ãĵ n
ÃŃ ÃĲ
ÂĤ Â£
ÃĪ Ã¯
ď <
U Ã¨
p Ã§
Ã© Ãģ
Â« \
Â¶ ÂĹ
Ãĥ u
Âį !
ÂĴ ĕ
ÂĽ {
k K
/ Âľ
W Ã¥
Â¶ ğ
Ã© Ã¯
Ã¬ Ã®
Âĭ Ē
Â» đ
ÃĪ Ã¥
ÂĨ %
t Ã¹
R Ãį
ÃĶ Ã³
Â¥ "
ÃĶ o
Ã¡ a
# "
S n
S ÃĮ
Â¨ ÂĻ
Ãĳ Y
B Ãĺ
f Ãĩ
J T
v F
Âĸ ć
Ğ }
Â© ÂĲ
g k
Ãļ D
ÂĦ ÂŁ
= >
Ě Âļ
; ÂĤ
A Ãŀ
Ã¨ H
M V
Ãį P
Ď Ĕ
i ÃĿ
Ãĥ Ã¼
X Ãİ
B Ã¬
J Ã¦
Ãª l
Âº T
Ġ Ãģ
, Â®
/ Âķ
ą ÂĻ
Ã¾ Ãĸ
I Âµ
ÂĬ Â´
Ā* Ā
Â¿ ÃĹ
ÂĬ :
Z f
Ãĺ Ãŀ
Âĺ ÂĢ
y Ã¹
W w
Â¨ Â·
ġ Đ
= Â¤
Ã® Ã®
) &
Ãĥ w
| Âĩ
ÂĽ [
ā *
O ÃŃ
Â¬ Âĩ
Â¸ >
Ã¡ s
ÃĢ ÃĲ
+ Ã·
- ÂĲ
ē Âĳ
Ġ \
Â¤Â¢ÂĢ ė
ĝ Ď
= Âī
ÂĶ ÂĶ
Â§ Âı
Âª ÃĨ
M G
Ę ÂĤ
Âª ÃĿ
ÂĿ Ĕ
* <
Ãĵ Ãª
a p
B Ã±
Âª Ã³
ÂĬ ÃĹ
` ÂĲ
Â¥ Âĩ
ā Â¿
` Âŀ
# Ã·
Ãľ N
Â¥ ÂĲ
U ÃĨ
Â± Â¡
P Ãĭ
M Ã³
% (
đ Â´
ĝ Â«
Âĵ ?
Ć Â¯
Ã® F
Ãķ Ãĭ
w w
Âª y
; Âĳ
| Âı
ġ Â®
Ãł m
Â£ Â°
D q
+ Âī
ÃĬ y
L f
ė Âĳ
V ÃĨ
Â§ ÂĪ
ą Â»
Ã® s
ā !
< ă
T Ã°
c u
Ã¸ b
D P
ÃĽ r
Ãĺ Ãį
ÃĮ m
j q
ÂĶ Âı
ÂŃ Âı
ć ě
Âĸ >
+ Âį
U q
ÃŃ Ã²
i Ã©
g q
c Ã±
Âĭ Â±
d ÃĿ
# Ă
$ Âķ
o ÃĪ
Âĸ ă
b ÃĢ
) ÂĻ
Z ÃĨ
Â£ Â¶
) Â¶
Â© Âı
^ ć
Ę Â®
S Ã¬
Y N
j t
ÂĽ Â¶
[ ÂĲ
h P
i Ãŀ
Ã¦ G
Ã¶ ÃĪ
ÃĮ Ã²
Âĥ ğ
Ĕ Â«
4 Â½
Âª K
D m
Ãį Q
Âļ Â¤
n R
o Ãĸ
ÃĮ Ãĸ
^ Â¿
ÃĮ e
S Âº
ĕ Â°
Ã¥ y
ÃĽ K
Ã¥ e
ÂĢ Â°
Â¨ Ĝ
H v
Ãĥ z
V Ãĩ
ÃĿ N
D ÃĬ
Â¦ Ā
Â¹ Â³
ÃĦ p
~ ÂĻ
Â§ ÂĨ
Ã§ Y
` ÂĪ
ÃĮ Ãĭ
% ÂĲ
Ã® Ã¤
ÃĶ Ã²
Ãį T
W q
| ÂĴ
Ãª X
Â¤ ď
Â¡ Ā
Â¨ _
M F
l Q
Âĺ Ĝ
ē !
Ãı Ãļ
] Â®
" ,
Ã¼ G
Â© Â·
Âª Ãĭ
ą ÂĬ*
d Ãī
h U
Âª ÃĢ
ÃĽ Ã´
ā ;
s Ãĺ
ÃĦ f
Ġ ÃĨ
Âĭ Ę
C Ã´
Z Ãķ
ć +
ę ÂĶ
o p
Â¬ Â£
Âľ ą
a ÃĬ
z p
I H
[ Âĳ
Ã» Ã«Ã¿
Ā: Ā
v Ã¾
? Âĸ
J Âµ
w Ã¾
/ #
Ãµ ÃĲ
J Y
Âª B
ÃŃ n
Ã´ Ãº
Â¦ Â»
ÃĽ Ã¹
ÂĹ =
( Â¥Â¤
ÂĨ \
ÃĦ U
7 3
u Ã¢
Â¢ÂĬ(ĀÂ¢ÂĬ(Ā Â¢ÂĬ(ā
Ĕ Â¯
- Â£
Ē Â°
Ġ Ãª
Ãĳ Âº
ġÂķ Ā
Âĸ ,
< ?
v ÃĴ
Ã¼ Ãı
ÂĮ Â¿
@ @
ÂŃ \
Âĺ Â¶
Â¦ {
ÂĬ Ė
Ĝ ÂĪ
Â´ Âľ
& _
Ãľ Ã½
ğ ÂĲ
ā .
: Â°
Â¡ =
Ãķ j
ÂĦ đ
Ą ė
Âī Ā
Â¡ ć
Â¥ Ć
ġ ė
E Âº
Ĉ Â©
ď =
u Ã¶
% %
Q q
ÃŃ Ãĭ
Â» Âļ
o a
Â¨ Âĵ
& ġ
x ÃĿ
} }
o ÃĨ
E k
ÂĿ Âı
ÃĮ n
H ÃĲ
Ã¹ p
ÃĦ s
; Ė
h Y
Ğ _
J G
ÃĮ Ãį
Ē Ę
S p
ě ē
ÂŁ @
R Ã¤
ÃĶ ÃĨ
ÂĬ Â¶
m ÃĤ
Âī Â·
(ā Â»
Ã· Ĝ
Ã¬ I
- Â¬
Âį [
Ãķ B
Â« Ĉ
ÂĢ ÂĮ
Ãł n
Ã½ J
Âļ Âĥ
Ã¢ F
Â¤ }
Ã» ÃĬ
ÃĲ w
Â± ÂĤ
ÂĻ Â¶
ÂĻ Âģ
Â« ÂĹ
Â¨ Â£#
+ _
T Ã±
f Ã³
Â« ^
Â´ đ
ÃĪ F
Ĕ |
Â¦ ÂĤ
X Ãĥ
# \
W n
ÃĦ Ã¤
] ÂĨ
ÃĿ Ã«
Â¯ Â§
Ġ Ãı
Âµ A
ÂĽ Â·
) Â§
Ãī Ãļ
j a
; Â¿
Âĺ Âĵ
ā Â¶
ď Ĝ
Â¢ ÂĸÂĬĀ
Ãľ ÃĨ
ÂĶ Â´Ā
r Ãį
` ē
Â¯ _
Ã¶ Ãı
i Ãį
Ě ,
Âį ę
ÃŃ Ã¦
M k
ÃĹ ÂĮ
g Ãµ
S C
Â± ć
J N
Â± '
ÃĴ G
ÂĻ @
1 Â½
Ĕ Â£
I X
i ÃĲ
Âļ =
Ãŀ ÃĻ
A Ãĸ
V L
Âģ đ
+ Ā
Â¢ÂĬ( Ę
U Ã¯
c m
* ĝ
Â« {
O ÃĪ
+ ă
i P
x Ã½
ÂĿ Â·
ÃĬ ÃĻ
D Q
Ă "
Ã· ē
^ (
a ÃĨ
x Ãĥ
Ā= ė
Ãī b
! <
i Ãı
f Ãı
Âĳ Â¿
Ã§ ÃŁ
Ã² ÃĿ
ÂĨ _
g l
S Ã´
= Ę
ÂĦ Âİ
Ă ĕ
Âĭ Ĝ
j Ãĩ
& Ć
F Ã¤
+ Â¶
ÃĶ Ãļ
$ @
Ã» Ã²
J Ã¢
ÃĦ v
ÃĢ Ãº
Ą Ć
Âļ ÃĹ
M B
ą Ĝ
Ãį Ãª
Ã» Ã®
{ /
t ÃĽ
ÃĬ w
Ğ =
s B
ę Ď
Âļ Â©
Â§ "
k H
Âª Ã°
Z Ãĺ
Ġ ÃĤ
Âį Âĳ
ÃĿ Ã¨
{ Âī
{ ā
o Ã¢
' %
j G
i Ã¹
ġ Âŀ
ÂĽ Âĺ
A Ã®
Âµ Q
Ãĥ v
q B
Âĭ Âľ
o l
* .
I w
ÃĢ ÃĽ
Â£ ĔĀ
M g
ÃĪ Ã¡
; Âķ
(Â¢ÂĲ ąĔ
+ Â©
Â¸ Âŀ
ÃŃ Ã³
d B
Ē ~
ÂĹ ĝ
ÂĽ Ã·
Â¯ =
n ÃĻ
Ġ Ć
% Âĳ
Â³ 8
Ă #
1 6
j Ãļ
Ě Âľ
J ÃĤ
Ãĳ Ã§
ÃĬ c
Â± Â´
Âª N
A Ã¬
% Â´
* Âĳ
Â¸ Â¶
Ãŀ B
Â© Â°
ÂĴ ě
[ Âľ
Â§ Âľ
X Ãĸ
ą ,
Âį Â°
G Ã´
Ğ \
ė Ĝ
ę ,
ÃĲ Ãµ
K Y
Âļ Â¥
s Ã¹
ÃĪ Ãļ
L Ãį
b Ãľ
Âģ Ē
Ã¥ Ã³
Â± @
ă -
M f
Â© (Ā
Âµ a
j Ã®
Â· Â¿
ė ě
Â¨ ÂĦ
Ĉ \
Ã© Ãī
j Ãģ
Â¡ ÂĲ
V Ãī
= ÂĢ
Ã¥ a
Ãĺ Ãħ
Ãİ Ã¿
Ā< Âĵ
Â¨ Â»
Ã¥ Ãģ
ġ ?
h d
Âģ Âĩ
x Ãĵ
ē Ĝ
A p
Â« #
Â¯ ĕ
{ Ğ
: `
1 Â¼
| Â»
ÂĮ .
Â« ă
R Ãª
Âį >
Ė ÂĲ
ÃĤ Ã¦
ġ ,
Ã¯ C
X Ã¼
i Ã³
Ãĭ z
Âļ (Ă
e F
ÂŃ Ą
Â¾ Â½
c f
< ÂĤ
Ã· đ
Ã¶ E
ď Ę
H I
ÃŁ Ãĥ
Â§ ÂĲ
ÃĬ Ã±
h Ã¹
b ÃĻ
Ãĺ m
Âª o
Ã¡ q
ÃĲ M
Â¡ Â¢
Â¬ `
i L
b ÃĿ
ę @
Ã¬ w
* ]
k s
J Ã±
Ã» Ãī
- ÂĨ
r B
ď Â´
ÂĹ ;
Â¶ (
=ą ĘĞÂĤ
ÃĢ f
K a
W l
Ď ÂĻ
Ãį Ãĩ
Âĺ ÂĴ
ÂĬ( Â¦
Â· Đ
Ě ÂĦ
e y
Â¡ ~
1 7
ÂĶ Â°
Y P
b Ã£
Ãŀ d
ÂĬ Â¢
W P
Â¨ (
b Ãº
U Ã£
Ãŀ H
A v
ÂĶ Âİ
Ē .
e Ãª
ē Ã·
Â§ đ
- -
ÂĶ Â±
ÃĢ a
Â§ Â®
Ã¾ C
` >
t l
Ã© Ã¼
= Â¨ā
Ĉ ă
Â¬ Â¥
Ãİ ÃĿ
ć *
Ę Ă
ÂĦ Đ
Ė '
V Ã£
Â´ ~
Âķ !
; ÂĲ
ġ Âľ
| ğ
ę ÂŃ
Ã¯ Âµ
Ã» e
Â¡ Â°
ÂĤ [
x Ãĺ
d Ã®
ÃĹ Âĵ
ÃĬ Ãĳ
m Ãł
T M
c c
ā ą
J Ãģ
r Ã¬
ā ĕ
Ã¥ p
H p
(Â¢ Â¨
Q Ãĳ
Â¡ Âĳ
Ãª p
Y K
e i
l ÃĽ
T Ã¾
Ě Â®
ÂĹ Ā
ĝ Â¬
ÃĮ Ãħ
ę &
Z n
Ã¹Q Ã¶
I q
Âį Âŀ
Âĺ Ę
Ã² Ã°
! ě
Ãµ ÃĢ
Ãµ P
Ã½Z Ã½
z r
ā Âķ
Ė <
Ĕ Ĕ
Ãľ Ã±
{ Â·
ÂĿ Âĳ
Â¸ ĕ
Â¢ [
N v
Â¿ ÂĹ
Ě ÂĢ
Â¦ Â¸
Âİ ė
Ġ +
Âĭ Âĩ
Ã« ÃĽ
d Ãĩ
] [
Ã² ÃŃ
'Ã· ÃĹ
\ Ā
w q
Ã¹ n
Ã« ÃŁ
H ÃĶ
c Ãģ
5 Â½
Â» Âŀ
Â« Âļ
Y G
$ Â¸
Â¬ ÂĻ
Â´ _
Ē =
Ã£ S
Âĸ &
ÂĮ ÂĨ
Â¶ ÂĪ
Ė %
{ ÂĪ
Â¤Â¥ Â¢ÂĢ
$ ÂĻ
' ,
ą +
ď |
Âĺ ĕ
Ġ E
Ė =
- Ę
Ãµ Z
O r
ÃŁ v
Ãķ N
B r
Âĺ Ā
Ãŀ j
Âı (
Ãŀ X
! Ĝ
ÃĮ Ãĺ
o Ã³
Â± Â£
< Â¦
Ē Â¸
: ē
Ã· #
l Ã±
Âĵ ė
ÃĨ P
T Ãľ
Âĳ #
Âı ?
@ Âį
Ã® ÃĴ
ğ Âĩ
g Ã¸
} Â»
j Ã½
I p
u Ãļ
Ă %
Ã® ÃĪ
| Â«
Ãį N
Ã¯ Ãı
! =
. .
ÃŃ q
2 Â½
Ã¼ Ãķ
ÂĴ "
Â³ Â³
Âļ "
Âī ĝ
c s
( Â»
Ě ÂŁ
Ãļ Z
Ã³ n
Â¯ Ĝ
Âŀ Ā
ÃĢ p
ÃŁ ÃĻ
ġ: <
A Y
v Ãı
Â¬ Â«
Â° Â¦
L y
Ãį Ãĵ
? ,
Â£ Âĥ
Ãī p
Ã» Ãı
Ă >
U Âµ
i C
Â§ _
V ÃĶ
Â¹ 1
ğ |
Ã® Ã´
Â£ .
ÃĢ ÃĴ
F ÃĤ
ĀÂŀ Â©
Ã° x
Âķ ė
m ÃŃ
Ãħ R
ÃŁ Âº
* Âģ
] ÂĻ
Â± Ą
Âª G
Âĸ ĝ
Â± ÂĢ
Ĕ /
Ãŀ ÃĦ
ġ ÂĲ
Âĵ ć
Â§Ã· ė
$ )
Ãĥ Ã³
j Ãĭ
o N
t Ã¾
Ãĺ u
? Â¶
m Ã¶
Ę ē
c Ãª
~ Âľ
Â² 5
ÃĪ z
Ã¥ w
r Ãĭ
` @
ÃĮ Ã§
Âĺ (
Â¤ Ĉ
Âľ :
ę ď
Ã½ R
} ě
x ÃĻ
Ã¸ Ã£
P ÃĻ
| Â¡
Ã¹ ÃĽ
f h
A ÃĽ
t a
Ãµ Ãİ
% ÂĽ
} ÂŁ
# @
Ě ÂĹ
Ã² W
ÃĶ G
ÃŃ Ã¯
Ã¨ r
ÃĮ b
i Z
v Ãģ
ĀÃĹ Â£
Ã¶ M
Ğ Âį
ÂĶ Âĵ
ÃĲ Ã´
Ğ Ĉ
Â¢ÂĢ ĖÂĬ
0 Â¾
Ã¡ Ãĩ
X ÃĦ
ÂĬ ^
R Y
ÃĤ ÃĨ
Ã¹ F
; ÂĻ
} Â¤
Âĺ Âİ
ĞÂ¢ ÂĮÂı
v Ãĵ
v ÃĲ
e G
Âı *
m Ã²
Ã¼ Ã§
` )
ě ÂĻ
U ÃĻ
Âį ÂĦ
' Â¶
ÂĶ đ
ÃĶ p
T Ãļ
Ãī h
Â· \
L s
Âĳ .
Ãº Ã¤
Â» Ā
B Ãħ
Â¨ Â¶
# ÃĹ
J g
ĀÂŀ Âī
Â§ Âķ
ē ğ
ÂŃ @
Ã¬ y
Â¡ \
Âº Ã§
Â¨ Đ
Ã½ d
R Ãģ
ÃĤ ÃŃ
Ą ÂĻ
l Ã¢
Â± Ā
Â¯ ę
e Q
4 Â¼
Ą Âĩ
> Âŀ
ÂŁ ÂĲ
U h
B ÃĻ
Âį ÂĿ
Ã¡ w
Â¦ ğ
V C
Âĥ ,
! !
Ãķ O
Â¯ Âĸ
" Âĭ
ĝ Ć
Âī ğ
Â¯ <
Â· Âľ
ÃĲ t
$ \
U Q
U H
Â¥ ÂĹ
S b
S y
n Ãī
Ã¥ Ã¾
} ÂĨ
i T
B h
g ÃĬ
Â¿ {
] ÂĮ
? ă
} {
% ę
Ãľ Ã®
Ě ÂĬ
Âĺ Âĺ
ÃĹ Ē
Â¢ÂĬ) ÂĪ
M ÃĬ
ĕ ā
Â¹ 7
V I
Ã² p
i Ãİ
Ġ Ãĥ
Âļ Â¢
Â¬ :
3 Â³
Ĕ Ã·
Âĥ ę
Â° Ĝ
Âī <
Ė Ā
S Ã¹
Âı '
B O
Âı Â©
Â¥ Âķ
ÃĪ e
r Ãħ
Âĳ ğ
Â¥Ā -Ĕ
[ <
x Ãł
ĕ ÂŃ
Ã½ ÃĬ
(ā(Â¥Â¢ÂĢ ĒÂĬ
n z
ĝ >
ÃĦ j
k w
Y ÃĽ
Đ ÂĮ
đ Ę
) .
E c
ÂĪ Ā
ą Â¿
v Ã¨
Ãı F
4 Â³
Â¤ Âĩ
E Ãĥ
x ÃŃ
ġ Â©
Ãķ h
Â´ Â»
A Ã¢
Ġ Ãİ
ÃŁ q
Âī >
? đ
ÃĪ H
Â¦ +
Ã¥ q
$ Ą
S Ã¶
` Ę
ć Â¶
D T
^ ÂĻ
Ãĵ Ãĵ
ą Â¶
L Ãł
; Ć
Ãį f
= Âģ
Âĸ Ą
Â· ÂĹ
Ã¡ ÃĴ
Ġ Â»
Ã¥ ÃĢ
A Ã»
ÃĿ ÃĻ
Q y
QK I
ÂŁ Â´
Â¯ Ę
Âį #
[ '
Ă ,
! ÂĽ
Ã¨ s
Â± Â¥
Â¼ Â¼
Ãŀ T
ÂĿ Â¶
ćÂ¥ Ę
v Ã¹
QH aE
/ ę
Â¨ Ě
Â¨ Âĭ
Ãµ Ãģ
ÃĲ z
W R
_ .
Âµ s
K i
ē Â´
ÃĿ ÃĬ
Ã¬ Ãī
j f
Ą Â¿
Z o
Ãŀ ÃĤ
Ã© Ã¸
A Ãł
l Ã¶
Â¨ đ
ÂĦ *
E d
Â· ě
Â¤ "
` ÂŁ
` ÂĴ
Ã§ ÃĿ
I Ã®
V Ã³
Âª M
K f
g Ã´
Â§ %
Ã² Ãħ
ÃĨ C
: )
Ãĵ s
c ÃĬ
U Ãª
X Ã±
ÃĨ ÃĦ
Â© Â»
S s
Âĩ ă
Ć ÂĦ
K Ã»
Ãł F
Ãķ r
{ Âĳ
ć ÂĴ
Ãļ N
ÃĢ Ãľ
Â¡ ÂĽ
Ã² Ãİ
Y z
ā ÂĿ
j Ãľ
c ÃŃ
ę Â¬
* Â¢
[ #
V a
Â¡ Âĸ
? Âģ
$ ą
Âĥ Ę
< ÂĲ
w Ã´
Âį &
U Ã¼
Ã² Ã¾
D R
e n
_ ÂĻ
Âĥ Ĝ
Ě Âī
S ÃĬ
ÂĽ ÃĹ
Ã· '
Â³ 5
(Â¢Âģ ąĔ
- ÂŃ
Â¦ ē
Ã¸ ÃŃ
P E
j ÃĶ
Â£ (
Â¦ >
Ã¶ Ãī
Ãŀ Ã£
Â± #
] Â«
\ \
ÂĿ Â´
ÃĦ ÃĽ
Ãŀ L
K T
(Â¢ÂĢ +
Y Ãī
Z X
} Â¥
Â¿ Âĳ
ġ Â¶
U E
c O
ġ Âĭ
Âŀ ā
ă Â»
b C
7 Â¹
ě Âĳ
q Ã»
i Ã»
(ā Âŀ
H M
Ã¥ Ã»
Ãł Ã¼
/ $
Ãµ ÃĪ
Ã¾Ã» Ã¿
đ ÂĶ
Ă ~
y a
Ã¹ Ã»
Ãģ p
Ã® Ãİ
^ Â¤
Ã½ Ãī
Â¨ Ĉ
Ã° O
Â¥ Âĵ
ÃĬ C
P M
Âĭ ÂĤ
Ė ,
Â¬ Ď
ÃĲ v
Â© ē
Âĺ Âı
Âľ Â¿
Ã¬ ÃĻ
Ã´ R
P Ãĺ
Â§ Ě
f F
Đ ?
B w
Âŀ Â«
Âª ÃĻ
Z Ã¦
ę ÂĨ
Ãı Ãľ
S m
Ã² Ãĭ
Âķ ÂĬ
Ġ Ãĸ
W r
ď ğ
ÃĤ Ã¥
Âģ Ď
Ã¼ Ã¦
^ Â§
# )
^ ÂĨ
x Ã®
f ÃĢ
# ÂĪ
I Ã¬
X v
$ Â°
ÂĴ Â¸
, Âİ
Ā Â¢ÂĬ
Â¤ -
! Â°
Âĩ Ĝ
Â© Ă
Â¦ ė
Â¬ ]
Âģ Âĭ
M ÃĤ
\ Âķ
M Ãħ
[ {
Ď ÂĨ
Ã¾ ÃĽ
ÂĻ Ā
< Ē
o r
Ãª U
Ãŀ Ãĺ
ÂĴ Âĺ
oÃ» Ã¨
D w
Âŀ ÂĬ
m c
* Ĝ
ÃĲ H
Âĳ "
j Ãĵ
/ Â´
ÂŁ )
Ā= ē
Ã® Ãģ
Â¡ Â®
d Y
ĞÂĤ ÂĮď
Âĵ Ą
Ãł h
M ÃĮ
] ÂĬ
t Ãĸ
ÂĻ Ã·
ě Âĭ
ÃĦ ÃĬ
Âĸ Ā
Đ ÂĢ
Ã½ c
N ÃĮ
k z
Ć Â·
Ĕ ÂĶĀ
ÂĽ Âĥ
Ď ė
Ã¸ Âª
L l
Âį Ę
Ãľ J
; Ā
ÃĪ n
ġ Â¥Ā
T ÃĴ
Ã¨ q
ÂĤ ÂĿ
V Ãģ
Ġ Âº
` ă
Â¦ Âĥ
L Âª
v ÃĽ
ÃĢ Ã»
ğÂķ ě
ÃĹ ă
Ã¡ B
| }
Ã¨ z
ď #
Ē ė
ÂĽ Â¿
Ã¹ Ã³
M Ã¤
Ã¼ Ã¢
ÂŁ .
/ Â¥
F Ãĭ
^ Â£
Ãķ G
ĕ ÂĲ
ě Â§
P Ãģ
ÂĹ Âı
; Â»
Ě ą
D W
I I
ę Â·
& Âĭ
Ã³ Ã°
ÂĪ Â±
Ã³ Ã±
Âµ q
Ą )
Âī ÂĶ
, Ā
n Ãĵ
X b
ÂĽ ÂĢ
Ãµ j
O p
y C
Ãĸ Ã¦
Âĳ Âĭ
Âģ Đ
ĕ Â¶
% Âķ
M u
* "
Â¨ @
Ą ĝ
Ãİ ÃĻ
+ '
Â¤ Ĕ
ÃĢ Ã½
Âº Ãķ
Âĸ Â¬
_ _
C G
Â¦ /
ą Â¢ÂĬ(Ā
ÃĦ b
Ã¼ Ã£
x S
Ã© Ã©
d Ã±
Ãī Ãł
ÂĻ &
ĀĀ Ā
Ă Âį
d zÃĲ
$ ÂĹ
Â± Âķ
3 8
ÃŁ Ã¦
Ą &
g f
Â» @
< Â§
i m
Y Ãľ
+ Â¢
ÃĦ h
i e
Y r
J Ãī
b Ãĥ
d Ã°
ć ~
ÂĴ /
Ã· Ę
ĕ ÂĮ
_ /
v Ã¯
o Ã¸
Ġ D
Â¸ Â¸
F Ã±
Ãĺ Âª
ğÂĿ Ā
Ć #
ÃĴ E
ÂĶ (
Ă ÂĦ
A Ã¯
\ Âļ
` Đ
B q
I ÃĿ
ę ā
Ã² Ãģ
ÃŃ a
Âĺ Âĭ
; Ğ
ÃĪ a
; Ĉ
i Ã§
Ã² N
` Âĵ
Ãī ÃĿ
: ÂĤ
Â» '
t Ã¼
Ã¥ Ãļ
ÂĪ $
ĕ /
R L
v c
V Ãİ
t Ã©
1 3
j Ã¬
ÂĨ ă
` *
Â· ē
Âĵ ~
ÃĨ Ã¯
ÂĽ ÂĽ
Â¡ ġ
B Ãª
[ Â¦
ÂĴ ğ
Ãį Âº
W Ãĭ
Â£ *
ÂĻ ~
ÂĢ ÂĤ
Ãĩ O
Âļ Â¨
Âģ #
Â§ Âī
Ã¨ ÃĻ
Ã¹ K
V Ãł
f E
e E
ĕ ÃĹ
Ãŀ o
ę -
Âİ Â¬
Â½ Â¾
W ÃĴ
ĝ Â°
Âļ ć
S Ã¸
r ÃŁ
đ ÃĹ
W a
Ã§ Z
ÂĻ ă
Đ ~
( ě
Ą Âī
T Ã¢
B Ãľ
} ĀĔ
% ÂĹ
Ãĳ A
Â£ +
] Â°
Ãĺ Ãĺ
ÂĴ \
} Â¸
ÃĨ Ãª
Ã¬ Ã¤
. Â¤
ď '
Â¦ Â©
Ãĳ O
ÂĦ Âľ
d zÃĳ
Âķ _
M l
S r
Ã² q
ē ÂĲ
ÂĶ .
Ã¥ Ã¹
y Ãª
Ã° Ãĥ
Ãķ m
Ã± Ãģ
Â® Ā
Ãİ ÃĢ
Ė ÂŁ
R J
D Ãĩ
p Ãª
Ď Â¿
V Ã¤
ÃĹ đ
' ÂĿ
G u
ě ÂĬ
O Ã¤
ą Ğ
ÂĴ ,
E J
ÃĶ z
ÃĶ ÃĪ
Ã£ Ãĺ
3 Â¼
n f
ĝ (ā
ÂŁ ÂŃĀ
W c
Âķ ÂĮ
^ Âľ
Â¥ Â¢ÂĬĀ
Â» <
Â± Â°
P K
Âģ Ĕ
ā Âĸ
Ć `
Â¦ -
! Ĕ
| Â©
Ã² Ã¦
Ã¥ d
Ã¾ M
ÃĽ m
t ÃĪ
%Ĕ Â´
M Âµ
Âĭ Â´
j R
Ã§ Ã¤
ĕ ;
Ď Âĺ
ÃĽ ÃĬ
Ġ ;
_ Â¯
p Ãħ
ÃĽ Âº
ÃĦ H
ÃĶ Ã¬
Âĭ {
Ãĳ Ãĩ
Ã° Ãĩ
h V
Ã® k
Â¥ Â»
\ /
ÂĻ ÂĽ
) [
w Ã£
ğ Â§
Ãĥ Ã´
ď ~
ÂĲ Âİ
đ ę
B Ã¦
Â¨ Â¢ÂĢ
p ÃĮ
ÂĶ Ě
Âĸ Â«
ÂĦ Ğ
A ÃŃ
ĕ +
Ãŀ C
S F
] @
Â· *
ÃĿ Âº
t QE
Ãŀ f
ÂŁ @ąĔ
U G
ÃĬ X
Âĭ ġ
Âĸ Â¨
ÃĬ q
l Ã³
ÂĴ Â§
I Ã«
ÃĬ s
g Ãª
Ď Â¥
D Y
Â¡ ÂĮ
Âį "
@Ė Â¨
^ Âĺ
Â¡ Â±
ā Â¨
? ĚĀ
o q
Ãŀ a
u Ã¼
t ÃĢ
Ĉ `
Ãº Ã³
ÃĽ n
j Ã¦
Ę Âģ
ÃĬ Ãĭ
Ã® Ã¢
Â° Â«
& Â§
Ãĳ J
ė -
ĝ Â§
Ã· ÂĪ
Âļ $
| Âľ
Â£ Ė
ÃĦ Âª
j ÃĻ
S Ãİ
ÃŁ Ã§
Â® Â®
(Â¢ÂĬĀ )
ď ?
Â¿ '
C W
ď ,
< ÂĦ
ÂĢ Âĥ
U g
e ÃĨ
ÂĶ Â¬
ÂĶ Ă
ÃŁ Ã¹
u f
Ãħ Q
Ãŀ Ãľ
k Y
Ĝ .
Âĸ ÂĻ
Â¡ Âķ
X W
Â· >
ÃĽ Ã°
& Âİ
ÃĹ Âİ
D n
Â´ .
Ã» Ãľ
Â± =
v ÃĢ
Q ÃŃ
d Ã½
Â© @
Z R
ď Â»
ÃĬ Ãĺ
V Âª
ÂĿ ÂĮ
' ;
* ą
Ãĭ w
ē Ĕ
Ãļ E
Ã° z
l Ãĩ
Z Ãħ
' ě
K Âº
ĕ Â¢
Ãµ O
Â· (
đ Â»
C ÃĪ
ÃĬ ÃĪ
L t
ÃĶ Ãĺ
" `
Â¡ Â»
ÂĶ Âĥ
= ~
Ė ă
l Ã¾
Â¤ Â£
Z ÃĿ
m ÃĴ
Âı Ę
ÂĽ Â¨
ÃĦ Ã»
ć @
Ć ÂĨ
ÃĶ Âª
ÃĤ F
Ãĸ Ãĳ
& [
U ÃŃ
y j
& ÂĪ
Â® ÂĤ
ÂĿ ď
Ã´ Ã¹
Âļ Ĉ
% ÂĢ
Â¥ ē
ÃĦ e
X Ãı
Â± Âĸ
" \
ÃĢ Q
] Âį
L Ã¤
] Âĳ
g s
ĕ ġ
Ã¬ K
ğÃ· ė
H B
, Â§
Ãª ÃĿ
Ė #
ÂĻ Âĩ
I Ã²
Â¢ /
Ãº Ãħ
X a
" Âĩ
Ãİ Y
Âļ ę
Â¦ đ
ė ÂĲ
Ã´ Ã¨
{ Â¯
M Q
Âĺ Âľ
Âļ ą
A W
Ã£ Ãº
: Â©
OÃ» Ãª
r ÃĨ
ÃĢ Ã¯
Ã¡ v
Ã¼ ÃĮ
Đ ÂĴ
Â· .
A KE
ÂĻ [
Ā> ÂĬ(
ÂŃ ē
ÂĽ Âĵ
+ Â¯
T QE
Ã² x
Ãľ B
Â° #
F ÃŃ
J f
Ć Âĭ
Ę Âį
Ãł ÃŃ
J Ãı
s D
Ãĵ D
y Ã¨
ā Â«
Â· ÂĪ
; ÂĴ
Z N
M t
Ã¤ a
R V
z Ã½
ć |
Â£ ÂĤ
ē ÃĹ
Â± Â¢
Âķ .
Ã¡ p
ğ ÂŃĀ
Âł ĉ
Â¡ ă
o c
Ã¬ ÃĢ
ÂĶ Â©
H QE
Ãĭ Ãĵ
Ã² Ãĳ
Âŀ Ę
Ã© ÃĢ
Ãĭ Ãĩ
) ÂĬ
Ã¥ Ã§
ÃĴ w
ÃĻ n
F Ãį
Â¥ Ă
Ãĥ s
* ~
Ãģ Ã¯
j n
Â± }
I Ãł
ÃĪ G
& ÂĨ
[ Âĭ
b N
Âı ę
; Âĸ
h Ãĸ
V Y
ă ġ
Ą Â¯
Ã¼ ÃŁ
Ā Â¢ÂĬ(ā
ÃĶ Ã¥
d o
` =
ÂŁ ÂŁ
% !
U Ã³
Â¢ ÂĦ
Ãī ÃŃ
? Â¯
\ Ã·
ÃĽ Ãİ
ē @
( >
Âī Ď
ÂĽ ĝ
Ġ Â³
Ã² ÃĮ
Ã® Ã¹
Ě Â«
Ã¤ ÃĨ
ğ +
ÂĿ Â®
Ē /
Ć Â©
4 7
F K
Âª Ãº
Ã¦ ÃĿ
m a
ÂĶ Â¿
Âģ $
ė ÂĴ
Â¦ Ď
Â° }
H E
B x
Â± Ã·
Â¸ Âĸ
A Ã½
Ã¢ Âµ
ÂĪ Ę
* $
Ã½ Y
X t
g Ãį
\ )
ÂĤ Âľ
H l
W Ã¾
Ĝ ÂĨ
v Ãª
M Ãģ
ÃĴ D
d ÃĪ
Âī Âı
( Âį
g P
Ĝ Âĸ
Ãĥ o
ĕ ÂĬ
H Ã³
ĞÂ´ ā
j o
ĕ :
ę ÂĹ
* -
ÃĦ Ãķ
N ÃŁ
` ;
ć ġ
W Ãļ
Â· Âį
Â¢ÂĴ ÂĬĀ
6 4
Ãľ ÃĻ
Ãŀ P
Âĭ "
Âī ā
ÂĲ Âı
, >
i l
ÃĦ n
, Â»
Ãĭ ÃĪ
Ãĸ Ãħ
ÂĽ Â©
(ā Â´
Â¾ Â¹
i Ãħ
Ãī Ã»
I Ã©
f O
Âĥ Â»
Ãĥ Ã¹
Ã¶ ÃŃ
Ě ÂĪ
ÂŃ ÂŁ
Ã« ÃŃ
Ã® Ãĺ
@ Â¨
Ã§ s
e u
Ē Ē
Ġ Â²
B Ãģ
Ć ě
ÂĮ ĝ
ÂĮ Â¬
H i
z m
ÂĴ .
Ă Â»
k I
Ã² s
j Ãł
d L
Âª Ãµ
j s
ÃĹ ;
Ġ Â§
Ã´ Ãİ
Ãŀ s
w v
Â¤ ÂĹ
Â¡ [
t c
Â¥Â¢ÂĢ "
R QE
Ãľ Ãħ
Ã¥ Ã¤
ď Âľ
Ã» E
ÃĦ I
Â¤ Âĺ
Âķ ÂĿ
ÃĿ A
k D
Âĭ Âĵ
ÂĴ Â¬
Â« Âį
Ãĥ Ã®
G Ã¡
Â¥ Ď
Ą Âĺ
Ãį l
Ã¶ Ã»
Ãĵ v
@ą %
) _
~ ć
K h
Ē Ė
Ã¤ G
@ Âĳ
Ġ o
) đ
V ÃŁ
Ã¦ C
ÂĦ Ā
@ Âĥ
( Âİ
\ [
Ã« Ãī
Ã¶ ÃĽ
Ãģ l
ė ;
Ãĩ ÃĲ
{ Âŀ
Đ =
& Âī
Â§ ÂĤ
Â® $
Âģ Ą
ÃĹ Â·
Ć ,
Â¸ ÂĶ
Ã¨ Ãĺ
Ãľ ÃĪ
ĕ Âŀ
ÃĹ Âľ
| Â¦
Ã¯ Ã£
5 Â²
Ãĳ ÃĪ
# ġ
) {
ğÃ· ÃĹ
Â¯ Â·
x T
N U
ę Â¶
F Ã³
< Âĸ
Z S
c I
K e
f Ãİ
f ÃĻ
p ÃŁ
Ā& (
ÂĦ ÂĤ
Ą ;
ā ÂĻ
Âº ÃĴ
C l
} ÂĬ
Ãī Ã®
ÂĿ Â©
Âª ÃĪ
% Ę
Ġ -
Ã» m
Ãī q
Â« ą
a ÃĴ
p Ãį
b z
Â¨ ě
ÂŃ Âİ
Ãľ Ã³
Ã° A
! ă
o o
Ã£ Ãķ
J Ãª
Âĳ Â¢
Â® Â¥
j g
Âģ ÂĹ
W Q
/ -
Ã¸ Ãı
Âĺ Âĥ
[ Â§
Ã© ÃĲ
Ã² Ã±
Âµ l
j Ã¨
b q
% `
a Ã¦
Â± ÂĨ
ÂĲ Â»
S X
Â¤ <
Ã¶ Ãĩ
T ÃĽ
| ÂĢ
" Ę
Ã® U
, Â¸
Â£ Đ
Âį ÂĹ
Ã¾ E
ÃŃ ÃĻ
Â° `
Ć '
ÂĮ ĕ
Â© _
n Ãª
Ã® Ãł
Âĩ `
Ĕ *
Ã³ Ã¢
ÃĢ Ã¬
K l
Ãĳ V
# ď
/ Ę
A c
Ė Ď
Y B
Âķ Ã·
Ãİ ÃĽ
n v
Ãĺ ÃĿ
Ãĺ r
# &
ÃĦ G
Â¨ Âī
Â§ ÂŁ
ÂĮ ?
Ĕ ]
Â¡ '
, Âĺ
Ã½ q
ÂĤ Âı
L p
ÃŁ ÃĮ
K k
ÂĲ `
Â¬ Âĺ
Ãĺ ÃĬ
Â¤ ÂĻ
ÂĿ Âİ
Z ÃĶ
| ÂĪ
T Ã¦
d F
Ě *
Â¢ÂĢ )
f X
> ~
Â± .
Ã» Ã§Ã¿
ē Ę
Âī ď
n a
ė Â¿
Â¢ÂĬ(ĀÂ¢ÂĬ(ĀÂ¢ÂĬ(Ā Â¢ÂĬ(ā
[ ÂĶ
Â± Âĥ
b s
Ĕ Ė
Ãį i
S ÃĨ
Ãī ÃĽ
Z g
Ĕ Â©
ÂĽ @
M i
Ãª Ãķ
Ãĺ ÃĻ
Â® Âĥ
Ãī Ã½
Âĳ Ė
ÃĤ Ã±
ą `
e ÃĬ
Âį ÂĴ
ÂŃ Â·
Ãµ R
Â» ă
Âį $
/ ÂŁ
ÃĮ Ã¬
Ãĵ c
Â¶ Â¿
Âº k
j Ãŀ
Â° Ē
C Âµ
| ÂĦ
x c
ÃĮ K
x ÃĴ
Ãĸ u
Ãĥ Âµ
w Ã§
ÂĻ Â¦
[ Â¿
Â´ Ğ
Ã® y
U R
Âĳ Đ
ą ÂĮ
đ \
B Ãį
Z ÃĽ
ę ÂĢ
w Ãħ
U A
ÃĦ ÃĶ
Ã» v
Ãĥ ÃĶ
Ġ ÃĿ
{ `
Âĺ Ĉ
Ã¶ Ã©
! ÂĤ
Ď ě
ÃĹ $
= ė
Âı Âľ
Ãĭ Ã½Ã¡
Ã³ Ãĺ
Ą -
L H
Ã² Ã²
d Ã¦
Ãĩ Ã«
Âķ "
Ã° H
ÂĬĀ Â¯
ÃĮ B
ĝ Â·
n Ãĸ
ÃĬ Ã¥
Y F
w t
w f
Y b
Ãģ Ãľ
Ē *
Â® Â¬
w Ã¦
Ă Ğ
Ã¸ f
] ÂĦ
p Ã¤
C Z
ÂŃ }
& ~
Ĉ .
Ãŀ E
ę [
ÃĢ r
ę Âĩ
j Ã¢
n ÃĴ
ĀĔ Â´ÂĶ
Ě Â¶
! Â»
Ã¬ Ã³
/ ÂĴ
Ã¡ Ãı
< Âĩ
l V
đ Âī
Â¥ Âļ
Â® ą
OÃ» Ã¦
P Ã£
m ÃĶ
Ą Âķ
+ ā
Â© Âŀ
N ÃĿ
ĝ ā
Âĸ Â¡
ÃĮ Ã±
? ÂĢ
Ã¶ u
U O
Ġ Ã¥
ÂĨ ÂĢ
ÂĤ ÂĬ
# Âī
T Ã¼
+ \
Â± Âį
Ą ,
Âº R
Â® Â¤
4 6
Ãĭ Ã¼
Â¥ ā
W Ã½
U Ã¹
Ć %
Ãī m
Đ `
Ġ ĕ
ÂĻ Ğ
Â¬ Â¯
* Âī
ÂĨ >
ć -
Âª Âµ
Ãķ Ãļ
Ġ H
Ã± Ã»
Ã³ ÃŁ
Â§ Ď
Â« Âī
Â¥ }
Ãį Ã¥
L ÃŃ
^ ÂĢ
B Ã¥
+ ,
ÂĿ ?
^ {
P Ãħ
G O
V Âµ
i Ã¬
^ ÂĦ
g ÃŁ
i ÃĶP
Â¥ Â¢
ę Âģ
Ã´ o
J o
Â® (
Âŀ >
W f
Ãģ c
Ãĸ Ã¥
Â¹ 6
Ã± ÃĢ
ÂĻ Â¢
ÂĬ Â¦
Âį Âķ
ÃĹ Ą
h f
Đ Ę
Ãį S
^ Â¸
ÃĤ Ã¢
Ãĭ y
Âĺ Â¬
Â· Â¨
Ã§ ÃĬ
* Ă
V k
s z
Ã¶ e
Ã° r
Â° '
Ĕ ÂŃ
# ÂĶ
ą ā
Ãħ S
Âĵ `
ÃĦ k
Ã§ Ãľ
U Ãİ
Ā (Â¢ÂĬĀ(Â¢ÂĬĀ(Â¢ÂĬĀ(Â¢ÂĬĀ
ğ Âģ
Ę Â´
Ã³ ÃĿ
Â¨ Ė
Ãº ÃĨ
Ã® n
) ÂĦ
ą Ĉ
Â§ ;
Ã¨ ÃĢ
Ã¤ E
U Ãķ
W e
Ã³ Ã£
Ã± T
Ãĵ ÃĲ
F Ãı
X ÃŁ
Ġ >
J D
# ā
V M
ÂĻ ÂĤ
ÂĹ ġ
Âĭ Âĸ
m Ãŀ
ā %Ĕ
| Â®
Z Ãī
x Ãļ
ÂŁ Â¸
a S
ÂĶ ~
ÃĴ l
Ãĺ Ãĥ
b Ã»
Z ÃĤ
9 1
b D
) Â«
Ē Ă
Â¡ Â¡
ÂĻ .
Â½ Â²
K F
Ã¤ Ã¹
Ãĵ ÃĽ
Ãľ ÃŃ
ą Â¨
Ãĺ n
Â¼ 0
ğ Â©
Ã® ÃŁ
( Âĳ
Â§ >
v ÃĿ
Ã· $
Â¦ ]
Âµ c
Ãĭ f
Z ÃĦ
g j
Â´ Â¨
O O
ÃĮ Ãª
Â¢ ,
Ãī Ã¯
) ĕ
% ?
ÃĽ ÃĲ
ÃĶ ÃĬ
ÂĽ Ĕ
ÃĤ G
Â¬ Â¡
Â¶ Ĉ
Ãķ T
Ãĭ a
ÃĽ ÃŃ
Â¬ ě
Ę Âĸ
Ã¦ c
ď Â¿
ÂĲ Ğ
/ .
Âĺ Â°
Ę Âľ
Ã³ E
% }
ğ Âī
Â¤ ~
Ē Â±
z Ãł
V Ã§
Ą *
ą }
Ã¡ Ã¼
Ę ÂĢ
Ã¥ ÃĿ
Ãĺ Ãļ
r Ã¤
Ã© ÃĪ
m o
Âĵ Âĸ
Â¤ ÂĽ
Ãµ I
Ę "
, ÂŃ
A Âµ
: Â·
Ē Â¡
Âĺ .
@ ÂĢ
/ ÂĿ
ÂĲ ÂĨ
M J
Ãį k
[ ÂĹ
V Ã®
^ ;
@ Â®
ÂĬ ė
Âĸ Â¿
Â¥ )
ÃĿ P
Â¨ Âģ
i K
Đ (
x b
Ã¡ y
Âĭ ÂĴ
e o
% ğ
B N
Ãį Âµ
F Ã¶
Ĉ ÂĦ
Ġ ÂĶ
Âı !
| Âĳ
Â© Âķ
Ã» K
ą ÂŁ
V Q
Ã§ ÃĻ
$ Ė
Â£ ;
Âı =
ġ ġ
Â± Âī
Â¬ ā
Â¨ *
$ ÂĿ
f ÃĨ
h ÃĤ
i Ãļ
Â§ Ė
Â« -
f Ã¨
Ĉ Ğ
R o
C ÃĶ
Ã¾ Ãĺ
Â´ ÂĹ
V t
Ãľ Âª
Â» {
ÂĽ ć
n ÃŃ
Â± !
w l
Ę ÂŃ
Đ >
Ã½ Ã½
g ÃĿ
" _
Â£ ÂĨ
u ÃĪ
Ã³ Ã¦
Ãĸ Ã²
ĝ Âİ
Âĥ ?
B s
ÃĽ Ã»
ÂĴ ÂĲ
f Ã¢
H r
X ÃĴ
Ã½ G
D I
Y Ã²
Â± [
Ã´ ÃŃ
Ã¤ Ãī
Â¢ÂĬ(ĀÂ¢ÂĬ(Ā Â¢ÂĬ(Ă
Z Ã¢
Â¼ 2
ÂĻ ÂĨ
Ć ÂĤ
Â¿ (
Â¯ Â¯
Ãĺ ÃĦ
(Â¢Âĺ ąĔ
O Ã¬
4 3
Ãľ Ã¶
Â¿ÂĿ Ğ
ě <
w s
) Â°
Ãĥ d
Ĕ .
Â¡ Ĝ
Z s
Â§ .
T ÃĲ
ÃĬ Âº
Q Ã®
Đ Â¸
M m
ġ ÂĹ
Q d
v Ãŀ
ĝ Âĺ
Ãģ ÃŃ
C ÃĲ
Z Ãı
Âĸ \
p ÃĪ
n Y
Âļ Âľ
Âĳ }
Ě _
ÃĹ Âŀ
& Ď
Â¼ 3
ĝ Âĭ
Z ÃĻ
Â¤ Â¢
Ãĥ Ã½
Ě Â©
ÃĶ a
Ã¼ Ãī
ÂŃ _
Ã¹ Y
Âķ Â°
< ÃĹ
Ē {
Ãĵ Ã¤
Ã« Ã³
ġÂĿ Ā
T Ãĳ
Ã¾ ÃĨ
Â´ ē
Ã· ą
Ã± Ã¡
Âķ Â¿
& Â¶
ĝ Ę
V ÃĽ
u c
Ãµ o
Ã¬ H
Â± ~
Ã² d
Ã» Âª
Ãĵ K
Â¤ ;
( Ď
ÃĴ g
} Â¶
Âı #
@ ~
ÃĿ J
j S
ÃĲ Âª
r J
k X
% Âĭ
Â¨ ÂĪ
/ !
Ãķ E
Â¾ 8
Ã¬ ÃŃ
x ÃĬ
Ą '
ÃĪ Ãĸ
Ć ÂĪ
v E
ÂĿ Â°
Ãª ÃĢ
ÂŁ Â¨
r Ãŀ
ÃĮ C
< Â®
Ã© ÃŁ
T Ã¡
Ãĵ Ãį
Â¥ ÂĽ
ÃĻ c
Ę Â¶
Ãİ ÃĦ
Â¿ .
Âį ÃĹ
ē #
Ġ =
Ãī Ãº
Âĳ Ď
Âĵ ě
Âĺ ā
p Ãĭ
Ãļ ÃĬ
ÃĽ ÃŁ
$ Â¯
ă [
d i
Ã» Ãħ
Âı &
Ãĩ ÃĪ
Ãī Âµ
ÂĿ >
< Â¬
I e
ÂĴ ÂĮ
Â« Âĭ
ę "
Â§ !
ÃĮ F
p U
ÂĶ ď
Ã¬ ÃŁ
Ãļ X
M Ã§
a Ãį
ā Ď
Ă !
D X
? >
q Âº
ĕ Â¸
Ě Âģ
Ã± Ã¨
, ğ
- Â¶
< (
H F
a Âµ
Âĥ Âķ
Q w
ÂĦ Âŀ
Ē \
G Ãľ
c g
Ğ Ć
ÂĿ )
Z Ãª
D ÃĢ
k k
Ġ Ã©
ÂĻ đ
ÂĶ |
P Ãį
l Ãķ
Ă ą
7 Â½
Â£ )
L ÃĽ
] >
- ę
4 8
ā {
ÃĴ ÃĶ
N Y
d E
m e
P Ã§
Â³ Â¼
Âļ /
Ãĵ B
ÃĪ Ã²
u Ã¾
Ã¨ ÃĽ
Ę _
Âĺ Â§
W j
Ã¹ Ã²
n j
Âį ÂĲ
ÂĻ \
Ã· Ğ
Âª A
^ Ĉ
t b
v Ãİ
ā ē
l a
Ãĵ Ã£
C T
ÃĲ E
w ÃĻ
Ã¯ b
Q Ã¨
Ē ÂĮ
R Ãĭ
Ē Ĝ
Ãļ Ãħ
Ãĸ Ã¤
ÂĻ ē
Â¥ Â£
% Âĵ
z n
* Âĩ
Ã£ K
ÂĴ Ă
, đ
V Ãı
; Âĭ
ĕ Â«
x Ã¨
Q Ãĥ
Ã® p
Â¯ \
Ě Âĩ
Ãĩ ÃĦ
Ã¹Ãĳ Ã¦
Ã¡ ÃĬ
Â¦ &
Âĥ Â¥
s Ãĭ
c Ã§
Â¨ Âĺ
ÃĽ Ãį
o Ãĭ
Ãħ Ãµ
Ě Đ
d y
I r
Âŀ _
ÂĻ Â°
+ Âļ
ÃĿ Ã£
Â¬ Âģ
Âĳ >
, :
? |
ě ă
m m
Ġ F
Â¤ Â©
N ÃĨ
~ |
Ĉ Ĉ
T Âº
Ãļ V
Âµ ÃĦ
, Â¡
] ÂĽ
ğ ÂĪ
f Âª
v Ã°
Â¸ ÂĬ
Ã¾ Ãĥ
Ãĵ Y
c ÃĮ
ą ÂĲ
Âı Âĸ
Âĺ ÃĹ
A ÃĲ
ā đ
ÂĤ ÂŁ
Â¨ &
Ě ÂŃ
l Ã°
ÂĿ Â«
Ãĵ Ã»
Ã© ÃĨ
Â¸ Â®
) ė
H G
H C
u Ãī
Â± ÂĶ
6 Â³
i ÃĦ
Ã´ Ã¾
Ė ġ
h X
Ĉ Â¬
t Ãģ
Ĉ ġ
Ã® X
Ā (Â¢
" .
Âİ ÂĬ
ÂĨ ġ
Ã¼ ÃĲ
ÃĢ e
s C
ÂĻ Â§
ă Â´
Âĩ Ā
Z Ãº
Âı Â¨
Ãİ Ã¯
` đ
Ã® f
ć Ć
: *
Â» Ą
ÃĬ ÃĿ
Ě ]
Âª Ã¯
q Ã§
Ãĺ Ã»
p Ã´
& }
Ã¹ C
Â² Â¾
Ãĩ ÃŁ
ė Ğ
T Y
' s
Ē ğ
M ÃĿ
ÂĻ Ć
N Ã¨
I s
Ã® Ãµ
ÂĿ Ā
" Ĝ
W Ãľ
u V
K K
Ãĸ Ãł
Đ ;
Âķ Â®
Â© +
ÃĬ v
W Ã¨
Â¿ Â´
, ;
Â¸ ď
I R
Â¥ Â¥
ÂŃ Ă
Ã¥ f
N ÃĦ
Ę Â¡
@ Ğ
Â± ÂĪ
Â¢ Ė
Ā| ÂŁ
Ã½ U
Đ ÂĶ
ÂĢ% Â¢Â¢
ÂĻ ÂĹ
Ãı Âº
Â¦ '
Ã¡ ÃĶ
ÂĲ |
Âī '
Ã¤ l
Ãĥ Ãļ
u R
Â· Âļ
ÃĴ Ã½
H Ãŀ
V Ã©
Ď Âľ
Ē ą
Ě ġ
Â° *
= Ĕā
Ě Ĉ
Ãı p
ď Ą
Ã¯ Ã«
RÃĴ Q
? -
Ġ ÂĿ
ÃĻ Ãħ
Â± Â¬
Âĺ $
Ãķ F
A T
Y O
Âĺ Âģ
ą Â£
ĕ Ă
Ã¹ Ãī
Ãķ z
Ã¬ ÃĶ
l Ã¦
ÃĬ ÃĨ
Ãį ÃĦ
D ÃĦ
u ÃĢ
Â« Â¯
ÂĿ Ĝ
ÃŃ p
Âĺ Ĕ
Âĭ ę
/ Âĵ
@ !
ā ÂŃ
Ã§ Ãº
Âĸ Ĉ
Ãµ S
L Ãĸ
. {
t Ã¨
N Ã»
V ÃĪ
d Ãĸ
y ÃŃ
Âª m
Ãĺ g
Ġ ė
Â¢ ~
ÂĽ }
x Ãª
Âı ğ
ÂĽ ÂĤ
Ã¥ Ã´
ÂĨ Â¬
Â¥ Â¿
J S
ÂĢ ÂĴ
ÂĨ Âĵ
ď $
ÃĻ b
@ -
Ãı i
ÂĨ !
Âī -
Ã§ Ãį
Âŀ `
U Ã²
y Ã±
* ÂĹ
( Â®
e B
" Đ
Ã¼ ÃĤ
Ãµ kÃ´
z Ã¤
ą Âĳ
c ÃĨ
Ě Â¬
Â± Ĕ
O Ãĵ
Ãª T
Ã¯ Ã¯
Ć |
ÂĬ Ď
Ã³ Ãľ
C Ãļ
V S
Âº Ã®
= ÂĶ
ÂĻ ÂĢ
" ć
D a
P T
Âī Âİ
L a
g Ãī
ÂĿ Â¨
[ ;
Â¶ >
Ĉ ě
G Ãı
D v
ÃĮ Ãľ
z Ã»
Ã¼ Ãĵ
i Ã¥
Â« ]
? ^
Ě Âĭ
Ã¡ Z
ÃĴ QE
[ Âĩ
x R
Ã© ÃĶ
Ã¬ Ãĺ
I f
Ãĳ ÃĬ
Â§ ÂĹ
Ãķ ÃĽ
ÂĽ ,
h Ãµ
P Ã¤
U Ãĥ
A Ãº
Â° ă
V ÃŃ
ě (
ÂŃ Âĭ
Ãĳ Ã¾
G Ãİ
ÂĻ Âĭ
ÃĮ M
Ãª d
Ę !
Â¸ Âķ
Âĳ !
Ã® T
N Ã¤
e Ãĭ
F Ãµ
Ãĳ Ã¯
ÂĦ Âĥ
ÃĴ ÃĨ
p J
Ĉ ÂĪ
Y Ã£
Ã¬ ÃĬ
Âļ đ
ÃĢ v
ā Âĭ
Âĺ ă
Ãĺ d
Ã¼ ÃĽ
Âŀ ~
Ã¢ B
Ãģ Ãł
ÃĴ Ã£
Ãķ Ãī
ÃĿ y
Â£ ÂĿ
" Ć
r Ãł
b b
w o
Ġ @
Ġ I
R Ã¶
ÃĤ Ã²
Ā ÂļÂĬ
ě Ą
ĕ }
ÃĹ ġ
S Ã¾Ãº
Ġ B
Ãĵ Ã¾Ã¹
Ã¸ Ãĩ
P Ãī
Â¥ Â´
Ãĳ ÃĨ
V Ã´
` ę
` ÂĢ
b h
Ã® q
Â¬ Â¸
e T
m Ãª
Ã± S
H Ã¯
Ĉ ^
Â¯ '
( ,
Ę ā
ÂĻ Âķ
Ã¬ T
n E
ā -ĕ
V Ãµ
Ãĵ J
Ãľ W
Ã¡ C
đ Â®
L E
[ Â¢
a Ãĸ
Ã³ Y
Ãŀ ÃĽ
b c
y QÃ¿
Ãİ ÃĮ
Ā} ğ
Â· ĕ
Ãŀ A
ÂĨ ě
D U
Ã® W
) Â¯
Âĺ Âĳ
Ãķ w
Ãģ Ãļ
+ Ĕ
n Âª
[ ć
a Ãħ
ÃĢ l
[ ă
Â« ÂĪ
ą ^
n Ã¯
ÃĻ Âª
ÂĻ Ą
Âį ÂĬ
L Ãµ
ÂĶ ă
Â¸ *
Â® ÂĬ
s Âº
ÂĽ Â»
W ÃŃ
I d
Âı <
Z ÃĮ
(Â¢ÂĬ @Ĕ
ăÂ¨ Â¢ÂĬĀ
u Ãİ
Â® Â¡
ÃĦ y
Ē ĕ
ÂĲ Â«
: |
t g
ÃĨ Ã¤
Ãĭ Ã§
Ã£ ÃĿ
ÂĿ ÂĨ
F Ã«
ÃĢ q
V r
j Ãª
ÂĹ ÂĮ
o ÃŃ
Âį Â¥
ÃĪ f
Ã½ y
Ąđ ÂĲ
Z T
} ÂĤ
: Â¯
] ĕ
Ãĩ Ãİ
( ÂŃ
Âĸ Ĝ
ÃĪ q
Âĵ !
Ã³ Ãº
, _
[ =
Âļ ^
Ē &
ÃĶ Ã¡
Â¬ ;
Ãı ÃĻ
# /
ą ď
e N
ÃĬ U
Ğ (
Ã¬ x
e Ãĥ
Ã»Ãĩ Ã³
Ãľ A
D Ã±
Â· -
Ãĭ Ã´
Ã¯ ÃĨ
e Ã²
D Ãģ
Â· Â¡
ā Đ
V Âº
Â§ )
Â¨ /
C Y
Ãĩ Ã¸
ÂĲ Â¡
] \
o P
ĀÂŀ Âį
Â± ă
Ã¾ Ã§
Ġ Â®
Ã£ Ã¹
Ã¬ Ã°
C Ãį
y v
ė %
ÂĽ Âľ
Â¿Âķ Ā
Âį Âĵ
Â¸ Đ
V Ã¹
b Ãĺ
Âķ Âĵ
Â¬ ~
Ãĭ Ãı
Â£ Â¿
V Ãĸ
Ĕ Âļ
* ÂĪ
ÃĿ ÃŃ
G Ã®
@ }
E Ãī
( ÂĴ
Â¨ Â°
[ Â¥
Ãļ i
Âµ Âµ
ÂĹ -
m Ã¡
Âª s
Ã« ÃĪ
u o
đ Ĝ
I ÃŃ
Âģ Â°
Â· ÂĶ
Ę ,
ÃĻ Ã¹
Ã¬ X
ą )
Q C
ě Âĸ
J j
ě `
Ãŀ ÃŁ
Ãª B
N K
| ď
Ã¬ A
Â¢ÂĬ(Ā Â¢ÂĬ
Âī ē
I Âº
R Âº
Ę ÂŁ
Â¢ÂĬ(ĀÂ¢ÂĬ(ĀÂ¢ÂĬ(ĀÂ¢ÂĬ(ĀÂ¢ÂĬ(ĀÂ¢ÂĬ(ĀÂ¢ÂĬ(ĀÂ¢ÂĬ(ĀÂ¢ÂĬ(ĀÂ¢ÂĬ(ĀÂ¢ÂĬ(ĀÂ¢ÂĬ(ĀÂ¢ÂĬ(ĀÂ¢ÂĬ(ĀÂ¢ÂĬ(ĀÂ¢ÂĬ(Ā Â¢ÂĬ(ĀÂ¢ÂĬ(ĀÂ¢ÂĬ(ĀÂ¢ÂĬ(ĀÂ¢ÂĬ(ĀÂ¢ÂĬ(ĀÂ¢ÂĬ(ĀÂ¢ÂĬ(ĀÂ¢ÂĬ(ĀÂ¢ÂĬ(ĀÂ¢ÂĬ(ĀÂ¢ÂĬ(ĀÂ¢ÂĬ(ĀÂ¢ÂĬ(ĀÂ¢ÂĬ(ĀÂ¢ÂĬ(Ā
Ĉ ā
Ą Â¤
[ Ė
ÂĲ Â¿
F Ã¾
Ãĭ Ãī
H Ã±
ÂĮ >
l Ãĸ
W s
f Ãł
ÃĿ ÃŁ
+ Â«
u ÃĨ
Ã· Âī
Â¸ Âľ
ÂĽ %
Ã¦ ÃĨ
u S
Ãĵ Âª
Ã»Ãĥ Ã²
G m
E a
: Âĸ
F k
ÂŃ Âĳ
Ã½ Ã±Ã¿
ÂĲ .
h C
i Ãł
Ãħ t
Ãŀ Ã§
Â¶ ÂĿ
Â¯ ^
ÂŃ ė
Ã« Ãģ
Ã£ s
ě Â¦
ÃŃ c
J K
ÂĮ Ĉ
ÂĲ ]
y s
ę Âķ
ÃĶ Ãĩ
ÂĪ ă
ĕ {
o Ãı
ÃĪ Y
U Ã§
ĝ (Ă
Ãĳ q
B Ã°
ÃĴ Ã¤
Ãŀ Ã¼
F Ã¯
Ã¶ Ã¨
X Ã¡
- Â°
Â¡ ÂĬ
ÂĹ Âĳ
r Ãģ
Ã¬ z
* ,
M Z
y P
m ÃĲ
Ġ Ã¡
Ã» Ãµ
" Ĉ
Âĥ $
Âª q
Âĺ Â·
Ć ÂĬ
[ Ā
= Âİ
ÂĽ ÂĮ
ÃĴ Ãł
ÃĦ ÃĦ
R Ã¥
Â¤ +
Âķ Â¥
Â´ Đ
Âī Â¢
* ă
` Ē
N J
Ę .
Ę ~
[ Âŀ
" Ď
ÃŁ ÃĽ
ÃĶ ÃĽ
E Ãģ
{ '
Ãľ K
h e
ÂĻ ÂĻ
b Ã®
y f
/ Ğ
Ĕ Ć
ě Đ
ÃĴ o
Ã§ Ã§
ÂŃ ÂĴ
Ã¨ I
ġ ā
Ã« Ã²
) ,
Ãĵ Ã¯
a Ã¹
y p
ÃĢ ÃĿ
Ã¬ Ã¢
ÂĪ ğ
Ã¬ Ãķ
U S
Â¹ Â²
! Â¤
ÃĲ Ã¾
. ą
ě Ã·
i W
đ Â©
{ ?
Ã¼Ã¨ Ã»
Ãĵ q
Âķ Ď
Â¨ ĕ
Âĵ Â°
( *
Ãĵ Ã½
L V
9 2
Âķ Âį
Ĕ ,
h ÃĦ
ÃĬ x
ÂĬ( Â¤
[ Ą
Ãŀ l
` Ã·
Ã¨ Ã²
X Âº
| ÃĹ
" ď
e x
Ã¥ ÃĬ
i Ã®
ē ÂĬ
` Â£
ÃĶ ÃĤ
Ãŀ Ãħ
/ '
g Ã©
ÃŃ l
? Â§
ē Â°
ÃĢ m
k m
Â¡ ĕ
C Ã¹
ę ~
Â¨ ď
Ãķ x
Ãķ P
E v
Ć ğ
ę Âĺ
Ãļ K
Ã· ÂĨ
ÂŃ Đ
ÃĦ Ãĩ
Ãĺ Q
! ĝ
Ã» A
D Âª
Â» Ě
Âľ ÂĨ
N ÃĻ
Ã¬ b
Ã¶ j
- Â¢
t ÃĶ
ÃĳI K
Â· ;
& ;
Ã´ y
, ÂĤ
- ÂĦ
D Ãľ
ÂŁ Â©
Ã± Ã°
Âı ÂĲ
Âµ o
Ãĵ ÃĶ
( ÂĮ
Âį ă
Â¡ {
Ć ė
Â´ Â°
R e
ę Âĭ
Z Ã¨
/ ğ
Âļ #
ÃĨ K
I T
L Ã¾
\ Ĉ
Ãī r
] Ė
4 9
J Ã¡
ę Âĵ
Ă <
Âĳ Ĝ
Â¿ Â§
Âī Ě
ÃĲ Ã¶
(Â¢ Â¤
ÂĢ ÂĢ
( Ĉ
Ã® x
O Ã¸
ě Ĕ
Ã© Ãİ
Ã· =
n w
Ã§ T
Â¯ Â¸
| Âŀ
ÂĻ Âĵ
a d
Ãĭ Ãĸ
ē Â·
U Ãº
$ ć
b Ã¤
( Â«
ÃĪ ÃŁ
Ă Âĭ
Â» =
P w
+ <
ÃĬ Ãį
ÃĦ Ã¶
$ ;
S A
_ Â¸
ÂĬ đ
Â¦ Ē
ÃĬ d
Â£ Âį
ÃĬ B
Â± Ē
ÂĤ ė
ÃĤ H
Âī !
Âī .
i Ã°
J Ãº
Ã£ Y
Âī &
e Ã¤
-ĔĀ ÂĽ
/ >
Ã· ă
ÂŃ ÂĪ
J Âº
ÂŁ ?
Â¦ Âĩ
Â· Ď
Ã£ F
Â£ !
ě Ď
ÂĴ Âľ
Ã£ Ã§
M s
^ >
ġ ă
Â§ Â´
Ãĵ E
Ĕā %
i ÃŃ
Ã® Ã¦
S o
Ã¼ Ãģ
ÃŁ Ã¥
ÃĿ B
t Ãķ
ÂĦ \
P c
Âķ &
Âī Âģ
ÂĽ ď
Ã´ a
P Y
Ã½ x
ÃĬ Ãª
k d
@ %
ÃĴ d
ę Đ
ÃĹ Ğ
Â¡ Ĉ
Ã¹ o
F R
Ãĭ Âº
U Ãį
Â¨ ą
ÃĢ Ãļ
Â· Ė
Ă .
Â¤ ^
Ãĺ Ãº
ÂĶ Âģ
V j
i f
ÃĹ Âĥ
Â¢ Ę
Ã¹ Ãİ
Â© ÂĤ
Â¾ 9
h I
ÂĴ Ē
ÃĮ ÃĪ
i R
$ !
; #
` Â¶
u n
ġ Â¨
Ãĩ Ã©
L Ã¦
M T
Z ÃĪ
Ã· Âİ
Âį %
Â§ Âĭ
Ãĥ Ãŀ
l H
Â¾ Â¼
Âĺ Âŀ
Â£ ē
Âĳ &
ÃĬ Ãľ
Ãĳ Âª
Â¶ Âľ
C Ãħ
Ã¬ Y
Q ÃŁ
Âķ ÂŃ
ÃĮ ÃŁ
Ã¯ n
Đ Ĕ
Â± ď
| ÂĻ
Ã¼ U
| Âİ
0 Â½
@ ]
Ã¡ x
Ġ ÂĦ
T B
$ '
a Ã¶
Âķ ÂĦ
Ãŀ ÃĢ
M N
Â® ě
Ãķ A
- ğ
y L
ė ÂĹ
ÂĲ Âģ
Â® #
Â´Ā Â´
m Ã¨
Ãĵ b
Â¶ }
+ ÂĽ
Ãĸ ÃĴ
Âĸ Ĕ
Ă ă
\ ą
* ÂĽ
Ã¾ d
đ ÂĿ
Ě ÂĿ
ÃĻ Ãį
e S
Â¶ {
Ã¼ T
H V
D h
ÂĪ ÂĮ
Âĥ '
Ã¦ b
ÃŃ ÃŁ
f G
ÂŃ Âļ
ġ Âī
Ã· Ď
+ ^
v b
(Ă ?
Â· Â°
Ã½ Âº
Ãı Ã©
Â´ ?
Ã° q
ÃĽ Ãħ
ÃĮ ÃĿ
H m
ÂĶ Ĕ
L Ã¶
Ã» Ã±
Â¹ Â¾
Ě Â¨
ÂĴ !
Ã¼Âª J
Ã¦ f
W E
[ Ē
g U
Ãĥ Ã§
ę !
$ Ĉ
Âª p
ā (Â¥
ę Â¿
ÃĹ >
ę Âĳ
B X
Ã¡ Ãģ
Âª Ãĺ
ÃĻ Ã¾
ġ ÂŃĀ
ġÂį ğ
Â¤ /
Ã© Ã¶
Â´ Â¯
I Ãĺ
F S
ÂŁ ğ
ē ă
W Ãĺ
Â® ÂĨ
" <
ÃĦ t
e Ã£
ÂĶ ÂĦ
M A
Ġ Ã«
d X
g c
Â¡ Ą
y Ãļ
Ġ Ĉ
I u
Â¸ _
D L
ÃĨ Ãİ
Ă \
ÃŃ Ã®
Âĭ Ğ
ġ Â±
ÃĿ ÃĶ
Âĭ Â»
đ Âį
] ÂĹ
ÂĪ Ĝ
Ě ė
ÃŁ n
U Ãµ
ÂŃ Âĥ
ę Â°
Â¡ `
ę ÂĲ
Ã¦ Ãļ
Ã° Ãħ
ğ '
Âĳ Âį
M Âº
Âķ Â¢
Ã³ Ã¥
c C
ğ Â¥Ā
Ę ÂĨ
ÃĢ Z
Âĩ Ĕ
M e
a v
` (
~ ]
ÂŃ ĕ
ÂĶ Â£
Â¡ Âĵ
ć ą
đ [
ÂŁ '
Ã» c
U Ã«
z C
Â´ |
Âĺ ĝ
Â· Â±
Â¬ -
Âĺ Ć
Ãµ Ãĵ
: Â¨
Â® ė
ÃĢ ÃĶ
Ã¤ F
ÃĢ w
ě Â¤
ÂĤ ÂĴ
Â¶ Ď
f c
Z Ãĭ
n V
H Ãº
; Âį
Ãģ v
$ Ę
ÃĿ W
ÃĪ Ãº
ÃĦ K
Â§ Â«
< ÂĨ
ÃĿ Ã½
Â¢ ď
Â´ ď
Ã³ Ãª
ÃºR ÃĴ
Ã¦ Ãī
Ãµ ÃĨ
Ãģ ÃĽ
y ÃĽ
P v
t Y
Ã¦ Ãľ
ÃĤ Ãĩ
Â¶ ;
ÂĪ ÃĹ
& ā
t r
Âĥ ă
! _
I V
ÃĻ W
ÂŁ {
R Ãī
T L
Â¯ Ğ
B v
Â¶ =
@ Â¸
Ć Â¨
Ã¥ x
F l
ÂĤ ÂĮ
ÃĮ a
Âģ ć
P d
R Ãŀ
Đ Đ
Âī Ć
Ã«F O
Â¬ ÂĿ
Ãĩ E
Â± `
b Ãŀ
ÂĢĒ ÂĬ
Âŀ Âĭ
Ã¥ Âª
y Ãĭ
" >
ÂŃ Âį
Ğ ;
Ã¼ ÃĪ
+ Ĉ
Ã¬ ÃĦ
Ã¨ T
0 Â²
A a
ē ,
ÂĴ ]
Âī ÂĪ
P Ãł
H ÃŁ
Ğ ~
n Q
Ã¹ E
F m
y Y
Ãĵ Ãĭ
Âĸ !
F a
t Ãļ
Ãķ s
ÃĻ w
ÃĤ ÃĴ
ē Âļ
p Ãł
Â· ÂĬ
ÂĴ #
Â¢ Ē
u r
Âĺ #
P ÃĮ
Âľ Âķ
Ãľ E
? ď
V Ã¾
Â´ -
ÂĲ ă
đ $
{ ă
ÂŃ Â£
" )
[ Âį
Ã£ k
Ãı Ãİ
ÃŃ Ã¨
Âª C
Âĭ ć
V Ã¬
b w
Ã² M
q C
Ãĵ O
J Ã»
Â§ ^
T k
Â· ÂĻ
Âĸ -
Â° <
. ă
Âĸ )
ÃĿ Ã¦
Ãľ Ãī
Â¤ ÂĿ
S Ã¤
h Ã®
n B
Âŀ ė
Â¿ Âı
n ÃĬ
Ã© Ã¨
' &
? ÂĨ
Y Ã¶
V ÃĢ
b T
Â¡ ā
ÂĦ ď
ÃĤ Âº
Y Ãº
G ÃĪ
(Â¢ÂĬ ĄĔ
Ãı B
Âĺ Â¨
_ )
ÃĽ D
ÃĦ L
Â¡ >
Â¿ Âī
Ã» M
Ãĩ R
v O
ÃĮ Ãİ
Ãķ ÃĪ
R Ãļ
Âª Ã¹
f Ã¼
ÂĪ #
ÃĲ r
h Ã¨
ě ÂĴ
S Ã£
Â· Âŀ
p ÃĨ
ę ]
Â® .
Ãĭ ÃĨ
Ãĸ Ã±
! ,
ě ā
Â¯ Â¨
Â¬ >
& Ā
V Ã¡
Ã´ Ã½
J ÃĻ
a Ã»
ÃĢ t
ÂĻ _
Âģ Ĉ
Ãķ Q
Â¢ÂĬ(ĀÂ¢ÂĬ(ĀÂ¢ÂĬ(Ā Â¢ÂĬ(Ă
Âĺ Â©
Â¶ ÂĢ
Ę |
Ć ]
Âķ đ
Âĭ Ĕ
9 Â¾
I ÃĽ
o Ãį
H O
ĝ [
Â¿ Â¿
N ÃĽ
ÃŁ k
ÂĶ Â¸
B Ã¶
y h
d ÃĨ
m f
ÂĶ [
ÃĦ Ã®
Ãĳ Ãı
% Â¤
D Ã³
ÃĮ h
X f
x Ã¾t
Â¶ Â±
( _
" ą
z Ã®
W Âº
Ãľ Ãį
ě Âį
Y p
ğ Â¡
X s
ě Â®
Âı Âĵ
6 Â¹
P ÃĨ
X r
Âĭ ÂĨ
Ãŀ Ãł
(Â¢ÂĬĀ (Â¢
Â§ Ē
Ãĸ Ãª
Ãķ ÃĨ
Ãĭ ÃĴ
Ą =
ÃĶ M
ē Ğ
Âĺ Ğ
ą Â¬
` Âģ
Â¸ ÂŁ
Âİ +
Â« Â¿
ÃĢ Ã²
ė ġ
ÂĺÂ£ ĔÂ´
Âķ Ĉ
d Ãģ
- Ğ
Â° Ą
F Q
u P
ą Â¥
^ \
Ć Âİ
ÂĶ Âį
ÂĮ Âį
Â¡ ė
N k
V Ã¶
ÂĮ Ę
(Ā Â¢ÂĬ(ĀÂ¢ÂĬ(ĀÂ¢ÂĬ(ĀÂ¢ÂĬ(ĀÂ¢ÂĬ(ĀÂ¢ÂĬ(ĀÂ¢ÂĬ(ĀÂ¢ÂĬ(Ā
Âª L
Ć ĕ
y Ã¯
T Ã¥
@ Ã·
Â© {
ÃĻ I
T H
Ď Â¦
ÂĦ Âį
Â¿ )
Ã¥ Ã¼
Â¿ Âĩ
Ã¹ a
J R
Ã£ ÃŃ
ā Ē
Âī ă
Â° (
ÂĮ Â»
Âĺ ~
Ě Â´
Ă Ă
ÂĤ Â¸
b Ãł
Âĸ Â¤
ÃĴ Ã§
ę ė
ÂĹ (
E ÃĿ
_ Â¨
v Ãº
Ãĺ Ã³
Â§ ÃĹ
ÂŃ ^
ÃĦ u
Ãª K
D Ãĭ
w a
Ĉ Âį
Ã¹ ÃĢ
ą *
ÂĲ Âĳ
Ě Âĥ
Ãª ÃĨ
Âı Â¥Ā
ÂĿ ě
m Ã«
ÂĢ Âİ
Ã¹ Ãģ
Â© ÂĦ
Ãĳ Ãī
Â³ Â²
Ã¾ Ãħ
w Ãº
W Ã¬
m X
ÃĦ z
, ÂĻ
Âŀ Â¬
Âı `
ÃĲ I
Ã° s
đ ]
Ã£ J
@Ė (
Ã» I
r Ã®
Ĝ ÂĦ
Ãĩ h
Ã¯ Ã³
2 5
Âŀ Â´ā
V Ã¥
* `
ÂĲ Âĩ
Â¡ <
Ã¡ d
ÂĪ \
D s
Â³ Â¾
D Ãĥ
j Ã´
Ã¦ e
Ãį Ãĥ
Ġ Â¯
Âļ Ě
ÃĪ ÃĤ
' `
Âķ ġ
ÃĪ C
Ãī Ã¬
Âª Ã¾
Â¥ ď
Â¢ÂĢ (
A G
ÂĶ Âĸ
D H
Ãĭ P
Ã² ÃĤ
ÂĢ Âľ
Â¨ Ē
Ãģ N
t q
ÂĪ ~
Ã½ O
Âĥ Ā
Ã· Â®
& Ę
b ÃĬ
Ãķ Ã¾
Ą ÂĹ
Â¼ Â¾
& <
Â¼ 9
ÃĶ Ã¾t
ē $
Ã¼ Ãŀ
i G
ę ÂĽ
Â¸ ;
Âĺ ć
s Fi
Ã» l
Ãľ Ãº
v Ã¥
& Â©
Âµ Ãĥ
Ãª w
Â¡ đ
X z
ÃŁ Ãı
ÃĮ f
+ $
Ã§ Ã¹
ÂŃ ÂŃ
Âī Âľ
Ã° F
Ġ Ã¯
Ãµ Ã¯
M C
t ÃĨ
ÂĽ "
y Ã½
ġ Âĵ
ÃĦ W
Ã» ÃĽ
ÂĨ ą
Ã½Ã² h
B Ã¡
} ÃĹ
Ã³ Ã¨
H R
Ãį ÃĴ
Â» /
& ÂĤ
ā Â¢
ÃĻ Ãĭ
Ã® Ãĥ
[ ÂĦ
Ă |
ÃĿ q
ÃĮ Ã¤
d Ãĺ
ÂĨ Âı
ÂĻ /
Ã¼ v
D y
Âĥ Â©
Ã· ę
ÂŁ Ĝ
Â¥Â¤ =
Ĉ Â¢
Â¤ |
Ã¦ l
ÃĻ G
Đ ÂĲ
+ ĝ
ÂĨ ÂĶ
Ãı ÃĪ
Â´ ,
ÃĮ J
Ĉ Âģ
OÃµ mÃ´
ÂŃ Âĵ
r ÃŃ
Ĉ Â«
Ą Â¬
ě Â£
Ã¬ Ãł
Đ Â¶
Ãī f
Ą "
Â¨ ÂĲ
Âª E
ā Ě
Â» Â§
ÂĶ Âĺ
Ãİ k
c a
ÂĽ Ğ
Ãį o
m Q
Âļ ė
Ãħ p
Âĥ Ğ
ÂŃ ÃĹ
Â¼ 7
Ãĭ ÃĶ
b v
g Ã¶
ÂĮ ÂĦ
h ÃĴ
. _
{ ÂĤ
Â¨ Ď
$ ĝ
g a
ē (
Ãį s
Â§ Â£
/ ĝ
Ã² A
Ãĺ q
Âº U
Â¯ Âĺ
V Ã¼
Ã® ÃĻ
i a
Ã½ ÃĦ
ÃĮ Ã£
m Ã³
* Âĺ
w z
Â· |
ğ Â¨
< ÂĽ
ÃĬ Ã¡
Ãĺ Ã¡
? Â¿
H L
o Ã´
ă ÂĿ
Ãĳ W
c Ãħ
Ĉ @
B T
d Ãŀ
y G
Â© Ď
Âª Ã´
$ #
Ãĵ Ã¢
} Â¨ā
Ã¬ N
Ãĸ e
[ Ĕ
Âª Ãŀ
. Â¥
Q IE
Ã· ÂĢ
Ãĭ L
Ã¸ I
& ğ
! }
ÂĨ Âļ
ÂĮ Âĩ
Ãħ q
Â¸ Âģ
Âĭ Âĥ
ě Ē
c D
Ãľ L
Ã° Ãį
Ã® S
8 1
: Ā
& Â¯
: Đ
Â¨ Ć
Ãİ Ãª
; ć
` Âį
Â¤ Â¿
Ã£ T
) ÂĹ
ÂŃ Âŀ
ÂĦ ~
Ãĵ ÃĪ
ĝ +
W W
t Ãª
ÃĦ J
Ã® e
x Ãº
Ã® l
Â¬ Ć
/ Âŀ
ĄÂ¢ ÂĹ
Âķ ą
Ãĳ Ãļ
f C
Â¸ ,
Ãģ a
Ą Â»
Â« '
M Ãŀ
Âģ ē
ÃĬ J
h Ãª
Ã± Ãº
ÃĦ D
Ã¤ k
< Â»
[ ÂĽ
Ğ ^
(Â¢ÂĢ #
ÃĤ A
Â« ÃĹ
n C
Â¢ ;
Âº c
Ă -
ÂŁ $
* '
ě !
ÂĬ %
Âį Â¯
Âķ ā
Ã½ X
Ãľ ÃĿ
Ãı R
Ãĵ p
Ã¨ ÃĶ
Ę Âŀ
ÂŃ ÂĤ
Ã§ j
ÃĦ a
f y
Ãļ Y
Â¡ Ď
& \
w P
Ãį ÃĢ
Ãī s
ÃĿ Ã¥
Ã· {
Âº g
Ã· Âģ
O F
b K
f Ãĸ
i Âµ
* |
T F
Ã® N
đ ÂĹ
Âĥ Âĸ
ÃŁ Ãĭ
ÃĿ Ã¶
Âĳ ÂĦ
Â¸ |
Ã« Ã¼
Ã» Ãģ
Ã¡ Ã³
` ĝ
Đ Â©
u Ã¹
v q
Ě .
Ã¸ Ã§
Â´ /
Â¬ =
Âı :
(Ă /
u a
ÂĢ [
ÃĹ ,
ÃĮ Ãī
S Ã¢
Ã¬ m
ě >
ÃĻ Ã³
z ÃŃ
Âª d
Âĺ =
ÂĿ ć
Â® Ė
Ãį Ãģ
ÂĬ ę
ÂĲ ę
ÂĦ Â¶
ÃĲ s
Ãŀ R
Ć ă
Â§ ÂĶ
Ã± Ãİ
Â¤ Ã·
@ ,
A m
ē Ē
Ãħ c
Âģ \
f ÃĪ
Ĕ ÂĹ
Ã¦ Ã£
Â¡ Âļ
p ÃĴ
ė ÂĮ
ÃĲ i
Âķ ÂŁ
ÂĦ Â±
ÃŃ Ã¥
Â» ĕ
Âĵ ,
ÂŃ ÂĬ
ÂĽ !
Ą Â£
ÃŁ A
Â© Â¯
Ã® ÃĬ
ĝ Â¶
Ė ć
Âª Ãı
~ #
Âı +
Ã± G
ÂĿ :
Ă Âĩ
Ą $
Â¢ @
Ãİ Ãĩ
ÃĽ o
Â® Ĕ
}Âį ę
Âł ċ
f Ãĥ
( %
B J
(Â¢ÂĢ Ē
Ã® Ãļ
Đ Ĝ
Ć Âĥ
ÂĴ Âķ
Â© Âİ
x Ã¯
v s
Â¦ %
V o
Âĵ ;
ÃĹ -
Ã« Ãª
Ė Âĳ
Ãį Ãı
ÂĻ Â¸
U Ã´
! ]
Ãħ ÃĶ
Âī đ
? Â°
(ā )
ÂĴ Ĝ
c Ã¤
Ã« Ã©
ÃŃ D
Ãķ n
ÃĢ s
ÃĨ Ã¶
e d
ÂŃ ă
ÂĻ ĞÂ´
S Ãĥ
Ã° I
Đ Â¨
M ÃĶ
Â¬ Â¨
ÂĮ Âķ
Â¡ %
B Ã¢
" [
- ÂĶ
k o
Ã» Ã©
a A
u E
< Â£
ÃĽ Ãµ
ÃĴ Ãĩ
r Ã¹
Ã¡ ÃĪ
ā ġ
W Ã¹
Ã¬ d
Âº ÃĨ
Ĕ ?
` Â·
n l
ÃĻ Ã¥
ÃĦ Ã³
ÂŃ ÂĲ
Ã¬ S
Ã² Ãµ
ÂĿ ÂĽ
Â¼ 8
Â£ ÂļĀ
Ě Ē
M Ã´
Âģ ď
Â¢ÂĬĀ )
L Ã´
F n
Â¸ ē
ÂŃ Â¤
C Ãľ
ÂĪ ÂĲ
ÃĤ Ã¨
v e
ÃĽ ÃĢ
ÃĲ Ã¾T
< Â¢
Đ )
Âĺ )
Ãķ c
Â¢ÂĬĀ (Â¢ÂĬĀ(Â¢ÂĬĀ(Â¢ÂĬĀ(Â¢ÂĬĀ
Đ Â¬
Ã® Y
@ą %-%
Ã® Âµ
_ Â¡
ÂŃ Â¨
Ãĺ p
3 Â²
B K
k a
Ãŀ y
V w
Ã£ Ãī
- Âĩ
U t
ė >
ÂĤ Ĕ
Ãħ i
Â¿ ÂĲ
ĕ Â»
Ă '
Ãĥ Ã±
# ]
Ã¦ Âº
N Ã³
" Ā
j Ã¶
Ãŀ S
ÂĶ ą
Ãŀ i
Ãĵ ÃĮ
Ã§ Âº
ÃŃ ÃĶ
ÃĽ ÃĮ
ÂŃ Ć
Ã» Z
Ãķ Z
Âī Ą
" ÂĬ
ė _
Â« Â«
Ã¸ W
: +
ę ;
Â§ ē
Âŀ +
Ė _
P Ã¹
Ãĸ Ã¶
ÂŃ ď
@ Â¦
Ãļ b
ÂĿ Â¥
Ã» Ã½
ÂĤ ÂĲ
ÂĦ Ĕ
đ &
Ã¼ Ãľ
Ãĸ Ã¡
( Ć
Ą +
d Ãı
Â¡ ,
% -ĀĔ
Ãī Q
Ãķ q
Â· Â©
Âī Â¶
Đ Â£
> ğ
G Ãĵ
Â¡ Ē
E Ãĩ
= ÂĽ
b Ãį
- ÂĪ
e ÃĤ
Â¾ 2
{ ÂĢ
ÂĦ Ď
ď ć
D ÃĻ
W ÃĶ
t Ãľ
Âĸ /
D j
Ã¶ H
ÂĿ Âį
ě Ĉ
Ã¸ Ãİ
! Ď
Ã¾Ã° Ã¼
y O
Âĩ Â¿
g Ãı
Ę ď
ÃĲ h
d Ãİ
Ã® H
Ãķ Ãĺ
ÂĨ ÂŁ
Ę Âĥ
Âķ Ć
Ã® ÃĤ
C Ãĩ
B ÃĪ
! %
Ã½Ãķ Ã¼
Ã² Ã¥
ā Ė
Ğ Ď
Âª Ã¡
Âľ ĕ
ÂŃ ÂĢ
Âĩ Ğ
Âĳ Ĕ
x V
{ Â¿
r c
Ãĸ F
Âģ Ė
Â± ]
! Âļ
w Ã½
Ã¸ Ã©
Â¡ -
y Ãł
r ÃĪ
f Âµ
D Ãĺ
ÃĮ ÃĤ
N Ãį
Y Ãİ
Â¸ }
ÃĽ W
C Ãĵ
N Ãļ
Â· Â®
; _
ÃĲ F
Â¸ ~
Â° >
Ĉ %
Â© ÂĹ
Ã¶ l
Â» Âĭ
Â± ĕ
ÂĻ Ě
ÂĽ Âĭ
Â· ^
ÂĻ Ė
Ã¬ U
B ÃĨ
Y Z
Âĵ ÂĨ
f L
Âģ Ĝ
Âı ÂŃĀ
Đ Âľ
Ãĵ Ãĺ
= Â¬
A ÃĶ
ė (
$ ]
$ ę
ć ÂĹ
Â® Âĩ
B b
Ãľ j
h i
ÂĦ ÂĪ
r ÃĴ
Âī ĕ
h T
Â¶ ÂĬ
Âķ *
& ÂĬ
Ę *
L Ã¢
ÃĽ J
Đ ğ
Ãĩ ÃĻ
] Â´
Ãį m
Ãª V
Â± Ğ
Q Ã¬
Ã® V
Âı "
Â¤ )
Âµ z
Ĉ Ć
Âª ÃŁ
W m
Ã¾ ÃŁ
Ãĵ Z
ÃĲ ÃĨ
Ãķ e
Âĸ ě
= Â¢
ē Â»
L ÃĮ
D p
x n
Âī ÂĲ
Ã¼ C
ÂĨ ,
Â· @
Â° ÂĴ
S ÃŁ
ÃĶ Ã¨
Â¤ \
Ã¦ n
ĝ ~
ÃĻ V
ā |
E Ã³
Ãĵ o
ą ė
Ãī a
k C
ÂĤ +
ÂĻ Âľ
Ę Ć
: ă
Ĕ Â¥
ę .
ÃĲ Ã½
f v
E ÃĬ
h ÃŃ
A ÃĬ
Âĥ #
ÂĪ ÂĢ
ÃĤ Ãµ
ÂĿ $
Ã· Âĺ
c Y
w Ãı
Â¼ Â½
b U
ğ Âļ
Ã· >
b P
Â© ÂŁ
Âĵ &
f Q
t Ã½
ÂĴ ÂŁ
J Ã¶
Ę Â°
a K
ė Âĺ
b Ãļ
ÃĦ ÃĢ
Ãĺ z
Â¿ÂĿ Ā
ė Âı
" $
ę Â¡
( ď
Âĩ Â§
l y
ĕ )
Â± >
Ãī P
ÂĻ Âĥ
Ã² Ã¹
Ãł G
ÃĮ k
Ãī e
J Ãĺ
E Ã¹
ÂĨ &
Ã¢ O
Ã´ l
ÂĢ Â¨
! ;
Â¿ Â¯
{ (
Ĉ ;
Â± Â£>
. -
ġ Â·
ÂĮ :
ÃĪ J
Â« <
ÂĮ *
ÂĶ )
Â£ Â®
ÂĦ Âĸ
d G
Ą @
Ã£ Ãĳ
Â£ %
Âķ ;
C Ãı
ÃĿ K
Â¶ Ć
U M
Ãį Ãľ
X Ã¹
Ĉ Âĸ
d ÃĢ
Âĳ ĕ
Ãħ Ãľ
ÃĴ ÃĦ
Ãĥ Ã»
H S
C Ã¨
Âļ :
Ãĩ P
L G
Âı ;
ÃĻ Ãĺ
Ãµ K
Ã¥ Ã²
Ą Â¦
N Ãĺ
E Âµ
Âª V
c Ã¬
Ã© Ã¦
, Â¥
d A
Â¤ Â°
Â£ |
X T
ÂĮ ę
Ã§ Ãĺ
ÂŃ ÂĿ
S Âª
đ (
Ĕ Ě
# %
Â¤ ę
Ã¤ ÃĪ
$ Â»
Â± Â»
Ã¯ Ãĺ
ÂĪ Âİ
Ãĭ Ã»
v r
Ã¥ z
Ã¯ ÃĻ
Y Ã¢
Ã« Ã¦
ą Âķ
> @
! ġ
ĕ Â¬
p C
ÂĹ +
Q Ã»
Ā| ğ
Â¶ Ā
F Âª
Â« ĝ
/ &
Ãı y
Âĵ {
] ć
~ ~
ÃĨ Ã±
ÃĨ Ãµ
Ãĩ B
ÂĽ ă
Ć _
" *
^ ÂĬ
Ãŀ r
Ę }
Â¸ .
w e
ÃĨ ÃŃ
Âĥ Ĕ
Ãª Âµ
L ÃĬ
Â© Âľ
[ Â®
Đ *
ÃĴ Ã¬
Ã´ Ãł
ÂĹ ÂĲ
ē )
v W
Ã¶ Ãĭ
Ãİ Ãĺ
ÂĽ <
Â« %
Âº y
ÃĲ y
l z
Ãİ K
ĀĔ Â´
ÂĢ Â¬
Ã£ E
Ã· <
Ã© Ã½
Âİ (Ă
Ãħ k
T Ã¹
Âļ Ĕ
Ġ Y
ė Âľ
Ãľ ÃĮ
Ãı P
f Ã»
m Ã»
C ÃŃ
Â¨ "
Âį Â®
Ã¯ Ãī
Ã¾Ã© Ã¼
A Ãĵ
l Ã»
ÃĽ ÃĶ
b Ãģ
Ã¢ G
^ Â¬
| Âĵ
Âİ ě
I a
Ā} ÂŁ
p Ã¹
Âī ~
Â° ;
P P
8 2
ÂĽ /
Ãı ÃŁ
9 6
h n
Ã® Ãĳ
s n
ÂĶ Â·
Â¥Â¤ Â¢ÂĢ
Âĳ ě
ē '
Ã· }
Â¯ ,
Ã¼Ã¨ Ã³
Âī ÂĮ
) +
_ *
Â¶ ā
Ã° N
M j
p k
t d
ÃĦ Ã¾
M Ãª
Y Âª
Â£ Â¡
Â§ ~
ď ÂŁ
l Ã¹
ÂŃ Âģ
/ =
S k
Ã² r
Ġ "
ĔĀ ÃĹ
v ÃŁ
L L
Ã¯ Ã¡
ÃĶ Ãĭ
Â¡ ÂĻ
ÃĮ Ã³
ÃĽ Ãģ
Âį .
ď Â¥Ā
Ãĵ Ãħ
t Ãİ
ÃĹ Âģ
Â´ Ĝ
ÂŃ ā
Ã± E
h ÃŁ
b ÃĴ
ÃĦ V
; ĕ
Ãµ ÃŃ
ğ Â¿
Ã¶ ÃĨ
9 7
Â¸ ÂĨ
ÃŃ r
ÂĲ Â¯
Ě Â¢
ÂĴ `
Â¶ ÂĨ
Ã® A
s p
} Ĉ
Ã² Ã´
Ã¶ Ãĳ
W C
i u
> ď
Ą Âļ
Ãı Ã¢
Ãı Ã¸
ÃĹ _
, ă
Q Ãª
Âŀ Â´Ā
% .
i ÃĮ
ÃĤ Ãº
M ÃĨ
Q m
Ãį n
Â· ā
T K
d ÃĬ
D ÃĪ
Â± ÂĿ
Â¶ ÂĦ
Y ÃĶ
Ě Â¸
z O
[ Âļ
Ã· Ã·
Ã¯ Ãº
| Âĸ
Ć Ĝ
R Âµ
Â¨ Âĥ
y ÃĴ
Âĳ Ğ
Ãµ n
u Ã«
ć Âķ
E Ã¼
Ã¥ n
U C
ÂĮ Â¸
D ÃĮ
Ãĸ ÃĿ
Ãģ ÃĬ
! *
Ã¯ ÃĿ
ą Â´
Â» Â¨
Ãİ Âº
y S
Ē Â¬
` ÂĤ
ÃĨ ÃĬ
Ę Âķ
M q
M Ã¹
ė Âŀ
Ã¦ H
{ ÂĨ
Ãļ Ã¢
ÃĤ ÃĽ
V g
ÃĨ c
Ã® v
] Â¥
ġ Â°
! Ĉ
Ãį t
ć ÂĤ
Âī =
I A
Ã¨ N
Ãģ Ã¬
ÂĦ ?
I Ãº
ę *
Âĺ Âĸ
ÂĶ Ė
M Ã¬
Ã¦ a
Ãį e
ē ÂĨ
i Ã¡
Ãľ Ãĭ
b d
ÂĴ _
Â¶ Ã·
Ãľ Ã¹
ÃĪ s
Ãĳ d
ă Âį
ÂĮ ą
Ã®h Ãĩ
m B
Ãĸ D
Ě Â¿
ÃĨ Ãĺ
m Ã¬
} ÂĽ
ġ Ď
E N
ğ !
Â£ Â±
Â· ą
] Â¡
Ã¦ Ã»
Â§ ÂĽ
Ĉ -
ÂĪ Âľ
J Ãļ
Y ÃĻ
Âµ u
f T
ė Â©
Âļ ;
Â¯ Â¡
Â« ÂĽ
Ā-Ĕ ÂĻ
Z Ã§
ÃĪ l
M Âª
ÂĴ Â±
Ãħ a
Ã¯ ÃĲ
ÂĦ Â®
Â· Âķ
ÃĿ FÃª
7 5
$ Â¿
+ ÃĹ
Â© ÂĨ
ē Âĸ
L z
ÃĢ Ã³
i Ã´P
Ã¨ Ã£
ÃĲ ÃĦ
ÂĢ ÂĲ
ÃĢ J
Ã¦ V
Ãı r
ÂĪ Âģ
Â¥Â¢ÂĢē ă
Ã² Ãº
Ãŀ q
Ę ą
Ãª ÃĻ
Â¯ "
Ã¬h Ãı
ÂĿ ÂŁ
! ā
Ė >
Ė -
Ã² Ã½
Âĩ Âĳ
Â¦ `
(ā (Â¥
Ã½ l
Ã£ Ã¶
Â¦ ~
Ãļ T
ÃĻ Ãĸ
Â° Ĕ
W t
Ã² E
L Ã®
ÂĪ ÂĴ
ÃĽ ÃĦ
: Ē
Â£ ě
Ã½Ãĵ Ã¼
Ã¥ Ãĭ
[ ě
Â¬ Âİ
Âŀ ÂĶĀ
Âĺ ÂĬ
ÂĿ Âľ
Ã´ Ãĸ
Âį Ě
< /
Ãķ Ãį
Ãµ Q
ÃĨ k
Âļ Ē
Â£ ā
Âĩ ,
b ÃĮ
ÂĿ *
ÂĢ Â«
ÂĢĒ ÂĬ\
Â® Â§
% ÂĴ
Ą Â¸
Âģ Â¤
) Âķ
' *
Ė Âĵ
ÃĻ Ã®
v p
ÂŁ Âľ
Ĕā =
Â¨ ÂĶ
@ .
q n
ÃĤ Ã¡
ė ė
` .
ÃĲ Ãĩ
Āĕ Ĝ
` Â§
ÃĤ ÃĬ
Â¶ ÃĹ
ÂĬ ě
Ã· Ā
Ġ i
Ãı DÃ¿
Ã³ A
i Âª
M ÃŁ
L Ã¬
ÂŁ *
( ;
Ãª ÃĬ
N Ãģ
Ĉ Â¸
Ã½ Ã¾
x a
Ãĺ Ã¬
` |
ÃŃ Ã¢
B E
Âİ _
Â§ Â¢
ÂĦ _
Âķ ď
(Â¢ÂĬĀ(Â¢ÂĬĀ(Â¢ÂĬĀ(Â¢ÂĬĀ(Â¢ÂĬĀ(Â¢ÂĬĀ(Â¢ÂĬĀ(Â¢ÂĬĀ (Â¢ÂĬĀ(Â¢ÂĬĀ
ÃĨ Ãļ
Âµ t
Ã³ Ã¹
Ãķ d
Â´ ÃĹ
Q f
Â» Â©
Âĭ ÂĲ
Ã¦ Ãİ
ę |
/ Â§
V G
Âį :
Ã´ Ãļ
T ÃĪ
Ã« Ãİ
J ÃĿ
U Ã¥
E Ã¨
Âļ ğ
Ę ^
Âº Âº
N ÃĪ
Ġ ÂĻ
V Ãħ
Ã« ÃĢ
# -
y D
Ã® C
] Â¨
Ãµ C
Ġ _
Âī ÂĹ
P Ãĳ
Â± ÂĬ
B m
e m
Â© Âĩ
ÂŃ Â¬
+ ć
Q Ã¸
ÃŁ c
, Ĕ
Ã³ u
o Ãĥ
Y ÃĪ
ÂĮ [
i O
q l
; Âŀ
T Ãĺ
Ãŀ z
Â¦ Đ
x Ãĸ
ÃĿ Z
Âī [
0 5
ÂĲ Âĸ
U Ã¦
ÃŃ X
Ğ Â¬
Ãĳ v
h ÃĮ
f Ã§
Â¸ ÂĤ
) Âĥ
ÂĢ ÂŁ
, .
ÃºÂµ Ãº
ď -
Ã¤ Ãľ
Ã¬ Ã¹
ÂĲ Âĵ
= Â£
Â» ÂĻ
+ ~
# ÂĹ
% ć
ÂĶ Â¨
Ãĩ ÃĽ
3 Â½
Â¾ 0
; \
ď Â±
Đ Â«
Ãģ Ãº
ÃŁ ÃĨ
V H
Ã³ ÃĦ
Ā= ě
Ãį Ã¹
D Ãİ
Â¤ Â¡
( Âĸ
o R
! Ē
ÃĤ c
f a
Ãı Ã«
p Ãŀ
u u
Â´ Â«
ÂĶ Â¯
ğ ġ
Ã» w
z W
@ Â«
$ ^
j N
ÂĽ Ē
> |
Âº F
+ Â®
Ãģ Ã®
ÃĿ Ãļ
Âī Âĺ
( ^
Â° Â¥
ÂĶ ÂĬ
Â° ĕ
Ãį Ãī
@ ÂĴ
ÃĶ Ã½
Â¢ÂĬ(ĀÂ¢ÂĬ(ĀÂ¢ÂĬ(ĀÂ¢ÂĬ(Ā Â¢ÂĬ(ā
Â· %
Ã± Ã¶
Â° ]
U Ãħ
ę ÂĬ
A Âª
Ãĳ Ãŀ
x Ãĭ
Ã½Ã´ h
# Ĉ
ą ÂĤ
s Ã¶
V ÃĴ
/ ,
(Â¢ÂĬ `Ĕ
< |
m Ãĸ
v Ãĥ
b Ãħ
Ą !
m Ã©
Ĕ )
P Ã®
ÂĻ ÂŁ
ÃĤ Ã°
y X
ě Âŀ
Â¨ Âĩ
f A
d h
Âĳ Ĉ
Ãķ Ãı
Ã» H
v I
Âı @
Ã§ Ãİ
ÂĲ ÂĦ
b W
Y n
Âĵ Ā
Â¢ .
ÂĪ Ď
Ãį j
Ě Â»
< ÂĹ
> Â«
ÂĪ ć
U z
Âģ ÂĿ
Â° ÂĮ
D Ã¤
Âľ ?
@ Â©
u l
ÂĢ Âŀ
Ã¹Q Ã¥
U N
V T
ÃĶ Ã¯
D G
t Ã¾T
ď Âļ
E Ãı
e ÃĻ
Â¡ Âĭ
Ã© Ã®
Ãĭ R
ē &
Ã¦ R
Âĥ ÂĨ
w R
q ÃĬ
q Ã¤
[ Â¤
U Ã¢
Ã¡ z
Âĩ Â·
Ãľ Ã°
< ÂĻ
ě ĕ
Ã¬ n
ÂĽ Ą
Â¬ \
E ÃĦ
Đ Âĳ
ÂĬ( Ă
Ć Â¶
Ãŀ Ã¤
ÂĢ Â©
cÃľ Ãĳ
x Ã»
ÃĽ A
Âį Ė
f Ãµ
Ãĺ s
q Ãº
ÃĽ B
ă ÂĹ
Âĥ (
# ~
Ãı TÃ¿
Âª Ãİ
Âĩ ;
< Âķ
Ã± ÃŁ
w Ãľ
X I
{ Â§
ÃĲ d
ÃĦ Ãµ
ė .
Ãª v
Â£ ą
ÂĪ [
Ãŀ p
V ÃĻ
ě ÂŃ
E ÃĨ
Âį Ĝ
| Â¢
O Ãļ
Đ ÂŁ
k G
W Ãª
` Â»
ÂĪ ę
Â¿ Âĸ
" ]
V Ã«
Ã£ ÃĻ
ė Â§
f M
e Ã¾
Â¿ ÂŁ
V K
ÂĽ Â¯
D A
Â· ~
ÃĿ T
ÂĦ .
QL AE
V Ãį
Â¶ ÂĤ
Ãģ Ã½
- Âķ
ÂĮ Â§
(ā Â¸
Đ Â¤
ÂĴ Âģ
Ã¦ o
Âĺ ÂĹ
ÂĿ ġ
Â« ÂĬ
{ Âĸ
Â® Â¢
ÂĦ (
D Ãī
g R
Ãķ J
Ã¸ Ã¨
t Ã¤
! đ
B Ã´
w Ãĺ
Ãĵ F
Â· Ĉ
Âĵ ĝ
Ãļ Ãł
Â¡ _
? }
Â¨ Â±
Ã½ S
ÃĬ Âµ
& $
ÂĶ ÂĻ
ÃĿ Ã¤
Ã¦ P
ÃĶ X
Âª i
Ãª Y
E ÃĲ
L ÃĦ
Ĕā _
ÃĤ ÃĮ
Ã§ Ã¡
Ã® r
d C
- Âī
ă ė
H s
p S
ÃĴ i
ÃĽ j
e Ã§
} [
ć %
Â¶ Âŀ
Âı Âĳ
p Ã¥
Â¶ Â°
U Ã¬
- @
ĕ ÂĢ
ę đ
Â¬ Âī
Ãİ Ã²
Ã¼ Ãĸ
Ã¦ Ã§
Ãĺ Ã½
Ã¼Ã³ OÃ»
Ãħ l
V ÃĤ
ÂĨ Âĺ
ÃĲ q
ÂĦ |
T Ã¯
# |
d I
Ãĵ Ãī
Z Ãĩ
Ãĥ Ã¯
ÂĪ Â¨
w Ãĭ
. Ĝ
V X
w Ãī
{ ÂĴ
Ĕ Ę
Ġ ÂĹ
Â¡ ě
f W
/ Â¸
Ãļ Ã¡
Ãĳ Ã®
t Ã¯
ĕ Âļ
Ã¦ Ã¢
Âĺ ]
ÃĿ c
B Ãĭ
Â± (
h Ãł
z l
Âĭ Âī
f Ãĭ
Ē ÂĲ
Ãħ e
ÃĨ Ã²
ÃĻ X
ÃĮ o
C Ãī
Ãĺ Ã¥
^ ~
B W
h R
Ã¡ Ã¯
H y
Đ ÂĤ
Â¶ [
Â· Âģ
L I
ÃŁ ÃĦ
` Ă
p Ãı
Â« ÂĿ
ÂĪ >
ÂĻ ÂĲ
ÃŁ Ãĵ
b Âº
Ė Ą
z Âµ
z RÃĳ
Ġ A
_ Â§
ÂĶ ÂĽ
Ãĺ Ãĭ
Â´ Âķ
Y Ã³
n S
Ě Â¤
ÃŃ Âµ
Âŀ ğ
Âĳ ,
P J
Â© Âī
sÃŃ G
Ã¬ Ãį
ÃĻ Ã²
c Âº
} Â¨Ă
V A
L Ã°
>ÂĶ Â´
Âĳ Ē
ÃĬ Ã´
Â® Âĭ
Â¼ 6
ą Â¦
Ã½ Ã¸
d Ãĭ
Đ Ă
~ ď
ÃŃ ÃĤ
ÃĮ D
T E
Âĸ +
Âį ]
n Ã»
Y Q
Ġ Â¤
Ãµ ÃĶ
Ãª ÃĶ
Ã« Âµ
Ą #
ą Â¢
Ã¡ Ãī
ă Âĩ
Ą ÂĿ
Âİ ÂĶĀ
Ãŀ K
Â¯ >
Ė ÂĹ
Ã³ m
Â· !
v y
k E
Ã¾ Ãļ
X P
Ãģ G
Ã¢ D
* ÂĬ
a ÃŁ
Ã¬ ÃĪ
+ =
Đ Â®
Ã¶ Q
Ğ >
Ãĳ Ãħ
ÃĹ Ā
( Â¿
Âİ %
ÂĬĀ ÂŃ
ÃĮ Ãł
w Ãĩ
ÃĽ i
ÂĤ Âĵ
< Ă
ąĀ -Ĕ
Y s
h l
Âª Ã©
Âŀ %
Â» !
Ã¤ I
gÃĺ Ãĳ
ÃĻ ÃĿ
{ Ē
Â¨ ÂŁ
ÃĬ Ãº
w ÃĪ
Ãĳ Ãĸ
j Ãı
Ã¶ q
V p
L o
Âķ Â§
m R
ÂĴ Â«
Â¶ ~
Ãŀ W
/ Ĝ
k Q
ÂĽ ÂĶ
Ãī Ã¾Ã©
Ãĸ l
Ã¢ A
y Ã²
z Ã°
} ÂĻ
C Ãģ
ĂÂĬ *
Â¢ $
ÃĲ Ã®
f Ã©
L Ãħ
n Ã¨
b Ã¹
Â± Âĩ
T ÃĨ
Â¨ ;
Ãĵ Ãľ
ÃĹ ÃĹ
Âĺ |
m Ã¯
Âº u
Âĭ Âķ
Â¸ ā
ė Âİ
Y ÃĨ
Âĵ >
b Ãª
Ĉ ą
Â¾ Â¾
m Âµ
o s
đ ğ
ÃĽ Ã«
/ Â¡
- ÂĬ
Â¨ ÂĹ
u G
K R
% Âľ
v v
ąÂ¢Âĵ #
ÃĻ H
ď ă
ÂĽ =
Ã´ Ã»
ÂĦ Ć
Ã· Ė
C KH
' ÂĤ
| Âģ
~ Â¢
P ÃĴ
K Ã¹
Ã¬ ÃĨ
] ÂĴ
Â¤ ÂĶ
Ã« KE
Â¥ Â©
Ã» Ãº
[ Ĉ
Ã¶ Ã²
B ÃĿ
D C
Ãı ÃĤ
/ Â©
Ã¦ k
c k
Y ÃĤ
Ã· @
Ãĸ Ã£
N Ãª
Âĩ Â¯
Ã® Ãħ
ÂĪ ÂŁ
` $
ÃĦ X
Âľ ÂĿ
ÃĲ Ã¤
e Ã¼
Âı Â¿
n ÃĮ
Âĩ Â¸
i H
ÃĬ Ã¦
ÂŃ ÂĦ
: Âĺ
Â¨ Âİ
G Ãī
Ãĳ ÃĽ
) ē
Âİ Â´ā
ÂĮ ġÃ·
ÂŃ ~ÂĤ
Â® ÂŁ
Ã¯ g
f S
Âģ ě
ÃĦ Ãį
- Â¥
ĝ ÂĶ
Âı Ĝ
Ã¯ Ã©
h Ã©
D Ãª
f Âº
Â§ ÂĢ
I Ã»
ÃĬ Ã³
Â¥Â¢ÂĢē Ĕ
Ã¬ ÃĤ
Â» Ĕ
ĝ ÂĮ
Ãĳ X
# ē
ğ ;
Âŀ ]
Ãł y
Ãł H
d j
Ã§ Ãī
P ÃĪ
Â¤ >
& *
Â¢ÂĢ ğ
~ @
U ÃĤ
( ÂĲ
Ãģ ÃĿ
A Z
] ą
-ĔĀ Âľ
ÂĿ ÂĿ
~ [
Ć Âī
Âģ ĕ
đ .
Ě ÂĻ
ā -Ĕ
, Ĝ
ÃŃ o
Ē Â¶
ÃĦ Ã°
ÂĨ +
ÃĲ W
Âĸ "
Ã® z
(Ă ğ
I C
ÃŁ l
Âĭ $
Ã¥ l
Ã¯ ÃĤ
B Y
Ãį Ã¤
w ÃĬ
B C
D Ãħ
Ãĳ y
f Ã²
Ć -
Â´ $
ÃĿ ÃĿ
\ ĕ
ġ Âı
Â´ ÂŃ
v g
e M
ÂŁ +
D x
Ãķ a
Ãĺ Y
Â® _
) Âĩ
~ "
Â¢ ÂĸÂĢ
ÃĻ C
Â¦ _
ÂĹ .
Ã¬ F
ÃĹ Ã·
Ã« ÃĨ
Ã¢ Y
ÂĹ Â¿
ė +
Âĳ Â¥
ÃĲ ÃĪ
ÃĬ L
p Ãī
ĂÂĴ ÂĸÂĬĀ
b R
Ĉ ÂĲ
Ã® Ãĸ
Â¢ {
Ãĭ ÃĽ
Â¨ !
ē .
Ãĭ Ã¤
Ãİ B
D k
ÃĲ RÃĳ
Ãļ J
Â° Ė
Ã³ w
Ă ÂĪ
ÂĴ Â®
ÃĢ V
Â¹ 3
Ãı Y
Ą ę
Âī ÂĢ
ÂŃ {
o L
Ġ G
Ã´ ÃĽ
Âĩ \
N Ãĩ
? <
z Ã²
O V
Ã¦ L
Ã¥ Ã¶
ď ÂŃĀ
ą Ć
Ĝ Âį
Âŀ ÂŃ
Â« Â®
Âģ "
ÂĹ Âĵ
ÂĴ Â¿
Â¬ Âı
H Ãĵ
ÃŃ v
s Ã®
ÃĲ ÃĢ
Ãľ Ã²
ÂĲ ÂĬ
( Ğ
Ę ÂĬ
Ãĳ ÃĴ
Âģ ĝ
Ã§ r
Âĭ Âĺ
u Ã©
Ãļ Ã£
Ã¨ ÃĬ
c j
ÂĹ _
Âĳ đ
e Ãº
Ã§ k
Âģ ğ
Ĉ Â¶
Ãĩ Âº
Ē Â®
n Ã©
: Ã·
t ÃĻ
Ã¾Ãª Ã¾T
Ĉ ď
Â§ ė
Ē đ
$ Â©
Â± ;
Ã»Q ÃıÂµ
Ã· Â¸
ĀĚ >
Ã¯ Ã¢
P e
ÃĦ C
Ĉ Ď
ÂĮ Â£
) Đ
Â± Â¯
W ÃĮ
Âĭ Â¨
a Ã¥
Ã® d
Ãº Ã½
ÂĪ Âĵ
Âĭ (
ÃĨ Âµ
X U
Â¢ `
Ãĺ t
& Â·
Â¬ Â¶
~ ÂĢ
ÃĶ L
M ÃĴ
f u
Â» Ć
ÃĦ ÃĪ
Ã¢ Âº
Ā= Â£
= Â°
ÂĿ Ę
Q r
Âī ÂĨ
Ãģ Ã»
Ã· Đ
ė Âļ
ÃĦ Ãİ
g Ã§
ÂĦ }
a B
Ãĥ Ã¤
Ã¾ ÃĿ
Ãľ C
Â® ÂĽ
f r
ć ÂĶ
[ Â´
Ě Â¡
! Â¥
Ãķ R
% ÂĬ
ÃĻ O
Â§ |
A ÃĿ
ÃĨ d
Âĺ >
- Âĸ
b Ãĳ
ÂĪ Đ
Âī Âī
n Ã¼
ÃĲ Ã±
ā Ć
Â¬ .
Â¤ ]
ÂĴ ē
Âĳ Ć
ÃĽ FÃļ
Âļ '
Âİ Â´Ā
ğ >
W Âµ
q r
Ę Ė
- Âį
ď Ğ
Ē Âĸ
Ã» g
Â» ;
ÂĦ ĝ
c K
* ÂĻ
Ĝ ą
p B
v Ã©
Ă ]
ÃĬ Ã¢
f ÃŁ
~ }
Ġ Ã¬
< _
Â± ÂĹ
Ã® B
[ \
Ē +
v h
J Ã°
p Ã¨
Ã¼Ã¨ Ãľ
Ãĵ Ã«
Âĩ >
Ã´ Ã¬
- Â®
f Ã¦
ÂĢ \
A e
N Âª
ÃĴ ÃĽ
Â£ Â¦
ę ÂĮ
Ãł j
ĝ ÂĬ
Ã² S
Ē Â©
ÂĶ Ã·
Ãķ ÃĶ
đ ,
" ;
Âı Ĕ
T i
Â¬ Âĸ
ÃĲ G
Âµ Ãĭ
Â¾ 6
ÂĦ $
Ĝ Ć
J Ãľ
Ã® a
N B
Â¢ %
ÂĢ |
Ãĩ Ãª
Â· /
! >
ÃĦ Ã¢
Ãĳ ÃĮ
Ĉ *
Âģ Ě
Ãķ Ãģ
h Z
Â¥ ÂĻ
Â£ ÂĹ
Ĉ Âİ
ÃĶ ÃŁ
Â¡ .
Â¢ _
ę Â¸
Âī Â°
ĀÂį ğ
Âĺ Â¦
Ã¾ l
Â· Ă
M R
Y Ãĭ
Âī ÂĤ
ÃĶ Ãĥ
Âĭ Ď
Ã» Ã¤Ã¿
# ÂĿ
ÂĸÂĬĀ Âĭ
} Ć
N Ã§
Âĺ Â«
Âī Âķ
Âŀ ÂĮ
> ÂĬ(
~ )
Âµ Ã¶
Âģ ė
ÂŃ ÂĨ
ÂĦ ÂĨ
Ãĩ Ã¨
ÃĤ K
ě Ğ
d Âº
Ã» r
d ÃŃ
Ã½ v
Âı ÃĹ
Ã¹ ÃĪ
Ãħ Ã¥
' ÂĢ
Âĺ ÂĽ
R ÃĪ
Âµ w
Â± *
h B
Ãħ Ãī
` Â°
Ã¯ Ã®
l I
b M
Ã´ Ãľ
/ Â¯
ÃĨ Q
e w
Â» Â»
D i
( ÂĬ
ÂĦ ā
@ ^
Â¨ ÂĿ
Â§ Âį
ÃĮ i
Â± &
V y
ÂĪ Â¶
h A
Âĵ Âķ
? +
Đ Âİ
ĝ Âĥ
Âļ ĕ
Â¡ Âĥ
Ã¡ Ã²
ė Â¯
ĀÂ¸ Â¿Âķ
ĀÂŀ Âĥ
R Z
ÃĦ Ãģ
ÃĴ Ãª
Y ÃĢ
Ã¦ Ã¹
Ã¡ Ãĺ
ÂĬĀ Â±
E Ãĭ
n m
Â· Â¦
Â« ÂĻ
Â» \
_ Â¶
Ã¶ Ãİ
V s
ÂĤ Â®
ÂĲ Ě
P ÃĲ
Ã´ ÃĻ
f ÃĤ
j Ãĺ
P Ãµ
Ã© ÃºP
v ÃĤ
Â¤ @
Âĳ ÂŃ
FÃĳ Ã¨
ă ]
Â¥ ĕ
Ã¯ Ãİ
Ãķ Ã»
Ãĭ Ãģ
X Ãŀ
Ã¡ ÃĽ
ÂŀÂĶ ā
Ãļ L
Ę ;
D Ãł
Â¥ Âĥ
Ã® ÃŃ
" &
p Ã½
Ãĸ Ã´
Âº ÃŃ
ÂĦ '
H q
P Ã½
ÃĨ Ã§
Ãı I
Â« @
y x
đ Âĩ
ÂĢ& Â¢Â¡
Ãĭ ÃĲ
n Ã²
Â° Â¶
) Â£
Ã© w
[ ,
c W
Â¬ *
T Âª
ġ ĚĀ
/ ÂĲ
Ć ^
o m
Âī Âĵ
Ā= ?
% $
n Ã¾
Âķ Â¸
D K
Ãļ ÃŁ
Â¹ Â¼
Âī Â¥
t Ãº
ą Âĵ
Ã¹Q Ã½
Ã¹ ÃĨ
D S
Ã¦ g
ď ÂĲ
Ē Â§
ė Đ
Â´ Ă
( ē
Âµ p
ÂĶ Âĩ
(Â¢ÂĬĀ(Â¢ÂĬĀ(Â¢ÂĬĀ(Â¢ÂĬĀ(Â¢ÂĬĀ(Â¢ÂĬĀ(Â¢ÂĬĀ(Â¢ÂĬĀ (Â¢ÂĬĀ
r C
ď >
Âµ ÃĽ
\ Â¤
ÂĦ ÂĬ
E ÃĽ
u e
Â¢ ÂĪ
Ãİ Ã§
ÂĤ ÂŃ
ă Â£
Ãį Ãĸ
ÂĦ ę
ÂĶ Â«
y y
: ÂĽ
Ġ Â¼
C Ãŀ
[ ÂŃ
ÃĶ Ãľ
Â° Ć
Â± "
- $
a c
) Â©
T ÃĿ
E j
Ã¬ Ãģ
Ã¥ Ãº
ÂĴ Âĥ
Ã¬ f
ÃĴ C
Ã¾x ÃĩÃ¿
ÂĴ ÂĿ
Â» Â®
Âĳ Â¨
ÂĢ Â´
Ãľ x
q Ãĳ
v H
% _
Â« Â¡
ÂĨ "
} Â¬
ÂĤ Â©
` ą
w Ã¢
w Ãŀ
Ġ Ãĺ
ÃŃ k
Âº t
Ã´ m
Ãľ ÃĤ
ÂĹ Â¨
Q ÃĤ
Ãį ÃĤ
Ē Âľ
ÂĴ '
Ã¦ Ãı
Ãı hÃ¿
ÃĢ z
Y Ã¤
W d
Ã¼ ÃĬ
ą Â¢ÂĬ(ā
ÃĦ Ã¾ÃºÃ¾t
Ã¢ ÃĿ
Â» >
Ãķ Ãĩ
, ą
ÂĴ Â°
Âķ Đ
y U
* Â¦
Ã¦ Ãł
ÂĨ ÂĬ
Âķ Ě
ÃĽ ÃĤ
S l
Â´ ġÃ·
Ã° ÃĦ
Ã¯ ÃĪ
Âª Ã«
\ Â¿
ÃĲ ÃĬ
Ã¶ r
Ãļ Âµ
ÃĻ Ãĵ
Y Ãķ
Ãļ ÃĨ
/ Â·
P ÃĶ
S ÃĤ
Â® Âİ
- ě
E ÃĪ
Â¡ ]
Ã¶ Ã±
, Â¨
? Ĝ
Ĉ Âĳ
Âĵ .
ÂĨ Â¤
ÂĹ %
Ĝ Âĩ
Â¶ Âģ
h w
Â¸ (
{ Đ
Ã® Ã³
e C
Âª Ã»
& ě
Ãĺ Ã²
ÂĪ ĝ
Ē Âĥ
7 Â²
Ğ ā
Âļ !
Ã± Ã¸
ÂĴÂĬĀ Âı
G v
Ãĩ i
Âĺ Â¢
Âĸ Ė
a Ã¨
Â¶ .
Ãį ÃĲ
ÃĮ Ã¹
Ā\ ÃĹ
ÂĲ "
ÃĴ O
@ Âİ
Ãľ Z
Ã¶ X
Ā (Â¢ÂĬĀ(Â¢ÂĬĀ(Â¢ÂĬĀ(Â¢ÂĬĀ(Â¢ÂĬĀ
Ã£ Z
Ã¥ ÃĤ
Â« Ą
U Ãł
o B
Â¤ Ę
Ãĭ e
+ {
Ãĸ Ãĸ
Â© Â¨Ā
Ã¼ g
Ē ă
D D
ą Âľ
Â° :
Ã¯ Ã¬
Â¬ $
Ãħ ÃĦ
ĀÂ« _
% ă
; /
Ã» Ã¨Ã¿
ÃĢ ÃĬ
Ãļ ÃĪ
Ã® g
Âª n
Âº H
ÂŁ #
l ÃĬ
( Â°\
ÂĢ Âĵ
Âķ Â±
ÂĽ ē
ÂĶ >
Ãĭ Q
Âĭ ~
m r
\ Âį
Âµ Ãľ
Â¡ }
A A
Âī ,
Ãķ g
Ãķ u
+ Â£
Y ÃĬ
P B
V Ãĳ
ÃĨ Ã´
Y Ãĩ
Âı ÂĿ
Â¿ ÂŃĀ
% ě
w ÃĽ
ÃĴ K
; Ę
Â¬ ć
Ą Ę
Ã¶ Ã¤
Ãİ C
Ã» Ã¯Ã¿
- >
ÂĶ =
Ãį ÃĽ
W A
h Ã¼
Ã© Ãĳ
ÂĽ Âĸ
Ãļ d
Â¸ ÂĻ
ÂĶ ,
Ğ ą
& Ĕ
Ã§ b
Ã¯ q
Â¡ Â¿
H x
Â» .
; Â©
ĝ Â´
e Ã´
ÃĻ ÃĤ
Âĭ `
% Ď
ę ÂĻ
Âº m
ÂĦ Âķ
Ē `
f Ã«
ÂĿ '
Â¶ Âķ
ÂĢ' Â¢
h Ãĵ
ą Â¢ÂĬ
Â± Âļ
T ÃĬ
Â¤ Â´
ğ ~
e Ãµ
n K
Â« Â¢
Ã¢ Ã¢
N C
Âİ ĕ
Ă _
Ãĸ V
Ã¬ l
r k
ÃĴ B
ÂĸÂĴ ÂĸÂĢ
Ãļ P
n o
ė !
- ÂĿ
Ã° ÃĢ
Ãħ Ã¦
Ãļ ÃĤ
C B
Ãģ Ã³
Ãľ Ã»
Ã¹Ãĳ Ã½
s KE
Âª T
= Â´
Ę Â±
ÃĿ s
v B
; (
d Ãª
M r
Ãĺ X
Âĭ ?
ğÂį Ā
đ ~
ÂĨ ^
ÂĬ $
R ÃŁ
ÂĹ {
t Ãł
ÂĤ Â¨
Ė *
Ĕ \,
D V
ÂĦ )
Â¿ Â·
Âį ?
Âµ ÃĮ
f Ã¤
ġ} ġ:
ÂĬ Ē
ē Âķ
T h
a J
i Ãĵ
Ãģ P
Y V
Â¢ đ
Ġ Â«
ÂĶ ÂĿ
, Âĵ
Ĉ ÂĴ
ÃĦ Ãĭ
Â» (
ĝ ÂĻ
Ĉ !
Âī Ğ
Đ Â°
Âĳ ć
ą ĘĔ
u ÃĽ
Ãŀ N
f Ã¡
Ãĳ Ã³
Ã¶ Ã¯
% ;
Â· +
ÃŃ Ãª
ÂĪ Âı
Âī Ē
" đ
Ą Â«
ÃĬ Ãī
ÃĿ Ã¹
u Ãĺ
ÂŃ Âĸ
ÂĨ Âķ
ÂĢĒ ÂĬ(
Ãķ Ãº
n Ãĭ
K V
ÂĶ #
? Â·
Q o
ÃĲ Ãł
Ę (
Ã© Ãĺ
Âĥ Â¿
> ]
-% -
Âį \
L A
| ÂĬ
) Âľ
Y Ãı
ÂĪ Â¥
X Z
q p
ÂĲ Âĺ
Ãª ÃĮ
Ě ć
Ã¨ Ãį
Âĳ Â©
Âŀ Ĕ
ē Đ
c t
Ãİ Ã¤
Ġ ]
d ÃĻ
Ãĥ Ãĵ
Âĸ Ã·
ÃºQ Ãı
# _
G Âº
ě .
Â¨ ÃĹ
ÃĿ Ã§
Ãĥ l
S ÃĻ
ĉ Âł
Ã® Ã»
[ (
ÂĪ Âĺ
ą ĕ
C z
$ Ć
D Ã§
Â¦ .
ÂĿ =
ÃĴ ÃĪ
(Â¢ÂĢ *
Y q
% ġ
Âİ ę
ÃĤ Âµ
Ĕā [
Ãķ Ã¾Ã¨Ã¼
ÂĹ !
Âĭ !
Ãĩ v
ÂĽ Â¥
ÃĤ E
ÂĽ Ā
Â» "
Â´ ă
Ãī R
/ <
~ Â¸
Đ Ē
Âº Ã´
6 5
Â« Âĺ
b L
, Âŀ
ÂĪ Ĕ
% ĕ
ě ą
G W
Ãĺ Ãª
b Ã²
ě |
k S
ġ Â§
ÂĨ Âĳ
Ãĸ ÃĨ
ÂĽ Âķ
B Ã»
Đ ą
Ã· `
ÂĻ Âĳ
Ã½ L
ÂŃ Â°
p Ã«
ÂĢ Âı
Ã¼ Q
- Â±
P m
Ĉ Âĥ
Ę Â·
Ė ĕ
t u
Ã² bÃ¿
Y e
f s
Âµ S
ď ĕ
ÂŁ Âı
Â¦ Ĕ
Ĉ ,
f o
n Ã«
x Ã³
Âĭ Ě
g u
Ã¦ A
Ãķ ÃĢ
ÃĦ N
Ã¨ W
\ Â¸
Ĉ ÂĬ
Â¢ )
Ã¶ Ãł
} Â¯
ÃĽ E
Ã¯ Ã¥
F L
Â¿ Â¥Ā
ÃĴ Ãķ
Ãĥ Ã°
Ãĭ S
[ ĕ
đ !
, Âį
. ÃĹ
D Ãļ
ÂĦ ē
R Ã»
; ę
Ã´ V
Ãİ ÃĶ
Ã¨ Ãľ
k A
Ãħ Ãĩ
Ę Âī
Â¬ ė
Â¬ ĝ
a t
b e
ÂŁ ė
Âķ Â¡
ÂĪ ÂĨ
Ãº s
Âª ÃĶ
ÃŃ e
x ÃĤ
ę Â®
a Ã«
Â¸ ^
ÂĶ ć
v Ã«
Â° Â£
ĀÂŀ Â«
ę Âį
] Ď
ÂĦ ą
ÃĬ Ãµ
Â± ^
L X
( Ě
Ãī u
ÂĦ {
& &
ÃĬ P
i J
Â» Ă
Â¶ Â®
Â¸ Âļ
0 Â³
f H
" =
Ã» Ã£Ã¿
Q s
Ãŀ Ã¥
g Ãİ
ć ÂĻ
?* >
Ãº Ãī
Ãĵ e
ÃĿ C
F J
đ Ē
p Ãĳ
Ãµ V
Ã® Ãĭ
Ā Â¢ÂĬ(ĀÂ¢ÂĬ(ĀÂ¢ÂĬ(Ā
QM Ãŀ
h H
Âĺ ÂĻ
Ãļ Ãį
ġ >
Ãĵ Âº
ÂĽ ÂĴ
c e
\ Â´
ĀÂŀ Âĩ
Ã² n
ÃĬ ÃŁ
T X
Âĵ /
Ã® ÃĦ
ÂŃę ĞÂ´
Ã© Ãº
Âµ Ãģ
t m
Â£ ÂĢ
Ã» ÃĪ
Ã¦ Y
u U
h ÃīÃµ
ÃĬ K
_ (
ÂĴ Â¡
v Ãĺ
Ĝ Âķ
+ Âĩ
Ė ÂĮ
ÂĦ ,
C Ãĳ
(Ā Â¢ÂĬ(ā
Â· ÃĹ
ÂĽ Â§
Âī Â¸
h Âº
Ã® Q
@ "
Ã± Z
W S
d H
l Ã¥
Ĉ "
l L
Ãĥ Ã¸
Ãľ M
Ã¼Ã² OÃ»
D Ãį
_ ~
Â¢ÂĢ #
ą Â¯
ÂĤ ě
G f
Â¨ Â¢ÂĬĀ
ÃĬ Ã¹
Ãĭ O
x Ã¥
ÃĨ Ã»
ÃºÃĳ Ãı
= ÂĹ
Ãĭ Ã½
Âĭ Âŀ
' Â¢
(Â¢ÂĬĀ(Â¢ÂĬĀ(Â¢ÂĬĀ(Â¢ÂĬĀ(Â¢ÂĬĀ(Â¢ÂĬĀ(Â¢ÂĬĀ(Â¢ÂĬĀ (Â¢ÂĬĀ(Â¢ÂĬĀ(Â¢ÂĬĀ
Ĉ Â·
Âģ Â¿
P g
ĕ |
Âį Â¢
Ã¦ ÃŁ
Âĸ Â©
ÃĲ p
Âĥ ĝ
3 Â¾
@ ÂĻ
Đ [
v A
ÃĤ Ã´
Â´ *
Ã¼ Ã¤
Ã¬ Ã¾
ÃĶ sÃŃ
ÂĽ ;
ÂĴ ÂĴ
c T
Ãŀ Ã¡
B e
ÂĦ Ą
% Â¬
Ě &
Đ ă
Ãľ Ãĺ
Ã´ ÃĦ
ÂŃ Ď
ĀĔ ÃĹ
Ã¥ Ãħ
Â§ ]
v Ã½
w S
I M
Âµ y
. <
Ė ě
l Ãģ
/ "
Ā= ď
, =
t Ãĭ
t Ã²
ÃĨ b
! [
Âĺ }
^ Ć
Ãķ ÃĿ
ÂĢ Âĳ
ÃĨ J
Âİ Â¦
Ã¸Q Ã¶
ěÂĩ Â¨
ÂĪ ď
Âº z
? ġ
f Ã´
ā }
, Âĸ
Â® \
Âĵ [
Âī \
Ã¤ y
e Ã½
Ãĵ y
k P
q o
d M
Ē ē
Âŀ Â¢
Ġ Âª
Ã¦ y
Ã½ a
ÂĻ ÂĬ
W u
% ÂĤ
Ãĸ Ã¨
ÂĪ ÂĤ
ÂŃ ą
G U
Ãļ u
ÂĲ Â´
Â¢ÂĢ Ě
Q Ã¯
ÃĪ Ã³
Âī Âĥ
Ãľ i
ć &
Â° Âİ
. ÂŁ
Ã¥ ÃĶ
? ā
Ãĩ Ãī
Â® ^
Q n
Â± ě
ÂĪ Â¡
Âī Âĩ
K Ãļ
g y
ď ÃĹ
ÂĮ Â«
Âĭ Âĳ
Ã¸Ãĳ Ã½
Ą \
G Ã§F
Ã¡ ÃĢ
Â¸ ě
Ã¸Q Ã½
Ãĸ m
D O
ÃŃ w
V Ãĺ
Â© Âļ
ÃĪ Ã½
t v
Ē $
Â± Ď
I B
Âķ ē
r Y
Âĭ ē
ÂĶ *
Ãĳ R
/ Âĳ
Â¸ ą
Ãİ P
ĕ Â´
Â£ ė
Ã¼Âª Z
/ Ĕ
Ã½Ãĳ Ã¹P
ÃĦ Ãī
ÃĦ ÃĮ
s m
ÂĴ ÂĹ
Ãģ o
< Âį
ÃĶ F
ÃĦ ÃŃ
Âĵ *
n hÃį
= Âľ
ÂĪ Â¦
ÂĶ ]
A w
% \
L x
Â° ā
T O
t Ãĺ
Ãļ M
ÃĢ i
L j
ÃĤ Ã¬
Đ Â§
Â¥ ~
Đ \
ÃĢ Ã±
L F
Ė Ã·
l o
Ĝ Â«
Â¯ -
^ ą
ÂĶ Â»
Â¶ ą
| ~
Ãĩ Ãı
p Ã»
ÃĦ F
Âį Ă
@ _
Ãĸ f
Ã¹ J
( Â¤Â¥
Ã¯ m
Âĺ ė
Â© Âĥ
ĕ Âĸ
Âķ Ē
ÃĬ Ã¾
Ãķ Ãª
V x
] ]
R k
v d
Âļ ě
Â¡ ;
Ã³ Ã§
Âª U
Ãį r
ď @
ÂĨ ā
% ÂĻ
Ã´ n
+ |
~ ÃĹ
Â± _
Âİ ğ
Âı Â¦
. Â¢
Â¶ Âĥ
Ã¢ C
Ĕ ć
A Ã¹Q
ÂĪ Â¢
Â» ÂĦ
Â° ÂĲ
Ã¯ Ã¸
Âĩ ě
ÃŁ GÃ¼
h D
Ã´ ÃĲ
Ã¤ o
=ą ě
ÃŃ m
$ [
B ÃĲ
; Ã·
! Â¿
Â´ Ã·
Âĭ ,
Â¢ÂĬ(ĀÂ¢ÂĬ(ĀÂ¢ÂĬ(ĀÂ¢ÂĬ(Ā Â¢ÂĬ(Ă
>ÂĶ `
% Â£
ÃŃ Ã»
S Ã«
Ĕ Â§
ą Âĥ
I ÃĻ
Ã½Ãĳ Ã¼
z F
Ā| ÂĬ<
Âİ (ā
ÃĮ Ãı
h E
ÂĽ &
u Ã¨
ÃĶ Ãħ
Âº l
d D
Ĉ Âī
Â¨ ÂĬ
Âĳ _
/ _
Âİ `
m Ãµ
t ÃĿ
Ã¶ Ã®
Ã¢ H
ď Â¦
Ę ě
ÃĦ Ã´
ÂĻ ÂŃ
ÂĪ |
ÃŁ Q
" ę
Ã£ Ã¡
ÂĴ đ
ÃĨ ÃĤ
Ã¬ Ã©
$ >
Ãĭ F
Ãº q
y Ã®
Âģ Â¶
f Ã¬
ğ Â´
Ãļ Ã¤
r D
# Âĩ
\ ÂĿ
Âĺ ,
Ĉ ÃĹ
e h
i o
% ]
ÂĮ ć
ÂĢ Â»
ÃŁ Ãģ
Ã¥ Ãį
Ã± ÃĲ
Âĵ }
Đ Âĥ
Â° ą
Ãĭ H
l Ã¡
4 5
` [
Ã¯ Ãł
Ě ÂĽ
Ã´ ÃĴ
; Â¯
s u
Ĝ Â¿
) Ć
b ÃĪ
Âı Ą
Z Ã»
/ \
ÃĬ Ãĵ
ÃĮ Ãŀ
Â§ &
Â® &
? '
ÂĻ Ē
W Ãŀ
ÂĲ +
T Ã¬
ď ÂĴ
L i
@ [
ĀÂĴ ÂĬÂı
Ã³ Ã¤
Âĺ ÂĶ
ĝ ÂĽ
ÂĲ Âķ
' -
Â¶ Âī
R Ã¡
S e
Ĕ !
ġ Ĝ
Ã» Ãİ
ÂĿ ĕ
Â¨ ė
Ã½ÃĨ Ã¼
Ã½ ÃĤ
Ġ Ãħ
r Ã²
U Ãĵ
Ę ÂĪ
M Ã«
Y Ãģ
Âĺ Ă
Â± ą
ÃŁ Ã©
Âĺ ą
ÂĢ Â®
Â° Â¸
Ā-Ĕ ÂĻÂ£
ÃŃ Ãĳ
Âı Â®
Ď ÂĬ
Âŀ (Ă
Â¶ Â£
Ġ L
_ ÂŁ
Âª Q
b j
Âĺ "
w Ã³
= Â¥
c d
ÂĪ Â§
Ĕ ę
s g
w ÃĨ
> /
$ ÂĶ
ğ Âľ
Âĳ ē
/ ^
ÃĬ Ã°
y W
ā Â¬
Ãµ Ãļ
Đ Âŀ
ÂĬĀ Âı
Ãª Ãģ
X q
! ą
Ē Â£
Ã¾ Ã¥
Ą %
Ãĸ R
Âĭ Â·
M Ãĳ
Â° Ĉ
. ę
X Ãį
k ÃĪ
ÃĴ ÃĿ
Ã¥ Ãł
+ ]
X p
ÂĪ ÂĶ
W B
Ã® K
M Ãī
E Ã´
ÂĦ Â·
v P
Ã¸ Ã¤
Đ Âı
Ãĺ Ã©
Ãķ ÃĻ
Ē Â¤
Ãµ r
ÃĿ ÃĲ
ğ #
ÂĻ ]
Ã² Ã¼
c J
Âĵ Â±
Ãķ Ãİ
Âģ [
f Ãĳ
Â¸ Ė
Ã¶ m
Ē Â¨
ÂĮ ÂĿ
X Ãħ
Ã´ ÃŁ
Â¸ ]
Ã¦ O
Âĺ Âį
Âĭ ě
Â¸ %
{ Â¨
ÂĦ Ę
y Ãľ
? "
ÂĪ Ã·
Ã¶ Ã¹
Ã¬ e
Ĕā Ĕ
Ė &
W I
P C
q q
Ã¨ ÃĤ
ÃĻ Ãµ
ăÂ¨ Â¤
ÃĽ Ã±
ē ĝ
Â» Â£
T D
j Ã²
L k
Âķ Âľ
; Â¢
Ãļ ÃĮ
Ã¶ I
Âº d
b l
g ÃĪ
Â® "
Â¦ Ě
Âµ Ã½
r Ãĳ
Ã¢ e
ÂĮ Â¤
Ã¦ Ãª
ÃĤ C
( Âī
ē [
Ã´ Ãĵ
Ãī S
Ã¨ U
Ġ ÃĦ
(Ā Â¢ÂĬ(ĀÂ¢ÂĬ(Ā
Ãļ c
Ã® Ã²
Ãħ Ã³
Âĩ Âı
O Ãı
ÃŃ Ãł
v a
Âĸ ď
L Ãĩ
i Ã¼
Âŀ ^
Â¸ ÂĿ
đ Â¯
ÂŃ Â¢
: ÂĶ
G Ã¢
Â´ Ė
E Ãİ
D ÃĿ
ÃĴ T
Ã· -
ÃĻ Ãĥ
ÃŁ Ã¾x
ÂĹ Âİ
Ĉ Âı
đ >
ÃĽ Ãĺ
Ã¡ Ã«
I Ã¯
j Ã©
u p
( [
W Ã¸
Âĳ Â¦
Âľ Â¬
Ãī w
c Ãķ
ÂĽ ÂĬ
Â· Ć
ĝ ė
Ãį Ãĭ
ÃĽ T
v f
! {
Ď Â¬
(Â¢ÂĢ ę
Ĉ Âļ
Ã® L
Â¨ ÂĤ
Ã¯ z
Ã¼ P
ÃĿ p
K ÃĪ
Âĭ Âĭ
m V
v ÃĬ
1 5
i N
ÃĦ Y
Â° Ğ
X Âµ
m Y
Ã® o
b g
k l
Ãļ t
ÃºS Ã¨
ġ Ĉ
@ {
Ĕ $
ğ ÃĹ
ē Ā
r Ãª
Âĥ ÂĿ
ÂĽ ÂĻ
k Z
G e
ġ ~
ÃĴ Ãħ
Ā >ÂĶ
Â¯ &
q ÃĤ
I Ãĭ
Âŀ Âį
Â¤ Â«
Ã° E
; Ă
Đ Âĵ
% *
9 Â¹
w j
ă ÂĶ
ÃĴ A
! Ğ
Âķ ÃĹ
Ãµ U
Âī Ė
ÃĶ Ã¹
Â¯ Â©
b Âµ
Âģ Â±
Ãĩ Ã¢
C Âº
T Ãĭ
Âģ Â¥
ÃĽ h
ÃĽ Ã©
m p
ÂĨ ÂĹ
ÃĲ Ã³
Ã² Ã¡
Ě ď
đ Ğ
Ã· Ć
Âĩ Âĵ
Ě Â§
Ãŀ Ãļ
L Y
u Ã¤
B Ãµ
đ Ā
Ě Â£
Âķ |
( Ē
Ãĵ ÃĬ
ĕ ÂĦ
) Âĺ
ă {
Ġ Âµ
g O
ÃĨ Ã¨
ÂŁ Âļ
H K
ÃĴ h
ÂĨ -
Âĥ !
Â« ć
Â¯ ÃĹ
Ãĵ Ãģ
t Ã³
Ã¼ c
a y
u Ãª
ÂĹ Ė
f Ãĺ
ÂŁ `
Ãķ Ãķ
] :
Âį Â¡
n ÃĲ
ÂŃ `
Â® ÂĦ
ÂĪ Â°
_ :
Ãº Ã¹
ÃĻ d
Ã° Ã£
+ ÂĦ
Ę -
ć /
Y D
đ ÂĻ
ÃŃ ÃĬ
+ @
Ãº Ã¾t
Â¶ Â¸
Ã¬ Ãľ
( Âı
6 Â¾
} Âľ
f Ãį
ď ÂĿ
g Q
ą "
Â· Âī
v Ãĭ
Ã£ l
Ě Âĺ
G Y
Â¯ |
Ã¼ F
ÃĦ O
ÃĨ Ãį
ÃĴ ÃĬ
Âķ Ė
Â¬ ğ
x Ã²
} @
Ã¬ Ã¨
ÂĬ( Â¢ÂĢ
Ě ~
w Ã¯
ÂĢ Â¥
ÂĹ ~
Ã´ Ã¤
Ãĵ r
Â® ]
Ã¦ Ã¡
Âĸ Âı
Â² Â½
ě ,
T Ãĩ
Ã§ l
Ã· Ą
D Ãŀ
Ã§ A
Â¶ Ę
ÃĤ ÃĤ
(Â¢ ÂĸÂĢ
-Ĕ ÂĶ
Ã· )
Â» ÂĿ
Ġ Âĺ
Ã¾Ã° Ã¼Ã©
ÂĮ ÂĪ
ďÂ¥ Ę
Âī Â¦
Ĉ ÂĻ
[ ÂĬ
Ã½ Ãĩ
Ġ Ãį
ÃĴ Ãī
Â« Â§
ÃĦ Ãĥ
_Ã· ď
Ã° Ã¾
% Â¢
f ÃĬ
B Ãŀ
^ Âŀ
" '
a x
Ãļ U
ę }
Ã¨ ÃĿ
{ Â©
Â° ,
Â° ē
. Ą
p ÃĤ
Ãĸ I
ÃĶ Ãı
Đ ÂĨ
Ãµ Ãķ
Ã¤ ÃĽ
Ē ÂĤ
ÃĲ Ãº
FÃ¡ Ãª
ÃĻ P
Ãĳ ÃŃ
\ ]
k Âµ
Ãħ ÃĬ
đ Ĕ
e Ãŀ
r d
D N
A Ãĺ
Ãľ oÃĬ
Ã¬ Ãİ
Ã¸ Ãį
ÂĬ #
w F
ĝ Â¨Ă
ġ ÂĽ
ÂĨ Â¥
ÃĿ Ãŀ
Âª c
Ãħ Ãı
! Âŀ
g m
Ě Ă
Ãľ e
? Â¡
p Ã¾
ğ `
Ē ÂŁ
\ Â¦
f n
H Ã°
ě Ė
Ãĸ Ãį
Ã± Ã¤
Âĸ Âĥ
Ã¯ a
Âģ Ā
Ãª P
Â´ ą
& Ą
i ÃŁ
y Ãĥ
ġ ÂĶ
} >
Â± ÂŃ
Ĉ Âĺ
h S
} Âĺ
Ĕā ą
Ãĸ v
D Ã£
Ĉ ÂĽ
g V
Â§ ď
X V
ÃĻ Ã©
ÃĪ Ãŀ
% )
Ė Â¿
: Â®
Ĉ _
Â¨ Â¯
: Ć
D Ã¶
N c
Ã¦ u
l ÃĢ
Â¦Â¢ÂĢ !
Âª x
f d
ÃĴ Ã¥
Ãħ Ãģ
Ãį ÃŃ
< ÂŃ
I S
ÂĲ $
Ãº Ã¾T
( Âĵ
< Ā
Âĭ Â¿
Ãī Ãĭ
Ãİ U
D Ã¹
Ã¦ U
[ Đ
Ãª ÃĤ
Â® ÂĴ
Â¢ÂĢ $
(Â¢ ÂĴ
Â° Â´
Â° Â±
Âģ Âĺ
Âī @
Ę Â¥Â¢ÂĢēĔ
t ÃŃ
ÃĮ ÃŃ
ÂĲ ĝ
Ã¾Ãª Ã¿
Âº b
l C
Ãĺ e
ÂĪ Â©
A B
ÃĶ K
Â® Âĸ
o Ã¤
N d
đ #
ÃĲ m
[ `
ÂĲ Â¦
Â® %
ÃĿ Ã½h
Â» Â¦
ÂĪ ā
ÂĽ |
h K
Â¨ Âľ
Ğ Ā
k O
Â® -
ď Âĵ
Ĕ -
ÂĶ $
ÂĶ Ę
Ã¸ ÃĨ
Â· ė
ÂĶÂ´ ÂĶĀ
w ÃĿ
ĀÂŀ Âı
Â´ \
Â¸ ÂĦ
. ]
w Q
t ÃŁ
ÂĪ ÂĹ
Âī ÂŃ
y V
ÂĽ Âĳ
[ _
ē Ė
Ãİ Ã»
Ã° p
ÂĻ ÂĮ
Z Ã©
q m
q Ãĭ
Âº Ãľ
R ÃĤ
Ą ć
Ãī U
ğÂĿ ěÂĹ
ÂĴ Â»
ÃĶ E
Âĥ Â¨
Ã¥ Ã¾Ã°Ã¼Ã¨
Ãį ÃĨ
Ãĭ Ãļ
, ÂĨ
Ã· *
Ãª Ãĺ
! ~
ą Ď
ÃĻ ÃŃ
Â¬ ÃĹ
[ Â»
Ĝ ĕ
u F
Âļ Â¦
Âļ ÂĬ(
ā +
Ã¶ U
Â¥ ÂĦ
ÃĽ b
Â© /
l ÃĪ
ÂĤ Â«
Ã± Ã¢
h a
Ãķ Âµ
ğ Â¸
Ã§ Ãĩ
Â¯ ć
e ÃŁ
N P
Âª Ã¨
Â° Âı
Ė Ĕ
ÂĴ Âĩ
ÂĻ Â±
Ã¦ Ã¨
& %
ē Â±
ÃĢ Ãĭ
L K
Ãļ Ãĸ
Ã± Ãľ
Â¡ Âŀ
g Ã¤
Â¢ÂĬ(ĀÂ¢ÂĬ(ĀÂ¢ÂĬ(ĀÂ¢ÂĬ(ĀÂ¢ÂĬ(Ā Â¢ÂĬ(ā
. Đ
Â© Âĭ
Ãİ c
; Â¨
l Ã½
, Ę
Ē Âı
Ãķ Ãĳ
Ã¬ Ã¬
ÃĽ C
T ÃĻ
Â° ~
Ã³ Ã»
ÂŁ Âĵ
| `
Â§ Ă
ÃĿ D
| ÂĲ
Â¥ Â¢ÂĬ
Ã¥ Ã®
Ãķ C
ÂĪ ÂŃ
ÂŃę ĞÂ´Ā
b ÃŁ
Ãį u
Âģ Â£
Ē ę
ĝ ÂĦ
ē ?
ÂĪ đ
Âĺ Â¸
V O
b ÃĨ
ÃĶ Ãģ
p c
Ãħ Ãĥ
Ãĵ G
(Â¢ÂĬĀ *
Âµ Ãĩ
ÂŁ ď
ě *
Âĳ Â¬
Ã¡ Ãĸ
ÃĴ e
ÂĲ Â·
Ã· .
Ãī Ãĥ
đ Â¡
Ãħ o
d Ãĥ
v Âº
Q Ã©
t s
ÂĤ Âĸ
Ãª Ã£
Ãŀ Ã¹
ÃĻ F
ÂĶ ę
Ã¶ Ãģ
Ã» O
: Ė
Âª l
Â¤ Â»
Âĥ Ą
Ãı Ãª
& ÂĦ
X ÃĮ
Ď Âŀ
P n
Ãĵ Ã¼h
(Ā Â¢ÂĬ
Â© Ć
Âģ Ğ
Ã» Y
g ÃŃ
Ã¨ Ãģ
Ã· Â»
Â¡ Ė
Ġ ^
Ġ W
QI K
Ā >Â´
p Ã¬
P Ãª
Â¯ Ą
ą Ė
Ãĺ I
Â° Âĸ
C h
T z
i Ã¸
[ ~
] ÂŁ
Ã³ Ã¸
( Â¶
Â§ {
Âĩ _
s q
Â« Â¦
ÃĮ Ã¶
Ãİ Âµ
R Ã¯
Ã¦ ÃĪ
đ }
f x
Âĩ ÂĮ
?: >
Ã¦ d
Ě Ĕ
ÂĶ /
Â¬ %
@ (
Â· &
ÃĨ Ã¹
C ÃĽ
P W
w N
` ě
ÃĢ Ãķ
< .
Âª Ã¼
\ Â¡
Âľ Â«
Ã» W
ÂŃ Âķ
Ě {
Â° Âĳ
_ ;
$ +
w L
i F
o ÃĽ
Â¢ =
Â± Âĺ
ć ÂŃĀ
. !
c z
Â¸ ÂĹ
ÂĻ ;
ÃĬ Ã¶
Â¸ Âĭ
ę Âĸ
> ć
Â¢ '
ÂĢ Â¿
n Ãį
ÃĦ ÃĿ
ÃŁ r
ė Ė
ġ <
ÂĬ ğ
Ā= ć
Ã® Ã¡
Ãħ m
o Ãľ
Ãħ d
o OÃ¯
: Â¶
ÂŃ Âī
( }
Âĳ ?
+ Âĭ
Ã¨ ÃĦ
Ãģ S
X D
- Â¡
Ğ |
Ē #
Ãĵ Q
ÂĲ Âļ
G t
Â¢ Ĉ
[ >
Â© ÂĽ
ÃĻ J
p Y
R Ã±
Đ Â»
ÃĶ Ãį
Â¯ !
Âµ ÃĤ
Ã¥ i
Ã¬ ÃĿ
( ĕ
ď Â®
_ ÂĿ
Ę ÂĹ
Ã¦ W
Âĩ +
Â¢ &
X K
ď "
Ã¨ ÃĨ
ÂĨ Âľ
Ĝ Â£
Ę Â¿
u q
Â¨ Âķ
ÂĶ Ą
Â± /
Ãł B
R Ã²
ÂĪ Â¬
Â¥ Â§
ÂŃ Â¶
ę ÂĴ
7 Â¾
ÃĦ A
Ãľ l
Ã¯ s
Âī ÂŁ
D F
ÂĮ @
ÂĦ ć
% Ą
Ġ h
Ā= ğ
Ãĵ Ã¸
ÃĿ L
[ đ
ÃĢ Ãĥ
Ã¼ t
Âĺ '
Ĉ Âŀ
ÃŃ f
Ā< ÂŁ
Âĥ Â°
Ā Â¢ÂĬ(Ă
Â» ,
ę ĞÂ¢
k e
ÂļĀ Â±
Âĸ ^
ÃŁ oÃİ
Ã¼Ã´ OÃ»Ã¨
Âģ ÂĻ
ē `
ÂİÂĶ ā
ě /
ÂĨ Ď
p ÃĲ
Ã© Ã¬
Âĥ <
Ć +
Ãĵ ÃŁ
Âº f
Q Ã¹Ãĳ
a l
O Ãħ
Â¿ Ĕ
ÂĴ Â¨
Âĩ ġ
: Â«
Ãĸ Ãİ
Ã½ ÃĮ
ÃĻ ÃĬ
Ã¥ Ãĥ
" Ğ
ÂĪ ÂĪ
W Ãµ
P ÃŁ
" ĕ
ÂĶ <
ÂĿ ÂĹ
Ãħ ÃĤ
Ĉ Âĵ
" !
ĝ Â¨ā
Ã¦ M
i S
~ '
Ė ;
u ÃĿ
Â¥ Âŀ
ÃĻ Ãł
Ãĩ f
Â¹ 0
b Ãĭ
ě %
Âļ ĝ
c A
v l
Ãķ ÃĲ
Âº Ã³
ě )
L ÃĪ
ē Â¶
ÂĽ đ
q Ãĥ
Âį ;
o Ã£
X H
Ē ]
Ã´ Z
Âĳ ā
Âī Âĸ
u Q
Âº I
. &
Ã¾ Ãģ
Ãĺ Ã«
L N
Ã³ t
ÂĨ Ć
Ġ Â¾
W Ãĸ
" Ą
ē <
c ÃĿ
Â¸ ÂŃ
m I
ÂĬ ă
- Âļ
Ã¯ p
Ã¯ r
Ĝ ÂĿ
Ãł e
Ãĺ F
V N
X F
ą ÂĦ
ÂĽ ÂĲ
_ \
ÃĬ Y
Ã¢ U
ĕ ÂĤ
ÂĻ |
Ã¯ ÃĢ
D ÃĲ
Â´ Â¡
Â° đ
Ė !
Ãį q
ÃĹ ě
Ãħ v
~ Â¤
Âĩ Â©
Ãĵ Ãĳ
Â¬ Ĕ
Ę {
ć ÂĢ
Ãĸ Ãľ
Ã¨ Ã³
Ãĺ H
ė Â¡
KI Ãŀ
Ã¨ Ãķ
Z Ã¥
ÂĬĀ Â«
y M
ÂĶ Â¤
m Ãķ
ÂŁ Â¡
ÂĹ Ď
Ě $
Ãĵ a
Ãĭ I
Ã½Ãĳ O
Â´ Â£
Ãĵ Ãķ
Âģ Â¨
Ã® Ãį
& #
v x
Âĥ )
T ÃŁ
Ãĥ i
@ ÂĲ
Ć đ
ÂŁ Âĸ
Ã¢ V
: ĕ
y A
Ğ Â¢ÂĢ
/ ÃĹ
X Ã½
Âİ Â»
ÃĬ Q
Âī ÂĽ
m u
D E
ÂĢ <
Ã³ B
Â¢ÂĴ ÂĸÂĢ
Ãĺ Ã±
Ã¼ Ãł
ÂĶ _
ÂĨ Â£
; Â£
Ãĺ ÃĤ
Ã¦ Ã©
Ãļ h
Ãĵ C
Ãĵ Ãĩ
ÂĴ ă
Â± -
Ã¸ Ãī
ĀÂ® ÂŁ
ď Â°
T ÃĢ
Ē <
` #
" Â»
Ãļ Ãª
ÂĪ Âĸ
ą Â§
Ãħ ÃĢ
Âĵ đ
& Â¨
Âº Ãł
p K
Ã¥ Ãª
t w
ÃĪ Ã±
L O
Â© ÂĻ
( ~
Â° )
Ğ ]
ÃĿ ÃĮ
Ć !
Ã« Ã¸
ÃĻ T
( ]
ÃĶ Ã©
B n
Â¸ ÂĢ
Ãĩ Ã¬
V Ãķ
r Z
ē +
Â¬ ,
\ ć
_ Â©
Ĉ ]
Ĕ '
" #
Ãµ Ãº
Âµ Ãī
Ã¦ v
a ÃĿ
c Z
Ãĳ Ã²
ÃĴ Ãĥ
` Â¤
ď Âŀ
Ãĵ ÃĨ
~ =
Ė Âı
y Ãº
Âĭ #
Ã¥G Ã¿
ÂĲ Â¢
ÂĤ ÂĶ
Â¦ ĕ
w J
Ã¼ R
Â± %
& ą
Â¢ÂĬĀ (Â¢ÂĬĀ(Â¢ÂĬĀ(Â¢ÂĬĀ(Â¢ÂĬĀ(Â¢ÂĬĀ
Â» Â¡
Âį _
` %
Ãª Âª
Ã´ ÃĿ
A ÃŁ
r ÃĤ
(Â¢Âĺ ÂĤÂĬ(
\ Â«
Â´ !
ÂĮ ė
Âģ !
{ ÂĻ
ÂĨ Ğ
Đ ę
J Ã©
Âĳ ĝ
Ã¯ l
Ē ÂĢ
Âģ Â¦
Ãª Ãľ
o Ãĩ
Âľ Â£
Ãļ Ãĭ
Ãĸ ÃĦ
c y
ÂĲ ÂĻ
C Ã¸
ÂĶ ĝ
8 Â¹
k j
T Ãŀ
Ã² X
Ã± ÃĶ
g e
w B
Ā (Â¢ÂĬĀ(Â¢ÂĬĀ(Â¢ÂĬĀ(Â¢ÂĬĀ(Â¢ÂĬĀ(Â¢ÂĬĀ
ÂĪ .
Ě Ę
Ã¬ ÃĮ
Ãģ R
J ÃĶ
( ÂĨ
Â® Âĵ
ą Ă
Ãĸ P
đ Â¿
ÂĦ Â¨
ĀÂĴ ÂĬ(
Âŀ ě
Ãı Ãı
s ÃĬ
ÃĽ x
Âį ė
S f
ÂļĀ }Ĕ
" ĝ
Âģ <
ÂŃ ÂĽ
Ã¸ Ãľ
Âĺ <
Âģ '
J Ãķ
O Ãľ
e ÃĶ
y H
Âĭ Đ
ÂĿ ę
Ě Â¥
Âª R
Ã£ b
[ Â«
} ė
Â¯ ÂĹ
& {
[ Ğ
Ã¾ a
Âŀ (ā
Ã¸Ãĳ Ã¶
ÃĻ Y
. *
ÃĪ Z
@ Â¡
Â» _
> >
V ÃĬ
Ãµ Ã¹
Ãª L
ÃĻ Ã´
w T
K X
P Ãķ
J Ã³
u Ã»
Â¬ Âĵ
Âĳ '
Âī Ă
Ć Âĩ
ÃŃ ÃĦ
Ãµ a
ÃĿ n
ÂĤ %
Ãĭ Ãº
= ÃĹ
Y Ã»
Â´ )
Âĳ %
ÂĬ "
Ã½ W
Ã½ ÃĢ
Ã©F Ãĳ
g ÃĶ
Ãĸ U
y Ã³
Ã¬ Ã¶
Ĕ ĕ
( {
& ę
ÂĴ ĝ
q D
Âµ ÃĬ
ē }
(Â¢ÂĬ ĆĔ
~ ĔĀ
Ã¸ F
u s
Â» *
e Ã¨
đ ÂĽ
ė Ĉ
ÃĴÃĴ w
ÃĨ Ãī
ÂĶ !
ÃĦ i
Ã² K
Ġ X
Ã© Ã±
đ ?
ÂĿ Âļ
ÃĤ B
ÂĪ Ć
, Ė
Ã´ b
] ď
. ğ
Ã¾T y
Ã¾ Ã²Ã¿
] Â¢
Âī Âĭ
Ã¬ Ã¦
ĂÂĸÂĴ ÂĸÂĢ
Â¯ Â°
Ãĳ Ãľ
j Ã¡
Ãĺ Ã¨
ÂĲ ě
ÃĽ X
ÃŁ O
V Ãº
@ Â»
Â§ Đ
Ãĸ r
ÂĴ -
Ãį Ã´
ÃĽ M
Ã¾Ã² Ã¾t
s r
Â¡ !
ÃĤ y
Ãı x
l K
e Ã«
Âĵ )
Âĩ Âĸ
Âĭ ÂĬ
W M
| ÂĤ
Ġ 5
h O
Âļ ă
Ãĳ Z
m d
Ã· Ă
ÃĪ y
ÂĹ Ĉ
Ĕ _
ė ē
Ã· &
Ã¼Ãµ OÃ»Ã¨
h Ã§Ãĸ
ÃĹ *
= (Ā
c Ãº
Ã§ a
ÃŁ Ã¾y
Â¿ <
Ġ C
Ãħ n
Ã· /
ĀÂŀ )
Ãģ Ã¥
Ã¤ H
Ã¶ a
Â¿ ġ
Ãĩ Âª
Âı ĝ
Ã® Ãŀ
, Ē
D J
E w
s Ã±
ÂĽ Âŀ
Ã¶ K
Ã» Ã¬Ã¿
Â° Âį
Â¶ $
Â® ę
Ã¸ Ãł
% #
Ãµ B
Âº O
Â¯ Â´
. \
h Ã¡
& ă
> ÂŃ
Ã± Y
ÂĪ `
Ã¾ D
Â° ÂŁ
C A
Ã¸ Ãħ
e k
Âĭ ÂĶ
| ÂĽ
% '
Â± Ė
Ą Â¡
Ãĩ M
Âº Ãµ
n Ã³
ĝ ÂĹ
Ãĺ a
ÃĿ X
Ãī ÃĤ
Ã» ÃłÃ¿
Ãł I
. ĕ
ÃŁ Ãħ
Âĥ Ē
ÂĨ ĕ
Â± +
đ Đ
ÃĶ D
ÂĲ ÂĪ
yi Ã½ÃħÃ¼
: ÂĦ
Âİ Â¡
v Ãĸ
L Ãĥ
[ Ã·
ÃĢ Ãĳ
W ÃĽ
v R
Ĉ ÂĶ
Ã¥ m
y B
ÂĲ <
Âĳ /
Ã¶ ÃĴ
T A
, Ă
| Âĭ
Ã´ j
ÂĤ ą
n L
Â± ā
ÃºÃ¦ ÃŁÃĬ
G k
Ã¬ Ãĸ
N V
Ę %
Ġ Âĩ
ÂĽ (
Ã£ g
Ġ Âĭ
Â¿ \
K Ãī
Â´ Â§
h h
ÂĽ -
Âľ ĝ
Ã¹S Ã¨
Â· )
P ÃŃ
b ÃŃ
Ãį c
Ã¶ Z
! ď
Ã¦ Ãŀ
; )
Ãı Ãī
? &
S ÃĦ
ÂĿ /
Âº Ã¤
P Ã²
Ãħ ÃĮ
ē *
Âı ć
a C
ÃĲ N
Â¿ Â¶
QQ Ã¹
Ãģ w
Ãį p
ÂŁ Â¦
ē >
Âĺ -
v D
m U
Ã· Â°
ÃĲ Ãī
Ġ Ãĳ
Ã½Ãµ GÃ¶
Ã¦ Ã¤
Â¢ <
" ă
. Ă
ÂĨ ]
Ãĺ G
( Âķ
Ĝ *
Â¨ Â´
Ãĭ ÃĢ
k Ãī
ę Â±
& ė
Âĸ Â¥
H D
v ÃĦ
, *
l Âª
} ÂĹ
-ĔĀ ÂĺÂ£ĔÂ´
Ãª c
I ÃĤ
P Ã¬
ÂĬ Ě
a n
l Y
ĀÂŀ Â¯
L Ã½
ÂĨ Âį
Â® ÃĹ
ą ÂĿ
ÃĻ E
Ã¯ D
Â¡ ÂĿ
Ãµ ÃĮ
Âĳ <
ÂĽ ġ*
Ã¶ k
Â° Âĵ
; |
Ė +
ÃĢ E
) ÃĹ
Âİ $
i k
M S
Ãľ Ã¥
Ę Âĺ
Âļ Ď
% Âĸ
( ė
h r
Ã¨ Ãħ
Ãª Ã¤
ÃĿ ÃĴ
( Â·
j Ã»
z Âª
Ãµ ÃĴ
Ã£ m
đ ě
Ãĭ M
b Ã¢
: Â£
Ã± ÃĬ
, |
Z Ãł
ÃĲ ÃĮ
Âµ Ãı
K Ã¼
W Y
Ãķ D
! |
P Ãŀ
H g
đ Ć
" %
/Ã· ć
Â¯ ă
B g
` Â¨
; Â¡
Â¢ *
v C
Ãĳ Ãĵ
[ ď
W Ãĵ
] .
Ğ Â«
Ã¥ GÃ¶
M Ãı
Ãĥ k
F u
ÃĻ A
Ãĺ y
B Ã³
x e
Ã§ Ã¶
Â¬ Ā
ÃĻ e
Ã½ SÃ¿
W ÃĬ
Â¿ ă
f Ãĵ
l Ãī
Ã´ Ã®
ÃĲ Ã²
R RÃĴ
Ė Ĝ
Ã¾ g
a Ãĳ
: Â¡
N Ãİ
Ã¢ y
Ãĭ U
q s
ÂĴ ÂĻ
Z Ã£
z J
Â¤ =)
ÃĤ Ã»
7 Â³
Â¥ Âľ
Ã¼ q
Â´ Â©
E Ã²
Ã¥ o
A C
Âĳ Ě
Ãķ p
n Ã½
Â¥ ą
Ãģ ÃĶ
ē ě
Âį ~
X J
] =
Ã¢ j
Ã¶ Ã¬
ÂĦ #
Âĭ ď
Ã½Ã³ GÃ¶
3 5
ÂĽ >
% &
Fh Ãį
Ã« Ã®
D Ã¬
ÂĪ Âĩ
ÂĹ Âľ
p Q
Ã¥ Ã©
B Ã¹
ÂĽ Ď
ÂĹ Â§
A FÃĳÃ¨
Y ÃĿ
ÂĬ +
H J
Ãį ÃĮ
Âĥ .
Â¶ Âļ
k Ã²
\ ?
Ãŀ h
A Ãĳ
f g
Â» Â¤
Ã¯ ÃŁ
ÃĴ Ã¡
Ã¯ u
Âı ă
a w
ÂŁ ÂĬ
Â¿ >
Ã° Ãľ
B Ãĸ
Âį Âĸ
Ā= _
Ãµ Ãľ
Ãŀ t
ĕ ÂĴ
ă (Â§
& `
[ Â¬
l G
Â¢ Âĩ
Â° ě
Ĉ Âĩ
Ãħ Ã¤
ÃĻ N
Ãĭ Ãľ
s y
Â´ '
x d
ÃĦ Ã¦
Â± |
ĝ ĕ
C y
ÃŃ d
Â° Đ
ÂĬ /
Âª k
Âģ Â¢
K Ã²
v n
Ã· "
Â¾ 7
ÃĮ Ã¥
ğ $
l j
Ã¶ ÃĢ
"ÂĮ ÂĬĀ
ĀĔ ÂĶ
Ã¸ Ãģ
Âª g
} Âī
Âĵ (
ÃĲ ÃĽ
Âĳ -
Âĵ Ă
Â¡ Ć
Ã¦ ÃĽ
ÂĨ ÂĻ
, Âı
M p
b Ã³
ÂĮ Ĕ
Âį Ď
+ Â¦
l ÃĦ
IE G
Ã§ GÃ¶
C ÃĢ
Â´ Â¢
Ãĥ H
Ã¦ Ã²
u W
{ Âĺ
@ Â¶
Ãħ j
b f
I h
Âĥ ġ
ÂĽ Â´
L ÃĢ
} ÂĪ
Ã© Ã¥
ÃĮ ÃĨ
ÂĿ Ě
ÂŁ !
v U
ÃĲ n
Âģ ÂŃ
% /
x f
ÂĮ Âĺ
Ã· ?ÂĿ
Âķ Âĸ
C e
T Ãģ
] ?
t t
ÃĶ ÃĿ
Âı Ā
ÂĹ /
Ė \
Ã¾ ÃĤ
Ã¨ Ã¤
ÃĻ p
E Ãµ
ÂŃ Â©
@ą ĕ
Ãĭ V
ē ć
_ >
F Ã°
Z Ãĥ
ÂĦ Â¬
* ÃĹ
_ Âĳ
ę ĔĀ
ē ;
N Ã¯
Ãİ Ãį
Ã¼h Ã»
: Ă
Ãŀ v
Ãļ Ãģ
` Â¬
Â® ÂĪ
B Ãĵ
Ã¨ X
ÃĹ Â¡
ÂĬĀ (Â¢ÂĬĀ
Ãª Q
Âĭ Â¶
Â¯ .
Ğ ÂĮ
Ė "
Âĩ Âļ
Ã± W
Ē "
Âģ ?
K Ã³
Ã¡ ÃĨ
h m
ě +
Ãİ d
Ãľ Ã¬
Â¸ Âĺ
Ã¸ ÃĪ
ÂĨ ÂĽ
Âľ >
ă _
ę ą
Ãĸ Ã»
y ÃĿ
Âī Âĳ
ÂĹ |
{ Â±
Â¬ Â©
Y Ãĥ
] ÂĶ
Ãķ o
Ã¯ Ã»
j Ã±
(Â¢ÂĬĀ(Â¢ÂĬĀ(Â¢ÂĬĀ(Â¢ÂĬĀ(Â¢ÂĬĀ(Â¢ÂĬĀ(Â¢ÂĬĀ(Â¢ÂĬĀ (Â¢ÂĬĀ(Â¢ÂĬĀ(Â¢ÂĬĀ(Â¢ÂĬĀ
ÃĻ q
Âº G
ă \
Âŀ "
ĞÂ¢ Âį
ÂĴ Âĵ
Âľ Â¡
Ãķ l
U D
Ã³ q
Âģ Â§
w ÃĮ
Ã² ÃĴ
Âİ ÂŃ
a Ã©
) Ă
ÃºR ÃĲ
Ć Â¿
` -
^ Ď
s c
ÃĲ Ãį
Âķ /
{ Ė
Ãĸ Ã©
ÂŃ Â¥
C k
Âĳ Ā
Ã½Ãĥ Ã¼
^ Ā
, Â«
Ãŀ g
Ě Â¦
ě Â¢
Ãµ g
Â¿ Ĝ
ÂĹ ÂĴ
Â° Â·
ď Â¶
ÂĬ &
Â« ĔĀ
s o
Âĸ ÃĹ
r U
Ã¯ Ãľ
Ĕ "
Ã¥ Ã«
Âº q
ĞÂĤ ÂįÂ£
# Âĺ
? Â©
S a
Ã¬ Âµ
Â¢ÂĢ !
Ã¼Ãª J
Ãİ J
P Ã»
r Ãī
Âį ĕ
Ã§ c
-ĔĀ ÂĻ
Ą Â§
Â® Âŀ
% Ĉ
> $
A Ãĭ
% ĝ
ÃĨ V
Â« |
D Ãı
Q ÃĿ
W K
Ć &
Ã· Âĸ
Ě "
Ã¶ Y
ÂĴÂĬ Âı
I Ãĥ
Ãħ u
ÂĬ Ğ
ÃĮ Ã«
Â· ÂĿ
C Ãª
ď &
ÂĶ Â¢
Z Ã¤
Ãł A
k M
ď Âĳ
Â¡ Đ
e j
Ę )
Ãħ w
đ Ė
Ã§ ÃŃ
Âİ ÂĽ
ÃĦ M
T G
ÂĦ ÂĦ
Q t
Âĭ &
, Âī
Ã³ X
ÃĦ ÃĻ
L M
x Ã¬
Ãī d
y N
ă :
l ÃĨ
đ "
ÂĿ }
Ã¨ Âµ
Ġ ÃĻ
Â¯Ã· ě
ÂĪ Âĳ
Ã· ā
Ã³ C
n g
' ā
ÂĤ Â¥
đ ć
ÂŃ Â§
{ Âĭ
ġ -
W Ãī
Ãĳ ÃĶ
Ãİ Ã±
Ãĳ a
ĀÃĹ Â§
B j
X S
Ã¡ Ãµ
Ã³Ãį Ã¿
! Âĥ
Ãļ Ãļ
Â¬ ÂĨ
= Âĺ
Ãĺ ÃŁ
y Ã»
ÃĿ Q
Ãģ I
% >
ÂĶ Â¦
. Âĥ
O ÃŁ
Ãĩ k
Â´ [
Ã© q
] Ć
+ Â¤
ď Ā
Âĳ Â¯
# ÂĦ
Ě ā
| ÂĹ
ĔĀ ÂĦ
Ãĸ Ã¾
A t
ÃĿ Ã´
` ė
Ã¯ f
Ã¬ Ãı
ğ Âĵ
Â° Âľ
Ã£ a
Â¨ :
Â¬ ^
U Ã¶
ą ÃĹ
ÃĶ Ã¸
Ãŀ M
J Ãµ
I Âª
Âĩ ÂĲ
Ē Â¯
ÃĿ v
Âº Âµ
b n
{ Âķ
ÂĪ Ă
% [
g Y
Ã¦ m
Ã½j J
Ã¢ W
w Ã®
ÃĬ ÃĤ
Ĕā ĕ
< ÂĶ
Ą ě
ÂĽ Ĉ
Ãĺ ÃĮ
Âĺ [
( Ã·
g t
Ã¬ C
Ãĭ k
Âº o
ė Â¥
ÃĿ r
ÃĻ a
Â¶ Â¡
Ãķ Ãľ
Q D
ÂĢ Âģ
Ã£ GÃ£
Ã½ Âµ
Ãĳ S
Â¢ÂĬ(ĀÂ¢ÂĬ(Ā Â¢ÂĬ
Ãĩ m
Ãĳ f
Â± Đ
! Â´
@ Â¿
ÃĨ ÃĪ
Âĸ ]
$ ě
ÂĤ Â¡
ÃĻ j
Ĕ ĝ
Ã» s
ă Â¢
Ãª b
ÂĤ Âĺ
ÃĻ r
| Âį
Â¶ Đ
Ãĵ A
Ã² m
Ãĳ Ãİ
Nh Ã¦
ÂĬĀ Âİ
Ã¯ Ãģ
ÃĨ Ã©
Â¶ /
Ãĭ Ã¶
đ Â£
Y m
Âŀ ÂĽ
o O
ÃĽ Ã¤
ÂĨ ÂĮ
Ĉ ÂĹ
ÃĴ L
ÃĽ L
Âº Ã¢
Ã» z
ÃĦ Ãĸ
Âī _
\ Â¢
Ã» X
Âº s
Â¶ ÂĶ
*/ Â´
Ġ Â¦
ÂŁ Â¿
Ãŀ Ãį
; ÃĹ
ÃĦ Ã¡
ÃŁ a
} Ď
Ãľ a
Ã³ b
Âĭ đ
Ãº k
ÂĿ #
N ÃŃ
Âį ē
ÂĪ ÂĽ
ÂĤ Âĥ
F D
Âĸ Ē
Âĵ Â¿
Ã® Ã¼
ÂĻ Â¨
Âİ #
Â® ÂŃ
! ÂĦ
ÃĢ Ã¥
& :
, ě
Âī Â±
` Â¿
Ĉ [
ÃĲ O
$ -
; Â¤
Â¬ ÂĲ
ÃĪ K
Ãģ A
Âº E
! Âľ
ć ā
Ã© r
Ãı b
Âĭ Ė
Ãª m
ÃĤ d
Ã» Ãŀ
ąÂ¢Âĵ ÂŁ
^ ÂŃ
ÃĻ B
Đ .
S Ã§
+ ÂĬ
G ÃĲ
Ã³ p
Â¦ ĝ
V Ãĭ
ÃĿ Ãµ
đ Â«
ÂĤ Âģ
Âī Â§
ÃĴ v
ÂĪ @
ÂĮ \
ÂĨ [
Ã¢ p
$ %
h W
i y
Ãļ Ã®
ÃĬ b
ÃĪ E
Ãĵ V
ÂĤÂĬ( Â¤
ğ <
Â¶ ė
Âĸ *
Âĳ ă
Ãģ O
(Â¢ÂĢ ē
Ãĭ Ãİ
@Ć (
Âŀ #
Â» -
Ã¶ Ãª
Ě Ĝ
Âĵ Âį
ÂĻ Â©
i Ã¯
Âī ÂĴ
ÂĢ ÂĦ
ÃĦ Ã¬
ÂĿ ~
ÂĪ Ğ
ÂĪ Âĥ
ÃĶ O
Y Ãĵ
Ã² T
ÃĦ Ã¥
ē \
> Â¡
ÂĶ ĕ
_ &
k Ã³
ğ ÂĢ
Â¬ #
Â» Ã·
l A
n Ã±
Ãı ÃĲ
ė ÃĹ
đ Ď
G i
q ÃĿ
Ã¸ Ã¯
Ã® Ã¥
< Â«
P Âµ
Âĩ ÂŁ
@ Âĺ
Â± ÂĽ
Ā- %Ĕ
C i
D B
Â¢ Đ
Ãį ÃĪ
_ ?
Âĭ Âį
ĠÂĮ Âĥ
Y y
Ã¡ GÃ¶
_ |
ÂĢ ÂĨ
Ė Â£
ÃĬ Z
Ã· ,
Â· ÂĨ
Ã¡ Ãį
- ÂĻ
V Ãĥ
ÂĬĀ Âŀ
ÃĴ Ãĺ
I F
w Ã²
Â° @
ÂĪ Âŀ
ÂĶ Ć
Â» Ĉ
- Â§
` \
Ã£ u
ÃĤ Ã¶
e L
; !
Ã¸ c
[ ė
Ã¾Ã¯ Ãµ
ÃĻ K
ÂĮ {Âļ
Ãĵ Ã§
Ã¹ Ãĺ
Ãĭ i
ÂŁ %
Đ Â·
Ã³ ÃĳÃ¿
` Âĸ
Â¤ %
A Ãĥ
Ãŀ J
ÂĤ ÂĹ
- Ė
Y L
ÃĦ ÃĨ
Ã¦ Ã¦
Âī |
Ã® m
Ãŀ Ãª
P ÃĤ
ÂĿ Â¡
g Ã¬
Ã£ Ãı
A KH
Â© Âĺ
Ã° Ã§
Ãĺ Ã¾T
O Ã©
Ãĳ i
Ã¥ Ã¨
Âĵ +
Â¿ Ě
a o
Ą <
Ġ Â¢ÂĬ(Ā
Âº r
Â° .
F o
Ãĸ ÃŃ
Ã¤ ÃħÃ¿
Ãľ ÃŁ
ÃĻ U
Âĭ .
Ãİ ÃŃ
B ÃĤ
Ã¡ Ãħ
d ÃŁ
ą đ
ÂŃ Â±
ÃĿ Âµ
Ã¯ v
l X
Ď ÂĮ
Ã¾ G
ÃĿ x
- Âĺ
Âº ÃĪ
Ē %
Ã· ÂĲ
Ã¡ Ã»
_ =
y J
Đ Âį
Â© ÂĿ
Ãĳ n
Ãĳ Ãµ
, ÂĹ
} Ĕā
ě &
/ Ą
{ Âĩ
Ãĵ ÃĦ
Â¶ Â¨
Ãĸ Ãļ
L W
l Ãĥ
Âº v
ġ \
Â© (ā
Ãŀ n
ÂĤ Âİ
Âľ Âį
Â¶ %
ÃĮ Ã®
Â¢ ē
] Âĸ
> ÂĽ
Ã¡ Ãİ
ÂĻ }
ė Â°
Ãĸ M
ÂĪ ĕ
{ ÂĲ
u Ã¯
a a
Â¬ /
Ã· ~
ÂĴ |
Âŀ &
ÂĿ ÂĲ
ĀĚ ?
Ě %
Â¢ ę
l Ãľ
u Ãĥ
ÂĦ Ė
d O
Ã³ v
Âĵ "
Ã¤ D
\ ĝ
Ã½ Ãĭ
l i
_ $
ÃĻ s
` '
} (Ā
ÂĪ =
Âº L
Ã½ ÃĪ
ÂĤ $
Ĕ [
Ã· Â·
w Ãİ
Ãķ Ãħ
l W
Ãį Ãį
ğ :
Ã³ D
Đ Ğ
Ĕ Â´ā
+ Â¿
~ *
ÃĴ M
o Ã²
Ã¯ Ã²
ÃĻ Q
Â¢ÂĬ(ĀÂ¢ÂĬ(ĀÂ¢ÂĬ(ĀÂ¢ÂĬ(ĀÂ¢ÂĬ(Ā Â¢ÂĬ(Ă
S z
U Ã¾
ÂĹ Â·
/ ă
Âµ ÃĢ
z i
ę ĞÂ´
Ã£ f
Ã» Ã¥
Â® Â»
ė Âģ
Ãĸ ÃĤ
ÂĤ &
Ãĸ Ã®
Ė Â¤
ÂĹ Â¸
(Â¢ÂĢ Ę
@ Âģ
Ã« Ã¥
ĕ% Ĕā
T Ãı
Ą ĕ
ÂĶ '
* Âĭ
G Ãª
b V
Ã¦ Ã¼
g g
ă }
Â´ Â¦
Ã£ Ãĩ
ÂĬĀ }Ĕ
" "
Âİ ÂĮ
Ć .
x l
Âĥ Â§
( !
Âī ÂĻ
Ã¨ p
Đ $
^ Ę
m q
Ãĳ j
Âª P
Â¶ ,
B Ãº
Âĵ Ē
ÃĪ L
ÃĹ Â°
Â« Âĩ
Ā} ď
T ÃĤ
Â« =
Â¡ Ğ
đ đ
ÂĶ {
ÂĨ }
ÂĹ Â¯
Â» )
@ąĔ Â´
Ãĥ h
v Q
Ã© ÃºÃĳ
Ãħ Ãº
l Ã¬
ÂĪ Ē
Ã¹ L
ÂŁ <
ÃĦ ÃĤ
U Z
l ÃĻ
f m
" Ă
f Ãħ
Ĉ ÂĢ
Âį Ą
Ā-Ĕ Âľ
( -
ÃĢ Ã¡
B Ãİ
ÃĽ Ã¸
ÂĶ ;
?Âį Ā
U Ãŀ
Ã¤ Ãļ
@ &
Ã¨ Ãı
@Ě Ĕ
[ ÂĿ
Ĕ Ą
ÂŁ }
ğ Âŀ
Ĕ ě
Â¸ Ă
Âº Ã»
ÃĴ ÃĻ
Â¦ Ĝ
H ii
_ '
ÃĴ r
Ãµ ÃĿ
B ÃŁ
a Ã½
: \
b Ã¦
(Â¢ÂĬĀ(Â¢ÂĬĀ(Â¢ÂĬĀ(Â¢ÂĬĀ(Â¢ÂĬĀ(Â¢ÂĬĀ(Â¢ÂĬĀ(Â¢ÂĬĀ (Â¢ÂĬĀ(Â¢ÂĬĀ(Â¢ÂĬĀ(Â¢ÂĬĀ(Â¢ÂĬĀ
l Ãİ
v V
Ãĺ Ã°
Âİ Ė
ā /
ď *
Ã§ u
a h
Ã³ s
O Ã«
Â¢ ė
Âİ Â¥
Ãļ Q
b Ãī
ÂĬ ē
ĝ ÃĹ
Â© ÃĹ
Ã¬ Ã°Ã¿
ÃĤ r
Ã© s
Ã¢ x
b S
ÂĶ Âļ
ÂĶ ÂŃ
Ãĸ G
Âľ -
Âĵ ÂĿ
w ÃŃ
Ã¢ Ãŀ
b Ãİ
z L
Ã¦ S
ÃĬ M
" +
Ãģ Ã²
Â§ Âĩ
P Âº
Âĥ =
Ã´ Ãĭ
Â£ ÂĽ
ÃĽ z
ě Ă
Ãħ ÃĨ
_ Â·
Ã¯ o
? Ğ
ÂĤ ę
ÃĴ U
/ ć
D Ãĵ
: Âĩ
Ãı Ã¨
Âŀ $
Â¸ !
Ã¤ Ã¡
Ãļ Ã½
Â¸ )
Ã¤ W
l F
Ãµ T
B U
Ã¨ Ã»
} ÂŃ
Ã· Â¶
Ãķ Ãĥ
Â© ÂĬ
Ã´ Ãĺ
ÃĨ Ã«
Ã¢ f
Ã² g
Ė Ĉ
ė Â·
ÃºÃĵ Ã¨
Â¡ "
Ãı e
b J
Ãµ k
ÃĬ E
ĂÂĬ( Â¤ā
Ā) )
O Ãĩ
Â¿ |
Ãĳ m
D o
ă Âĺ
đ ē
Ãľ Ã¡
ÂĶ ÂĪ
Ã¬ o
Â¢ÂĬ(ĀÂ¢ÂĬ(ĀÂ¢ÂĬ(ĀÂ¢ÂĬ(ĀÂ¢ÂĬ(ĀÂ¢ÂĬ(Ā Â¢ÂĬ(ā
Âµ ÃĲ
ÃĽ c
Ã¢ L
[ +
P QE
= ğ
Ã¤ Ã¥
ÂĨ ÂĴ
Âĭ '
Ã¬ Ãª
ÂĻ ÂĿ
Âį ď
Ãĸ Ãŀ
Ãļ Ãī
@ė (
Ě ĕ
Â´ Â¤
ÃĶ ÃĮ
b m
s Ãĥ
w Z
Ã½ I
đ <
Âľ ÂĹ
Ã½ P
Ã± A
ė ą
Â¶ \
. ÂŃ
a Ãĥ
(Â¢ÂĢ "
Ãģ e
C ÃĨ
Đ Âĺ
ÂĦ Â°
8 Â¾
f K
ÂĻ Ă
Âģ =
Âĵ ]
ė @
s Ãķ
ÃĦ x
ÃŃ Ã¬
N Ã¾
Âĸ Âİ
Ã¥ ÃĻ
Â¬ Â¢
y Ã¬
Â» |
W U
ÂĽ ā
Ã¢ X
` ,
l D
Âº Ãĩ
B Ãī
Ãļ e
Ãħ Ã²
Ā} Â¿
N Ã±
ÂĢĖ ÂĲ
` ĕ
Ã¦ Ã«
Âį <
ÂĨ Â¦
O m
Ãľ Ãİ
- Âĭ
u I
Â¸ Â´
JZ CÃĴ
_ Â±
Â¡ ď
ÂĿ ĝ
ă Ĉ
; ?
Ã£ GÃ¶
Ĕā ď
Ė ]
L Ãģ
^ ]
ÃĨ e
(Â¢ÂĢ !
; "
; ě
ÂĿ %
Âķ Âļ
ÂĬĀ Â®
Âº Ã²
Ã¦ Ã®
Ĕā ÂŁ
b Ã¥
Ã¨ Ãĳ
^ ā
q Âª
ÂĿ .
ÂĨ Âŀ
Âĳ Â§
Ġ K
Â¬ Â·
ÃµI Ã¾Ã¨
R u
h Ã°
Âķ }
M Ãļ
\ *
@ Â·
Ė Âĸ
ÃĮ Ã¾
Z Ã¡
Ãħ ÃĪ
ÃĤ g
Âĩ Âİ
b Q
z H
Ã¬ L
Fi h
9 Â¼
Ã´ Ãĳ
h v
Â¢ Âī
Âĵ ā
ÃĹ +
G ÃŁ
ÃĬ D
Ãĥ Ã¨
đ ĕ
ÃĶ k
ÂŃ Â®
w H
A Âº
Ãı T
ÂĻ ^
Ãª Ãĳ
Âģ ]
ÂŃ ć
Ã¢ Ã¼
Â¢ÂĢ Đ
Ãº ÃĻ
\ >
ě Â«
o Ãī
ĂÂĴ ÂĸÂĴ
I g
ÂŃ Â¯
Ãģ ÃĮ
Ã¸ ÃĢ
O Ãł
Âĩ ~
Q ÃĻ
đ `
ÂĻ Âĸ
ÃĲ X
Ãľ Ã¾t
ÂĪ Â»
ġÂ¸ ?Âķ
Ãį Ã»
Ãĥ y
w y
Q Ã«
ÃĲ ÃŃ
z k
Ãı ÃŃ
ÂĦ Â©
_ Âľ
Â¸ -
$ Â¡
ğ ğ
Â· ÂĤ
Â¶ Â¯
l ÃĮ
Ãľ X
Â¢ÂĬ(ĀÂ¢ÂĬ(ĀÂ¢ÂĬ(ĀÂ¢ÂĬ(ĀÂ¢ÂĬ(ĀÂ¢ÂĬ(ĀÂ¢ÂĬ(ĀÂ¢ÂĬ(Ā Â¢ÂĬ(Ā
đ '
Ġ Â½
ÃĦ Ãĺ
ÂĽ ĕ
ÂĨ :
? Ĕ
ÃĴ J
ÂĦ &
Ē ,
đ Ĉ
Ãĸ Ãī
Ãĩ t
Â£ [
\ Â»
ė Âķ
Ã² J
Âĥ ć
v hÃį
ą ~
Ãĩ w
Â© :
Âº Ã¾
C Ãķ
Âĵ Â¯
f Ã®
# [
Âī ]
a i
ĝ ÂĤ
h Ã«
ÃĹ ÂĴ
Ã¢ P
Â° [
ÃĽ P
O Ãī
Âģ Ć
ÂĪ Â«
Âį Đ
Âı ě
ÂĶ Â¡
ÂĹ Â¥
Ã° ÃĪ
L Ãİ
Ã¶ c
Âª e
ÃĢ I
F g
ÃĶ Y
` Ě
Ã© v
ÂĬĀ (
Ã§ D
Â± Ĉ
ĀÃĹ Â©
: _
ÃĳL Ã³
Ĕ +
Â¸ Âĥ
% ď
Ě +
m E
Â° ÂĢ
z B
Â± ē
Â¯ Âľ
C C
% Ć
Â¶ Â¬
ÃĴ s
ÂĦ !
ÃĬ Ã¼
Â± Ă
Ã· ÂĶ
' +
ÃĬ Ãŀ
Ãĸ Ã¬
Ã»ÃŁ ÃĴ
\ Âĩ
Ã© Ã¹
Âį Ĉ
Â¡ Â´
l OÃ®
Ãļ Ã¥
Âİ "
Ã« Ã¨
Ãļ Âº
e Ãł
{ ÂĽ
ÂĢ Âĸ
Ãħ Ãİ
Ãı u
ÃĹ `
f q
t Ã¸
Âĺ Â´
Āĕ ^
Q FÃ¡Ãª
ÃĻ Ã»
^ ÂĮ
ÂĲ !
e g
Â® ÂĹ
n Ã¸
ÃŃ Ã½
ÂĬ -
ÂĴ ÂĤ
Ãª Ã¥
& ,
Âı Ğ
Ã« Ã¹
% =
Ãį ÃŁ
. ÂĤ
{ ÂĹ
Ã· Âĥ
ÃĲ Ã¹
Ãī Ãĺ
Ãľ Ãģ
Â± )
Ãĳ ÃĢ
U ÃŁ
Â± đ
} Â·
U Ã©
9 3
ÃĻ ÃĦ
e K
x Ã¡
ď .
Z Ã²
Â¡ ē
r Ã±
Ãĭ Ã¨
ć )
Ãĵ Ã¶
, Ą
T Ãĥ
v N
Âį '
{ Ă
Ã· ÂĴ
f D
ÃĻ Ãª
ÃĶ H
ÂĪ <
` ÂĨ
Ãķ Ã¤
- Ă
Âį Ē
Ãŀ Q
` Â®
Ď ÂĽ
ÃĴ Ã¯
Ě ē
ÂĪ Ĉ
s s
ě đ
Ĕā %Ĕ
; >
b Ã¡
Â¤ Â¯
Âı Âļ
Âİ Đ
Âľ *
K z
ą -Ĕ
ÃĻ y
Ĕ >
Â¤ Â¢ÂĬĀ
h F
Ãĸ W
ÂŁ Â®
( ÂĻ
Ãĵ ÃĢ
ĀĚ <
Ã©F O
Â© }
& ]
Ã§ B
Ãī v
Ãį Ã¶
ě \
| Ĝ
ÂĢ ÂĶ
V q
Âĭ Ĉ
l Ãħ
Ãĸ B
Â¶ đ
ÂŁ >
L J
Ãĳ B
Âĩ ĕ
Đ Âĸ
Ãį Ã½
Ã¥ ÃĦ
Âĺ *
Â¶ !
ÂŃ Â¡
Âī Â®
M Ã¨
Ã´ Ã½h
Ã® w
GÃ¥ N
% Âļ
Ė )
ÃĶ Ã«
Ãĸ Ãĥ
U ÃĦ
Ãĳ Ã´
L Ãī
g Ã¨
Â¢ \
Âĥ đ
ğ "
_ ^
} ąĀ
Ã£ j
Ã¶ Ãº
Âģ &
% ~
M d
Ġ x
ÂĿ Ď
Ĝ ?
Â¢ +
Âķ Â¦
u j
Ã¶ d
ė Â¶
ÃĽ d
ÂĢ ÂĬ
, Â¯
Ãŀ x
Âĭ ;
T Ã¨
ďÃ· Âį
ÂĹ Âŀ
Âķ Â¬
ÃĤ O
X X
Âĥ Đ
Ãĸ ÃĲ
ÃĽ Ãª
e ÃĦ
ÃĨ Ã½
Ã· Âĳ
ÃĿ z
ÂĨ /
K A
Â³ Â½
) Âļ
L Ãª
ÂŁ Ĕ
ÂĲ Âį
Ã¶ s
! ^
ÃĿ Ã®
Ġ M
ÂĬĀ Âĵ
Ã¢ Ã¦
# ^
C Ã®
Â» Â¥
ÃŃ s
Ã½ p
< Âī
ÃĤ Ãĳ
Â¶ Ē
Âı Âŀ
Ãĸ O
ÂĬĀ Â©
` /
f N
Z ÃĢ
ÂĽ Đ
< )
Âĥ ě
ÃĬ g
ÃĽ Ã¾y
Â¬ đ
> Âĭ
> ÂĲ
ÂĪ )
m F
Ãĩ F
Âĥ ÂŃ
Ãį Ãİ
P U
Âĥ Ď
ÂĿ ÂĶ
Ã³ r
h G
ÃĤ D
Ã¯ Ãĭ
Â± ė
ÂĹ ÂŃ
m Ãĵ
Âº V
Ã¨i i
ă ÂŃĀ
Ãį Ã¼
a ÃĻ
Ãº Ã»
Â° ÂĨ
W O
Ãķ S
Ãĳ Ãģ
Ã¾t y
Âĵ ē
Đ ē
M c
N Q
r Ã´
Ãĩ u
Â¶ #
ÃĽ Y
H Z
Â± Ć
ÂĽ Ě
Â¸ Â¢
ĝ ě
ÂĬĀ Â§
f Ã¾
f k
Ã¢ Ãľ
Ã¡ Ãĵ
Ã¼ S
Âĵ =
Â¦ ^
ĀÂŀ ÂŃ
Â· Âĥ
Ãŀ V
Â¯ ~
Ãī i
ĝą -
e Ã©
Ã¢ M
Đ đ
Ãª Ãª
ÂĤ _
Âĺ Ą
Ãħ ÃĿ
ÃĻ Ã«
P Ã¦
W Ãį
Ę ÂĦ
Â¦ Ğ
Ē Â«
Âĸ ą
f Ãº
r Ã¥
ě "
X B
= ÂĮ
Ę +
Âĳ ^
Âİ <
] Ĕ
ÂĹ ė
9 0
Đ |
ÃĨ S
Â£ Âĩ
I k
Ã£ c
Â° Âŀ
Ãĳ h
Ãļ ÃŃ
8 0
Ã¢ Ã¡
< [
ÂĢ Â¡
ÃĶ B
ğ &
Âĺ Âķ
ÂĪ }
Ã¼Âª j
d Ã¬
Ã² Ã¬
Ď Â¡
q Ãķ
Ãº Ãĺ
u v
Ę ÂĿ
ÂĹ ą
f ÃĴ
ÃĹ Â¨
Ĝ ÂĽ
ÃĮ Ã¨
Â¥ ÂĿ
Ãĸ Ãĩ
ğÂķ ğ
ÂĤ "
` !
` Âķ
w Ã°
Ę Â¸
Â· {
Ã¢ R
; ÂĦ
ġ Ğ
m A
ÂĲ &
ÃĢ y
Ã® Ã¬
Âĭ |
ÃĽ k
Â¢ }
, #
a ÃŃ
ÃĶ Ãİ
ÂĶ +
ÂĹ &
ÃĹ Â¶
S j
Ď ÂĶÂ´
Ãĵ W
ÃĲ Ãľ
ÂĪ Â¸
o V
, Âľ
Â¨ }
l Ãº
* Ě
ė ÂŃ
Ã§ Ãħ
ĂÂĸÂĴ ÂĬĀ
Ã¯ Ã¦
ÂĴ Ą
D ÃŁ
Ď +
Ã¸ O
ÂĨ {
g E
ÂļÂĬ Âĩ
a Ãĭ
Ē Â»
Â¨ ÂĢ
ÂĲ #
Âİ ]
@ Âĸ
Ãİ Ãİ
Ã¶ Ã¾
Ã® Ãª
ÂĲ /
Ãļ j
Ă Ã·
ġ Âĸ
Âĵ |
ā ÂĦ
ÃĿ U
ÃĻ ÃĻ
Ãı Ã¬
, $
@ Â±
Ã¨ Ãĭ
Ãģ Q
Ã¢ b
' Âį
H Ã½
Ãį Ãĺ
ÃĤ Ã¾
z e
G ÃĶ
Ãĸ L
O I
Â¯ %
ÃĲ Ãĥ
Ã¡ f
Â¢ ?Ã·
ÃĪ x
đ Â¤
Ã¢ Ãļ
Ãİ Ã³
. Â§
] Ĉ
Ãĵ l
Â¡ Âľ
Â¸ Ć
Âĭ Â©
ÂĬĀ ~
Âİ Â®
ÂĹ Đ
ě ÂĦ
. Âĩ
Ã§ m
Ãĸ n
ÃĦ B
q Ã£
G F
Ãį Ãµ
, Đ
p Ã¦
y Ãĺ
/ *
ā :
Ãĥ ÃĲ
) }
p d
Â¶ <
Âĭ *
(ā ÂĽ
a m
Â° Âī
Ē ĝ
Ã² w
ÂĹ ē
ÂĪ '
M Ã£
} ā
Ãŀ ÃĪ
o Ã¬
Â£ Â«
Ã¯ d
] ÂĿ
! ÂĿ
[ *
oÃ» Ãª
P Ã¡
Ã· (
U J
a Ã¸
ÃĬ Ã½
, ÂĲ
Ãĵ X
Ã² v
w E
Ãĥ b
Âİ &
| ÂĨ
l Ãĭ
" ė
Ãĳ Ãĭ
j Ã°
Ġ Â´
Ã© Ãľ
Â¿ ď
k Ã¼
Âĩ Âľ
Ĕ #
O u
ÂĽ *
Ā| Âı
Âĥ Âį
Â¬ )
Â» %
q ÃĻ
ÂŃ Âĺ
Ė Â¶
ć (
ÂĶ Âī
Ãº Âª
{ Ã·
ÃĦ Ãª
đ Ă
đ ĝ
ÃĿ Ãĸ
-% ĀĔ
ÃĬ ÃĲ
Ãĳ Ã¹
Âĸ ĕ
Ē Âķ
Ã² B
D Ã¡
M Ãİ
ġ ÂĢ
Ãĳ ÃĲ
) :
Â¬ Âŀ
Ā^ Âı
Ã¼ Ãİ
Ã» Ã¯
Â¬ ÂĤ
Ġ [
Âĭ ă
Â® Â¦
Ā (Â¤
ÃĢ h
Â± ÂĻ
ÃĮ E
( Âļ
' ÂĨ
Â¢ -
Â¥ ÂŁ
] Âķ
Ã¼ L
Â« Â£
N Ã¹
_ %
Ãĥ Ãĭ
Ã¥ ÃŃ
Â¡ *
" ā
I W
X G
l h
_ ÂĲ
ą ÂĴ
m Âº
Y Ãµ
* Âļ
T ÃĦ
s Ãĳ
Â¤ Â¢ÂĬ
c G
$ Ě
Âĵ Â§
Âĺ ě
Ĉ Â»
Ãł Ãĩ
Ãŀ U
; .
A ÃĤ
Âĵ Â¨
ÂĨ ~
ÃĲ Y
Â® ğ
ÂĹ ā
x v
Âĳ Ă
Ãļ Ã¹
Ã¶ t
Âĵ \
ÂĴ Âŀ
ÃĹ .
Â¢ >
Ã§ C
Â¯ Â±
Âĥ &
X R
Â¢ Ĝ
{ Â¶
_ Âĸ
ÂĬ Ĝ
Ãļ S
{ ĕ
Â° ÂĪ
l J
Â¢ Â»
Ã¼Ã¨ Ã²
QM Ãľ
Ã¥ Ã½
Ã° ÃĬ
( Âŀ
Ãµ e
Â´ &
Â¡ ÂŁ
Â® <
Ãĵ f
Ã¡ Ã¶
ĀÂ¸ ġÂķ
w Ã¹
Ãı D
| Ã·
ÃĨ Ã¼
ÃŁ e
` Ė
ÃĻ m
` Âĩ
Ĉ ÂĤ
ÃŁ m
Âģ ă
Ãĺ Ã¯
Ã¾ k
ÃĦ E
Ãį ÃĬ
ÂĨ Â«
Ĝ ÂĬĀ
$ &
A k
Ã¬ B
ÃĤ ÃĢ
s Ã§
[ Â£
D Ã¨
M w
Âµ x
Â° ÂĤ
Âĭ Â¯
( ÂĪ
Ãŀ e
X y
ÂĬ ĝ
] ė
Ãģ U
ÂĿ &
Ę /
Â® Âļ
Â¸ @
Âĸ Âį
a Ã¤
Ã¾ ÃĢ
ÂĦ Ã·
Ã³ Ã¶
Ã° Ã¢
- đ
Âķ ÂĴ
F Ã´
ÂĦ ^
Ď (Ă
T j
L Ãĭ
p Ã²
Âµ ÃĪ
Ãµ Ãĭ
Ãį Ãļ
ÃŁÃŀ Ã½
d x
ą Â©
Â¿ ~
Ã»Ã« Ã¹ÃĲ
E Ãª
Ã¶ Ãľ
: Âį
d Ã¡
ÃĻ S
Ã® Ã«
ġ: >
Â· }
Â¢ÂĬ(ĀÂ¢ÂĬ(ĀÂ¢ÂĬ(ĀÂ¢ÂĬ(ĀÂ¢ÂĬ(ĀÂ¢ÂĬ(ĀÂ¢ÂĬ(ĀÂ¢ÂĬ(Ā Â¢ÂĬ(ĀÂ¢ÂĬ(ĀÂ¢ÂĬ(Ā
z a
ÂĲ ÂĿ
Âī ÂĿ
Ã£ ÃĪ
Â¥ Â«
Ē ě
Â¶ Â¤
l Ãı
d k
ė ÂĶ
Âŀ |
K B
t X
Â´ #
Ġ Â£
Y Âµ
ē Ą
> }
ÂĴ ÂĸÂĴ
Âĩ ^
ĀÂŀ Â§
ÃĨ L
f Ã½
Ã¡ Ã½
ā Â¯
Ãİ ÃĤ
' t
Âģ Â©
ÂĽ Â¦
E ÃĶ
ÂŁ &
Âį đ
= #
ė Â¨
ÃĢ o
Â¶ -
] ĝ
Ã¾Ã¹ Ã¼
Ãĵ Ã¡
Ã¨ ÃĪ
Ē Ğ
ė &
Ãĥ ÃŃ
Âĭ ĝ
ÂĤ Âŀ
ÃĻ ÃĶ
Ãĭ Ãŀ
Ãº e
ÂĴ Âĸ
Ã³ y
Â¿ Âļ
Ãĸ p
Ãĺ O
Ã® Ã½
t p
w C
Ā Â¢ÂĬ(ĀÂ¢ÂĬ(ĀÂ¢ÂĬ(ĀÂ¢ÂĬ(Ā
Âľ Â§
! Ã·
* Ã·
Âĭ Ą
Ġ Ãŀ
ÃĦ Ã¹
Âĩ -
[ ÃĹ
Ĕ ;
, ^
ÂŁ ę
Â¥ Â®
Ãµ l
r Ãİ
Ġ Ã©K
Ãķ Ã£
Ã» Ã³
Ā% -Ĕ
a f
Ġ O
x Ã°
Â¨ ÂĨ
[ %
ė ď
( |
Ã½ KÃ¿
đ ď
B D
c Ãĥ
M ÃĪ
ÃĹ /
ÃĽ Ã¨
Âŀ Ė
Âª h
Â¬ ÂĹ
Â· "
Â¡ &
k Ãĭ
` &
Âĸ Â±
ÂĪ ÂĻ
Ãĵ Ã¹
Ã½Ãĳ Ã¹S
P Ã¥
! Ć
Ã§ y
= $
GÃ¥ G
Âİ Â«
ÃĻ f
ÂĤ ÂĤ
Ã¸ E
Ğ Ę
ÃĿ Y
Â¸ Âĩ
Ãģ W
p Ã©
Z ÃŁ
Âµ ÃĨ
Ãķ ÃĦ
( Ė
C Ãİ
u A
~ ÂĦ
Ãĩ Ã¶
Ã¡ e
M Ã¼
Ã¹ Ãĭ
Âŀ Â¡
Ãļ Ã¦
(Â¢ÂĬĀ(Â¢ÂĬĀ(Â¢ÂĬĀ(Â¢ÂĬĀ(Â¢ÂĬĀ(Â¢ÂĬĀ(Â¢ÂĬĀ(Â¢ÂĬĀ(Â¢ÂĬĀ(Â¢ÂĬĀ(Â¢ÂĬĀ(Â¢ÂĬĀ(Â¢ÂĬĀ(Â¢ÂĬĀ(Â¢ÂĬĀ(Â¢ÂĬĀ(Â¢ÂĬĀ(Â¢ÂĬĀ(Â¢ÂĬĀ(Â¢ÂĬĀ(Â¢ÂĬĀ(Â¢ÂĬĀ(Â¢ÂĬĀ(Â¢ÂĬĀ(Â¢ÂĬĀ(Â¢ÂĬĀ(Â¢ÂĬĀ(Â¢ÂĬĀ(Â¢ÂĬĀ(Â¢ÂĬĀ(Â¢ÂĬĀ(Â¢ÂĬĀ (Â¢ÂĬĀ(Â¢ÂĬĀ(Â¢ÂĬĀ(Â¢ÂĬĀ(Â¢ÂĬĀ(Â¢ÂĬĀ(Â¢ÂĬĀ(Â¢ÂĬĀ(Â¢ÂĬĀ(Â¢ÂĬĀ(Â¢ÂĬĀ(Â¢ÂĬĀ(Â¢ÂĬĀ(Â¢ÂĬĀ(Â¢ÂĬĀ(Â¢ÂĬĀ
Âİ ĝ
> {
V ÃĲ
Ē Ą
ÂĤ <
( .
} ÂĢ
Â¢ Ď
ÃĹ %
đ Ą
Ã³ Ãĭ
Âº e
H o
ĔÂ´ ÂĶ
Ãµ Ã¾Ã°Ã¼Ã¨
Âį ^
Ã· +
ÃĽ Ã¾x
E y
Ãº l
I ÃĬ
Y f
Ĉ Â±
Ã¥ g
Â¬ +
ĔĀ ÂĮ
ę Ă
ĀÂŀ đ
ğÂĿ ğ
Ã½Ã¯ Ã¨
ē ē
ÂĪ Âķ
` Âī
Â¶ Ė
w D
Ĝ Â»
Ãı Ãł
Âĺ !
Âº n
Ãĸ Ã§
Âª S
( ą
Ā< Âı
Â´ @
ÂĤ #
Âģ ā
ÃĻ Ã¯
Ã¦ Ãģ
ę Ē
Ğ Âĭ
~ Âŀ
Ãħ Ãĭ
f Ã¶
l Ãĺ
Ć /
Ãº i
' Ē
Ãķ Ã¨
Ã¾ ÃĦ
Ãħ Âµ
( (
ÃĴ p
Ãİ ÃĬ
ÃĶ J
z h
Â¡ ^
D Ã®
t Ãĥ
ÃĢ M
P Ãı
ă ÂĦ
Âĥ *
ÃĮ Ã¡
ąÂ¢ÂĴ ÂĸÂĢ
U Ã¡
Ãº Ã®
ą ÂŃ
ÂĮ Â¦
Ã¥ Ã¢
[ Ď
c x
ÂĿ Ė
N Ã¶
Ğ ÂĬ
Â¬ Ã·
` ÂĦ
Âº Ã¬
Â§ @
Âŀ /
z E
ÂĮ ÂĽ
ÃĬ i
Ã© p
ÃĻ l
Â¢ ÂĸÂĬ
ÂĮ +
Ě ğ
Ãĸ S
ÂĪ Â·
s ÃĤ
Âł Ċ
ÃĴ ÃĢ
ē Â©
(Â¢ Âļ
U L
? ÂĽ
Âľ Â¸
Ãĭ N
Ã¬ Ã¯
Ã° ÃĽ
Ě -
g x
_ <
Ãģ f
ÃĤ Ãľ
` <
ÃĶ Ã¼
~ Ć
ÃĬ n
Âĩ Âŀ
Â¢ÂĬ(ĀÂ¢ÂĬ(ĀÂ¢ÂĬ(ĀÂ¢ÂĬ(ĀÂ¢ÂĬ(ĀÂ¢ÂĬ(ĀÂ¢ÂĬ(ĀÂ¢ÂĬ(Ā Â¢ÂĬ(ĀÂ¢ÂĬ(Ā
Âľ ÃĹ
I j
Ãº Ãł
' d
ÂĪ Ą
: ;
ÃĢ F
* Ą
Ě #
Ãģ Ã¾Ã±
(ā ÂĶ
ÂŁ ÃĹ
D M
[ !
u i
Â« Â¬
Y R
Ĉ )
Â¢ ]
ÂŁ ;
Ã¡ Ãļ
Ãĭ T
Â¢ #
ÂĮ ÂĻ
w Ã¤
(Â¢ÂĢ )
Â¶ Â¥
j Ã¼
Âı ÂĴ
Ã¶ S
\ Â£
| ÂĿ
Ãĸ Ã«
` Âļ
Âľ Ĉ
Âĭ }
cÃľ ÃĲ
? Â¨
Ě ;
ÂĹ Âĸ
K Ãı
Ãį Ãħ
ÂĦ >
ę Âĥ
ÃĦ Ãľ
: .
Ě '
ÃŁ Ãĩ
O Ãĥ
ē /
t Ã®
đ *
Ã¢ T
x u
ğÂķ ěė
ÃŃ Âº
Âį Ć
Ãł Ã¹
ÂĹ "
r Ãµ
V ÃŁC
J Ã«
ÂĿ !
Â¤ Ě
Âİ Âĭ
ą Â«
Ā] ė
$ Â«
k Ã¨
t h
Ã¯ X
g L
ÃĬ Ã¨
ÃĹ Â±
' Ă
Âĸ Â¶
Đ Âķ
Ã»Ãĩ Ã²
Ãº ÃĪ
ď !
Ã¬ Âª
Âļ Ğ
Â° Â°
Ã» q
Â¿ Â¡
ÃĴ q
Ã¡ ÃĲ
ÃĽ Q
ĀÂ® Âĭ
Ę &
z I
Ãĸ C
Ãĭ ÃŃ
ÃĻ Ã¨
Â¿Ã· ÃĹ
Ãº m
D Ã°
o Ã©
{ ę
] ÂĲ
Âĺ /
Âİ \
( ÂĤ
O k
Â¨ ē
Âº Ã¦
Ãħ Ãĺ
K ÃŃ
Ãŀ w
Y Ãĳ
Âļ ĀÂŀ
ÂŃ Âĩ
Ę ÂĽ
Ãµ v
Â· ÂĢ
B M
ÃĴ N
Ã³ e
Â¶ ě
ÂĸÂĬ Âĭ
A i
Ãĭ ÃŁ
Ãĵ ÃĤ
, Â¢
Ā Â¥Ā
ÃŃ Ã¸
" ē
% ā
Ãŀ k
Âľ !
X C
Ĉ ÂŁ
Â£ Âī
Ãĸ Q
d ÃĤ
đ Â¦
Âģ ÂĽ
I i
a Ãķ
g S
m S
Ã¢ Ã®
ÂĩÂ¥ -!
Âķ +
Â¯ ě
Âĸ Âĸ
= _
ğ Â¦
ĔĀ Âĺ
Â¥ Â¡
Ãĵ R
Âµ Ã¤
Ãī ÃĬ
Ãª Ã§
Ã¶ Ãĺ
G Ã¸
oÃ® Ã¾
Ĉ Âķ
đ )
Ã¶ Ã½
oÃ» Ã¦
Ĝ ĝ
Â» +
# ÂĻ
W Ãİ
h Ã¬
[ ą
ÂĢ Âĺ
Đ Â¿
\ !
h u
ÃŁ ÃĪ
Ā] ć
Ď Â»
ĝ Âļ
Âº Âª
D ÃĤ
\ ÂĹ
ć ÂĨ
Ãį Ã«
k U
( Â¡
r Ã»
Ã¢ ÃĻ
Ãī Âº
, -
Â§ ÂĦ
| Âķ
Â» &
ÃºS Ã©
D Ã¥
Â¶ Â©
% ÂĦ
z o
Âľ Âĩ
Đ Âģ
Ā= ġ
ÃŁ G
ÂĮ =
Ď ę
ė ÂĻ
Â¤ ě
Ãĺ l
ą ą
Â¶ `
' _
ÂŁ Âģ
Ãĭ Ã®
t Ã¬
Ã½j Z
* ^
Ā] ď
Ãł zQ
W y
Ãĭ E
g ÃĲ
ÂĽ +
ÃĹ Âĸ
- ă
Ãº Ã¬
Âº w
> Âļ
l ÃĿ
ę ē
ÂĿ ;
o E
~ $
p Ãĵ
> Âį
Â¯ ÂĻ
Ě [
Ãħ ÃĽ
R Ãİ
o e
Ãĸ Ã°
Ãĸ Ãģ
Âĺ Â¡
R Ã¾
ÂĽ .
ÃĲ A
Ã¼h Ã¼h
Ã½Ãĸ Ã¼
Â» Â¢
d K
Ãķ ÃĤ
Ãŀ ÃĬ
p b
Ĉ Âĭ
Ã¦ Ã¥
G w
P Z
& ÃĹ
ę ÂŁ
: Â¢
Â° Âĩ
Ē |
Ã» Ã¡
W Ã±
m Ã½
Ã¾Ã¨ Ã¾T
T C
T x
Ã¹ B
ÂĶ ^
ÂĹ Âĥ
ÃĮ Ã¦
ÂĽ `
M Ã½
W g
Â¬ ă
Â± ÂĦ
Ã¯ Ã§
ÂĢ Â¶
ÃĹ Ė
Ā} ġ:
ğ ÂĴ
Ã¤ Âª
Âĸ ā
Â¥Â¢ÂĢē ÂŁ
q h
ğ =
Ãĥ ÃŁÃ²
Ã¤ Ã¬
A Ãķ
Â¿ ę
Ã£ t
ĀÂ® ġ
ĀÂĸ ÂĬÂĭ
Ĕ ^
ğ Â®
Ãı t
u C
ÃĲ Ãħ
{ Âį
y Ã¥
Âļ *
ÂĨ Âģ
O Y
ÃĽ Ãĥ
M v
ğ ÂĨ
Âĺ ÂŃ
, )
Ć Â±
ÃĦ Ã¼
J Ãŀ
Ĉ ÂĨ
ÂĿ ÃĹ
Ã¹ Ã°
ÃĢ ÃĤ
w V
Âĺ Ě
@ +
ÃŁ Ãį
o u
% +
Ē Â¿
Ãĭ Ã£
ÂĨ ÂŃ
Â¢ ÂĸÂĴ
Âª b
ĝ ÂŃ
Âĳ Â«
E ÃĮ
v z
D ÃĨ
[ |
ÂĪ ě
Â¢ÂĢ %
Â¸ +
Ā| ÂļĀ
Ãģ Ãĥ
ę +
Ã¶ O
ÂĤ Âĩ
F Ãº
Â¶ Âĭ
Ę ÂĻ
E Ã£
_ #
o U
ĀÂŀ ġ
ÂĴ Â©
Âµ Ãį
Âº Ãº
k W
Ā< #
Ã¦ Q
R t
r Ã½
ÃĤ L
ÂĮ ;
Â® ĕ
ÂĦ Âĩ
Ā| Ě
Âĸ }
u Ãł
Âī ÂĬ
u h
Âĳ )
! ÂŁ
Ĕ <
r Ã¡
Âĭ )
ÂĿ Âķ
ÃĹ ė
N n
G Ã«
ÃĽ l
Â¿ }
\ ÂĪ
Ãĭ B
Ã¯ w
Âĵ -
| Ď
ÃŁ Ã½j
Ã· !
Ãİ Ã¨
( &
Â¢ÂĬĀ (Â¢ÂĬĀ(Â¢ÂĬĀ(Â¢ÂĬĀ(Â¢ÂĬĀ(Â¢ÂĬĀ(Â¢ÂĬĀ
Ã¤ Âº
Y Ã®
ÃĤ i
Ãª ÃŃ
Ã½Ã³ G
d Âµ
ġ* >
Â« ÂĦ
ÂĤ Đ
Ãŀ Ãģ
ÂĢ Â¦
Â´ Âļ
Âľ #
Â° ė
ÃĻ Âº
J Ã´
Ĉ ĕ
ď /
Ã¢ Ãł
Ãķ ÃŃ
Ãĵ g
Ã¯ t
ÃĬ e
Ãĵ Ãı
ÃĬ m
Âī Â¡
ÃĿ w
Ã» Ã§Ã²
U ÃĮ
ē ~
ÃĬ OÃ®
ÃĲ Z
ÃĢ G
V Ã±
Âŀ Â»
ÂĿ "
Ė ė
Ãº z
Âģ ~
ă ^
Ã¡ Ã´
ćÂ¥ ĘĞ
L Ã¥
@ą '
ÂĶĀ ÂĶ
Ė Ē
ĕ- Ĕā
k Ã»
( Â¢Â£
k T
ÂĢ Â¯
Â¥Â¤ ĝ
. ĝ
~ Â«
Â´ >
Ãĸ i
ĀÂĸ ÂĬ(
Âł Č
[ ē
Ãļ Ãİ
ÃĶ i
Â£ Ĉ
Ãĳ s
K G
Ã¦ ÃĢ
J ÃŁ
~ Ĕā
ď +
, \
Â¶ Âĺ
Âĵ Â©
Ãį Ã§
Ãħ Ã¾Ã¨Ã¼
Âĸ Â®
@ ÂĽ
ā Â®
Ãĥ Ãª
ĀÂ¢ÂĬ(Ā Â¢ÂĬ(ā
e Ã¶
Â¢ ą
Ã£ Ãħ
ÂĿ [
Â¬ Â°
ĀÃĹ Â«
Â» ]
8 6
Ā|Âļ <
n Z
ÃĬ ÃĶ
ÂĪ ÂĬ
Ã¡ i
" |
^ ė
g T
_ Âı
ÃĨ Ã³
Ãļ Ã¼
P Ãĵ
A j
Y x
ġ Ē
Âĥ `
z ÃĪ
ÂĿ (
Ã½ w
Ãķ Ã«
Ãħ Ãį
ÂĻ Â«
$ā ÂĴ
_ Â°
* Ğ
- ÂĹ
ÂĦ [
Ãľ h
Â¤ ĕ
Ãĭ Ãĭ
' ġ
. Â®
_ Â¥Ā
{ )
: ÂĿ
Ãĵ U
ÃĴ Ã¶
l B
Âµ Âª
- ÂĽ
ÃĶI Ã¾Ã©
V ÃĦ
Ć Ė
@ Âŀ
QE Q
Âĩ Â°
m N
Ã£ y
Â¶ +
ÂĪ ė
] Â¦
Ãģ F
Â¯ Ā
Ĕ =
Âľ "
Ã¸ ÃĽ
Ā< Â¿
ě ÂĿ
ÂĢ Âį
Â¬ Â¦
o f
z y
Ãł a
Ãģ Âº
Ãį b
@ ÂŃ
O M
Ć Ğ
Ãµ Ã¼Ã¨
Âİ Â¢
Ã° ÃĨ
Ã° M
Ãĩ Ãķ
Âķ (
Âĥ ď
f ÃĮ
Âº M
Âī Â»
Ãĵ P
ÂĦ ÂĿ
v ÃĮ
Q z
Ãĩ U
Ãª D
Âį ā
Ě /
Â® +
đ ^
Âĳ (
B Ã¨
Q l
ÃĴ Ãŀ
ÃĨ R
Â¢ Ą
ÃŃ u
J Ã¾
a Z
w U
: ÂĹ
Ãĥ Âª
t E
Ã² b
Âĩ ÂĬ
w I
o ÃĢ
Â° ÂĶ
Âŀ Â¥
gÃĺ ÃĲ
c ÃĤ
Ãģ Ãĭ
P Ãļ
Âº ÃĿ
Â¡ |
ÂĦ ;
e ÃĮ
ÃĶ h
v S
Â° Â¿
ÂĻ ÂĴ
f Ãķ
Ãĥ ÃĮ
ė Ĕ
Ã¶ G
Ã¶ R
ÂĪ ē
ĀÂ® Âĥ
l Ã¼
ę Âļ
Ã¬ Ã¥
ÃĢ H
Âį =
g M
ÃĨ D
T J
ÂĶ -
Ã¢ c
Đ ĕ
ÂĢ ÂŃ
Ã¯ KIÃŀ
Â¡ ą
Ãµ Ã¤
Ė Â¬
ĀÂ® Âĩ
l Ãļ
ÃĢ A
Đ ÂĻ
Ē Âĩ
Y S
Â® ă
ÂĮ ÂŃ
Âĥ Ă
Âĸ Â§
Ãį d
ÂĶ Â§
Â¶ ē
p ÃĶ
ÃĻ Z
Ã¬ Ã¡
/ Ā
Â´Ā ÂĶ
ā= Ĕ
Ē Âĵ
j ÃŁ
s Ã¤
Âĭ +
Ġ Â¿
Âģ ,
Ā] ?
Ã§ f
/ ě
ġ Ė
Ã· \
ÂĴ ÂĬ(Ā
ÃĿ b
Ě =
u B
| |
ÂŃ Â«
Âľ [
ÂļĀ ~
Âĳ |
E Ãŀ
ÂĶ ÂĹ
Ãİ Q
ÂĿ Ĉ
\ +
Âĭ ÂĦ
= &
Ãħ Ãļ
Ã« q
Ã¢ Ã¥
v ÃĻ
d Âª
h Ã¯
g Ãĩ
đ %
Ã® D
Ã§ X
Ã¯ Ã¹Ãĳ
Đ ÂĦ
Â´ +
Ãª ÃĴ
Đ Ė
ÂĤ ĕ
Â¶ &
B Ã¼
Âĥ ~
ÂĻ +
ġ `
Ãĳ c
Ãł Ã¡
ÂĮ Â¥
Ãĳ Âµ
ÃĤ Ã³
ÂĢĝ Âļ
U ÃĲ
C f
e Âµ
Â¶ Âĩ
JZ AÃĴ
R Ã³
Âī `
ÃĻ ÃŁ
ÂĶÂ´ ÂĶ
Ã¨ Ãī
{ ĚĀ
Â° ^
u Ãº
Â£ ĂÂĢ
ÂĴ Âİ
p Ã¶
Ã¹ Ãļ
ÂĻ *
Ã¨ Ãİ
Ã¼ s
v T
I t
ÃĪ o
ÃĤ p
Âĵ %
ÃĹ Ď
Ė Âļ
Âĺ {
s Fh
Ã¤ ÃĿ
(Â¢ÂĢ đ
] }
$ Â£
V Ãĵ
O T
Âį ġ
Âĸ [
A X
đ Âĭ
t j
G Ãł
] -
Ė Â·
W Ã§
Â° ÂŃ
= !
Â¸ Ĉ
Â® Âı
Ã¶ ÃĿ
ė /
Â® Âģ
Ãī V
ÃµO Ã¾Ã©
Â« Â¤
{ Ā
. ÂĢ
_ Â¿
đ ă
% ÂĿ
ÂĻ `
Âĥ Â¯
x w
+ -
Ė Âį
Â¥ ÂŃ
Ã¼ B
# Â»
u Y
r Âº
ÃĨ Âº
Ã´ c
Âķ Âŀ
Âī ;
Âĳ :
W F
ÃĴ Y
Ã¯ Ã¨
ÂĻ Âŀ
Ę Â¯
Ã¢ N
Â¸ /
Ā< Âĩ
! -
i g
Ãĥ f
ÂĮ ÂĬĀ
Ãĸ ÃĢ
Ãª Ãł
Ã° ÃĻ
Â° %
r Ãķ
Ãª Ãĭ
) ÂĿ
Ãĥ a
_ Âĵ
ÃĴ z
M a
ą Âĸ
Ã¤ ÃĬ
~ÂĶ Â´
P Ãİ
C j
Ě Ğ
ē Â¨
B Ã¾
P Ã±
ē ď
Ę Âĩ
p Ãķ
Âķ Â©
i x
Ę ÃĹ
Ã» Ã¼
Q Ã¹Q
$ Â§
` +
ă ÂļĀ
Âĺ ÂĿ
Ā} ÂĬ
Đ ě
Ã´ f
Â® ÂĮ
Â¶ Ĕ
Ĕ ÂĶĀÂ´
b o
ÃŁ d
Z Ã®
ÂŁ "
ē đ
ÂĽ Âį
Â« Â¥
~ &
Ãİ ÃĨ
Ãī j
v o
Â£ Ĕā
q w
Âĭ >
P a
Ė đ
Ã¢ r
ĀÂŀ ÂŁ
Â¤ :
Â¢ÂĬ @Ĕ
R Ãµ
Âľ ė
Â± ÃĹ
Ĕ %
Ã¶ F
y ÃĬ
ÂĴ ÂĦ
Ãĸ Y
ğ Âİ
Âģ %
@ Âĵ
Ē '
ÃĲ x
( ÂĦ
E Ãħ
v m
GÃ¥ FÃħ
Ãµ ÃĽ
ÃĶ Âº
Âĩ |
. đ
Ē ÂĨ
Ãĩ Ãł
Ãİ Ã©
Ĝ !
Ā= Âĵ
Âµ Ãħ
Ã° Ã½
Ā (Â¢ÂĬĀ(Â¢ÂĬĀ(Â¢ÂĬĀ(Â¢ÂĬĀ(Â¢ÂĬĀ(Â¢ÂĬĀ(Â¢ÂĬĀ
ě Â´
ÃºÃĴ Ãĳ
Ĉ Ė
Ĕā -ĕ
u Ã½
ĝ ]
@ Ćć
_ ÂŃĀ
(Ā Â¤
W L
# ė
Ã¡G Ã¡
/ %
_ +
e Ãħ
ÃĲ Ã»
ÃŁ N
C Ãĺ
_ `
f j
Ã´ Ã¥
Â® Ě
Ã± B
Ã½Ã´ i
( Âĩ
Ġ ÃĮ
# Â«
E Ã½
Ãį Ãķ
Â§ ÂĿ
Ġ Â¬
Âº B
S ÃĿ
ÂĤ ÂĦ
Ć "
Â¯ *
' ÂĪ
@ |
Ã¶ Ã³
` Â©
Ãļ ÃĴ
Ãł ÃĪ
Ãį OÃ¯
Âº ÃĦ
@ Âı
L Ã¡
Ãļ m
Ĝ ÂļĀ
oÃ¹ Ã¦
Âº p
g I
t ÃĬ
Ãī ÃĶ
@ą -Ĕ
Ãĸ Ãĵ
Ã½Ã¦ Ã¿
H Ã¸
f Ã¥
P Q
Ã« ÃºQ
Â¢ÂĬ(ĀÂ¢ÂĬ(ĀÂ¢ÂĬ(ĀÂ¢ÂĬ(ĀÂ¢ÂĬ(ĀÂ¢ÂĬ(Ā Â¢ÂĬ(Ă
Ã¶ v
Ā| ÂĬĀ
Âį Â©
ć Ă
Ãĥ ÃĪ
C Ã¬
Ě Ď
Â¨ {
c Ãĳ
ÃĻ Ã½
ÃĨ Ã¾
S g
ÂĮ !
Ãµ F
Âŀ ę
Ãĸ d
Âĭ ÂĻ
Ã¶ o
Ã® Ã©
Â° |
@ą #
Â£ ÂĪ
Ãİ Ã¾
ÂĤ Ė
I O
ė Â¸
w i
Â¿ ,
)Â» ÃĹ
< ÂĿ
Ãĺ N
ÃĻ o
ÃĤ Ãī
Ã© ÃĬ
ÃĽ Âª
h ÃģÃµ
Âĸ Ğ
Âĺ _
% {
] đ
Ãĳ r
. ē
? Ď
a e
Ã£ A
W Ã¤
Ã¹ Ãľ
P Ã´
ÃĦ o
Â· ÂĦ
> #
Â° !
Ã¬ Z
Đ Â¡
Ĕ &
Ã¨ Ã¢
Ã© c
Â¢ "
ÂĽ ÂŃ
Ãĥ Ãī
h s
ÂĹ Â¡
Ã« IJ
Ãĭ ÃĬ
ĀÂŀ Â£
Ã¥G Ã½ÃħÃ¼
Ãģ V
. ^
ē Ć
Ĝ Âĭ
ÂĴ Âı
(Â¢ÂĢ ĖÂĬ(
@ė Â¨
Ã¡ D
Ã¡ Ãº
' ą
Ãİ Ãļ
Ãŀ Ã¸
f w
ĕ Â®
ÃĻ ÃĲ
W Ãı
Ĝ Â¸
Ã° Ã¦
ÃĦ ÃŁ
ÂĤ ÂĻ
Â¦ Ã·
Âī ÃĹ
Ã» j
T N
Ãı xÃ¿
Ã½Ã¡ Ãµ
Ãħ Ã¹
Ã« GÃ¶
h q
ÃŁ Ã¾Ã¹
ÃĴ ÃĤ
Ãĸ s
>Â´ `
v j
Âĵ Đ
ÃĶ j
ÂĮ ÂĹ
Â´ Ć
Ã° Ã´
Ãĵ Ãİ
Âķ Ă
ÃĴ W
= ĀĔ
Â´ %
Â° Â¢
u O
Âľ $
ÂĬ} ĔĀ
Âĥ >
ÃŁ Ã½z
ÂŁ ÂĪ
ÃĢ O
w Ãł
(Â¢ÂĬĀ(Â¢ÂĬĀ(Â¢ÂĬĀ(Â¢ÂĬĀ(Â¢ÂĬĀ(Â¢ÂĬĀ(Â¢ÂĬĀ(Â¢ÂĬĀ (Â¢ÂĬĀ(Â¢ÂĬĀ(Â¢ÂĬĀ(Â¢ÂĬĀ(Â¢ÂĬĀ(Â¢ÂĬĀ(Â¢ÂĬĀ
Ã£ x
Ãº ÃŃ
Ãĩ V
(Â¢ÂĬĀ(Â¢ÂĬĀ )
Â© (Ă
ÂĲ ÂŃ
Âĭ Â¡
Ãµ m
Q ÃĦ
[ ā
ą Ē
< -
>Â´ Â´
K Ã´
Âĵ ď
Ãĸ Ã³
ē Â¡
d N
Â¿ ^
; ÂĿ
ÂĪ "
Â° Â¡
Â¿ =
n J
' !
ÂĢ Âĩ
b Ã½
ÂĽ )
ÃĢ Ãĺ
P Ã¾
ÃĮ Ãļ
Ã¥ Ãŀ
ē Ă
ÃĪ m
ÃŃ Ãķ
{ ÂļĀ
Ã® Z
Ĝ :
đ ÂĦ
Ã¹ D
Ãĭ Ãĺ
Âĭ [
Âį /
] Â¯
Ãª Ã¢
Â¢ÂĢ "
! .
' .
N e
] Âľ
Ã² Ãŀ
ÃĦ Ã¾Ã°
Ã´ ÃĬ
ÂĨ Â§
\ _
z M
ÃĲ Ãģ
@ą %Ĕ
Ãĵ Ãĥ
Ãª e
Ę Ě
Ã½ Ãį
ÂĨ Â©
ė ~
Â® |
Â¬ "
Ė .
Âķ Â¯
Ā| ÂĬ>
Ã¦ K
ÃĨ Ãı
Ē Âİ
< *
Âģ *
Ãĸ b
) (ā
Ã¶ w
= ĕ
U j
] Âĵ
? ~
ÃĹ Â©
ÃĨ Ãĭ
ÃŃ g
ÃĢ ÃĦ
Ã¬ Ã´
v Ãķ
ÂĽ _
oÃ¹ Ã¸
a Ã®
Ã© j
{ Â°
Ã§ g
Ãī O
i Âº
ÂĨ ÃĹ
A y
d Ã¥
Ĝ Â¦
' ~
N Ã¼
Ė ÂĶ
Âĸ Â¦
, %
Âĸ .
GÃ¥ FÃķ
Âį ć
ÂĽ Â¤
Đ ĝ
Ė ÃĹ
ÂĻ Â¡
ĂÂĬ) (ā
Ã¤ Ãĭ
{ ÃĹ
Z Ã³
Â® Â¯
ÂĦ +
ÂĤ Â±
! Â¦
` ÂĿ
b ÃĤ
Âİ }Â©
Ãľ Ãı
Ãķ t
ÃĻ M
d ÃĦ
- [
Ã« r
X L
Âĸ ė
Ę >ÂĨ
Ã¬ Ãµ
N ÃĬ
l Ãį
?Ã· Âĩ
A h
Ã« Ã»
Ã¶ V
ÂŃ ÂĶ
Ãĳ ÃĤ
Ã© n
Â¶ ÂĻ
Ã© ÃºÃĲ
Âļ (ā
ÂĮ "
Ġ ÂĽ
ÃĢ L
Â¢ÂĬ(ĀÂ¢ÂĬ(ĀÂ¢ÂĬ(ĀÂ¢ÂĬ(ĀÂ¢ÂĬ(ĀÂ¢ÂĬ(ĀÂ¢ÂĬ(ĀÂ¢ÂĬ(Ā Â¢ÂĬ(ĀÂ¢ÂĬ(ĀÂ¢ÂĬ(ĀÂ¢ÂĬ(Ā
, ē
Ãģ m
Ě ę
b Ã¼
Ã· %
ÃĻ D
Ã© ÃĤ
Â¿ Ę
a Ã§
Â¶ ÂĽ
ÃĿ Ã¢
Ã¨ ÃĮ
' m
N Ã½
& "
] Ā
ÂĦ ÂĹ
ÃĲ e
Ãļ Ãı
U Ã¸
Ã¼ K
Âĺ Â¯
Ã¦ Ã³
Ãĭ K
M Ã®
Â® (Ă
Ã¼Ã¨ Ãļ
Âĥ +
b Ãı
Âĭ /
ÃĽ V
Ă Âī
Ď _
Ã² D
ÃĿ Ãº
Âģ ġ
m Ã±
ÂĪ :
ÂĸÂĴ ÂĬĀ
; $
Âģ >
x Ãŀ
Âª Ã¾T
ÃĹ ē
Â§ Â»
ÂĤ Â¿
T Ãį
Ã¨ ÃŃ
(Â¢ÂĢ ĒÂĬ(
ě -
Ě ^
Ã¨ Ã§
= (ă
Ã´ Ãĥ
Ġ :
ÂĮ &
ÂŁ Ę
| Âī
ÃĴ Ã¾
Đ Âĩ
ġ Â¡
Âı Âı
ĝ Âľ
ÃĲ Ã¥
, Â¶
Â¸ Â±
| {
ÃĴ u
Â« ĕ^
ÃĿ d
a ÃĤ
Âĵ Â¶
Â¬ Ė
F Ã½
O e
a Ã£
d zÃĴ
Â® Ą
Ć Ă
` Ą
ÃĢ Ã°
ÂĨ Â¢
Â¸ ÂĽ
Ã¢ Ãĺ
Ã¤ M
Z Ãģ
Ãī Y
s X
Â¿* Ā
ÂĿ ā
Y Ãį
Ã¦ r
ÂĤ Â¯
ÂŁ Ğ
ÃĢ ÃĮ
Âº Ãī
Q k
Ãĸ q
ÂĤ ğ
ÃĿ Ã¸
ÂĲ Âī
i Ã½
Ã¦ s
ă Âī
Âķ Â»
Ãĭ Ã«
} Âĥ
ÃĴ Ãļ
ÃĲ J
Âĸ ÂĦ
- #}
E ÃĻ
ÂĴ Â¶
- Ĝ
Ã§ Ãķ
Â¬ Âľ
Â¡ +
Ā< ÂĹ
Âĵ Ė
Â¬ '
O Ã¨
u k
Â¯ Âļ
Ã¼Ã¨ Ãŀ
ĀÂ¿ Âį
Ãĥ ÃĽ
Ã§ Ãı
Ã® ÃĮ
ÃĴ V
ē Âį
| Ğ
% Â©
Ã² Ãĸ
Âµ Ã¬
u Ã³
ÂĴ Â¢
Ãĳ Ã¬
ÃĶ C
} Âĳ
ÃĶ Ã¾T
Ãĳ t
J Ã¼
Âĸ ÂĪ
Ãı k
Ãª Ãĸ
Âģ .
ÂĽ Ć
Ãº ÃĦ
ÂĻ Â»
^ Â¦
{ ė
@Ď Â¤
zZ NÃ´
Ãī ÃĻ
[ Ě
Âĩ Âĥ
- Ā&
h Ã±
ÃĲ RÃĲ
Âª u
Đ ė
! Â§
D ÃŃ
Ã½ÃĳÃ¹Q Âµ
C b
ĀĀ `
Ąđ Âĳ
Âį Â¨
Âį Â¦
Ã© Ã°
" ^
ć Ĕā
Ãĳ Ãĺ
ÂĬĀ Â¥
ÂĻ Â®
Ãł M
Ãħ Ã»
L Ã¼
Â¯ ÂĴ
Ą ĜÂĥ
W Âª
ÃĹ &
Âµ Ãĵ
Ã¢ o
Ė ď
# :
Ãł Âª
k ÃŃ
Ġ ÃŁ
ÂĦ ĕ
ÃĤ Ãª
Âľ Ę
Âľ ÂĪ
G y
ė )
u ÃŃ
[ )
Âº x
ğ ę
ÂĶ Âĭ
Ã¬ Ãħ
Â¶ |
Â¿ Â±
Ė Â±
ę >Â¦
Âİ Âį
a Ãº
Ã¾ L
Â´ ĝ
m L
Ē Â·
Ã± Ãł
ÂļĀ \
! (
ĄĞ ÂĦ
K Ãŀ
] %
q u
Âľ Ĕ
/ Â»
Ą Ĉ
Âµ Ãİ
ă ÂĻ
ÂĹ Âģ
g B
Ãµ Ã»
Âį -
ÂĬ( Â¤ā
R Ã´
Ã¦ p
o Ãĺ
ę Ė
Â¤ ÂŃ
Ã¥ Ã¥
Â® Âĺ
Â° &
Ã·Â£ Ğ
B Ã½
Ĝ Â¢
ÃĹ Â¸
ÂĴÂĬĀ \
, "
Rd zÃĳ
W G
} Âĭ
Âİ Âģ
g Ãº
W D
Â¡ Ã·
Y Ã¹
ÂĴ Â´
Ãį Ãĳ
Ę ]
ÃĤ ÃĿ
ÃĮ Z
t G
! ė
Ã® Ã±
Ã° ÃĿ
d ÃºÃĳ
Âī Âļ
Â¢ ć
Ãµ Ãł
Ãģ ÃĤ
ÂĿ Âĵ
l E
x r
s w
Ãĳ Ã¼
ÂĲ ,
ÃĶ ÃĶP
ě Âļ
Ã¶ Ã¥
ē ą
Ãº h
Ē Â¦
ÂĤ ÂĽ
ÃĤ ÃĻ
Ãĭ D
Â° Â¯
Y ÃĦ
; ;
Â° Âķ
Ã¬ a
Ãĸ c
Ã¸ u
j Ã¹
Ã¯ ÃĬ
Y a
Ĝ Â§
Â¬ !
U Ãĳ
u Âº
Ã½Ãķ Ã¿
Âµ Ã²
Â° Â»
8 Â¼
Ã¯ ÃĶ
ÂĬĀ ÂĨ
ÂĩÂŃ ěÂĩ
Âģ Â¡
> ě
= ÂĦ
W ÃĿ
K D
ÂĢ Â·
{ [
ÂĶ :
` Âĭ
p ÃŃ
ÃĮ Ã¢
ĘÂ£ ĔĀ
Ĉ &
l N
Ã½ A
ÃĲ ÃĿ
ÂĿ Â¢
Ę @
Ãĵ u
Đ "
Ã´ cÃŀ
Âķ {
- Ě
Ğ ė
Ãª R
Ã¹ Ãĥ
$ ė
Ã« Âº
Â¢ÂĢ ,
I ÃĴ
Â´ "
C Ãĭ
ÃĢ B
Â£ \
ÃĲÃĴ ÃĴ
] ę
Â® Ĝ
Ď ÂŃ
r m
Ā\ ÂŁ
ÃĴ Ãĭ
Ã¦ N
] ā
b Ã±
ÂĤ Âĳ
] ~
Ãĳ Ã£
ÃĨ ÃĶ
ÂĪ Ė
e t
Ã© Ãĥ
Ã³ Âµ
Ã» n
Ã® Ãº
(Â¢ Â¬
$ ĕ
M ÃŃ
Ã¶ ÃĲ
$ <
ą Ã·
Ã© Ã¤
ÃĤ s
O Ã¾Âµ
Ã² C
Ã½ K
Ã¼Âª z
Âį ,
Āę Â£
F AÃĪ
Ĉ Ē
Ã³ f
Ã© Âº
% Ă
F ÃĶ
Â¢ÂĲ Đ
Â¢ Ğ
Ã¥ h
v X
Ã»Ã¨ P
Ã¢ g
> Â¿ÂĿ
~ Â¡
b Ã¬
Âŀ !
D Ã¾
L Ãľ
j Ã«
Ãĭ Ãĥ
Âĩ !
M Ãµ
Âļ +
Ãĵ k
Â¶ ĝ
- ?Â¸Â¿Âķ
t Z
ÃĨ Ã°
N S
J Ã¹
Â¯ }
Ã¾t Ãº
Ã² e
O f
Ã» Ã¤ÃĲ
Ã´ Ãķ
Âľ Â¤
# {
Âľ ć
@ąĔ ÂĶ
Ã¤ Ãı
Ã³ j
; Â®
ğÂĿ ěÃĹ
ÂĦ <
M b
Âĸ Âĭ
ÃĤ Ã½
Ãª Ã¬
ĂÂĴ ÂĸÂĴÂĢ
Ã¦ Ãº
R Ã¨
Â¨ )
Ã¹Ã¦ Ã¿
Đ !
( Âĭ
, !
Â° _
Ãĥ Ãº
} ~
Đ Â¯
ÂĻ ÃĹ
Â° Ã·
ÃĶ gÃļ
# Â´
Y ÃĮ
h p
T Ãİ
Ã§ ÃĪ
Ãģ u
x ÃĦ
Ė }
Ãª Ãİ
ÂĤ Â¦
Ğ ÂĽ
Âľ Â»
ĝ Â¥
X Q
Ã¼Ã© h
ď `
ĀÂŀ +
ġ Â¤
Ã´ Ã¸
H ÃŁtÃ½
ÂĦ Âī
Â¶ Ĝ
ÃĹ Ć
Ã¤ Âµ
ÃĽ ÃĿ
Ãĺ D
Ã£ B
m g
L Ãı
e z
ÂĪ ,
m s
Ãĸ ÃĪ
ÃŃ ÃĮ
ÃĽ u
Ãĭ Ã¸
l O
Ĕā ÂĿ
ć .
ÃŁ Ã¨
Ã»Ã« Ã¹Ãĳ
Ãĵ T
Đ <
Âĥ [
Ãģ Ãĺ
ă ÂĬĀ
Â¢ !
Ãº Ã¸
Ãļ Ãĳ
ÃĹ Â®
Ã¢ S
Ã´ e
" Ĕ
Âį ĝ
Ā? ÂĿ
$ Â¤
> (
Â¶ '
R Ãº
Ã¢ v
Â° -
Âŀ -
Ã»Ãł QÃ¶
ÂĹ ď
Ã¤ zÃĳ
@Ĉ :
Âī *
Ã¶ Âµ
ÂĴÂĬĀ ]
Âİ Ĝ
Âļ Ĝ
p Ã¼
ă Â¤
Â° +
Ã¤ ÃŁ
Ã£ Âº
Âĥ ē
Âĸ ÂĿ
: [
u ÃĬ
Ãļ Ã§
Â° Ă
u T
Ãī g
} Ę
B P
Â¡ ÂĦ
Ã¢ q
ÂĻ {
ĄÂ¢ ÂĹĔ
Â¢ ĝ
Ãĭ Ã¯
Âİ /
ÂĬ ,ė
Ã» y
J Ã½
ĄĐ Ĉ
ÂĨ Â®
Č Č
Âį *
ĕ Â¦
t Ãŀ
ÃĤ Ã¼
QH H
Âĺ Â»
W Ã«
" ě
Â¢ÂĢ Ę
Ě đ
ÂĪ !
Ãł K
? ;
Âĺ :
Ãł Ã¥
Ãı h
ÃĲ Ãĭ
C Ã©
! Â£
| /
ÂĲ Â¥
Ą ÂŃ
Â¤ ÂŁÃ·
Ãº Ãĥ
ÃĶ N
. ÂĽ
m K
Â¢ ě
ÃĤ Ãĭ
(Ă ď
Ã«K H
X l
Â¢ÂĢ ē
ÂĪ ÂĦ
Âµ Ã³
ÃŁ Ã¾z
T Ãħ
Ã» p
Ã¶ f
] Đ
Ē ÂĹ
- ;
ÂļÂĬĀ Âĩ
Âĺ %
Ã¼Ãª Z
` Â«
z ÃĨ
Ãł W
Ã¢ Q
" Â¿
Ã° Ãĺ
Âŀ Â¨
(Â¥Â¢ÂĢ ĒÂĬ
P Ã³
ÂĤ Â»
p R
r ÃĶ
L Ãĺ
Y Ãĸ
ÃĬ Ãı
ÃĬ Ãķ
Ã¬ t
Ĉ }
ÂĪ ]
D u
C a
Đ #
@ ÂŁ
Ã½ÃµÃ¼Ã¨ Ã³
x g
ÂĬ !
ÃĽ Z
Âĭ <
: ÂļĀ
B f
ĕ Â¨
Ãį ÃĻ
ÂĹ Â©
ÃĽ Ã§
\ &
Ğ Ĕ
Ĝ [
Ãª Ã¨
ÃĹ ÂĲ
ÃĤ Ãģ
V Ã¯
Â¶ ę
} Âĵ
Â¬ &
ÂĬĀ )
\ ÂŃ
P b
ÃĶ Z
Ã² Ãļ
Ãĳ ÃĦ
Ã« o
Ã½Ãģ Ã¼
Âµ ÃĴ
ÂĹ Âļ
ÂĿ {
Ãĳ FÃĳ
ÃĿ Ã¯
Â¶ "
Ĝ Âĺ
Ã¥ KE
Ã¾Ã¨ Ã¼Ã¨
Hz RÃĴ
c ÃĻ
Ã¦ Ã¾
Ã¶ n
Ã¡ Ãĭ
L Ã¹
l Ãª
Âľ &
( ÂĶ
_ "
Ġ Â¡
Ã¡ Ãŀ
Â§ :
Âµ Ãµ
Ã¬ u
Ãł E
g N
Ãķ ÃĮ
' ^
ė Âĥ
Ã¨ w
Â£ Ě
Â¸ Â»
Ãĸ ÃĽ
Ĉ Ě
Âª f
Ãį Ã¸
Â´ Â¥
Â° ÂĦ
x ÃĮ
ÂĤ /
Q c
g Âº
Ã§ t
ė ÂĬ
a z
Ã¤ B
ÃºÃĴ ÃĴ
ÂŁ ĝ
Ã¤ Ãħ
Ď #
] ÃĹ
Ãī L
/ Â°
ďÃ· Âı
y ÃĤ
Ã¤ Ãİ
? Âŀ
ē ÂĿ
N Ã©
ÂĿ Ć
Ãĭ C
; <
Q Ã¹ÃĲ
Ã¶ Ãļ
Ã»Ã¬ QÃ¶
X Ã¬
ÃĴ ÃĳE
Ãĭ G
L ÃĻ
w Ã«
ÂĮ _
Âĥ "
ÃĲ Ã¾t
X o
] $
x Ã¾T
A Ã¹Ãĳ
e Ã¦
^ _
Â¸ Â¡
, (
Ã¨ K
} ÂĶ
~ >
Ã¨ v
Ãŀ ÃĮ
Â· ÂĽ
Ã¹ ÃĬ
Âį Âļ
ÃŁ Ãĺ
-% -ĀĔ
Ãł C
ÃĳI Ãı
r n
Ã¡ Ã£
ĀÃĹ Â¥
Ć Â°
Ã´ ÃĤ
Ã¶ D
Âĥ ÂļĀ
ÂĪ *
Ã½Ãĸ Ã¿
ĝ Â¯
Ã¼ O
ĀĔÂĶÂ´ ÂĶĀ
Ã¨ c
Ãĸ w
Ãª Ãŀ
Â« ÂŃ
Ã¾ Ã¦
B ÃĶ
Ã¡ Ã«F
Ã¶ p
ÂĤ Â´
ÃĻ mÃ¿
U Ã½
% ė
Âµ Ã»
Đ ÂĬ
ÂŁ Âī
Â® Â¶
Ã«Ã½Ã¡ Ã¹Ãĳ
ĔĀ ÂĶÂ´
L ÃĿ
ÂĨ .
I Ãĸ
< Âĭ
(Â¢ÂĢ ĒÂĬ
m v
ć Ď
t C
$ =
Ã° Ã¼
K Ãĭ
Ď Âĭ
ĀĆ Ā
K S
Ãı H
ÃŁ gÃ¼
Ãĳ w
D Ã«
Ã¹Q Ã¦
~ Â¿Âķ
Ã½Ãĳ Ã¹R
ÂĿ Âŀ
O i
Âĳ *
. |
@ #Ą
Â¶ Â§
Âī Â´
Âķ ğÃ·ė
ĝ ę
Ãı f
Âĺ &
( ÂĹ
s l
Ã¡ Ãľ
Â» ÂŃ
Ę Ĉ
Âĩ Âģ
Âĸ Đ
ÃĬ Ã«
Âī Âŀ
Ã½ ÃĿ
Ãĵ Ãº
W Ã´
Ē Âģ
Ãĳ Ãª
Ã¢ ÃĽ
Ã½Ãĳ G
Ãĺ C
9 Â½
ą ÂĬ(Â¢ÂĢ
ÂĢ Âķ
Â¿ +
Ā= [
ÃĶS v
[ -
? Âļ
ÃĲ K
Ã¨ Ã¨
Âĥ Â®
Ãĸ Ãµ
N b
o ÃŁ
đ ą
G g
x ÃŁ
y T
Ĝ +
q i
Ã· ÂĮ
Ă Ą
Âľ \
Âŀ Â±
Â¯ Ě
ÂĬĀ Âĩ
ą Â¢ÂĬ(ĀÂ¢ÂĬ(Ā
Ãı ÃĽ
` _
Ę Âļ
Ď ĕ
ĝ Âĳ
ÂŁ =
Âĥ ĕ
u Ãŀ
ÃĤ Ãį
IJ i
W ÃŁ
[ "
ÂŁÂķ ğ
Y Ã¾
[ /
K Ãµ
Âĺ Âļ
ÃĻ i
N Ã¸
Ã¢ d
C Ã¯
Ã© GÃ¶
Ã¦ ÃŃ
Ã« Ãº
ĂÂĬ( Â¦ā
W ÃĪ
p V
Â¦ ÂļĀ
Â¿ ĝ
. ÂĦ
ē ĕ
ÃĹ ÂļĀ
Ã¬ Ã¼
Ãį a
Â¿ ĕ
m Ã¸
Ãģ B
% -Ĕ
O Ã§F
Ã¬ Ãļ
ÂĤ Âį
Ĝ ÂĹ
Âµ Ãļ
Ã¾Ãł Ã¾U
Ãĸ Ãı
[ ]
l Z
P D
Ãĳ o
ÂĤ Â¢
M y
Âĭ Â§
Ė ÂĿ
Â¶ Ă
Ã¡ FÃ¡
ÃĤ z
Ã¾Ã¨ Ã¾U
L Ãº
b a
ĝ Â®
\ :
Â¬ (
Ą Â¢ÂĬ(Ā
% ,
X QE
Âº ÃĽ
Ãİ Ã¹
Âķ :
P u
Ã· Ĉ
k ÃĽ
Ã¹ Ã¨Ã¿
Ã¡ Ã¤
Âĩ Â®
Ã¡ ÃŁ
Ãī Ãĵ
Ãĸ ÃĮ
Ã© Ãĭ
Âĥ ÂĶ
Ã³ o
Ã° Ãµ
! Â¢
Ã² Ã¯
Âĥ Â±
Ā} Â¿:
Ã½Ã² i
Âº ÃĬ
< Ė
r e
Ãĳ Ãĥ
B V
R dz
% đ
ÂĮ #
j Ã¾
p Ã¢
t i
Âĸ Â¸
; ĝ
O ÃĦ
Ĝ Â¥
ÃĢ Y
ÃĿ Ã¾Âµ
[ &
Ã½Ãµ Ã¼Ã©
Ã¹Ã¦ ÃŁ
ė "
_ !
. Ã·
ÂĹ Â±
Āġ ě
Ĉ :
ÂĦ Âĺ
Âº Ã¹
ÂĬ(Ā Â¢ÂĬ(Ā
ÂĴ ^
` ]
Â® đ
Ĕā ĝ
P f
ÂĽ Â¢
? $
{ |
Ã¨ Ã®
ÂĨ Â´
Â¬ Ē
Ã¢ Ãĩ
ÃºQ Ã¶
Ĝ >
w ÃĴ
Ã¢ Ãª
ÂĬĀ ÂĬ
Ė Ė
a u
ÂĨ Âĸ
r Ã¼
ÃĤ T
Ãı X
Ã¾ Ãŀ
Â° Âĥ
ÃĪ h
ďÂŃ Ę
8 Â²
Â¯ +
' \
, Â·
w Ã¨
Ãĺ Z
I Z
Ã® Ã¨
Ã¹Q Ã¿
Â£ ÃĹ
ÂŁ ć
ÃĬ V
E ÃŁ
ÃĴ Ãĸ
ÃĤ q
Ā} ĚĀ
ĎÂĶ Â´Ā
I D
Ãī k
w G
Ãĵ z
w Ã©
h N
ÂĿ Ã·
Â± {
Â¿ $
ė |
ÂĿ <
ÂĦ Â¸
& Âĥ
ÃĿ Ãķ
t k
} !
Â¬ ą
ÃºÃĳ Ã½
Ã¦ X
- Â¯
e Ãį
Ã¾Ã© Ã¿
Q b
Âĸ đ
s d
ÃĤ N
Âī ^
\ $
} ğ
ÃĴ Ãį
> ;
Âĳ `
?Âķ ğ
S Ã±
Y ÃĲ
Ã® Ã¯
. Ğ
ÂĦ /
: Â¸
Ď (ā
Â¥ Ě
X E
Āā ÂĢ
e Âª
Âĩ ą
Ã¹Ãĵ Ã¨
? %
r g
Ā? Âį
ĀÂŀ _
Â® /
t Ã±
Ã¼ ÃŃ
Â¢ÂĬ(ĀÂ¢ÂĬ(ĀÂ¢ÂĬ(ĀÂ¢ÂĬ(ĀÂ¢ÂĬ(ĀÂ¢ÂĬ(ĀÂ¢ÂĬ(ĀÂ¢ÂĬ(Ā Â¢ÂĬ(ĀÂ¢ÂĬ(ĀÂ¢ÂĬ(ĀÂ¢ÂĬ(ĀÂ¢ÂĬ(Ā
Ã£Ãŀ O
u Ãĭ
Ã£ Ãģ
- Đ
v K
ÂĴ Â¥
ă Â«
Ã¨ Ã¦
Ĝ ÃĹ
S Ã°
Ã½j j
R a
m i
Ã£ d
ÃĬ o
Ãī Ãŀ
Ãª o
ÃĤ Ã¹
] ^
Ă ÂĸÂĢ
[ .
[ @
y ÃĻ
} Âģ
ė Â®
+ Ą
ă Â¥Ā
Ą Â¢ÂĬ
ÂĽ Ė
Ã¥ Ã¯
Ã½Ãµ G
= "
ÂĴ Ğ
- <
Âĸ Ć
ė Â±
{ Â¸
ÃĢ X
\ Â¥
Âµ Ãĺ
w Ã¬
Ã¾ S
Ãı d
ÂĿ Â¯
A d
Ã§G Ãļ
Â¢ Ā
ÂĨ Â¡
Ā} ÂĬ>
Ãª Ã¦
Ď ÂĶĀ
ÂĻ Â´
g d
Ã° Ã¹
Â¿Âķ Ğ
ÂŃ Â¦
ÂĻ :
Ã¡ Ã¹
t O
Ã± C
} _
Ãĸ Ãķ
ÂĤ Âļ
ď (
s ÃĦ
Đ ÂĪ
ÂĦ ]
Âĭ ĕ
ÃºQ Ã¥
Â¢ ā
Ãľ Y
ĀÂĴ ÂĬ
. Â¬
ÂŁÂĿ ğ
I y
O ÃĶ
@Ė (Â¨
D Ã¼
Ãĵ Ã¬
Â° Âĺ
Ãĺ B
~ ÂĬ
đ /
Ã¡ Ã¨
> =
Ãı Ãķ
K Ãĩ
Â¢ Ć
& Âĩ
, Â¦
Ãģ y
ĀÂŀ ÂĬ(
Ã¥ ÃŁ
Ã¶ W
H u
Â§Ã· ÂĹ
. Ě
Âĵ @Ē
g C
~ (
ď )
Ã§ ÃĨ
Ã¦ ÃĻ
ÃĹ Â¦
ÂĹ ÂĬ
Â® ĝ
ÂĦ @
ĀÂ® Âį
ă ÂĪ
% Â¡
h y
Ã¥ u
ÂĤ !
Â¨ +
Ã¸ Ã«
h J
Âĵ ĕ
Â¶ Â¦
Ã²ÃŁ Ã»
Ãĺ A
Âº C
I ÃĶ
ÂĿ đ
ÃĹ !
Âĭ Ă
?ÂĿ ğ
{ Ĕ
Ã® Âª
Â® Ă
~ :
Ã½ F
Ãļ Ã¬
v L
w W
Ãķ L
Â¬ |
Ã¸ M
Â´ ]
Ã¢ K
Ãĸ A
Ĕā ě
I ÃĲ
Ãĳ Ã©FÃĳ
Ãĭ x
Ā= Â¤
Ã¶ Ã¡
, Â©
Â° ÂĬ
Ė Đ
Ā< ÂĽ
Âĥ ÂĬĀ
Ã± D
Â¢ÂĬĀ (Â¢ÂĬĀ(Â¢ÂĬĀ(Â¢ÂĬĀ(Â¢ÂĬĀ(Â¢ÂĬĀ(Â¢ÂĬĀ(Â¢ÂĬĀ
. Âī
ÃŁ ÃĨÃ¿
Ãŀ Ãī
Ĉ Âľ
Ě !
ÂĦ ÂĽ
Ãĭ Y
Ãĥ R
Ãĳ b
Âį +
\ Ą
j Ã³
Ãī C
Q i
Ã¾Ã± Ã¼
I G
Âĩ ÂĴ
ÃŃ Ãº
Â¶ ă
ÂĬ( ÂŃ
Ã¨ Ã«
ÂĪ (
Â¯ ÂŁ
h o
Ã¾ Ãľ
Ã£ Âª
Ãª Ãĵ
P k
Ã² Y
Ġđ ÂĤ
Ĝ Â¤
Ã¤ K
] Ē
t A
Ãŀ Ãı
Ã½Ãĵ Ã½
Âĩ %
z Âº
Ã¥ j
_ ÃĹ
Ā& ć
n D
v M
ĀÂ¡ Ě
I Ã¡
Ãį ÃĿ
Â¬ Âļ
ÂĴ ÂŃ
Âŀ ĕ
ğ @
Ãĳ k
r P
\ #
\ ÂĦ
v ÃĶ
\ Â§
h g
ÂĪ ;
Âĭ ÂĿ
ÃĲ Ãĺ
z RÃĴ
ÃĲ D
ĀĔ ÂĦ
: ą
b Ãĵ
Âŀ <
Âĩ Âĺ
Ãĸ H
ÃĤ ÃĶ
] Ę
; '
ÂĴ ÂĽ
Ãħ y
p e
Ã¼ H
Ã¼ D
T ÃĶP
(Â¢ÂĢ Ĕ
z ÃĬ
Ã» Ã»
Ãª Ãī
Ãģ X
V ÃĮ
ÂŁ ě
Âĵ Â¡
- ė
B ÃĳE
Â¢ Ã·
Ã¦ Ãķ
Ã¾Ã± Ã¿
ć ]
Ã£ e
( "
b Ãķ
Ć Đ
Âİ ÃĹ
Âĥ Â¶
ĕ Ã·
ÃĲ ÃĻ
Â¯ ÂĶ
ÂĦ ġÃ·
G M
Â´ Ę
Ã¢ w
a j
Ãı m
Ē Âĳ
, Â°
c X
ÃŃ Ã¡
S Ã¡
& !
: Â¿
ÃĹ ÂĬĀ
% Ĝ
ğ Ę
ĔĀ `
*ÂĮ ā
N Ãı
Â£ Â»
Ã´ X
Ã»Ã« Ãµ
z Ã¼
(Â¢ÂĢ ĖÂĬ
Âĸ |
S dÃ¿
r L
Ãļ Ã¶
` Â¡
A g
Ã´ Ã¡
Ã¾Ã© Ã¾
ÂĽ Â£
~ ě
Ãľ Ãª
Â¯ Âĵ
ÂĿ ÂĴ
Ã¥ Ã¡
Ãŀ Ã¬
ÃĴ x
I ÃŁ
P L
Đ Ą
Âĸ Â·
Â± Âĭ
ĜĚ Ā
] _
Ã« p
Âº A
Ãµ Ã®
Ã· Âľ
Ã¥ Ã±
ÃĢ C
{ Ę
f ÃŃ
Âģ ÂļĀ
e D
Ãĩ Ãħ
oA Ã¹Ãĳ
K Ã¸
Âģ -
Ãª Ãı
b u
\ <
Ãį Âª
Ã½j z
Âİ Ă
Ã¨ Ã¼
Â¥ ĔĀ
% Âĥ
ÃĲ Ãļ
ÂĨ ÂĸÂĲ
: ÃĹ
Âı *?
Ã« ÃºP
b ÃĳE
Ė Â¥
oQ Ã¹Q
ÂĪ -
đ Â§
ÂĨ Â·
+ Â§
Ã¢ Ã£
\ Âī
8 Â³
% Ē
ÃĶ Ãŀ
] ğ
ÃĿ Ã±
ÃĽ t
u g
Ãħ Ãĵ
X i
q y
ÃĪ D
' (
r Ã°
ą Â¡
ÂĬĀ ÂĤ
G d
G Ã¨
V ÃŁJ
t Ã¡
% -Ā
Âİ đ
] *
ď ě
ÂĢě ÂĬ
T Ã©
W x
Â¿ ć
ÃĻ oÃĬ
(Â¢ ÂĻ!
ĕ% ĀĔ
Â® ÂĻ
` Â¥
Ē Â´
Âĩ Â¦
ćÂ¥Ę ĞÂĶÂ´
Â·Ã· ġ
ÃĿ Ãĳ
D Ãĸ
Y Ã¥
Â¢ÂĴ ÂĶ
k Ãĺ
ÃĮ Ã¼
Ãļ oÃİ
Ãİ Ã¶
Ãł ÃĨ
^ Âį
Â¿ ÂĴ
Ã¢ Ã¤
ÃĤ X
(Â¢ÂĬĀ(Â¢ÂĬĀ(Â¢ÂĬĀ(Â¢ÂĬĀ(Â¢ÂĬĀ(Â¢ÂĬĀ(Â¢ÂĬĀ(Â¢ÂĬĀ (Â¢ÂĬĀ(Â¢ÂĬĀ(Â¢ÂĬĀ(Â¢ÂĬĀ(Â¢ÂĬĀ(Â¢ÂĬĀ
Ā-ĔÂĶ Â´Ā
O v
ÂŁ ÂĴ
$ Â¦
ÃŁ Ã¾Ãº
Ãľ Âº
Y Ãħ
ć ĔĀ
Âķ Â´
ÂĮ ĚĀ
ÃĢ N
Ã« Ã¬
ÃĲ Ã¬
s Ã©G
Âĸ ÂĨ
Â° Âģ
Z ÃŃ
t Ã¥
C ÃĬ
Ã¯ e
Ã¥G ÃĻ
T Ã«
Ãĵ ÃĻ
Ãª ÃĪ
ą |
Ā= )
Ã¦ ÃĶ
ÃĢ W
. ÂĿ
ÃĽ Ã¬
ÂĮ ,
Ãį Ã¬
ÂĪ Â¯
ÃĲ B
& Ē
Âĩ Â±
Ãŀ Ãİ
{ ÂĶ
Ã¦ Ãħ
; Â«
b ÃĶ
h Ãº
Âĸ ÂŃ
O H
Ã° Ãī
ÂĽ ğÃ·ÃĹ
Âŀ Âĳ
$ Ĕ
ÃĹ "
Âī Âį
ÂĬĀ ÂĹ
QE P
Ė ~
Ã½Ã¡ Ã¹Ãĳ
Ā(Â¢ÂĬĀ(Â¢ÂĬĀ(Â¢ÂĬĀ(Â¢ÂĬĀ(Â¢ÂĬĀ(Â¢ÂĬĀ(Â¢ÂĬĀ(Â¢ÂĬĀ (Â¢ÂĬĀ(Â¢ÂĬĀ(Â¢ÂĬĀ(Â¢ÂĬĀ(Â¢ÂĬĀ(Â¢ÂĬĀ
Ãı v
Ã½ N
Ã» Ã°
ÂĤ \
Ã½ B
' Ď
Ãĵ Ãł
- /
- ĝ
Ě ĝ
Ã© m
Ã¨ Ãŀ
Ã± c
Â° "
ÃĲ QE
Ĕā \
F Z
ÂĴ Âĳ
ÃºÃĴ ÃĲ
Ã¤ Ãĺ
Ã¬ Ã¸
Âį )
Ãĩ Ãĥ
Ė ^
Âµ Ãĳ
ĀÃĹ Â¤
l Ã¯
w Ãĸ
ÃĢ j
ÃĽ a
ÂĪ _
Ā} Âļ
, ę
ÃĨ f
Ã· ;
ÂĨ Âĭ
Ã¢ a
ÃĦ Ãº
Ã° ÃĮ
ÃĴ ÃĮ
(Â¢ÂĢ (
h M
z Ãī
k Ã¤
Âľ ÂĦ
( +
Y Ã¦
Ãĥ I
ÂĮ{ ÂļĀ
i t
Ĉ ė
ġ "
Âİ ^
ÂŃ ÂĻ
p Ã¸
ÂŃ ÂĹ
ÃĻ Ã¡
y Z
Ãľ Âµ
\ Âĺ
Ã¨ d
Âĭ ÂĹ
w A
Â£ ]
Ã¢ s
ē Â¿
ÂĪ %
ÂĬĀ Âĥ
! "
Ã½ g
ÃĻ R
Ã¥ Ã¬
^ &
| ÂĶ
z RÃĲ
Â¥ě ė
ÂĦ ÂĻ
ÂĮ $
Âĳ {
= ÂĬ
Âº N
ć ÂĿ
( ÂĽ
f Ã¯
ÃŁÃ³ Ãį
^ +
Ãİ b
ÃĬ R
' |
Ġ Â¢ÂĬ)
K W
ÃĬ j
ÂĢ ]
Ãĥ N
ÃĿ Ã»
Ãĥ M
Ã¼ w
ÂĨ Â¨
(Â¢ Âĳ
Â´ÂĶ Â´Ā
Âı ÂĮ
Ã¶ P
Ã¬ J
Ĉ /
ÂĿ -
Ãļ a
Âº Ãĥ
K C
% Â«
Q Ãº
_ ę
Đ ,
ÃĤ m
- :
ÂĤ Ă
Ã® u
oÃ¹ Ã¨
N Ã°
Ã· Ě
I Ãķ
ę Âľ
s Ã«G
ē Â¯
r Ã¾
v u
Ã» Ã¤P
Ē ÂĶ
Ã´ u
Ã¦ q
Ã« s
[ Â¢ÂĢ
E Ãº
đ Â¢
^ Ĕ
Â´ ć
Â® ÂĢ
ĀÂŀ Â¿
Ã¤ ÃĦ
^ ě
k Ãµ
Ĕā &
PÃĬ r
B L
l x
Ã½ V
Y ÃĴ
} (ă
Ãµ G
Â¥ |
ÃŁ Ãī
Â¸ Â°
Ã¼Ã» ÃħÃ¿
Â¢ÂĬ(ĀÂ¢ÂĬ(ĀÂ¢ÂĬ(ĀÂ¢ÂĬ(ĀÂ¢ÂĬ(ĀÂ¢ÂĬ(ĀÂ¢ÂĬ(Ā Â¢ÂĬ(ā
> ė
Âĳ Ą
/ Â±
Ãģ d
Ã¬ D
Â® !
S Ã¹Ãĳ
Ãļ f
p Ã®
Âľ ÂŃ
ÂĶ "
Y Ãŀ
Âº Ã¶
Â¶ Â¢
ÂļĀ Âİ
P Ã¨
k Ã¹
Ġ Â¢ÂĬ
Ã© Ã£
Y ÃŃ
Q Âª
t L
Ãĸ o
Ãķ Ãµ
ÂŁ :
GÃ¥FÃħ Ã¾Ã¨Ã¼
u y
Âı- ?Â¸Â¿Âķ
ÃŁÃ³ Ãĳ
( Âģ
p L
ÃĤ n
K ÃĨ
_ ğ
, ÂĿ
Y Ã°
B Ã¯
M Ãĵ
Ã« b
q v
Ĉ ÂĿ
Ã¡ n
Âĭ ÃĹ
ē Âĩ
Ã± Ãĥ
D z
Ãĳ Ã»
} ÂĮ
Ãĸ T
Ã£ ÃĢ
Â¨Ā Â¢ÂĬ(Ā
ÂĬĀ Â¬
ÂĨ đ
Ã¼Ã´ Ã½
Ã¹Ã¨ ÃŁ
ÂĽ Â®
ę ÂĿ
$ ÂŃ
\ ÂĻ
ÃĤ Ãĵ
Ã° ÃŃ
d J
ÂĬ( Â¦ā
P Ã¶
Ãģ H
ÂĴ Â¯
GÃ¥FÃķ Ã¾Ã¨Ã¼
Ã½ H
Â¦ ÃĹ
m T
N Ãī
Ãĩ Ãĺ
Ã¦ ÃĬ
Ãĭ h
Âº D
Ā(Â¢ÂĬĀ )
# Â£
+ Â¬
Ğ ě
ÃĢ ÃĻ
Ē Âĺ
Â´ ;
ÂĽ ÂĦ
Ã¾T Ãº
ÃĽ Ã¶
Đ ]
Ãİ e
ÃĶ A
ÂĽ Â¡
= Âĭ
Âª a
Ãķ Ã³
\ ;
ÃĽ e
Ãĺ Âº
~ Âį
Ãķ Ã¶
Ãļ n
Â¯ @
= %
o Ãĵ
r l
Ã© d
Ã¦ Ã¬
Ã¥ ÃĮ
" :
B Ã«
Ė Â¨
Đ Â¦
Âĸ ÂĤ
ē Ď
Ãİ L
Ãħ Ã¼
ÂŃĀ :ÂĬ
ē ā
g Ãĥ
C Ã«
ē -
Ã¦ w
Ą ]
Ãµ d
Ã» Ã¹
Â¦ (Ă
Ã»Ã¤ QÃ¶
S u
ÂĴ ÂĨ
ÂĻ ą
: (Ă
Ā^ ÂŁ
y ÃĳÃ¿
Ãļ ÃŁÃĿ
Â´ ^
ÃĦ Ãı
ÂĤ Ã·
ÂĨ Ã·
- Ć
9 Â³
Â· Âĩ
& Â¸
Ãİ Ã¼
ÃĤ h
Ā= Âı
Âľ Âĺ
ÂĦ Â¯
Â¥Â¤ ĝ)
m j
Â¿ Â¨
Ã£ Ã¬
k L
ę ĔĀÂ´
( Âĺ
Ãľ Ãļ
Â® Ē
Ã» Ã¤T
ÂĦ ÂĶ
/ |
ÃĢ Ãĸ
~ ė
R Ãı
ÃŃ i
Ã± ÃĤ
ĀÂ¨ Âĵ
Ą Â¢ÂĬ(ā
ÂĬĀ Â·
Â¥ Ĕā
ÂĦ Â¿
Ã½Ã£ Ã¼
Ãĩ y
Âµ ÃĿ
Â® Ğ
Â¬ Ě
GÃ¥ F
c Ã£
: ć
X Ã¯
/ ÂĮ
Ã³c Ã¾ÃºÃ¾t
ÃĽ ÃĻ
G Ã©
Ã¸ ÃĿ
Q u
Ā? đġ
x q
M Ãł
+ Â¥
: ÂĻ
d ÃĮ
ÃĤ J
Ġ k
h Âµ
o Ãł
Âį (
Ã»Ã¬ P
ÂĢ ÂĻ
$ Â¢
Ãµ Ãĥ
Âľ ,
>ÂĶĀ Â´
/ ~
Ã¨ C
ÂĶ @
Ã¶ L
Ãģ t
t Ã¾t
ć Ĉ
Âĥ Â¡
ÃŁ S
R Ã©
Ã½ Ãİ
Âľ Â¢
ÂĤ ă
Ã¶ b
Ã¼h Ã³
ÃĤ Ãŀ
| đ
ÃĬ Ãĸ
Ĝ ,
ĀÂļ ÂĬ(
ÃĴ t
@Ď Â¢Âĵ
Ã¤ Ã¯
ÃĻ Ãķ
v Y
ÂĶ &
> Â¥
Ãı Ãĥ
ÂĨ Ė
Âĩ (
. ÂĬ
ÃĲ Ãª
- (
ÂĹ Â¶
; +
? Âİ
k ÃĨ
Ãĥ ÃĬ
Â¯ `
r Âµ
Ã½Ã¡ Ã¼
ĔÂ´Ā ÂĶ
ÂļĀ }
] &
Â¯ Â¶
Đ ÂĿ
Ãĵ Ã»Ãĭ
Ą ÃĹ
ÂĤ Âķ
K Ã¬
\ "
Ġ N
O Âª
ÃĽ S
Ã© Âµ
m h
s v
Â¬ Ĝ
Âŀ ÂĴ
ġ* <Â´
# Â¢
t ÃĦ
Ãī X
Ã¥ Ã°
Ãģ C
Â¬ ÂŁÃ·
Ã± Ãĺ
E Âª
ÃĲ Ã°
Ã©KH zP
Ã¶ Ãĵ
Ā= Âĩ
T Ã½
ÂĶ ě
Ãĭ ÃĿ
m Ãº
Ã¤ L
ē =
(Â¢ÂĬĀ(Â¢ÂĬĀ *
Âŀ '
Ě ÃĹ
ÃĹ Ĕā
ĘĔ Â´
ÃģÃµ Ã½
Ã¸ s
Ãĥ ÃĶP
# Â¬
ė Â¦
& đ
i z
o v
& Ã·
Âĥ Ė
ÂĤ Â¶
ÃĻ h
Â¯ /
~ {
^ $
Â¬ ġÃ·
ġ Âģ
Ã¾ R
ÂĲ Ą
b ÃºQ
: <
g Âª
Ãķ Ãĵ
- Ą
Đ Âī
ď ;
ÃĻ Ãĳ
ÂĦ Â£
Ãŀ Ãº
Â´ Â´Ā
= ÂŁ
Ãļ l
ÂĶ ÃĹ
Ã± Ãĭ
Â¿ ÂĨ
ÃĤ ÃĲ
ćÂ¥ -ĔĀÂĺ
d Ã«
ÃŁ CÃ¼
A Ã¹P
Ė Ğ
Ãµ i
x o
Ã¸ Ã®
J JZ
Ĝ ÂŃ
Â¸ &
z G
z Ãį
đ _
! ē
Ã´ Âµ
Ã° Ãģ
K O
Ã¤ Y
Ã½Ãĳ N
Ãº n
(ā Â»ė
Ãī y
Ď $
Ã» i
Ã¦ Ãį
ġÂį Ğ
: Â§
ÂĹ Â°
Âľ +
Ã± y
ÃĿ S
ÃĬ l
k Ã©
Âĺ ;
Z ZJ
Āĕ ą
Ãĳ l
ÃĻ L
% Â¨
C X
N Z
Ãĸ t
Ė ą
Ã² P
. ÂĻ
Ãİ Ãĭ
Ã° ÃŁ
% ÃĹ
ÃĻ Ã¬
d Ãį
Ã¢ u
Ġ Â¥Â¤
z D
Ē ÂĻ
Ãª Ã«
Ā Â¢ÂĬ(ĀÂ¢ÂĬ(ĀÂ¢ÂĬ(ĀÂ¢ÂĬ(ĀÂ¢ÂĬ(Ā
Â£ Â´
- Â¦
Ã² Ã¸
8 7
Ãİ Ãµ
Ď ÃĹ
d Ã¨
> Ĉ
g F
Ę Âĭ
Ã« Ãĺ
Ã° Ãł
ÃºÃĳ Ã¶
Ã² Ã»
Ā< ġ
- ,
b Ãĸ
ġ* <
= Âĵ
Â® ÂĿ
Ãĭ Ã©
OÃ¹ Ã¦
ÂĮ ě
Ã° Ã¤
Ã¢ l
Ãī T
G h
P Ãĸ
Ãħ Ãħ
Ãµ ÃĮÃ¿
ÃĤ ÃŁ
: "
Ãı Ã§F
Ã¢ ÃŁ
m M
Â· Âĭ
ÂĨ Âī
ÂĽ Ă
ÃĢ ÃŁ
x Y
A D
Ãİ ÃĪ
Ã¦ T
Ãĳ C
- +
q c
w Ã¥
Ė Â¢
Ãĥ L
K Ãĸ
ÃĴ X
W Ã©
ÂĤ Ē
ÃĬ S
Ã® J
Â® '
G Ãĩ
o Ã¾Âµ
Â£ Âĭ
Â¦ |
ć [
Ė Âŀ
Âĳ +
Ã½ ÃŃ
, Ğ
- ē
_ Â¦
Ãļ hÃļ
ÃĴ a
Ãĺ E
Ãĥ F
Âº Q
! )
n k
ÂĹ ÂĤ
` "
Ãµ Y
| ē
ÃĿ R
ÃĤ w
Ĕā ]
- }
Ãł ÃĦ
ÃºQ Ã½
Ã¹ u
Ãİ Ã°
Ãį Ã½Ã£
) /
$ Â¥
C ÃŁ
~ ÂŃ
Ã¢ Ã²
Â¢ÂĢ &
ĔÂ´ Âĥ
ÃĻ Ãº
Ĕā Ą
J Ã¯
Ã¶ Ã°
Â¬ Ą
b Z
r Ãı
Ãª Ã¡
, ]
P t
Ĉ (
Ď Â«
Â£ ÂĬĀ
Ãļ Ã¾
Ãª Ã®
Ã¸ Ãļ
ĀÂŀ #
Â¿: Ā
ÃĤ e
Ãµ Ã¬
Ė /
Ã¥ Âµ
Ã± Ãĳ
Ã« n
KH h
Âº Ã¡
Ãį Ãŀ
` Â¯
ÃŃ KE
ć ÂĽ
Ē Âŀ
Ě :
ğÂķ Ğ
ÃĤ x
?Âķ ě
P Ã¼
Ã· ^
Ć ÂĮĚ
ğÂķ :ÂĬĀ
ē ÂĹ
Ãµ q
Ã« k
Āġ ?
u D
Ã· ğÃ·
Ã¶ T
ÂĪ Âį
'Ã· ė
Đ /
ÂĴ Âļ
ÂĪ ÂĿ
Ãĵ j
} Âķ
Ãĺ J
Â¢Âĭ ą
Ã¹ ÃĻ
Ãĸ ÃĻ
ÃĮ u
. `
w Ãģ
p Ã±
ć Ē
ÂĤ ē
ĔĀ Âĥ
Â¶ Â´
Â¶ ]
L ÃĨ
> Â¿Â¥
t z
ÂĮ Â¢
(Ā Â¢ÂĬ(ĀÂ¢ÂĬ(ĀÂ¢ÂĬ(Ā
- Ē
Ã· ?Ã·
E WÃ»
Ã· |
Ãĸ y
Â¯ Â¦
ą ē
ę (
ÃŁÃ³ Ã±
ÂĨ Ē
W N
Ãĸ N
Ãĭ Ãį
Ã½Ã¡ G
k Ã¦
ġ ^
ĀÂŀ '
Ãİ S
Â° ÂĻ
Āĕ ĕ
Ĕ ė
ÃĴ Z
ÃĬ f
Â° ÂĹ
Ãİ Ã¸
ğ %
Âģ ą
Â¬ Ă
! Đ
Ã½s oÃ¥
: Â´
u ÃĤ
Âĥ -
Ãŀ oÃİ
; Â¥
Ã§ Ã¬
ÂĨ Âİ
i Ãº
Ãµ E
Â® Â¸
~ ĝ
Ãı W
Ãī t
" ÂĮÂĬ
X A
Ď Â¢
ĀÃĹ Â¦
ÂĤ '
h Ã½
Ã¯ Ãª
\ ÂĶ
ć Â£
ÂĢ ÂĿ
G T
ÃĽ R
ě ]
Ã« c
Â¿ Âģ
ÂĨ ė
ÂĮ ÃĹ
~ Ę
ć đ
Ć Ã·
Ġ J
Ã¨ Ã¶
Â° Âļ
Âĵ ÂĬĀ
ĝ ÂĲ
ÂıÃ· ě
Ĝ ÂĻ
Ãİ V
ÃĿ a
ĀÂŁ ÂĪÂ¿
@ Âķ
Âº Ã½
Â¢ÂĬĀ *
+ %
Âĵ ÂļĀ
Âŀ Đ
ÃĤ Ãĺ
m J
Ãĭ Ãķ
; ÂŃ
ÃĬ h
Ã½t Ã¾
G I
Z Ã¬
Âĥ ;
Â¶ Â«
Â¥Â¤ _
ÂĤ ÂĨ
? Â¦
đ ė
Ĕā -Ĕ
ÃĤ Y
| (
Âĵ ą
% ÂŁ
y E
: ÂĬ(Ā
= ÂŃ
ÂŁ Âĩ
K Ã¨
T ÃĮ
Â£ _
> ÂĮ
g Ãģ
p Ã¡
Âµ Ã¥
- %Ĕ
] Ĝ
S t
u t
Ā= Â¿
Ã»Ã¨ QÃ¶
Ġđ Âĥ
\ ė
. Ē
u d
. /
Ã¯ Ã¤
Ãĭ Ãħ
@ Â¢
ÃĻ ÃĮ
^ Â¢
Âĥ @Ē
Ãµ Ã²
Ĉ Â¯
ÃŁÃ³ Ã¯
l M
ÃĪ i
Ã§ Ãł
Ã« Ãľ
Ã± Âº
$ Â´
K Ãħ
Ā] ě
Ãł x
ÂĤ ÃĹ
Ã¶ ÃĻ
Ã¸ t
ġ Âļ
k Âº
Â· [
Ãĥ Ãĩ
Â® Âĳ
, +
Ãİ Ãī
g A
Â¢ ă
Âĥ Â¦
w O
Â¸ "
b Ãµ
ÃĿ V
ÂĤ ]
ćÂ¥Ę ĞÂĶ
r Ã¦
ġ Â£
Āă Ā
ĝ \
y ÃĮ
ĝ ąĀ
Ãĥ Ãį
Ãĸ h
; ]
Âĸ ~
Ã©F ÃħÃ´
Ē ÂĦ
Âľ Â¦
Ãĭ ÃĤ
Âĵ ÂŃ
ÃĲ Âµ
Ã¸ q
/ +
Ã© ÃĻ
ÃĬ Ãļ
r o
Ã¶ g
Ãı G
ÂĿ ē
. Â¦
Ĕā ÂĽ
& Ă
Ã¤ A
ÂĲ ÂĽ
@đ \
r Ã¢
R Ã¼
[ :
X O
Ã¨i h
B Z
Ã¤ C
Âĸ Âĩ
Â¸ Â¯
ĝ ÂŁ
ğ }
ę Ě
Ãĸ K
Ã¾ m
Ãŀ Âº
ÂĿ ą
^ Ė
Ãİ Z
Ã¨ Ã±
g z
Ã¸ Ãĺ
ÂĲ ÂĶ
Ã©R Q
ÂŃę >Â´
Ã¡ h
{ ě
8 3
Ĉ Ą`
Ãĥ O
Ć ÃĹ
ÂĲ ÂĹ
; Ą
Ãº C
Ãĥ j
ÂĢ Ã·
Ď <
K ÃĴ
Ã¤ ÃĢ
Â¿Âķ ğ
Âµ Ãķ
E Ã©
Â´ ę
Â¬ ĕ
Âľ _
t I
u Z
Âİ -
Âĺ ąĔ
Â® Đ
X M
Ĝ _
ÂĨ ÂĪ
R Ã¸
Ãµ W
ĞÂĶ Â´Âĩ
ą -ĀĔ
Ã¾U b
Ãĸ ÃĬ
R dQ
Â¢ ÃĹ
Âº Ã±
( )
ĝ ğ
ÂĢ ÂĪ
= Â·
đ Ě
Â£Ă ÂĸÂĬĀ
> ÂŁÂŃ
ÂĨ |
ĀÂĿ Ā
L ÃŁ
Â¸ Â£Ĕ
ÃĽ Ãĳ
^ ^
b ÃĲ
ÂĿ Đ
B Ãļ
Â¯ Â®
ė ÂĤ
Â´ ě
/ Â¶
a ÃĮ
ÃĿ l
ġ ÂĮ
Ã¯ ÃŁÃ¿
] <
Ė Ć
Ã± ÃĦ
B Ãķ
Ā: Âĵ
ÃĬ Ã¯
! ĕ
Ãħ Âª
ÃĤ v
Ãĺ i
đ +
[ Ć
ÃĪ u
Ã¤ Ãģ
Ã¨ Ãª
Ã£ C
ġ &
Ã© Ã¢
Ă ÃĹ
Ãµ ÃĻ
Ãĵ ÃĿ
ÃĽ g
Â¿ Â°
ÂĹ Ć
Ãĥ e
ĀÂŀ Â±
- \
Ãµ Ã¾Ã°
% Ğ
ÂĪ ą
Ã» x
ÂĿ Â¦
, &
q Ã¾Ã©
ÃĤ U
ÂĢ Âļ
ÂŁ ă
> Â¬
Ã´ Ã³
Â¢ ĕ
ÂĦ ě
. '
? ÂĮ
l Ãŀ
Â¢ÂĢ Ė
k Ã§
Ā^ ÂĢ
Ã¾Ã± Ã¾t
Âİ ă
? ÂĶ
l ÃŁ
(Â¢ÂĬĀ(Â¢ÂĬĀ(Â¢ÂĬĀ(Â¢ÂĬĀ(Â¢ÂĬĀ(Â¢ÂĬĀ(Â¢ÂĬĀ(Â¢ÂĬĀ(Â¢ÂĬĀ(Â¢ÂĬĀ(Â¢ÂĬĀ(Â¢ÂĬĀ(Â¢ÂĬĀ(Â¢ÂĬĀ(Â¢ÂĬĀ(Â¢ÂĬĀ(Â¢ÂĬĀ(Â¢ÂĬĀ(Â¢ÂĬĀ(Â¢ÂĬĀ(Â¢ÂĬĀ(Â¢ÂĬĀ(Â¢ÂĬĀ(Â¢ÂĬĀ(Â¢ÂĬĀ(Â¢ÂĬĀ(Â¢ÂĬĀ(Â¢ÂĬĀ(Â¢ÂĬĀ(Â¢ÂĬĀ(Â¢ÂĬĀ(Â¢ÂĬĀ(Â¢ÂĬĀ(Â¢ÂĬĀ(Â¢ÂĬĀ(Â¢ÂĬĀ(Â¢ÂĬĀ(Â¢ÂĬĀ(Â¢ÂĬĀ(Â¢ÂĬĀ(Â¢ÂĬĀ(Â¢ÂĬĀ(Â¢ÂĬĀ(Â¢ÂĬĀ(Â¢ÂĬĀ(Â¢ÂĬĀ(Â¢ÂĬĀ(Â¢ÂĬĀ(Â¢ÂĬĀ(Â¢ÂĬĀ(Â¢ÂĬĀ(Â¢ÂĬĀ(Â¢ÂĬĀ(Â¢ÂĬĀ(Â¢ÂĬĀ(Â¢ÂĬĀ(Â¢ÂĬĀ(Â¢ÂĬĀ(Â¢ÂĬĀ(Â¢ÂĬĀ(Â¢ÂĬĀ(Â¢ÂĬĀ(Â¢ÂĬĀ(Â¢ÂĬĀ (Â¢ÂĬĀ(Â¢ÂĬĀ(Â¢ÂĬĀ(Â¢ÂĬĀ(Â¢ÂĬĀ(Â¢ÂĬĀ(Â¢ÂĬĀ(Â¢ÂĬĀ(Â¢ÂĬĀ(Â¢ÂĬĀ(Â¢ÂĬĀ(Â¢ÂĬĀ(Â¢ÂĬĀ(Â¢ÂĬĀ(Â¢ÂĬĀ(Â¢ÂĬĀ(Â¢ÂĬĀ(Â¢ÂĬĀ(Â¢ÂĬĀ(Â¢ÂĬĀ(Â¢ÂĬĀ(Â¢ÂĬĀ(Â¢ÂĬĀ(Â¢ÂĬĀ(Â¢ÂĬĀ(Â¢ÂĬĀ(Â¢ÂĬĀ(Â¢ÂĬĀ(Â¢ÂĬĀ(Â¢ÂĬĀ(Â¢ÂĬĀ(Â¢ÂĬĀ(Â¢ÂĬĀ(Â¢ÂĬĀ(Â¢ÂĬĀ(Â¢ÂĬĀ(Â¢ÂĬĀ(Â¢ÂĬĀ(Â¢ÂĬĀ(Â¢ÂĬĀ(Â¢ÂĬĀ(Â¢ÂĬĀ(Â¢ÂĬĀ(Â¢ÂĬĀ(Â¢ÂĬĀ(Â¢ÂĬĀ(Â¢ÂĬĀ(Â¢ÂĬĀ(Â¢ÂĬĀ(Â¢ÂĬĀ(Â¢ÂĬĀ(Â¢ÂĬĀ(Â¢ÂĬĀ(Â¢ÂĬĀ(Â¢ÂĬĀ(Â¢ÂĬĀ(Â¢ÂĬĀ(Â¢ÂĬĀ(Â¢ÂĬĀ(Â¢ÂĬĀ(Â¢ÂĬĀ(Â¢ÂĬĀ(Â¢ÂĬĀ(Â¢ÂĬĀ
Ãĩ ÃŃ
Ď |
Â· ]
Â¿ Âľ
Âĩ ÃĹ
y F
Â¬ Đ
t F
Â¥ Ã·
Âĵ Â®
Ãİ Ã«
Ã± n
m Z
Âī ÂĦ
ÂŁ Âŀ
; :
?: <
Ď \
Ãº Ãº
Ã¦ Ãĺ
Ãĭ ÃĮ
^ <
Ãº Ã«
Ã¼ r
ĀÂ¿ ÂŁ
Ãģ x
% ÂŃ
U Ãĸ
^ Âĭ
ē ]
ÃŃV Ã¿
ÃĽ Ãķ
{ ą
N f
Ď Đ
% <
B a
u X
m G
ÂļĀ Âĵ
Ãģ Y
Ã¼Ã¼ EÃ¿
ĀĔÂ´ÂĶ Â´Ā
Âĺ @
ğÂĿ Ğ
ÂĮ Âī
L Ãŀ
Ã¾ s
Ã£ Ã¾z
Ã¨ Ã¥
ÃĲ Ã¡
ÂĦ -
Ãĭ A
Â¯ ÂĲ
Âº Y
Āā Âģ
ÃĮ Ã¸
Âĭ Â«
KE E
đ =
Â´ Ě
Ãĳ x
ĀÂ¸ Â¿
" ~
ÂĹ Âį
Ã· ÂĻ
ĔĀ ÂĿ
t D
Ę Â¥Â¢ÂĢ
ÃĬ a
ÃĢ x
Ã´ ÃĶ
đ -
Ē Âį
W T
` ÂĻ
@ą (
z A
Ãķ Ã¹
Âĩ Âķ
Ãµ M
Â° Âĭ
Âİ Â¨
& .
Ãī E
p n
Ãħ ÃĻ
p Âµ
Ğ Â¡
Ãŀ Ã©
Ã»Ã« Ã¹ÃĳÃ¦
Ãĺ K
Â¯ Â»
ė ÂĿ
đ ;
Ãĺ L
ÃºÃĵ Ã©
p Z
Ã³ ÃķÃ¿
ÂĹ ĕ
Â¢ÂĬ(ĀÂ¢ÂĬ(ĀÂ¢ÂĬ(ĀÂ¢ÂĬ(ĀÂ¢ÂĬ(ĀÂ¢ÂĬ(ĀÂ¢ÂĬ(ĀÂ¢ÂĬ(Ā Â¢ÂĬ(ĀÂ¢ÂĬ(ĀÂ¢ÂĬ(ĀÂ¢ÂĬ(ĀÂ¢ÂĬ(ĀÂ¢ÂĬ(Ā
Ã¸ w
! Ė
Ď ă
x W
Â° /
6 Â¼
B Ãı
ÃĲ C
Ã¨ Ã¬
= Â§
Ã§ EÃ¿
ÃĨ m
ÃĽ U
ÂĪ ^
ğ ć
Ãĺ ÃŁÃĿ
ÂĦ Âĭ
X N
Âĩ Â£
Ã¹ÃĴ Ãĳ
ÂĿ ,
ğÂĿ ę
Ãļ R
Ã¡ ÃĻ
Âĵ ğÃ·
Ã¦ Ã¾Ã±
Ãľ hÃľ
ďÃ· Â¿
Ã§ Ãĳ
(Ā Â¢ÂĬ(Ă
x p
ÂĬÂĴ ÂĢ
z Ãĩ
Ć Â¸
Ĝ ė
Ãī W
Ã¾Ãº Ã¾u
ē |
Ã² k
Â¯ ÂĮ
Ā? Âķ
Âµ Ã¦
x t
ÃĪ Ã¸
ÂĪ &
ÂĴ Â¦
Âģ ^
Â£ Â¢
ÂĹ )
Ė ÂŃ
Ãģ K
ÃĿ oÃĬ
Ā] ğ
ÃĮ Ã¯
_ Âļ
Ã¤ ÃĤ
ĀĔ ÂĮ
ÃºÃĳ Ã¦
Â´ ĕ
Ã½i h
Ã»Ãĥ Ã¹
ÂŃĀ-Ĕ ÂĻĞÂ´
/ `
Ė ÂĢ
Âĳ ÂļĀ
Ãī N
ÂĽ ą
d Ãħ
ÂĤ Ĝ
f t
ÃĲ Âº
ÂĬĀ Â£
:Âļ ÂŁ
Ã¡ Âª
> "
Ãļ ÃĶ
ÃĮ Ã©
a Ã¯
Âĺ Â£Ĕ
Ãģ i
ěÂĩ Â¿
Ãį Ã©
z j
Âŀ Â©
\ ^
ÂĻ (
ÂĬĀ \
y ÃĦ
ę Ĕā
& -
Ãİ Ãı
q Ãł
Ć Â»
m H
{ Ĉ
Ã² o
ĀÂĿ ě
ÂĹ Ă
@ Âļ
Âĳ @Ē
Ã» k
Ã³ ÃıÃµ
Ã¾Ã° Ã¾t
l k
c Ã¶
[ Ă
Â§ Â¥Ā
Â¿ Â©
% Â¥
t x
Â¯ Â¥Ā
ĀÂ¿ ġ
Ãł l
Ã© Âª
Âĸ Â»
ē ė
e Z
] Â©
w ÃĢ
Ĝ Âī
Ãī A
\ Ę
ĀĘ Â£Ĕ
\ @
u Ã®
] ě
Ã£ X
Âľ Â´
Ã³ Ã¡Ã¿
Âİ })
Ãª g
Ē -
Ãł O
Ã½Ã¼ oÃ±
r Ã¨
Ãī Ãĸ
ÃĻ z
L Ã¨
ÃĦ Ãŀ
Ã° Ãĭ
ĀÂĥ ÂĲ
" Ã·
Ē _
Â§ ÂŃĀ
ÃĪ g
ÂĢ ĀĀ
Ã£ D
Âº K
ē Â®
Ãħ ÃºS
> %
m t
Ãĳ z
} Â°
Ã© b
ÂĹ ÃĹ
Âĵ Ĉ
Ã¸ v
> Ć
{ ÂĬĀ
" -
Ãļ o
W ÃĻ
ÂĢĒ ÂĬ]
ę /
Ãĥ ÃĨ
Ā< Â£
Ã¹ ÃĿ
Ãī B
a Ã¬
ē Â§
| Đ
Â¯ Âķ
Â´ ÂĩÂ¡
Â¿ Âİ
T Ã´P
ÂĮ ]
S Ãº
Ã»Ã¨ ÃĲ
# Âĭ
Â¿ &
ÃĿ k
Ãº B
K Ãľ
Â® Âī
Z Ã¹
ĀÂŀ /
- Ĉ
Ã³ cÃ¿
ÃĿ e
o F
Ã³ ÃīÃ¿
Âĩ .
Âµ Ã¼
Âĸ Âŀ
^ `
Ė Âİ
' ÂŃĀ
Ãĥ Ã«
m W
ÂļĀ Â·
Âĵ Â¦
Âĵ Ć
Ãļ Ãķ
ÂĨ ÂĨ
Âĸ Âī
ć Â«
Ãĥ Ã©
Â¢ÂĬ(Ā Â¨
Ā[ Â¢
ÃĪ M
(Â¢ÂĬĀ(Â¢ÂĬĀ (Â¢
Ã¨ Ãł
ĀÃĹ Â¨
- Ď
ÂĢē Ĕ
h k
I Ãĵ
K Ãĺ
^ %
b Ã«
ė ÂĢ
Ãª Ã¶
Ãĭ Ãĳ
Ã¸ g
ÂĤ (Ă
] Âŀ
Y Ã±
Ã´ q
' Â¥Ā
K Ãį
Ãª Ã½
ÃĽ f
< ą
ġ )
Âī Â©
Ãĥ P
Ã¬ Ãŀ
(ā (
ÂĪ Âĭ
Ãº J
Ã¡ o
Ãł Âº
Ã¥ Ãķ
! +
< ĚĀ
z ÃºÃĳ
ÂĲ Âĭ
Â¯ Âĳ
. Âĺ
Ãĭ j
ÃŁ L
` Âĺ
Âĥ ā
ZZ JZ
Ãĥ Ã£
> )
u m
Â¯ Âŀ
Ãĳ D
Ã¨ Y
ÂĬ '
Ã¶ A
& ÂĢĝ
> Ę
ę ć"
ę ÂĦ
QE I
Ã¡ Ãķ
Ãĩ ÃĤ
Ãĭ ÃĻ
Âİ !
Ãĥ Âº
f ÃĲ
Ãļ k
Ã¸ n
Y E
ę Âŀ
Â® Â¨
. Âŀ
Ã½ GÃ³
ÂĨ Ă
ÂĤ Â°
ġ ĕ
Ã½Ã¶ Ã¿
Ãĩ Ãĳ
Ãħ Ã§
ē ÂģÂĵ
Ã³ ÃĵÃ´
, '
Ãļ Ã¨
?ÂĿ ě
d ÃºÃĲ
Ãľ Ã¯
Ė Â«
Ãŀ ÃŃ
ÂĽ ÂĿ
Â¢ÂĬ) ÂĴĔ
Ã¼ I
Âľ '
Ã¯ Ã§Ã¿
Ãı ÃĨ
Âĳ ;
F Âµ
Ď Âį
b k
Â¿ ;
Ãł Ã¬
ď ÂĮ
, ÃĹ
W H
ÂĲ ^
ÃĮ Ã°
Y g
o d
x Ã±
ÂŃ ĀĔ
ÂĹ }
ě :
k Ã¬
q e
Ė |
Â¢ Ĕ
Âģ _
Â¿ÂĿ ğ
. ÂĨ
Â¯ Ē
ÃĻ Ãŀ
] ē
ĀÂŀ -
Ā- !
ÃŁ Ã¾Âº
Â¢ ^
ÃĲ j
Z Ãµ
Âģ ÂĦ
~ Âĭ
Ã© Ã§
=Âį Ā
Â´ ė
Ã² a
m O
Ãĵ S
9 Â²
Ĉ đ
ÃĴ Ãµ
Ã³ a
Ã± g
B Q
Â¢ÂĬ ĄĔ
e Ã®
Ė Â¸
ĀÂį Ğ
E Ã¬
Ãķ Ã§
Ãŀ Ã®
Ã¾ P
ÂĮ ÂļĀ
ÂĿ \
Â¯ Â£
8 Â½
Ãı Ã¸P
Ãħ Ã¸
ÂĹ Âķ
Â¶ Ą
Ãĸ Ã¹
p l
ÂĹ ÂĹ
ÃĹ Â¥Ā
Ãļ ÃĲ
Ã¨ ÃĴ
x Z
Ãĳ Ã©
Ãĥ J
Â¯ Âı
ăāĀĂđăđĀ?Ā ÃĹ
ġ} ġ:<
Â¢ ÂĹĔ
Â¨Â¨ ~
Ā| ~
Â´ ÂĶĀ
Y Ã§
ÂŁ Â±
Âİ '
M Ã©
ė ĕ
ÂĬ( Â¬
V Ã°
e J
ĔÂ´ ÂĤ
Â£ ÂĦ
Đ +
Ãĺ Âµ
s k
Ė Â°
Â¢ÂĬ `Ĕ
/ /
^ ğ
_ Ę
ÂĹ ÂĢ
Ā& =
Ğ %
Ã° X
E x
Ã¥ RT
Âĩ Â¶
Ã° T
Q e
q j
ÃĴ Ãģ
k Ã¹Q
Âĸ {
ÃĶ Ã´P
Ãı w
F Ã¸
O Ã¥F
Â® Â«
\ ÂĽ
^ "
G ÃŃ
ZA K
Ā- ?
@ ÃĹ
Ą :
Â¿ -
d Ã©
Ã¶ ÃĮ
Ãł D
H Âµ
Ė Âķ
Âĭ ÂĽ
Ãĳ e
Ãº j
. Â¸
' {
K ÃĽ
@ą-% -ĀĔ
N D
Âŀ Âģ
Ã¾Ã° Ã¿
x A
} ġ:
ĔĀ ÂĽ
ÃĤ Ãķ
Ė Â¡
Ãª a
s j
Âº J
Ã¨ Ã¹
Đ ÂĽ
Ã¼Ãª j
Â¶ Ğ
p D
r Ã¸
Âĭ _
Ã« m
ē Âĺ
u ÃĦ
Ãĩ e
Ė Âĺ
ÂĴ ÂĪ
Â° ÂĽ
Âŀ ÂĪ
Âķ Â«
Â® Â·
Ã¢ Ã§
Â´ Ą
ĀÂŃ @
Âı {
Âµ ÃĻ
Âĩ "
ÂĬĀ }
ćÂ¥ĘĞ ÂĶĀ
Ãĳ ÃŁ
Ã² Z
Ā( Â£
Â¾ 5
u K
Ãı XÃ¿
Â© Â£'
Ã¨ f
Â¡ ÃĹ
ġÃĹ ?
: Ę
N Ã«
Â¬ <
ÂĶ Â¥
Ā Â¢ÂĮ
ĀĀ ć
Âĵ Â¥
Ā< "
ÂĬ. Ė
ġ ÂĨ
Đ Â¥
Ã«Q Ã½
ĀÂģ ġ
, ĕ
Ė Â¦
z ÃĽ
Ã² Ãª
Âī Â¨
ĀÂķ Ā
x L
| Ē
Ã¨ b
ÃıU Ã¼Ã¨
Ã¨ ÃĲ
Ãī ÃŁ
Ã¶ ÃŁ
ė ÂĽ
Ãĺ o
Ę ĞÂĶ
k Âª
Ã¢ ÃĢ
ÂĪ {
ÃĤ Ã¯
E Ãł
R ÃĮp
Z NÃ´
ÂĴ ÃĹ
Ã° W
O Ãª
d ÃºP
Ãį v
Âī :
C Ã¹Q
H j
ÃĦ Ã½
Â¶ ĕ
Â° ÂĿ
Ĕ ÂĶÂ´
ÃĢ Ãŀ
] "
Ã» o
ÂĢ ÂĽ
Ãĸ a
] /
ÃĤ Ãİ
' đ
ē %
r Ã³
Ã½Ã» oÃ°
Q Ã¹P
Ãª ÃĲ
_ Âį
MÃĥ Ãĸ
Ğ Â»
U ÃĴ
Ĝ "
Ã¨ ÃºP
ÂĦ Â«
ÂŃęĞÂ´Ā Â´
Ã¤ J
Âĥ ÂĻ
ÃĴÃĴ RÃĲ
đ |
Â® `
ÂĹ Â¦
Ã¼Ã© ÃĶP
Ã«R P
Ã¢ Ãº
ÂĸÂĢ ē
Ã£ Ã¾x
t ÃĤ
ĀÂŀ ?
ą Â¢ÂĲ
Ē ÂĪ
V Ã½
{ -
ÃĦ Ã¯
ÃĿ m
Âĸ Âķ
Ď Ă
{ ÂĿ
A Ã¨h
Ĕā Ğ
: ĚĀ
Âº a
% ^
Â¥ ÃĹ
Âĥ Âĺ
Ã¡ Ã¦
Q h
Ãĭ oÃ¿
& ĝ
ÃĨ Z
ÃĲ a
] ă
ÂĮ '
Â¸ ė
Ė Â§
Ãº Ã¥
} Ã·
Âĥ \
ÂĴ Âį
ÃŁÃĿ Ã½h
ÂŁ Ą
Ã¤ Ãŀ
Âŀ ÃĹ
u ÃŁ
P Ã¸
k ÃĻ
C ÃĮ
D Ã©
z K
Ã² L
ÂĬĀ Âĭ
Â¡ Ă
ĄÂ¢ ÂĸÂĴÂĢ
E Ãį
Â± :
e Ã¥
ÂĢ Âĭ
Ãĸ Ã¯
P S
Ã¶ ÃĦ
l ÃĤ
Đ &
Âº Ã¼
ćÂ¥ Ĕ
Đ '
Âĳ ą
z Ãİ
Ã½Ã¶ h
= Â¶
E Ã«
Ãī I
ÂĻ ÂĦ
Â¢ÂĬ(ĀÂ¢ÂĬ(ĀÂ¢ÂĬ(ĀÂ¢ÂĬ(ĀÂ¢ÂĬ(ĀÂ¢ÂĬ(ĀÂ¢ÂĬ(Ā Â¢ÂĬ(Ă
Â£ :
Âĸ Ď
} Â´
JZ JZ
% |
ĀÂ¯ @
Ĉ Â°
~ Ĝ
Ã»Ãĩ Ã¹
Ã¸ Y
Ã¸Q Ã¸P
Ãī ÃĲ
ÂĤ |
ÂĨ ÂĦ
Ãĥ ÃŁ
ÃĳQ y
Âĥ Ě
Ã«R Q
Ã¸ Ã¥
Ãµ D
ą -Ā
Ã¨ÃŁ Ãİ
~ Ā
L Âº
Ãħ Ã¾Ã¨
Ã¢ Ã¹
? `
Ãį w
ÂĹ @
b Ã´
Ãµ ÃĲÃ¿
Âŀ ĝ
Âģ }
ÂĬ( Â®
ÂĲ Ã·
Ã° v
Âĥ /
ÂĦ Ě
$ ÃĹ
Ãº r
Ã¼ b
^ #
Ãµ s
< !
k Ã¶
Âª t
ME CÃ¶
Ė ÂĪ
Ã¡ Ãĥ
Ã½Ã° h
Ã» ÃĭÃ¿
f ÃĦ
Âģ ÂĬĀ
z X
r Ã«
ă ÂĽ
Âī +
Â£ ġ:
Ãĳ Ãķ
OÃ¹ Ã¨
| ā
ÃĻ Âµ
W Ã£
Ã´ w
Ā< $
Ā& ćÂ¥ĘĞÂĶÂ´
r Ã¯
Ã¸ i
Ĉ Ă
Ã½Ã£ Ã¿
ā% ĕğ
ąÂļ (Â¢ÂĢ
Âŀ Â¶
Â£ ^
Â¢ÂĬ(ĀÂ¢ÂĬ(ĀÂ¢ÂĬ(Ā Â¢ÂĬ
Ė Âī
ÃĽ Ã¯F
Âĩ ā
ÃĲ Ãİ
k Ã¥
Âĵ Ď
Ã¨ V
Ã¾t m
Ãķ Ã¬
Â¢ Ă
/ @
< Ć
ĘĔ `
Ã¨ e
& ^
{ ÂĦ
ē Ĉ
Ãĭ Ã¬
Â¥ ĔÂĶ
Ãĸ x
B Âº
# Â¥Ā
@ą &
'Ã· Âĩ
ÂŁÂŃ ğ
Ğ Â¥
ĀÂ¢ÂĬ(Ā Â¢ÂĬ(Ă
Ė ÂĽ
Ãł ÃĢ
A x
Âģ ąĔ
= ē
ÂĶ %
Â¡ ąĔ
(ā Â¿
r V
Ãª Ãµ
} ÂĦ
Ã©R P
' Âī
Ã¹ RÃĳ
Ã¡ j
Âĵ @Ď
! &
Ã¦ Ã¯
Â¢ÂĢ ė
Âģ ;
Ã© k
ÂĸÂĢ Đ
ÃŁ Ã¢
Ĕā ē
P Ã¢
đ Â¬
ć ď
Ã¹ Ã¤Ã¿
K J
Ã¹ t
Ã· ÂĬ
ĝ Â¡
Âķ Â¨
Ę :
Âľ ÂĻ
Ã« y
Ĕā ć
Âº Ã°
Âĭ Â¦
Ã¾u b
/ Â£
g Z
n Ãº
Ã¨h ÃģÃ´
ÂĮ Â´
Ãķ Ã¢
Y o
Ĕā ÂĻ
Ã¹T Âµ
Ãĥ G
ÃĹ ď
m C
] #
Â¢ÂĬĀ(Â¢ÂĬĀ(Â¢ÂĬĀ(Â¢ÂĬĀ(Â¢ÂĬĀ(Â¢ÂĬĀ(Â¢ÂĬĀ(Â¢ÂĬĀ(Â¢ÂĬĀ (Â¢ÂĬĀ(Â¢ÂĬĀ(Â¢ÂĬĀ
| ă
Ā Â¢ÂĬ(ĀÂ¢ÂĬ(ĀÂ¢ÂĬ(ĀÂ¢ÂĬ(ĀÂ¢ÂĬ(ĀÂ¢ÂĬ(Ā
ÂŁ Â·
Ãª f
ÃĿ ÃŃF
Âĩ @
Ãĭ ÃĦ
ÂĮ ÂĶ
ÂĲ _
Âİ .
ĀÂĸ ÂŁ
] Ã·
Â¿ ÂĦ
@ąĔ `
Ã½Ã´ Ã¿
Âľ ÂļĀ
ÂĤ `
- `
Ãł o
ÃĻ Ã°
Ã¹ ÃªÃ¿
Âĺ ^
Ã¼ Ã¬
Âļ} ĔĀ
w M
Ã¹ ÃŁ
Āĕ Ĕ
Ã´ r
Ãķ Ã¸
ÂĻ Âį
] Ą
ė Âį
ÃĹ ÂŃĀ
/ Â¥ěė
L Ã¯
Ğ ÃĹ
( Â±
Âī Â«
Ã» h
' Â«
P Ã°
Ã´ E
t K
ÃĮ Ã½
Âĸ ÂĶ
Âº Ãĺ
Ã¾t Ãª
Ã¾ j
* (Ă
{ Â¡
Ãķ Ã®
ÃĴ Ã´
Ãµ z
Ã½Ã¥ Ã¾b
ÂŁÂĿ Ā
Â¢ÂĬĀ(Â¢ÂĬĀ(Â¢ÂĬĀ(Â¢ÂĬĀ(Â¢ÂĬĀ(Â¢ÂĬĀ(Â¢ÂĬĀ(Â¢ÂĬĀ(Â¢ÂĬĀ (Â¢ÂĬĀ
ĄÂ¥ Â¢ÂĬĀ
ć }
ÂĿ Âĸ
Âįě Âį
Ãı g
ÂĮ Ą
p Ãļ
Ãķ ÃĴ
Ã£ z
ĀÂŀ ÂĬÂĥ
" {
Âī }
ÃĶÃĶ Ã»
ÂĦ =
Âĩ Ĉ
Ă ÂĢĝ
Âµ Ã¹
Ãŀ Ã¶
(Ă =
- ć
Ãł ÃĬ
ÃĤ Ãĸ
S FO
z ÃĮ
Ã© Ã»
Ã¡ Ã±
Âİ ÂĪ
Ã¡ Ã°
Ã¾y Ã¾
O h
q b
@ą #}
Â¿ Âŀ
Âĩ ÂĹ
Âİ Ē
Ã« h
ÃŁ R
] Ă
Â· Â´
/ đ
, <
Ãķ oÃ¿
ÃĹ Ĉ
Â¿ Âĵ
Â¶ ÂŃ
x m
Ė ÂĻ
Ãªh ÃīÃµ
r ÃĲ
y u
o Ã«
>Â´Ā Â´
Âľ ÂĽ
Âģ `
ÂĤ .
Ã° ÃĤ
ğÂķ Ę
e Ã¢
x C
Â» Â´
z ÃĦ
: Â¤
x X
Âı Âİ
Ã¾Ã¸ Ã¼
Y Ã¡
ÃŃ h
ÂĿ ğÃ·
ĀÂ¥ Â¤Â¥
r Ãĵ
Ãļ Ã©
ÂŃě ÃĹ
Â· Ě
Ã± m
Ã¾x Ã¿
Âĥ ą
& |
. Âĭ
^ ę
ÃŁ ÃĢ
āÂģ Âģ
Ã¥ ÃĲ
Ã¯ Ãĳ
B Ã¸
Ġ Z
Ã¨ Ã¾
l Ã©
p Ã³
ĝ $
Ã¢ k
Âº Ãĸ
O ÃĲ
ÃĴ Ã²
ÃĿ Ã¬h
= ę
C Ã£
P Ãº
u Ã²
| '
Ã¦ ÃĤ
Ã° w
= Đ
L Z
Â¿ ÂĶ
ğÂķ Ĝ
Ã¸Ãĳ Ã¸ÃĲ
Âı Â«
ÂĤ đ
Âĥ }
Ãħ Ãª
& Ė
N m
@ą% -ĔĀ
Â¢ :
Ãº L
ÃĦ Ã«
t B
ÂĮ <
ÂĿ _
ā Ę#
ÃĤ M
Âº Ãļ
K j
ę ÃĹ
Ãł J
Ãķ Ã¥
Ã¸ N
Ãĥ Ã¶
Âĵ ÂĪ
Â® ,
Â¬ ē
% Âŀ
Âĥ Ć
Âı ĕ
Ã¢ ÃĴ
T Z
] Â¢ÂĢ
k ÃĮ
Âı Ē
` ^
? Â®
: -
Ã¾z Ã¿
O K
Ãĺ QE
Ğ $
g G
Ã« IE
: ĝ
ÂĢ _
Âĭ Ć
: Â¬
Ė Â©
& Ĝ
Ãł N
Âŀ Â®
k Ãı
Ě Ě
Ãŀ Ãĭ
Ãł Ãī
Ãĥ Ãľ
M Ã¸
ÃĦ Ã¨
: Ĕ
~ ÂĬĀ
Ã© a
ę ĔÂ´
Ãµ J
Ãļ Ã²
Â¢ÂĢ -
u x
Âĩ ÂĶ
: !
IE GÃ§
Âĵ ÂĹ
ÃŁ P
y Ã¡
Ãº p
Â¡ (
Â¢ÂĬ(Ā Â¤
ąĘĔ Â´
ĝ ÂĿ
ÃĻ g
(Â¢ÂĢ ě
w Ãª
Ãĸ g
ÂĦ %
i Ã¾Ã±
@ ÂĹ
k Ã½
E Ã¢
Âª Ã¸
ď %
Ã® ih
: >
Âģ @Ď
Ãĥ S
Ę ĔĀ
] '
Â¯ ÂĽ
Ãħ Ã£
. Â»
Q g
Ė ē
E IE
d zÃĵ
Ãĺ M
_ Â®
h z
ÃĨ Ã¸
ÂĸÂĳ ~
' Ć
ÂĪ Âļ
Ē ÂĿ
Â¢ Â¿
ÃĤ b
Ãŀ u
/ Âİ
ÂĹ Â®
QH N
ĞÂĨ ÂĸÂĲ
Ã¤ Ãĥ
/ (
Ãº F
M Ãķ
O ÃĻ
ÂĦ Ĉ
Ã«Ã½Ã¡ Ã¹ÃĲ
? ć
ÂĲ ąĔ
Â¿ ÂĢ
Ãĺ h
Âģ @Ē
Ė Âĥ
Ãĭ Z
B l
{ $
Ãı Ãĺ
Âĸ ē
Ã¾Ã¡ Ã¾U
_ ÂĴ
Ā| ġ:
] )
c ÃĦ
>ÂĶ Â´Ā
# ÂĽ
Ã° C
Ãĸ ÃŁ
/ Â®
Âĸ Ă
Ãķ Ã©
Ã½j Ãħ
Ã° Ãª
; Â¦
ğÃ· ć
L Âµ
Ãĳ Ãĳ
ğ ĝ
Ã· ÂĤ
Âĸ ÂĬ)
ě ÂıÃ·
ÂĿ Ē
QP Ã½
ĀĀ ă
ÃĹ @
\ Âĭ
ÂĨ Đ
Ãŀ Ã¨
Â¬ Ğ
Â¢ÂĬĀ(Â¢ÂĬĀ )
Âĳ ÂĬĀ
Ãĸ X
Ã½Ã´ j
] ,
Ã» ÃįÃ¿
Ã¦ t
Ã¢ Ãİ
\ ę
Ã¾ i
Ãº Ãģ
ÃĬ Ã¸
Āġ ď
Ãī ÃĦ
P Ã¯
Ã¼j J
y Âº
Ā= ÂŁ
N Ãĭ
l Ã¨
Ãĸ Ãĺ
. ÂĪ
ÂĿ @ą
Â¯ đ
{ ĝ
Â· Â»
n u
w K
Ã¢ Ã¾
a k
' Ĉ
ğ Â±
K Ã£
{ Â»
> Ď
Ãħ z
Ãľ Ã½h
Ã¡ Ã©
Ãİ f
Ã° J
oÃ¹ Ãª
Â¸Â£ ĔĀÂĶ
ĝ Ã·
W X
Ã¹ Âµ
ē Â¦
?ÂĿ Ğ
Q Ã£
c Âª
d Ã¯
h t
ÂĦ "
q k
_ Âŀ
- Â«
{ "
ÃĮ Âº
} &
Ã¤ ÃºÃĳ
ÂĦ Â¡
Ã¹Ãĵ Ã©
Ã§ x
LÃĴ f
q t
Ãĵ Ã¼i
Âŀ .
Â¿ Ğ
> Ĕ
s ÃĮ
N a
Ãħ x
Â¢Âĭ Â°
Âľ ĚĀ
t M
ÃĹ ą
ę Â»
Ã§ d
ÃĹ Ă
ÃŁÃ± ÃŃ
ÃŀÃĶ nÃ¶
ĝ #
( ÂĿ
ĝ đ
Âľ ÂĶ
Ã¡ Ã¥
_ Â¢
` ÂĽ
Ã¨ Ãļ
W Ã°
- ]
Ā< _
Âľ @
E Ã®
ğ Ĝ
Ã½ sÃ¾
ÂĽ Â«
QM Ã³
OE AÃ¶
Ã· :
Ĕā -
q ÃĦ
Ã¾ e
Ã² U
Ã« v
Â¿ Âĭ
Â¿ ā
Ãµ Ã³
Â¢ÂĬ(Ā Â¢ÂĬ(ă
ÂŃę Ğ
Ã¾ q
= \
z ÃºÃĲ
Ã¡ ÃŃ
B Ã©
Ã¹i Ã½ÃħÃ¼
Ě ă
Ã¾Âµ b
Ãª n
Â¢ÂĬ(Ā Â¦
Ãª Ã²
x s
ć ē
k Ãĳ
ÃĿ Ãł
Ã¢ ÃĬ
ÂĦ Â»
` ÂĹ
ÃĤ W
@ Â´
Ãĭ Ãł
ÃĴ Ãİ
h j
Âĥ ]
(Â¤ ā
OÃ¹ Ã¶
g W
b Ã¨
Âı :/
Ãº Ã°
Ãµ Ãĺ
Ãĸ k
' Â£
# ÂļĀ
q a
Âĸ Â°
; &
. ÂĮ
/ )
ġ (
Ã§ e
Ãħ ÃĴ
ÂĻ Â¬
@ą ĝ
m w
Ã½Ãĵ Ã¹Q
Ã» RÃĳ
ÂĬĀ ÂĽ
Ã¾T n
Ãł ÃĽ
ĂÂĢ Ā
Ã¨ Ãº
/ ;
p a
ÃĪ j
Â± @ąĔ
Ã¸ ÃĻ
Ĝ &
Ã¨ P
Â® Â±
t Ã°
Âģ Ă
Ãĸ Ãº
ÃĹ Đ
Ã½ Ã¼Ã¿
Ãī Ãķ
Ãł X
W Ãĩ
k ÃĦ
Ã¼ Ã¥
ąÂ¢Âĵ >
ÂĴ Âĭ
Âģ Â«
ÃĬ Ã©
Âĸ Â´
ÂĻ )
: ė
? =
Ãĳ ÃĿ
ÂĦ Â¤
ÃŁÃı Ã¾Âµ
k Ãĩ
Ã½ Ã»Ã¿
Â¯ [
Âİ |
- )
b Ã©
Ã¾ Ã¢Ã¿
Âµ Ã¨
: '
u Ã¬
z Ãľ
> Âĵ
Ã° Ãı
Ã¾Ã¢Ã¾T yiÃ½ÃħÃ¼
Âĥ @Ď
d ÃŁÃª
Ã¾Ã¯ Ã«
Ã¤ ÃĻ
Âĸ Âľ
p f
Ã´ Ã½i
ÂĦ Âļ
, /
Ğ &
m D
~ <
Đ Âĭ
Ã¶ Ãķ
Â¯ )
Ã· Ĕā
RÃĴ R
Âķ )
- ā
Ĕ @
Ã´ Ã±
Âļ Ã·
ĀÂĸ ÂĬ
ă ÂĳÂĳ
( ÂŁ
r b
(Â¢ÂĬĀ(Â¢ÂĬĀ(Â¢ÂĬĀ(Â¢ÂĬĀ(Â¢ÂĬĀ(Â¢ÂĬĀ(Â¢ÂĬĀ(Â¢ÂĬĀ(Â¢ÂĬĀ(Â¢ÂĬĀ(Â¢ÂĬĀ(Â¢ÂĬĀ(Â¢ÂĬĀ(Â¢ÂĬĀ(Â¢ÂĬĀ(Â¢ÂĬĀ (Â¢ÂĬĀ
ąĘ ĔĀ
L ÃĤ
q f
Ã¥Ã¾Ã°Ã¼Ã¨ Ãľ
G Ã¬
ÂĤ Âĭ
D t
H Âº
Â¢ÂĢ Ĕ
Â¶ Â»
ė {
Ã± Âµ
ÂĹ ÂĨ
Âı- ?
. +
ġ %
Â£ Â£
Â¯ (
Ã½ Q
ÂĦ _Ã·
f ÃĶ
I Ãĳ
p Ã¯
Ãĸ Ã¼
Ã± Ã¾u
ÃĲ ÃĤ
CKH z
A ÃĻ
Ãĥ T
ÂĮ Âĭ
ÂĬĀ ÂĴ
ė \
Ãī Ã¡
ÂĨ ÂĤ
ą -ĔĀÂĺ
Ã» Ã£Ã²
ĔĀ Âĩ
g K
ĕ %Ĕ
Ã¨ Q
Âµ Ã«
ÃĹ ā
Â£ {ġ
Ã¤ O
Âĥ |
Ğ +
Ãĩ g
Âľ ]
Ã¸ X
Ġ Â¢ÂĬ(ĀÂ¢ÂĬ(Ā
Ā: Âļ
Â¿Ã· ě
{ ÂŃ
Ã³ Ã¢Ã¿
Âľ ;
Ã¡ m
Ã¢ ÃĨ
ÂŁÂķ Ā
Ãģ z
Âº Ã¥
Â¥Ā :ÂĬ
w Ã¡
P R
Z Ã¶
ÃĶ x
Âİ Â±
Đ ÂĹ
Ã¯ Ãķ
Â® Ã·
B S
Â¿ Ą
Ãĭ J
ÃºÃķ Âª
Y l
( :
Âĺ +
Ãª Ãļ
ĄÂ¢ ÂĸÂĴ
ć Â¢
ÂĬĀ ÂĮ
> ā
Ã¦ Ãĭ
y Ãĵ
Âº X
! Â©
> :
Ď ğ
ÃĲ Ã¼
} ġÂ¥
Ãľ Ã¾Âµ
Ãĭ W
ÃŃ Ã½Ã£
Ã¶ Ãŀ
ÃĹ ĔĀ
ÂŀÂĬĀ Âĥ
Ġ Â¢
Â¿ "
Ã¼Ãª z
Ã¨j J
< &
@ ÂĿ
Ãµ N
ÃĹ ÂĹ
Âĭ Âļ
Ã¼ u
Ã¾ Q
_ ć
ÂĨ Â¶
Ã³ Ãĥ
o ÃĦ
r Ãļ
< ÂļĀ
Ĝ -
t H
Ãħ Ãķ
u H
Âĩ Ć
Â¬ _Ã·
@ /
c Ã¾Ãº
z Ãĭ
S x
Âº Ãĳ
Ć Ě
Â¢ÂĢ '
Â¢ |
Ãģ ÃĲ
(Ā Â¢ÂĮ
ę {
$Âľ ā
M Ã±
Â¥ ĀĔ
Ã¼ p
ÂŃ ~
Âĩ Ď
ĜÂĮ ÂĬ
Ğ <
Ã´ ÃĮ
~Â´ ġ
Ã© o
Ãļ g
ć ÂļĀ
O X
ph Ãģ
(Â¢ÂĬ `
& ÂĢğ
Ã½Ã¶ Ã½
ÂĶ ė
(Â¢ ÂĤ
Âº ÃĮ
Ãį Ã£
Â¡ /
ÃºÃħ Ãº
= Âĥ
> ē
Ĝ '
Â± }(
ĀÂı ġ
Ġ Â¢ÂĬ(ā
Ĉ= Ĉ
m oÃ®
Ã« u
Ã½Ãĵ O
Ã¼ Y
< '
e Ã¯
ÃĿ Ã°
ďÂ¡ Â£ć
% )Â¤
( ÂĢ
Ã« t
ą Đ
ė Ć
ÂĮ Â¿Ã·
ĔÂĺ Â§
C Âª
Â¿ `
Ã¼ Ã¡
ÃĬ t
ÃĹ ÂĤ
Ĝ ;
ÃĨ a
Â¯ ÂĿ
& Â±
Ãĥ Ãı
g X
Âº W
=ąĘĞÂĤ ÂĸÂĬĀ
Ã¨ m
! Â¨
Ã¼Ã© ÃĶ
Ãħ ÃĲ
: =
Ĉ Đ
Â® (ā
Ã° Ã¬
Âĭ %
ĔÂĢ (Â¢ÂĬĀ
ćÂ¥-ĔĀÂĺ ĞÂĶ`
b Ã¯
Âµ ÃŃ
Ã¢ Ãµ
Ã¸ Ãª
ĀĔ ÂįÃ·
Ę ė
Ã¼j Z
Ã¨ Ã¯
Âĩ ÂĻ
Ã½ÃĨ Ãº
Ã½Ã´ hÃ²
> Â¯
O g
q g
Ãĳ ÃĻ
ÂĤ ĝ
Âĥ {
? ÂĬ
F Âº
oÃ¹ Ã£
Ã¸Ãĳ Ã¦
f Z
Ĕā Â¡
r S
Ã¬ Ãº
Ĕā Ě
Ã«F ÃµÃµ
Ãı Ã¸ÃĲ
Ã¶ Ãĸ
V z
(ā ))
] ;
ÃĲ L
Ãĳ Ãł
v J
Ã« w
ÃĹ )
Â¬ Â´
B R
Ã¨ J
Ā} ?
Ã´ v
Ė Âĭ
% "
ĝ Âķ
Ĉ Â¨Â©
Âº Ãĭ
ę Â¢ÂĬĀ
Â¿ ÂĮ
Ãģ J
ğÂĿ Ā:ÂĬ
ď Âı
Ē ^
ÃĻ Ã±
Âģ Â®
o i
Ĉ +
@Ě ÂĶ
ÃĻ x
o g
Ě ě
ÃªÃĽ Ã¨i
Ã¨ Ã¡
Ãķ Ã²
! Â¡
? ÂĲÂ£
v Z
Ã¥ ÃĴ
ÂĦ ė
Ãı Ã¸T
ÃºT Âµ
Â¯ ē
% ą
Â¢ ÂĸÂĲ
Q j
Āă Ā`
E Ãĵ
Ã½s o
ÃŁ K
I x
Âĩ Âį
ĀĞ Â£
& Đ
& ĕ
QE Y
ÂĢ (ā
ġ* }
Ãĸ Ãĭ
Ć (Ă
Q RP
Ã´ s
Â£ Â¤
( Âĥ
Ãĥ K
ÂĮ ^
Ã± o
Ã©V h
Ã¹ ÃĤ
ÂĪ +
ÃĹ ]
ā% ĕĞ
O t
ÂŁ đ
ÂĽ \
G ÃĢ
ÃĽ Ã®h
QK H
ĀÂ¢ÂĬ(Ā Â¢ÂĬ
Ā Â¢ÂĬ)Ā
SS Ã®
ÂĿ Ą
Ã½ ÃıÃĸ
Â¿ ÂĽ
Ã¸Q Ã¥
ć Âį
{ !
Ć (ā
ÃŃ Âª
Ã¾U f
Âİ ē
Ã¡ ÃĿ
M Ã¯
~ ;
Ã» ÃłP
w ÃŁ
ÂĬ} ĀĔ
ė ÂĪ
Ã¯ ÃĻÃ¿
Ã«V h
- =
ă Âĭ
_ @
Đ ÂŃ
Âĵ Âĩ
L Ãļ
Ã« i
& Ğ
Âİ} Â¨ā
& ÂĢ,
} ē
ÂĦ Â´
Ãµ u
K Ã®
ę Â¤Â¢ÂĢė
Ãİ n
~ ę
Ã¥ Ãĵ
Â® ē
ĀÂ® Âı
L Ã«
\ '
ÃĨ l
Ãħ ÃŁ
Ã¢ Ã³
Ć ÂĢĝ
ÂŃ |
{ _
OÃ¢ Ã¼
Â£ ĔÂ´
ÂŁ Â°
Âĩ Â¥Ā
Ã® Ã°
Ā* <
ÃĲ Ã¨
ÃºÃĶ Âµ
Ãĸ ÃĶ
ġ* <Â¨
(Â¢ÂĬ Ą
Âĵ @Ė
Ã¢ m
ÂĢ ÂĹ
Ã© ÃºRÃĴ
K ÃĶ
Ã¢ Ã»
Ã´ Ã°
ÂıÃ· Âĩ
Ã¯ Ã¡Ã¿
ÃĨ n
@ Âľ
G Ãģ
N R
ÃĢ Ãİq
/ Âı
Ãĳ g
oÃ¹ Ã¤
ÂĤ -
ĀÂı ÂĪ
ăÂ¨ Â¢ÂĬĀ(Â¢ÂĬĀ
Âĭ Â®
y Ãŀ
ğ ă
Ã¦ x
{ Â¥
(āÂ¸ Â£Ĕ
T Ã¸
Ã§ KE
Ā%ĔÂ´ ÂĶĀ
' ÂļĀ
{ Â¢
ĀÂŀ đġ
o Ã¨
Ã´ g
M Ã¢
m y
e ÃŃ
ĀÂŀ ć
Ã¼ Ãļ
- ^
& +
Ã´ d
\ Ĕ
(Ă Â¯
Âģ @đ
ÃĹ (
Âģ +
Ãł Y
u w
Ãł Ã¾U
' ĔĀ
e Ã¬
Ã½Ãĵ N
: ,
ÃĤ P
o ÃºÃ¦
ÂļÂĴ ÂĢ
\ ÃĹ
Ãģ Ãŀ
>Â¦ ÂĮÂŁ
Ĝ #
Ãł Ãĥ
~ %
Ãİ D
Ãħ Ã¶
ÂĤ ÂĸÂĲ
Ã¡ ÃĤ
Ā(Â¢ÂĬĀ *
Ãº a
Ã½Ã² hÃ³
Ã° Ãº
d Z
t N
. Âľ
- Â¨
b Ã°
Ã»Ãĩ Ã´
~ ĔÂ´
Ã¨ Z
< >
Ã½Ã³ Ã¹
Ãķ Ã½
Ā(Â¢ÂĬĀ(Â¢ÂĬĀ(Â¢ÂĬĀ(Â¢ÂĬĀ(Â¢ÂĬĀ(Â¢ÂĬĀ(Â¢ÂĬĀ(Â¢ÂĬĀ (Â¢ÂĬĀ(Â¢ÂĬĀ(Â¢ÂĬĀ
Ď ]
ÃĨ Ãº
Ã© ÃºT
Ã² Âº
Ć ÂĢ$
Ã½Ãĥ Ã´
Â¯ {
ÂĹ ĔĀ
ÂĢğ Âļ
ÃĭÃ¾ Ã¡
k ÃĲ
ĀĞ Â±
K ÃĻ
@ĕ ~
ĔĀÂ´ ÂĶ
z Y
j Ã¯
Ã» ÃłT
Ē Â¢
Âĥ Ĉ
Ã½i Ã´
Â¶Âį Â´
rh Ãī
C Ãĥ
Âļ ,ė
. Âģ
Ãł Ãľ
KE EÃ¶
O w
ĝ ă
Đ Âļ
ÃĴ Ã³
Ãµ Ãĸ
Ę Â»
Âļ ÂĸÂĢ
Â´ _Ã·
> Âģ
x B
JZ FÃ»
Ã© Ãķ
Â¯ ÂŃĀ
@ Â°
& ē
k Ã¾Ã¹
Ã»ÃŃ Ãµ
Ãģ L
Â¡ Ě
Ã¼Ã© Ã´
ÃĢ K
G K
Âī ą
Â® Âľ
' >Â´
( ĔĀ
Âĩ ÂĤ
P o
< ;
Â» Â¬
R Ã«
ć Ė
Ãį Ã®
ĎÂĤ ÂĸÂĢ
ÃĿ Ã½i
Â¢Âĵ #
^ ĕ
Ãĩ d
ąÂ¢Âĵ Ğ
(Â¢ ÂĻ
b Ã¾
Â¾ Â²
Ã¼Ã¨ Ãĺ
; ÂļĀ
Ã´ Ã²
z Ãı
z Ã¥
' "
{ Ć
Ã¾Ã° Ã¾u
Ã° Ãİ
ÃºÃĨ Ãº
Â¿ Â¦
Ā< ē
Ā-Ĕ ÂĽ
ÃĴÃĴ Q
z Ãħ
Ā& )
Ãģ h
Ã¸ e
Â¯ ;
ÃĴ Ã¨
Ãİ R
Ã¾Ã¨ Ã¾
Ã¸ d
A Ã¡
ÃĪ Âµ
Â» :
t Âµ
ĀÂ¿ ÂŃ
Â¿* <
ÃĦÃ¾ÃºÃ¾t y
Ã½ Ã§Ã¿
Ã¥ Ãĸ
Ãį IE
Âĥ ÂĹ
Â· Â£
^ ÂĶĀ
Â¸ >ÂĶ
Ãħ Ã¨
Ĕā Â£
m oÃ¯
ÃĴ Ã±
~ ă
u ÃĮ
e Ã¡
Ã½j Ãį
ÃĦ Ãļ
đ :
Ãº Ã²
Ę [
Ãģ j
! Ă
ąÂ¢Âĵ Ĕ
` ÂĶ
Âĳ @đ
ÃĮ Âµ
P Ã«
Ė Âģ
{ #
ĀÂ¿ Âĩ
ÃĴ RÃĴP
ē Ě
Ã° Ã¾u
Ã½Ãĥ Ã¹
] Ğ
Âİ Ą
ÂĿ +
Ã¸ Ã¡
=ą -ĔĀÂĺ
ÂĤÂĬ( Â¦
G Âª
P V
ÂĮ -
Â® Âį
; Â§
ĝ Â¢
ÃºÃķ Âº
N Ãº
Y Ãł
Â´ :
ÂĲ -
Ā~ ÂĽ
[ ^
b Ã¶
~ Â¥
ÂĤ ÂĪ
Y Ã¼
Ãī F
đ ÂĳÂĥ
Ĕ ĚĀ
w ÃĲ
Ė Âľ
Âİ} Â¨
& ÂĢ$
ď Ć
l oÃ®
t ÃĮ
D Ã¯
ÃĪ Âº
e Ãķ
Ãµ h
Ã¹S Ã©
Y M
_ ă
Âİ ÂĴ
Â¸ [
< ÂĬĀ
Ã¨ ÃºR
D Ã¢
ÃĦ Z
Ã½i i
U Ã°
>ÂĻ /
: Ĉ
< \
ÃĦ Ã¾ÃªÃ¾T
k Ã¾Ãº
Ãİ a
Ã« Âª
Ã¯ KE
ÂĩÂ¡ Â¥Â¤=
% Ā-Ĕ
Ã¤ Ãª
}ą ě
Ã¾Ã¨ Ã¿
W Ãģ
ÃĻ Ã¡Ã¿
(ā (Â¥Â¤
Ã© e
Ē ÂŃ
s Ã¹Ãĳ
Ã© Ã½Ã¥
Ã« f
Ã¼ f
Ĕā .
V Z
Âĳ @Ď
Ē Ā$
ğ Â¶
Â· Â¥Ā
Ã¨ n
ė ^
}Âŀ ğ
< @
g ÃĢ
Âĭ =
Ã¶ C
~ÂĶÂ´ ÂįÃ·
' >ÂĶ
r u
K ÃĲ
Ã¼ X
Ã® t
oÃ» Ã¤
Ã± ÃºÃĴ
Y ÃŁ
Y u
Â´ Ĕ
ÃĴÃĴ P
: &
; -
Ãº ÃŁ
Ã¨ Ã´
ġÂĺ Â©
Ď Ĝ
} ÂĲ
x z
Ě (Ă
Âŀ ÂĲ
ÂĢ& Â¢
Âŀ Ĝ
Ď Âģ
RÃĳ L
Â¢ÂĬĀ(Â¢ÂĬĀ(Â¢ÂĬĀ(Â¢ÂĬĀ(Â¢ÂĬĀ(Â¢ÂĬĀ(Â¢ÂĬĀ(Â¢ÂĬĀ(Â¢ÂĬĀ (Â¢ÂĬĀ(Â¢ÂĬĀ
o T
Ã· Âķ
Ã½ÃĨ Ã¿
Ã¡ Ã¸
ÂĿ ]
d ÃºQ
Ã¤ EÃ¿
ÂĨ Â¯
g Ã£
ć Âī
ÃĬ u
< ^
Ã¢ Ãķ
Âģ (
ÃĤ Ãļ
Ã¼Ã³ Ã¿
? @
W Ãº
c Ãł
Ã¢ Ã¬
Âĩ Ē
Ã° k
Ã³ l
Âĵ @đ
ÃºÃĶ Ã¿
q z
H aE
Ãĳ KE
(Â¢ ÂĴÂĢ
Ã¥ Ã¾Ã°
- Āĕ
ď Âİ
Âĥ Â«
Ď Â¨
Ã¢ Ã©
Ã½ RÃ½
ÂĬĀ Â¨
Āğ Âį
! ÃĹ
ÃıE Ã¼Ã¨
r Q
Ã¨ ÃºRÃĴ
Ãº Ãĩ
Âĺ ĞÂĶ`
Ã° K
ē ÂĶ
Ãł Ã¯
# ÂŃĀ
ÂŁ Â¶
Ã¯ Ã¹ÃĲ
ĀÂŀ ÂĴ
ÂŁÂŃ Ğ
{ Â«
Ã½Ãĵ Ã¿
A Ã¹ÃĲ
Ã¶ z
Ãŀ m
Ĝ @
ÃĽ Ãº
ÂĬĀ Â»
ă Â¬
Â± Ě
ē Âī
Â¬ ?Ã·
ĀÃĹ ÂŃ
Ã¹ ÃĮ
ĂÂĸ ÂĬ(Ā
Ã§ Ã£
Ã² f
ě Â¬
ÂĽ ]
I Ã¸
Â¢ÂĬĀ (Â¢ÂĬĀ(Â¢ÂĬĀ(Â¢ÂĬĀ(Â¢ÂĬĀ(Â¢ÂĬĀ(Â¢ÂĬĀ(Â¢ÂĬĀ(Â¢ÂĬĀ(Â¢ÂĬĀ(Â¢ÂĬĀ(Â¢ÂĬĀ(Â¢ÂĬĀ(Â¢ÂĬĀ(Â¢ÂĬĀ(Â¢ÂĬĀ(Â¢ÂĬĀ
( āĀ
ÂĹ \
? Âĥ
Ã· Âļ
Ĕā Ď
ÃºÃ© Ã½
Ē Â¥
ğ Ą
Ã³ ÃĭÃ¿
^ Â«
e Ãĵ
Ğ ę
Âľ %
ĔĀ ÂŁ
Ã½Ãĳ Ã¹Ãĳ
Ã½Ã¡ Ã¹Q
Đ _
ÃĽ Ã¾Ã¹
Ãŀ ÃĩÃ²
-% Ā
ÃĢ k
Âĩ {
" ÂĢĝ
ą Â®
Ãı M
Â¢ÂĢ ĖÂĬ(
D Âº
Q Gj
P l
ZC ÃĲÃĲ
k Ãľ
ÃŃ t
Â£" ÂĢĖÂĬ
Ã± q
Â¢ÂĢ Ĝ
(Â¦ ā
Ã¸ h
= .
Ãŀ ÃĴ
` Â´
G x
> &
ÂĢ ^
ė ÂĨ
Âŀ Âĸ
Ãŀ Ã»
- ď
< +
= Â®
B o
Ãª Ã¼
(ă ?
s Ã¹ÃĲ
{ Â¦
Ã¯ Ãĥ
Ãĺ x
Âľ ÂĬĀ
Ãı Ãĳ
Ā< Â¤
N L
Ã© ÃºS
ÂĬ ÂĸÂĢ
(Â¢ÂĢ ă
: Â»
Ãģ Ãĸ
/ Ē
Ãĩ Ãĩ
Ā(Â¢ÂĬĀ(Â¢ÂĬĀ(Â¢ÂĬĀ(Â¢ÂĬĀ(Â¢ÂĬĀ(Â¢ÂĬĀ(Â¢ÂĬĀ(Â¢ÂĬĀ (Â¢ÂĬĀ
Â¢ÂĬĀ(Â¢ÂĬĀ(Â¢ÂĬĀ(Â¢ÂĬĀ(Â¢ÂĬĀ(Â¢ÂĬĀ(Â¢ÂĬĀ(Â¢ÂĬĀ(Â¢ÂĬĀ (Â¢ÂĬĀ(Â¢ÂĬĀ(Â¢ÂĬĀ(Â¢ÂĬĀ
Ã° Ã®
Âģ |
oÃ¹ Ã¢
ÂĶ ġÃ·
Ã¢ Ã¶
ě Ě
Ã¼ Ã®
= ÂĻ
Ă ^
Ã¾y Ã¿
: ]
\ -
a g
Ĝ Ĉ
Ã§G ÃĻ
ÃĭÃ½Ã¡ Ã¹ÃĲ
Ĕā $
X Ãª
Ã¬ Ã½
o oÃ¯
| .
t Âº
ÂĪ Â´
Â¥Â¢ÂĢ Đ
Â¢ÂĢ ěÂ±
Â¤ ÃĹ
Ãı Ã¿ÃĻ
Ã¹Ãĳ Ã¥
Ã¼ A
= Â¨ă
^ ÂĴ
Â¯ Ė
y ÃŁ
Ã¹ Z
A Ã¸
Ā-Ĕ ÂĻĔ
Ė Â®
Ã¹Q Ã§
P zP
Ã¹Ãĳ Ã¿
ĀÂ¦ ÂŁÃ·
> Â©
Ãµ H
Âĸ ÂĢĖ
Â¿ Ā
Âº Z
>ÂĨ ÂĮğ
ğ Â·
ÃĿ g
Ã¢ Ã¨
ĀÂŀ ÂĬ
Ã©I Ã¶
Ã½Ã² k
j Ã¸
ÂĢ Âī
z Ã¡
Â¤ Â¢Âģ
Ā< ?
O D
Ãħ Ã¬
Ã¢ n
Ã´ Ãŀ
ÃŁ Ã¤
ġÂŃ ğ
' }
ĠÂĮ ÂĥÂĳ
ZC ÃĴ
Âŀ Âı
{ +
QE A
Ã½j Ãķ
Ã° Ã«
v Âµ
JZ C
: ÂŃ
u Âµ
Ãª Ã±
Ã¢ ÃŃ
Q x
Ę Ĕā
Ã¬ OÃ®
Ã¬ ÃĲÃ¿
Ãĥ D
ÃĤ f
Ãģ Ã¡
ÂĥÂĳ Âĳ
n oÃ®
Â¿ đ
^ Â´ā
' @
Ē ÂĸÂĬ(Ā
Â¥ :ÂĬĀ
Ã¼Âª Ãħ
Âĭ ė
ÃŁÃ³ ÃĤ
_ Ĝ
ÂĬÂĴ ÂĬĀ
/ ĕ
/ Â¦
u Ã¥
w h
Ġ Ã©KH
ÃĻ ÃĴ
u ÃĶ
$ āÂĵ
n oÃ¯
ĀÂŀ ğ
Ā> Âķ
< ,
] Âļ
Ã¨ Ãµ
Ã¢ Ãĸ
ÂĹ ^
Ã¼Ã´ Ã¿
-Ā %Ĕ
Ã§F Ã´
Âĵ ÂĶ
ÃĴ j
Âĥ @Ė
; *
Ãī x
m k
Ãĵ t
Ę Â¢ÂĬĀ
Ã¯ OÃ¯
l Ã«
}Â¢ ğ
ę Â´
Ã¼j j
~ Ĉ
Ã³ Fi
~ ÂĽ
ĄĞ Âĩ
O y
o M
_ ĝ
w Ãĵ
{ .
Â¿ÂĿ ě
Ãĩ Ã¾Ã»
; Â¬
ā (Â¢ÂĬĀ
Ã¸ Âº
Ã¾Âµ f
C x
R sG
Ãŀ ÃŁÃŀ
ē Â«
Âŀ Â¯
ÂĦ Â¦
Ãķ Ãł
Ď ĝ
? Âĵ
s i
Ã¼ Âº
ąÂļ *
K N
Â® Âķ
Â§ Ĕā
Ā-Ĕ ÂĺÂ£
Ã£ Ãĥ
Ãī Ã¸
Ã© ÃºR
Âŀ Âİ
M Ã¡
Ã© ÃºÃĴ
Ãµ L
D Ã´
^ Â¨
ÂŁ Ē
Â· Â«
> Ā
Ď Âİ
Âĥ %
Ď Â®
: Â¦
\ Â¢ÂĢ
Ğ #
A Ã¨E
D Ã¦
Ā} ġ:<
M ÃĲ
k Ãį
ÂŃ Ĕā
Ãĭ oÃ¹
ÂĪ /
Â¤Â¥ ĝ
ÂĬĀ ÂĴÂĬ
% ē
Ãµ X
Ãİ Ã´
] +
Ãº iÃ¿
= Ã·
| Ă
ġ Â¦
ÂļĀ Â¯
& ÂĮÂļ
Ã² l
z Ã¬
Âī /
Ãº RÃĳ
Ãĵ x
Â¥Â¢ÂĢē Ğ
(Â¢ÂĢ ā
ġÂ¸ ġÂķ
ÃĲ Ãŀ
^ Â¥
Ã³ Ãł
@Ď Ĕ
< "
Â¿ ė
k Ãĸ
ÂĬ Ã·
ğÂĿ Ĝ
Âº Ã¯
Ā_ ğ
Â£ Â¬
Ã« Ãĭ
Ãģ ÃĻ
(Ā Â¢
Ã¹T Ãķ
K Ãº
ÃıÃ¾ Ãį
Ã¸ A
K ÃĦ
Ã² u
Ď ÂĶā
Ãµ p
ĀÃĹ ?
Âĵ ÂĦ
ġ* ÂĴ
@Ě Â´
ĀÂ¸ ?Âķ
t SÃ¨
Âº ÃĻ
v t
ÃīÃ´ Ã½h
Ã© ÃĿ
Ã° ÃĴ
> ÂĬ(Ā
Ã£ Ãł
MÃĥ ÃĶQ
o Y
# Â¤
Ã· ÂĦ
o t
ÃĲQ Âµ
ÃĲ RÃĴ
ĀÂŀ ď
Ã¢ t
b t
Ã¼Ã¨ Ã¹
Â¥Â¢ÂĢē ĂÂĮ
Ã¶ Ã¾Ã±
đ Â¥
Ãį y
p m
} '
Ã¦ ÃĩÃ¿
Â¥ ĝ)
< ĕ
Ã¶ ÃĬ
f hÃį
Ã¥G Ãļ
Âİ ,
Ã¸ l
Â¥Â¢ÂĢ #
ÂĿ ă
Ā} ÂĬĀ
g H
ÂĨ Â¸
/ Đ
(Ā Â¢ÂĬ(ĀÂ¢ÂĬ(ā
I ÃĦ
(ă >
ą Â¢ÂĬ(ĀÂ¢ÂĬ(ĀÂ¢ÂĬ(ĀÂ¢ÂĬ(ĀÂ¢ÂĬ(ĀÂ¢ÂĬ(ĀÂ¢ÂĬ(ĀÂ¢ÂĬ(Ā
Âĩ ÂĢ
O W
Âľ ę
ÃĶQ p
s e
Ãī ÃĮ
ġÃ· Âį
Ã¨ ÃºRÃĲ
Ė [
Ã¤ X
Ã° B
ĕ -Ĕ
oÃ¹ Ã¡
Ãķ Ãĸ
Ãĥ E
ÃĹ ÂĨ
ÂŁÂ¥ -#}
Ď Âı
Ã¶ ÃĶ
Â¢ÂĬ(ĀÂ¢ÂĬ(ĀÂ¢ÂĬ(ĀÂ¢ÂĬ(Ā Â¢ÂĬ
ÂĢ Â¢
Â¶ Ě
. ,
Ã¶ Âº
} #
ĀÂ¸Â¿Âķ Ğ
q ÃĮ
Ã¢ Ãı
ĞÂĶ Â´Ā
Ãĥ Q
( Â´
d zÃĶ
w k
Ãĥ U
ÂĬĀ (Â¢ÂĬĀ(Â¢ÂĬĀ
Ã½Ã¡ Ã¿
} $
= ĝ
ē :
Ãı GÃ¿
Ă ÂĢ$
Ã· Â¯
}Âį Ā
Ā\ Â¿
Ė ÂĦ
ąÂ¤ Â¢ÂĬĀ
^ ÂĶā
ć ÂĪ
ÂĮ ÂŁÃ·
ÃĬ k
Z Ã´
ĀÂŀ Ē
Ğ "
Ãģ ÃŁ
ÃĢ D
Ã¾ n
ąÂ¢Âĵ "ÂĮÂĬĀ
ÂĬĀ ÂĲ
= Â¡
^ Âı
Ãº ÃĤ
ÂŁ Ě
Ãģ g
k ÃĬ
/ Â¢
S Ã¾Ã¹
Ã° ÃĶ
^ Â´Ā
Ã©KH ÃŁtÃ½
s ÃĿ
Â· Ã·Âı
{ Â¤
Âĩ đ
Â» Â«
Ã¸ a
c Ã¼h
tQ Ã¥
Ĝ Â´
ġ: }
ÂĹ Â¢
Âİ Âİ
O d
ÂĤ (ā
ÂĿ Ă
Ć ÂĢ,
Â« ÂĶĀ
Â© (Â¢ÂĢ
ÃĹ ~
Z Ã±
Ãļ Ã»
>ÂĻ ė
Ãĳ u
Â£? _
M x
k Ãħ
ÃºU Âª
E Ã¾Âµ
ÃŁo ÃĴ
RÃĶ W
ē ÂĪ
ę Â¥Â¢ÂĢē
ė Â£
Âľ <
ÃĴ ÃŁ
Âľ Âī
Ã¢ Ã´
Ã¢ ÃĶ
Âľ Ą
- Â©
M Ãĸ
W ÃĢ
~ Âı
` ÂŃ
x QÃ¦
J SI
Ė ÂĤ
Ā= ÂĹ
Ĕā Âĵ
Ãĵs Fh
Ãģ k
Ã· ÂĿ
Ãĩ G
Ã¬ ih
Â¢ÂĴ ÂĢ
ă ĔĀ
ĝ _
Âĵ Âĺ
Ãµ oÃİ
ÃĳI Ãį
: ę
ġ ć
Ãĥ Ã¬
Â¬ Â¿Ã·
" ÂĢ$
# ÂĬĀ
Ē ÂĽ
?Âĺ Â£
+ ÂŃ
ÃĨ o
ÃŁ ÃĲ
ÂĹ ÂĪ
Ď đ
ĝ .
Â¢ÂĬ ĆĔ
Ě Ā}Ĕ
Âı ÂĤ
ÃŁ Ã¼z
Ã© ÃĶP
Ã² Âµ
ĀĞ ÂĲ
Ã© Ãł
Âĵ @ē
Âį }
Â¶ ^
Âº Ãŀ
Âİ} ć
_ Âİ
ÂĦ Â¢
Ã§ Ã¾y
/ Ď
Âµ Ã£
ÂĢĖ Âĵ
Âŀ đ
Â¥Â¢ÂĢ Ě
@ĎÂ¢ÂĽ Â¸
% Ė
Ā? #
Â© Â¨Ă
Âı đ
Ã½i ÃĶ
ć ÂĬĀ
Ã¶ B
ĝ Ĕā
Ãª u
Ã©F Ãĵ
y Ãĸ
Âĩ &
Ã¾Ã°Ã¼Ã¨ Ãŀ
Ãķ Ã¦
Âİ Âĳ
ÃĻ Ã¾Ãĵ
K ÃĮ
= ă
Ā# }
Ã© ÃĮ
OÃ» Ã¤
Â¥Â¢ÂĢē >
Ãī ÃĴ
Ã½Ãĸ Ã¾
. ÂĹ
ġ Âĥ
Ãĳ Ã¸
RÃĳ H
{ ;
Ā? ă
ğÃ· Âı
Ā(Â¢ÂĬĀ(Â¢ÂĬĀ(Â¢ÂĬĀ(Â¢ÂĬĀ(Â¢ÂĬĀ(Â¢ÂĬĀ(Â¢ÂĬĀ(Â¢ÂĬĀ (Â¢ÂĬĀ(Â¢ÂĬĀ(Â¢ÂĬĀ(Â¢ÂĬĀ
ÂĲ '
(ā >
Ã¼Ã² OÃĬ
W Ãķ
ÂŁ Đ
Ã¥ t
] Ě
Ã© ÃĦ
Ãļ Ãº
Ãĩ Ã¾Ã¹
Ā= ÂĽ
ğÂĿ Ā-Ĕ
ĔĈ (Â¢ÂĬĀ
Ã¼ d
ÂĴ Â·
Ğ ĕ
C ÃĲÃĴÃĴ
ÂļĀ ÂĴ
Âŀ Âĵ
(Â¤ Ă
Ã¾ V
Âı Âĥ
- _
y ÃĲ
Â´ <
(Ă Â§
d ÃºÃĴ
Âĸ Â¯
Âļ .Ė
JZ EÃ»
ĀÂĿ ğ
Â· ÂŃĀ
Ā (Â¥
ė }
ğÂķ .
ą :ÂĢ
Ã¯ ÃĮ
Â¢ÂĴ ÂĬ
ĀÂļÂĬ Âĩ
ġ ę
ĀÂ¥ ğ
O ÃĢ
Ã¡G Ãļ
Ė Âĩ
Ā< [
ĞÂĶÂ´Âĩ Â¥Ā
Âº ÃĢ
ă Ĕā
q Ã¢
ÃºÃķ Ãº
D Âµ
Đ Â¢
Ã¦ Ã½
Â¯ Âİ
ĀÂķ ğ
$Ď Â¤
= đ
Â´ ?Ã·
k Ã®
Ã© ÃºÃĵ
Âį {
Ãµ A
OÃ¹ Ã¸
Ã° Ã¯
Âį |
Ãį KE
I ÃĮ
Ã© l
Ãı OÃĴ
ĀÂ¢ÂĬ(ĀÂ¢ÂĬ(Ā Â¢ÂĬ(ā
Ãį Ã¯
: ÂĪ
Ã¡ Ã¢
Â¨Ā Â¢ÂĬ(ĀÂ¢ÂĬ(Ā
Âĵ Âĭ
^ |
ÃĽ Ã£
' ÂĬĀ
^ Đ
Ã§ Ã¾x
a D
Âĥ @đ
? ÂĴ
T ÃŁJ
, Ã·
D Ãµ
Ãµ mÃ´
Â¥ Â¢ÂĲ
ÂĨ Âĥ
E Ã¯
Ã° ÃĲ
Ā} Â·
/ ē
Ã± ÃĮ
ĠÂĮ đ
Âı :?
Ã³ ÃĩÃ¿
^ Â»
Âŀ ē
Ā\ Âı
Â¯ Đ
{ &
Â° Ě
Ā(Â¢ÂĬĀ(Â¢ÂĬĀ(Â¢ÂĬĀ(Â¢ÂĬĀ(Â¢ÂĬĀ(Â¢ÂĬĀ(Â¢ÂĬĀ(Â¢ÂĬĀ (Â¢ÂĬĀ(Â¢ÂĬĀ
Ĕā ę
b Ã¸
~ Ď
Ā% %
Ãĥ ÃĶQ
ĀĔ ÂĩÂ¥-!
Q IJ
Âŀ Ă
Âģ @ĕ
ĄÂ¥ Â¤Â¥
E ÃŃ
Ã¹ ÃĦ
Ã¤ Ãį
Ã¦ Ãĸ
Ãĥ Ãİ
ÃĿ f
ĆÂĮ ĚĀ
B QE
Ãļ Ã±
Ã³ Ã¡
Ġ ÂŃ
Âĵ ĔĀ
Ã¢ ÃĦ
Ã¢ Ãį
Â£ğ _
z Ãĺ
ġ '
Ã± Ã¾U
ÂŁÂŃ ę
Âº Ãħ
ě Â¨ā
ĝ Âĵ
Ã½Ã¥ Ã¼
ĝ Đ
-% ĔĀÂ´
Ā}Ě <
Â´ ÂĶÂ´
-Ĕ ÂĢ
Ãı AÃ¿
Âµ Ãº
Ā_ '
Ãł Âµ
Ā= *
? Â¢
Â¤ Â¿Ã·
Ãĵ Ã¼j
h x
ĀÂŀ ă
Âĩ ]
Ă ÂĬĀ
q KE
Ē Âī
Ā: ÂĲ
Âµ Ã§
ă |Â´
Âŀ ,
. (ā
Ãº D
r Ã¶
Ġ ÃĹ
ÂŁ ē
ÂĪ Ě
ÃŁÃ¾ Ãĭ
ÂļĀ ÂĨ
} "
GÃ¥ KE
b QE
^ (Ă
Ãº Ãĭ
Â¡ )
ĀÂ® Â£
Ãł ÃºS
Â¶ (Ă
F t
W Ã¶
Ā< ď
= ÂĲ
Ã¾ Ã«Ã¿
ÃµÃĵ Ãº
@ ÂĶ
Ãķ ÃŁ
ÂŁ ÂĮ
Ā? )
. Âķ
L Ã©
ÂĦ Â§
Ãī Z
ĔĀ Âį
ÂŁ Ė
Ā ÂĻÂ£
Ĕā ė
ĝ Ė
Â¤ ġÃ·
Ãĸ Ã¾Ã©Ã¼
PÃĬ A
% Ã·
Ā Â¥Â¤
s h
ÂĹ Âĺ
Âĳ @ĕ
x D
Ĝ \
Âĵ @ď
S Ãł
Ãŀ Ãĳ
Â¢ÂĢě Â´
Â¢ÂĬ(ĀÂ¢ÂĬ(ĀÂ¢ÂĬ(ĀÂ¢ÂĬ(ĀÂ¢ÂĬ(ĀÂ¢ÂĬ(ĀÂ¢ÂĬ(Ā Â¢ÂĬ(ă
g D
g ÃĨ
ĝ (Ā
ÃĽ Ã¾z
Ãı Ã¸S
: :
Âĥ @ē
cÃľ Ã¾t
q ÃĩZ
Đ %
. Â¯
Ã³ Âº
; Â´
| Ě
Ãº Ã¡
ÂĦ Â¥
Ã¼Ã³OÃ» Ã¤Q
s ÃĻ
U Ã±
Ãŀ Ã«
G X
Ã¼Ã¨ Ãĩ
Ã½Ãº oÃ°
I z
Ã«I Ã¶
Ġ Â¢ÂĬ(ĀÂ¢ÂĬ(ĀÂ¢ÂĬ(ĀÂ¢ÂĬ(ĀÂ¢ÂĬ(ĀÂ¢ÂĬ(ĀÂ¢ÂĬ(ĀÂ¢ÂĬ(Ā
ÂĴ ÂĸÂĬĀ
: #
Âį Ĕā
" ÂĢ,
B k
Ãª Ã´
Ã¹Ãĳ Ã§
ÂĬ( ĂÂ¿
p Ã¾b
Ãĩ Ã½Ã³
Â¯ Ć
Âı ÂĢ
Ãº Z
ÂŁ Âİ
ĀÂķ Ğ
q ÃıZ
W z
G G
Âĭ Â¥
ā= ĕ
^ ÂĽ
z N
ġ Ę
ġ Â¢
ÂĴ Âī
B u
^ '
Ãľo ÃĴ
Ĝ $
ÂŃ -ĔĀ
o ÃĶ
@ą% -ĔĀÂĶ
r Ã©
] !
h Ã¸
l Âº
Ã» Ã©Ã¿
. ÂĶ
K Ãĵ
Ğ Â¨
Ā& ąĘĔÂ´
Ã¾Ã± Ã¾u
Ã° Ã¾U
Ã° Ã»
Âĵ Âī
Âĺ Ĕ`
ď đ
Â´ ÂŁÃ·
_ [
Ã§Ã¼ Ã¿
Z Ã«
ÂĢ (Ă
o Ãģ
OÃ» Ã¸
ÂŁ @ą
ĞÂĤ ÂĸÂĬĀ
_ Ą
u ÃĻ
Ãľ ÃŁÃľ
ÃĹ Âķ
= Ė
ÂĬĀ Âĸ
ğÂĿ .
ÃµK Ã´
{ \
QH ÃĮ
o w
^ Â¡
Âĳ @Ė
Ãº ÃĽ
Ā< ć
đ {
Âı Âģ
W ÃĨ
ġ Ā
Â¢ÂĬĀ(Â¢ÂĬĀ(Â¢ÂĬĀ(Â¢ÂĬĀ(Â¢ÂĬĀ(Â¢ÂĬĀ(Â¢ÂĬĀ(Â¢ÂĬĀ(Â¢ÂĬĀ (Â¢ÂĬĀ(Â¢ÂĬĀ(Â¢ÂĬĀ(Â¢ÂĬĀ(Â¢ÂĬĀ
Z Ã½
k Ãĥ
W Ãĳ
Âī (
| Ā
Ã½Ã£ Ã¼Ã©
! ÂŃ
A ÃĮ
Â¯ Ď
Ãµ ÃŁ
ÃŁ mÃ¾
Ã¾u f
Ã¾y GÃ¿
> ę
Ã·ġ ē
Đ Ã·
Ĕ :
Ãµ w
ÂļĀ ÂĬ
r a
Ãİ Ã½
Ã³ ÃħÃ¿
(Ă <
ÂŁ ĕ
# Ě
ÃĨ g
ÃĻ u
ÂĿ ^
ÃŁÃ³ Ãŀ
Â¤ Â¢ÂĲ
Ã¤ ÃĮ
ÃĿ u
$ Â¢Â£
Ā ĝ)
Ã± u
G D
J JZJ
K Z
Ã¥ k
TP Âª
Â¸ Ě
ġ* Âĸ
Ã´ Y
Ãł Ã¾T
Ã¢ Ãĥ
Ā| Â¯
Ãĺ j
Ĕā ğ
^ Â¢ÂĢ
ą Â¢ÂĬ(ĀÂ¢ÂĬ(ā
Ã¾Âµ Ã¿
A z
Ã¢ Ãģ
ÂĲ: Âľ
ÃªS Ã½Ãĳ
ÂĤ ,
Ğ ğ
Ã¤ Ã«
ÃĲ Ãı
Âī {
Ãħ Ãĳ
Âĭ \
Â© (Â¢
ā% ĕ
Ã¦ Ãĥ
ĀÃĹ Â¢
b OÃ¯
Ĝ Ę
Âº Ãı
ď Â«
G ÃĨ
ÃĽ Ã¾Ãº
Ã· ]
Âŀ ÂĹ
Ãĭ Ã±
K ÃĢ
ÃºQ p
e ÃĲ
Â® ÂĲ
c KE
$Âĵ ÂĴ
G Ãĥ
Ã¼j z
> <
Ã¾ o
ą-ĔĀÂĺ Ĕ`
D Z
Ã½Ãĥ Ã¼Ãħ
Ã½Ãģ Ã¼Ãį
Ā= Â©
ÂļÂĴ ÂĬĀ
{ Â£
Ã© Ã½j
Ã¨i ÃĶ
K Ãģ
Ãĵ FÃĵ
ÂĲ %
Ãª t
Ğ ÂĶĀÂ´
w Âº
Ã¦Ãĩ Ã½ÃµÃ¼Ã¨
k Ã«
~ ā
ăÂ¨ Â¨
? Ā
ę :
Â¬ Âķ
(Â¢ÂĢ Ď
- *
Ã¹ ÃªÃŁ
% Ā-
l oJ
Ã© Ã¡
Â¿ @
ğ Ā
O Ã½Ã´
% Â¦
^ !
Âľ ě
Ã° P
?Âķ Ğ
iÃ´ Ãī
Ã¡ ÃĮ
= Âļ
Ã¼ Ã²Ã¿
Ġ Ãªi
Ă ÂĢ,
ĀÂŀ Âĳ
Ãªh Ã»
Ã½Ã£ F
Ã»ÃĴ Ã¿
/ :
Ã» a
(Â¦ Ă
Ã¼ N
Ãį Ãº
p Ãº
~ ē
Ã§ z
c Ã¹P
ÃĢ ÃıZ
(Ā Â¦
ą ĀĔ
(ā Âĳ
ÃŁÃ³ Ãķ
P Ã©
ÃŁ ÃĥÃ¾
w ÃĶ
Ĝ ć
E ÃĴ
K Ãİ
> !
Ã¸ r
Ã½Ã± G
Ĕ āā
Ã£ FÃ£
Ã¾Ã¯ Ã«F
Âľ Â¥
C Ã¹P
} .
Ã³ ÃĻÃ¿
u N
Ã» Ã¹Ã¿
Âķ Ĕā
^ Âİ
Ė ÂĨ
Ãı cÃ¿
Ã«R ÃĲ
ÃŁÃ³ Ãī
Ã¨ÃŁ ÃĴ
ÂĬ) ÂĢ
& ÂĢ%
Ãı Ã½Ã²
Â¿ ÂĬ
Ā^ Â¬
Ãĩ D
Ã½ SÃ½
Ã¡ Ã¼Ãħ
ÃºU Âº
Ā* }
ĀĔ ÂĿ
E Ã¡
S Ã¼Ãª
G H
} Â¿:
ę ĝ)
Āġ [
Â¾ Â³
g Ã¾Ãº
` Â¦
Ãł Ãĭ
ęĞ Â¢ÂĢĖÂĬ
Ã½ Ã¥Ã¿
Ãĥ Ãħ
r Ãĸ
Â¤ ĝ)
f Ã±
ĝ ÂĴ
ÃºT Ãķ
Ãĵ Ã¾y
Ĕā ~
Âŀ Â·
ÂİÂĶ Â´
Âİ (Ā
Âĩ ÂĨ
Ã¸ z
%ĔĀ Â»
L AE
ÃĴ Ã©
Ãĭ Âª
Ãı Ãĩ
Â¥Â¢ÂĢ !
& }Âįę
z Ã¹
Āğ đ
^ Â±
ĝ "
7 Â¼
Ãħ Ãŀ
Ā%Ĕ Â¸
Ğ Âı
Ã¢ Ãī
ÃĦ Ã©
Ãĩ Ã¸P
Ã¸ ÃĬ
ÂĬĀ ÂŁ
Ď ÂĴ
( Âľ
Â® ÂĶ
ę )
Ã½ f
ÃĲ l
ÂĢ' Â¢Â«
ÂĨ ē
n Ã°
Â© >ÂĤ
ÂļĀ ÂĹ
Ā-ĔÂĻ ĞÂ¢ÂĮÂı
Ãħ Ãĸ
Âº ÃĤ
Ã¾ Ã³Ã¿
m x
ÃŁÃĸ Ã¿
Ā* >
Â® Â©
oQ Ã¹P
u z
Ã¤ N
Q Ã¹ÃĴ
e Ãĸ
ĀÂı )
Ãª Ã¾
= ÂĤ
Ď Âĵ
Ã« a
RÃĴ S
ÂıÂ¥ -"
ĀĚ Â±
ĞÂĨ ÂĢ
ĀĞ Âĵ
ÂĮÂĮ Ě
Ã¡ Ã®
ÂĸÂĬĀ (Â¢ÂĬĀ
Ď Â´Ā
ď Â£
ÃªÃĽ Ã¨h
o k
Ã© ÃºU
Ãĭ X
D Ãº
Ē ÂĬ\
Â¯ ÂŃěÃĹ
ÂļĀ Â»
t J
Âı Â¢
W Ãĥ
= ]
Ãķ Ã¡
Ã¾Ã© Ã¾T
' ÂĦ
Âİ Â¯
Ã¤ Ã¨
Ã« x
Ãģ ÃĦ
(Ā Â¥
@Ć =
] (
m Ã°
ÂļĀ ÂĴÂĬ
# ĔĀ
Ã± ÃĿ
Âĩ )
Ĉ ē
Âµ Ã¢
Âµ Ã®
" ÂĢ#
ÃĹ ÂĢ
Ã½h Ã»
Ã¼ ÃµÃ¿
Ã¾ r
(Â¢ Â´
, ĝ
Âº Ãį
ÃºÃĶ Ãµ
ĔÂĶ Â´Ā
>ÂĶÂ´ ÂĭÃ·
Âı Ě
^ Ĝ
x I
Ãľ ÃŁÃŀ
Ãķ Ã¼
ÃºÃĴ y
(ā ÂŁ
Ã¯ ÃīÃ¿
Ã¸ Ãĥ
Â¢ÂĬ(ĀÂ¢ÂĬ(Ā Â¢ÂĬ(ă
ÃĤ Q
Ġ ĞÂ´
Âŀ Ē
Âĵ Â«
Ā= $
Âģ @Ė
: ÂĽ'
Ã³ ÃĺÃ¿
Â· Â¢
Ã± Ã¾T
o oZ
Ãº Ã¤Ã¿
Ã¹Ã¤ ÃŁ
ĀÂı ğ
} ĕ
Ā} )
C ÃĤ
ĀÂĿ Ğ
K Âª
Y Ã¯
ÂŃ ~ÂĶ
C ÃĦ
ć ė
Ãŀ Ã²
ć ĝ)
Âĩ Â«
ÃĢ Âº
Č ĉ
Ãģ ÃĩZ
Ãĳ Gz
gÃĺ Ã¾T
Â¡ :
Ã¡ Ã§
ė Âī
ĀĞ ?
ÂĽÂĩ Â¨Â£
Ã½ e
Ãı HÃ¿
Ãī M
Âĥ @ď
(Ă Â´
> Â»
Ā} /
Ĕ āĂ
Ã¨ t
Ã¼Ãµ OÃİ
Ã· ĔĀ
Ã¸ p
w ÃĦ
@ę '
ĀÂİ ÂĬ
| Ė
ÂĢ% Â¢Â£
Â¥ Â¢Âģ
Ã¶ Ãĥ
Ãł ÃĮ
? Âľ
Âº ÃŁÃĴ
Ãĩ QE
Ā: }
Ĕā Â¥
Â± })
Āĝ Â©
ġÂ¸ ġ
k Ãº
Ãı Âª
ĀĚ _
ÃĽÃ¾ Ãĳ
y t
& (ā
h QE
w Ãĥ
Ć ÂĢğ
Ā= #
ąÂ¢Âĵ Âļ
Â¥ Â¢Âĭ
Ã«G Ãļ
Ď ÂĹ
ÃºR y
ÂĬ) Ā
ē Â¬
ğ ě
Ãł ÃŁ
Ã¾Ã¡ Ã¾T
Ã· Âŀ
ÂļĀ Âı
` Â¢ÂĬ)
ĕ Ĕā
Ã¡ l
Ã¹ Ã¢Ã¿
ą Âŀ
Ãģ Âµ
Ã° Ãŀ
Ã¢ Ãĳ
/ Ě
-ĔĀ ÂĻÂ£
Ā] Ā
Ĉ `Ĉ
Ã¾Ã¨ Ã¼Âª
'Ã· ÂĹ
Ã©G ÃĻ
K Ãł
' Âĩ
ġ $
Ã¶ N
p Ã¾t
Ã¸ y
ĚĀ Â±
ĝ Ĝ
Ã» Ã¤S
Âı> /
Ã¾ h
. Âį
Ā Â¤Â¥Â¤
Ã¤ CÃ¿
Ãİ m
ÂĬĀ Â¦
Âĭ -
%Ĕā Ğ
C ÃĿ
E Ã¾u
M ÃĭÃª
Ã§ Ã¾z
ÃŃ j
-Ā %ĔÂ´
x H
Ă ÂĸÂĬ
ą Â¢Âļ
ÃºQ Âµ
Ã¡ u
zÃĴ ÃĲ
Ã¯ Ã¹Q
Z Ã¾
Â¨ Â¢ÂĬĀ(Â¢ÂĬĀ
ÃŁ KÃ¾
-?Â¸Â¿Âķ Ğ
ÃĤ R
(Â¢ÂĢ Ė
% Â§
t Ã¾U
Ã¼Ã³ oÃĬ
ąÂļ *Â·
. Âĸ
; ÂĬĀ
ÃĨ u
Ã«S Q
} Ą
ÃıC Ã¹
ē ÂĦ
QE G
Âģ )
ġ ÂĴ
oA Ã¹ÃĲ
= Ĝ
> Â¨
(Â¢ÂĬĀ(Â¢ÂĬĀ(Â¢ÂĬĀ )
A Ã½i
Âĥ Â¥-
ÂĽ @ąĔ
x N
Ā: ?
Ã¾Ãł Ã¾f
Âµ Ã¾
Ď Â´ā
@ą-% ĔĀÂ´
Đ ^
Ãµ IÃ´
~ Â©
ÂĢ :Âļ
Ãı EÃ¿
ÃĤ V
x F
ąÂ¢Âĵ ă
a Ã¢
k Ã¸
z Ã¨
Ã½h Ã¿
Ĕā Ē
ė Âĩ
Â§ ĔĀ
ÃĤ a
Ā: ā
Ãī oÃ¿
Ã¹ÃĴ y
= Ă
Âĥ Â¢
Ã¼Ãª Ãħ
v k
Âµ Ãŀ
(Ā Â¢ÂĬ(ĀÂ¢ÂĬ(ĀÂ¢ÂĬ(ĀÂ¢ÂĬ(Ā
_Ã· Âĩ
ÃŃ vÃ¿
Ã½Ã½ oÃ±
y ÃĶ
Ãī Ãĳ
ÃĮ t
Ã¡ k
ÃĲ o
ÃºQ Ã¦
oÃ¹ Ã¬
Ã¾Ãł Ã¼
ÂĨĝ Ĉ
ÃŁ ÃĶ
Â©Â¨ Â¢
Ãĩ Ã½Ãµ
ÃĲ Ã©
Ã½Ã£ G
Ā%Ĕ Â¸Â£ĔĀÂĶ
Âŀ ąĀ
p Âº
q d
?Ě ?Ě
S Ã¹ÃĲ
@ Â¯
?* <
(ă :
ĔÂ´ ÂĢ
@ -Ĕ
Â¤ Â¢Âĭ
Ã± s
ÂĮ ġ*
ÂļĀ ÂĸÂĬ
Ãĩ Ã¾Ã±
Âµ ÃŁ
Â¯ Â«
ĕ% Ā
ď Âĥ
ġ Ĕ
. Âĳ
Ĉ ćÂ¨
Ã¼ V
ÃĹ [
Ã¼Âª Ãį
Ă ÂĢ#
ąĀ ā
(ā Âĺ
Ãªj J
/ ÂĤ
Â¢ÂĬ(ĀÂ¢ÂĬ(Ā Â¨
% Â¢Â¢
Ā ĔĀ
Ã¸ j
Ã¼Ã´ oÃİ
d RÃĳ
Ã¼j Ãħ
@ą%-% ĀĔ
Ãł Ãħ
Ã¼Ã± OÃĬ
' ă&
: $
Ġ j
{ @
Ãµ ÃĬ
*ÂĮ Âĵ
Âµ Ãĸ
ġ Ă
Â¢ÂĬ(ĀÂ¢ÂĬ(ĀÂ¢ÂĬ(Ā Â¢ÂĬ(ă
e Ãĳ
ĝ Ă
Ā: ÂĴ
Â¨Ā Â¢ÂĬ(ĀÂ¢ÂĬ(ĀÂ¢ÂĬ(ĀÂ¢ÂĬ(ĀÂ¢ÂĬ(ĀÂ¢ÂĬ(ĀÂ¢ÂĬ(ĀÂ¢ÂĬ(Ā
gÃ» M
X h
Â¿ Â®
Ę Â£Ĕ
ÂĹ Â´
' Ĕā
> Âĳ
Ã¨ R
Ã± Ãķ
ĀÂ« _Â¥
ą Â¢ÂĬ(Ă
ÃŁ D
ÃĤ u
ÂıÂ¥ -
OÃ¹ Ã¬
OÃ¹ Ã¹
Ĉ= Ď
ÂŁ ÂĢ
%Ĕ Â¸
Ã¼Ã¼ ÃĥÃ¿
AF ÃķÃ´
Âĥ Âĩ
Ãķ Ã¯
ĀÂŁ Âĺġ
K ÃĬ
/ Âģ
ė ]
ÂĤ ÂįÂ«
: Âī
@ Ā`
x O
Ã£ Ã¾y
. ÂĴ
Ď ^
?Ã· ÂĹ
Ã§F ÃĳÃ¯
ć Â´
Âŀ Â°
Â¿ ě
Ā}Ě >
Ã¾Ã¸ Ã¾u
Ã´ A
Ã¨ D
z ÃĿ
Âİ Âı
Âİ ąĀ
: @
Â¯ Ĉ
Q Fh
QE H
zS Ã¨
N g
'Ã· ě
Ã» ÃĳÃ¿
/ Âĥ
Y Ã´
Ã¨ S
zÃĴ R
Âļ ÂĸÂĬĀ
Ã° Ãķ
ÂĬĀ ÂĦ
k Ã£
Ā Â¢ÂĬ)ÂĢ
đ ÂŃ
Ã¾ cÃ¼
@ď Â¢Â£
Ã§F Ã¥Ã¾Ã°Ã¼Ã¨
Â¢ÂĿ ÂĬ
@ą! Â¥Â¤
ÂŁ Ā
Ā? đ
: Âĭ
Ãĩ Ãģ
Ãª Ã¹
ÃĽ Ã¹P
Ãĥ Ãĳ
Ãļ Ã«
(Â¢ÂĬ Ć
ġ +
~ Â¨
ÃĢ Âµ
zQ Ã¥
ÃŃ y
Ĉ {
Â§ Â¢ÂĢ+
Ãħ Ã½
ÂĤ Ą
Đ -
Ãī z
Ã¾Ã¢ Ã¾U
J Ã¸
Đ Ě
G Ãķ
g Ãķ
k Ãķ
Ā-ĔÂĺÂ£ ĔĀÂ´
Ã© ÃıZ
ÃĲ ÃŁ
Âª XÃ´
Ď ē
Ã¼ Ã±Ã¿
@ ĀĀ
Ã² Ã©
Ć ÂĢ%
Ãĩ Ã¸ÃĲ
. Âļ
O G
Ď Ã·
ĔĀ ÂĩÂ¥
ĞÂ´Ā Â´
- ~
Ã¹ Ã¬Ã¿
(ā (Â¢ÂĬĀ
Ã£ Ã¼Ãį
Ĕā ,
O Ãĺ
ę >Â´
Ã« g
ąÂĬ* Â¿
. Â«
Âĵ Â¢
Âľ Âĭ
ÃŁÃ³ ÃīÃ¿
Ā< ğ
Âģ {
Ã¶ ÃĤ
W Ã¾Ãº
Ã© ÃºÃĶ
Ę` Ĉ
Ã©S Q
^ Â¶
ÃĦ Âº
q Ã¼Ãª
Ď Ě
w ÃºÃĲ
s f
Ĝ Ą
Ã©K M
ġ: ÂĴ
Â¥Â¢ÂĢē Âļ
_ Â¢ÂĢ
Ãļ Ãĵ
Ã¢ ÃĪ
_ ÂĮ
ÂĹ ÂĻ
@Ď Â¢Âļ
oÃ¹ Ã¤Ã¿
ME C
ĀÂķ ěÂĩÂ¿
ÃĲ Ã¯
Â§ ĞÂĶ
ÂıÃ· ď
Ã¯ Ã¹P
Ã° c
A Ã¹R
N o
Â« Â´Ā
ÃĭÃ½Ã¡ Ã¹Ãĳ
ÃŁ M
Ã° Ã©
>Âķ %
Ã¼Ã²OÃ» Ã¤Q
ÂĬĀ ÂĸÂĬ
Ã¶ Ã¸
ÃĤ l
Â¯ ď
Â¿: >
{ Â®
ÂĹ Â»
ĀÂŁ ÂĪ
Ą Â¤Â¥Â¤
Â¢ÂĢ .
Ã½j Ã½
s Ã¼Ãª
Ã» ÃıÃ¿
ÃºÃĳ p
OÃ¹ Ã¢
Ē Âĭ
Ã¾ Ã½Ã¿
K Ã¡
ĀÂ® Â§
Ď -
Ã» Ã£Ã³
Ãľ Ã©
Ãħ IE
Q Ã¢
Âĥ @ĕ
ÂĬÂĬ ÂĹ
ė Â«
Ã« ÃĩZ
Ĕā ÂĹ
) ĀÂ´
Ã¾Ã¯ Ã¢
ÃĴ Ã¼
Ãª Ã©
Ā%Ĕ Â»
Ã£ GÃļ
-ĔĀ ÂŁ
o h
; =
ÃºÃķ ÃĬ
g J
Ą =)
?Ã· Â¿
ć Âĩ
Âĥ ÂĪ
Ãĸ Ã½
(Ā Â¨
s b
z Ãļ
(Ă ÂŁ
o Ã¸Ã¶
Â¥ Â¢ÂĬĀ(Â¢ÂĬĀ
Ãı WÃ¿
ÃĹ Â¢
(Ă Â¬
ĀÂŁ Â¨ġ
OÃ¹ Ãµ
Âģ @ď
Ã¡ g
ĞÂĤ ÂĢ
ÂıÃ· ÂĹ
Â¦ (ā
Âµ Ãª
Ãģ Ãĵ
Ã½h Ã³
ć {
ĝ Ě
ĔĀ ÂĨ
Ãł ÃĻ
IE GÃ¦
o y
Ãĥ Ãķ
Ãł L
Â¨Â¨ |
Ã¥ Ãĳ
Ã¢ Ãħ
zÃĵ Ã¨
Ā ćÂ¥
Ğ Â¯
Ã¼ m
Ã¢ Ã«
/ ÂĢ
Ãł Ãĺ
u M
Ã¦ ÃĴ
Ãľ Ã½M
ÃŁÃ³ ÃĮ
# Ĕā
ĀĎ Â¤
> ÂĴ
Ă ÂĢğ
Y i
Â¿ %
C Ãº
Âĳ =
Â¡ @Ē
Z JZJ
, Ě
l Ã¸
(ă ;
Ãı Ã¸ÃĶ
ÃŁ H
-Ĕā ė
= ġ*
K Ãĳ
@ą *
' ]
@ąĔ ÂĶÂ´Ā
Ğ (Ă
QE ÃĢ
y Ãķ
ÂĬ) (ā
Ã¾Ã¡ Ã¾b
/ Â¥Ā
ē {
ÂĮ })
Ã³ ÃĽÃ¿
Ã¨ g
Ĕ āĀ
B Âµ
o x
ĔĀ ÂĢ
Ãī H
Â© ġÃ·
Ã½ OÃ²
G ÃĤ
Â¤ Â¢Âĺ
Ã´ h
ÂĨ ĀÂı
Âº Ãª
ę >ÂĶ
Ã¼Âª Ãķ
E KE
Ã³ ÃĶÃ¿
tS Ã©
! Â«
CKH h
Ã¨ Ã°
Y Ã¬
u L
ÃºÃķ Ãļ
p g
F Ã¾u
e Ã¸
O Ã¸ÃĲ
ÂĹ Âĩ
Ã¦ ÃĦ
Ć ÂĸÂĢ
ė Ě
Ãı SÃ¿
(Â¢ÂĬĀ(Â¢ÂĬĀ(Â¢ÂĬĀ *
= -
Ã½j ÃĿ
?Ě ?ĚĀ
Âĸ= Ā
ĂÂĲ ÂĢ
ÃĴ Ãı
w Y
Âĳ @ē
X j
k ÃĶ
Ã» Ã¤Ãĵ
@Đ }
Ã¼Ã½ CÃ¿
ġ| ~
Ā} ġÂĿ
@đ }
Ğ ÂĪ
_ Ā
ďÂ¥Ę >ÂĶ
X Ã¸
Ãĩ x
ā ))
Ã« ÃºR
Â¿ Âĥ
s ÃºÃĲ
(Â¢ Âĵ
Ts Ãª
Ã« Ã¾x
Ãİ o
Â¯ Âį
Â§Ã· ÃĹ
& ÂĢ#
k Ãª
Q OÃ²
Ãı Ã¸Q
Â¯ Âģ
g Ã¼h
~ ą
Â¢ÂĬ(ĀÂ¢ÂĬ(Ā Â¤
ġÂ« ğ
Ã½Ãµ Ã¼Ãª
ď ]
Ã¼Ã¶ OÃİ
! /
ĝ Â¨Ā
Ã½ sÃ¿
Ã§ Ã¹ÃĲ
Ãµ ÃĤ
/ Â«
Ãł ÃºQ
z Ãª
Â¯ ė
ďÂ¥Ę >ÂĶĀ
Ãħ ÃŃ
Ãŀ Ãĸ
Â¢ÂĲ ąĔ
E Ã¼Ã¨
Ě (Â¢ÂĢ
Ãī G
ÃŁ Âª
Ā* ?
{ ć
ÂĬĀ Â¡
^ Âģ
ć ĞÂ´
Ã» Ã¤ÃĴ
(Ă ÂĹ
& Â¢Â¡
Ĝ ÂĶ
ÂĦ ÂŃ
l Âµ
ÂĿ |
ÃªS Ã½ÃĳO
Â¯ Âĥ
ÃŁÃ³ ÃķÃ¿
C Ã¼h
Ã« Ã¾y
Ā? ÂŃ
Ď %
Ãħ Ã«
ÃĤ S
Ā= ÃĹ
Â¢ÂĬĀ(Â¢ÂĬĀ(Â¢ÂĬĀ(Â¢ÂĬĀ(Â¢ÂĬĀ(Â¢ÂĬĀ(Â¢ÂĬĀ(Â¢ÂĬĀ(Â¢ÂĬĀ (Â¢ÂĬĀ(Â¢ÂĬĀ(Â¢ÂĬĀ(Â¢ÂĬĀ(Â¢ÂĬĀ(Â¢ÂĬĀ
Ã§ Ãģ
Â¯ ÂĢ
ą Â¢ÂĽ
= Â¨Ā
a Âª
Ã¾ ÃłÃ¿
Ã³ ÃıÃ¿
Ã¾Ã¹ Ã¾u
o W
Â¯ Â¢
Âĩ }
ÂĨ Â±
ÃĶS r
oÃ» Ã¤Ãĳ
ÃĤ Ãı
ÂĬĀ ÂĪ
Âŀ ă
; %
< #
Ā Â¢ÂĬ(ĀÂ¢ÂĬ(ĀÂ¢ÂĬ(ĀÂ¢ÂĬ(ĀÂ¢ÂĬ(ĀÂ¢ÂĬ(ĀÂ¢ÂĬ(Ā
Ãª Ã°
?: ?
O Ã¸Ãĳ
Ãĩ ÃĢ
^ ,
Âĩ ÂĿ
Ā-Ĕ ÂĺÃ·
W Ã¢
s Âª
Âĵ :
< ĝ
Ã£ÃĴ o
Ã§F ÃµÃ¾Ã°Ã¼Ã¨
o X
Â¢ÂĢ Ď
Ė Â´
Ã² Ã£Ã¾
ÃĤ j
Ã³ ÃĪÃ¿
Ã«K Ã¶
Ĉ (Â¢ÂĬĀ
-ĔĀ ÂĶÂ´
Ã¨h Ã³
ąÂ¢Âĵ '
^ ĝ
o I
Ğ Â®
ĕ% ĔĀ
X k
Â¿* >
Ã§ ÃºP
y Ã°Ã¿
Ãĥ B
Ā: >
Âĵ ÂĻ
ĝ =)
zÃĳ Ã¦
g Ãĳ
Â¯ ]
Ã©G Ãļ
ÂŃ~ÂĤ ÂĿ
> Âı
Âģ @ē
@ĕ >
x j
Â£ Â¥Ā
Ã± Ã¾t
Â¯ :
" ÂĢ+
oÃ» F
ÃŃF Ã¿
Â¯ ÂĤ
Ĕā ă
ĀÂŁ Âĺ
ć =)
QL aE
q Ã¼Ã©
Ã³ ÃĦÃ¿
Â¥Â¤ =(ā
o ÃĲ
Ã¾ K
Ãľ Ã¨
% Đ
Ã® Âº
ÃĤ Ã«
Ã¨j Z
ÃºÃ¦ Ã¿
Ãĵ Ã¾x
Ĉ Â´
Âī Â¬
ÃĩÃ¼ Ã°
Ã¼ J
Ã½Ã¶ Ã¼Ã¨
< ė
Ã½ C
} %
ÃŁx Ã½i
ā ćÂ¡
G qÃ¿
ÂļĀ ÂĲ
GÃ¥ K
= =)
ą Ĕā
Ā|Âļ >
z Ãĥ
ÃŁ E
ÂĬ< Â´
ÃĴ Ã°
Ğ Âģ
Â¢ÂĬ* ÂĦĔ
Ã« ÃĳÃ½
r f
Ãĥ Ãł
Ã¸ ÃĤ
ĀÂŀ ÂĤ
E sÃ¿
Ã¨ L
R QH
Â® Â°
Ã¡ Ã¬
Ĝ ^
ÂĬĀ ÂĢ
Ãľ k
ą ĔĀ
' ď
Ã± p
}Âŀ /
H t
? Ę
(Â¤ Â¢ÂĢ
Ãĥ ÃĦ
Âº Ãİ
Âĭ @
" ÂĢğ
< $
E z
Ã¨ Ãĵ
Ã©K Ã¶
% Â®
Â§ ĎÂĶ
; ,
Ãĩ mÃ¿
Ā' >
Ãĩ ÃĨ
?ÂĻ Â©
ą Â¥Â¤Â¥
ġ Â¨Âı
Ã¢ z
ĝ <
n ÃŁZ
q Ã¸Ãĵ
Ãł Ãį
Ã½Ã± Ã¼
Ĕā Ę
Ã§ Ã¾Ã¹
Ď "
n ÃµÃµ
ÂĮ %
ÂĹ ÂĶ
S Ã¼Ã©
Ãī K
ÃĤ o
_ {
Ã©V Ã¨
Ĕ ~Ĕ
ÂļĀ (Â£
ÂĢ& Â¢Â¢
W Ã¡
Âª ÃŁÃ¾
O Ã¥G
Ĝ ġ:
ÂŁ Âĥ
ÃŃ x
Ã³ ÃĵÃ¿
' /
Ã© ÃĩJ
ÂŃĀ ;
QM Ãį
ZF Ã»
Ã± w
ĀÂŁ ÂĶ
ď :
Ğ Ė
Ãķ Ã°
ÂĹ ÂĿ
ÂļĀ ÂŃ
Ã´ Ã¼i
Ãī mÃ¿
ÂĬĀ Âį
nÃħ Ã´
Ã«V Ã¨
Â¢ÂĬ @
ĠĖ ÂĬ
Ĕ ÂĶā
Ã£ Ã¼i
Ĕā "
A Ã©E
Z Ã¯
Ĕā Ė
ĀÂŀ ÂĶ
Ā- ġ
Ĕā Âŀ
ÃŁÃ¾x EÃ¿
Ã¾Âµ j
E Ãĳ
Ã® Ã¸
=ą-ĔĀÂĺ ĞÂĤÂĮď
?Âķ >
X Ã©
ÂĦ :
Ãĩ Ã¸S
A Ã¨i
W J
ÂĤ Â·
= Âĳ
Âľ ġ:
ÃĮ Ãº
ĀĘ ă
W Ãł
a Ãł
}Â¢ /
?ÂĿ >
| )
ĕ -ĀĔ
Ã»Ã£ Ã¹
Ãģ ÃĴ
ÃĹ Âį
Ā> Â°
ÃºU ÃĬ
Ã¤d t
Ã´ F
G Ã¸ÃĲ
} Â¨Ā
Âı ÂĨ
ÃĽ mÃ¿
Ãł k
o D
Ãĥ Ãģ
Âį ą
K ÃĿ
s a
Ãī D
Âĸ ÂĬ(ā
} Đ
(Ā Â¤Â¥Â¤
ÃĩÃ¼ Ã¶
@Ĉ )
& Â»
' Â»
ÂĬĀ Â¿
Ĕā đ
C Ãł
s Ã¼Ã©
ÂĴ ÂĤÂĬ(
FG J
(Ă (
Ã§ ÃĵÃµ
Ã¸ Ãĭ
k ÃĴ
k ÃĿ
ĀÂı Âĺ
i Ã¾Ã»
Ã¦ J
ÂĬĀ Â¤
@Ď Â¦
> Â¢ÂĢ
ē ÂĻ
Ã¼ Ã¯
Ã½Ã² j
Ãĸ j
" ÂĢ%
Ã½Ãĵ Ã´
Ã´ O
M IE
Ã½ o
(Ă !
Ãŀ Ã±
ÂĬĀ Âģ
Ā= %
` Â¢
Ď Ė
z ÃºÃĵ
Ã« ÃºS
ĀÂŁ Â¥
Ã¨ ÃºS
Ã´ C
/ Ė
Ãı QÃ¿
Ā< %
@Ć )
ÃĹ Âĺ
(Ă Â¿
(Ă -
/ ā
Âī )
Ā|ÂĬ< ÂĺÂ¿
k ÃĤ
Ãı OÃ¼
(Â¢ÂĢ ğ
R gÃĺÃĳ
Ġ Ã·Ĕ
Ãŀ Ã¯
ÃĹ {
Âĥ ė
ĀÂĸ Â¿
Ã¼ Ã°Ã¿
Ã¨i Ã´
Ãº Ãį
ÃŁT y
ÂļĀ ÂĤ
@Ā Ę
Ã£ Ã«F
ÃŃ Ã±
Ã½Ã¶ Ã¼Ã©
Â¤Â¥ =
E Ãķ
{ %
Ãĥ Ãĺ
Ãł ÃĿ
Âį `
Ã¸Ãĳ Ã§
ÂļĀ ÂļÂĬ
Ã© RÃĳ
ÂļĀ Âĸ
Ã¼Ãº ÃĥÃ¿
ğ ÂĻÂ£
Âĩ Âī
Ãį x
ĂÂĽ '
= ÂĴ
Ã« ÃıJ
Ãĥ V
Ā| ĚĀ
Ãį ME
Ã¡ Ãĳ
Y Ã½
z ÃĻ
Ď .
Â¢ÂĬ `
Âľ ^
Ĕā Â§
ÂĮ Â·Ã·
(Â¢ Â«
Ã½Ã³ Ã¼
Ã¡G ÃĻ
ÃĶ RÃĳ
Ã¾ I
ÂĹ Âī
Ã£ Ã¼Ãª
Ã¸ Ã¬
Ã½Ãĵ G
ÂĬĀ( Â£Ĕ
Ď Â±
ĝ ĝ
ÂĬĀ Âļ
% :
T tP
Ãĭ Ã°
Â¥Â¢ÂĢē #
Âĩ ÂĪ
Ğ Đ
Ã¨ Ã©
ÂĢĖ Âļ
& ÂĢ-
ġ* Â±
ġÂķ ğ
Ā^ Âį
-Ĕ Ĉ
Ã³ ÃģÃ¿
Ā? Ē
Ã¸Q Ã¤
Y Ãª
>ÂĻ '
ÃĽÃ¯F ÃŁz
> +
Ã¨ a
C wÃ¿
Âļ (Ā
g ÃĤ
Z Ã°
ÂĤ ĎĈ
ÂĢę ÂĬ
ÃĩÃ¼ Ã±
O ÃĽ
ÂģÂģ Âģ
. Âĵ
R cÃľÃĳ
Ãµ y
Ãº Ãľ
s ÃºP
Âĳ @ď
Ã½Ã± Ã´
(Â¢ÂĢ ĖÂĴ
\ ġÃĹ
ć Â¬
ÂĲ ā'
Ãħ Ã®
_ ÂĨ
QF Ã¥Ãµ
Ãı aÃ¿
Ã¾Ã¯ Ã«G
ĈÂ¥ Âĺ
Ãº Ã§Ã¿
(Ă ē
Âµ AÃ¿
ĀÂİ ÂĨ
Ã¯Ã¶ M
ğÂĿ ě
q Ã¸ÃĶ
AÃ¨ A
Q Ã¼Ãª
oÃ¹ Ã¯
Ď Âĳ
K Ãĥ
ÃĲÃĴ ÃĲ
\ %
x J
Ã« d
QÃ¹Q Ãı
K Ã¯
Q Ã¼Ã©
Â£ ÂŃĀ
ĔĀ ÂĻ
' Ė
< %
Ã¾x ÃīÃ¿
ÃĽ Ã»ÃĩÃ³
Ã° Ã±
/Ã· Âı
q Ã©M
ĀÂ¿ ÂĤ
ÂŁÂ¥ ğ
Ă ÂĢ%
Ã¾Ãł Ã¾T
Ã§ ÃĤ
/ Â¨Â£
O x
Âĳ @Đ
ÃºÃĶ y
Ā (Ā
Ã² Q
E uÃ¿
= Ě
Ãı K
GÃį Ãª
p Ãĸ
ÃŁÃ³ Ãħ
. Â±
> ÂĹ
ĀÂ¢ÂĬ(ĀÂ¢ÂĬ(Ā Â¢ÂĬ(Ă
Ãĩ T
E ÃĤÃĦ
Ã² t
Â¬ ÂĶ
Ã«S Ãĳ
: %
A Ã¨j
s ÃºÃĶ
ď Ē
ĝ %
Ã« RÃĳ
Ā] '
( /
= Â¯
Ď ÂĪ
> '
Ã¸ Ã±Ã¿
Ã½Ã² hÃ²
Ãµ Ã¼Ã©
= })
ÃĳI ÃıÂµ
Ġ ÂĬĀ
Ã§ Ã¹ÃĶ
ĀĔ `
Ą Ĝđ
(Â¢ÂĲ ą
(ĀÂ¢ÂĬ(Ā Â¢ÂĬ(Ă
Ã» Ã¤R
Âĩ /
T sÃ¿
Ė Â¯
Ĝ Ĕ
" ÂĸÂĢ
Ã¼ Ã¶Ã¿
K ÃŁ
k Ãİ
Ã« ÃĬ
ÃºR Ã¹
Ā} Â¿ÂĿ
_ ÂĤ
' ė
S cÃ¿
ÂĽ ğÃ·
ğ Â°
Â¢ÂĬ(ĀÂ¢ÂĬ(Ā Â¦
Ā^ Â¿
Ã¼Ãħ Ã¿
ęĞ Â¢ÂĢ
ĀÂ¢ÂĬ(ĀÂ¢ÂĬ(ĀÂ¢ÂĬ(ĀÂ¢ÂĬ(ĀÂ¢ÂĬ(ĀÂ¢ÂĬ(ĀÂ¢ÂĬ(ĀÂ¢ÂĬ(Ā Â¢ÂĬ(ĀÂ¢ÂĬ(ĀÂ¢ÂĬ(ĀÂ¢ÂĬ(ĀÂ¢ÂĬ(ĀÂ¢ÂĬ(Ā
ĀÂĢ ġ
^ Â®
: ě
Ãº o
6 Â½
Ă ÂĢě
ÃĶ Ã¾Ã°
Ãº G
x Ã¾u
ē Â¥
Âĵ Â£
ÂĴ Ã·
Â¿ ē
Ã° Ã¾t
@ď Â¢ÂĽ
Ğ Ã·
ÂĬĀ ÂĶ
Ā-Ĕ Âĺ
OZ J
Ã¬ Âº
ġ: Â±
Ã¼Ã¨ ÃĽÃ®
ğÂķ &
Ãı sÃ¿
ą Â¥Â¤
ąĔ Â´
m Ã¼Âª
Ã¼ xÃ¿
Ãı Ã½Ã´
Ã¼j Ãį
Ā(Â¢ÂĬĀ(Â¢ÂĬĀ(Â¢ÂĬĀ(Â¢ÂĬĀ(Â¢ÂĬĀ(Â¢ÂĬĀ(Â¢ÂĬĀ(Â¢ÂĬĀ (Â¢ÂĬĀ(Â¢ÂĬĀ(Â¢ÂĬĀ(Â¢ÂĬĀ(Â¢ÂĬĀ
w X
Ãº Ã¨Ã¿
Ã© u
>ÂĻ ğ
ÂĬ ÂĸÂĬĀ
Ã² V
(Ă +
Â§Ã· Âĩ
K ÃĤ
Ãº ÃĮ
ÂĴ ÂĸÂĢ
_ Â¬
Â¥ =)
9 94
Âĵ @ĕ
Ã¾ gÃ¼
Ã»Ã£ Ã¾Ã¹
$ (Â¢ÂĬĀ
Ãħ KE
(Â¢ÂĢ ,
pq Ãĸ
z ÃĤ
Ĝ ę
Ã¹T Ãµ
ÃĩÃ¼ Ãµ
Â¢ÂĬ(ĀÂ¢ÂĬ(ĀÂ¢ÂĬ(ĀÂ¢ÂĬ(ĀÂ¢ÂĬ(Ā Â¢ÂĬ
ą Â¤Â¥Â¤
oÂº h
Âı ā
ÂĢ# Â¢Â¤
Ã» ÃīÃ¿
oÃ¹ ÃŃ
O Ã§G
Â¿ÂŃ ğ
C ÃĻ
Â¯Ã· ď
Ď Â¯
ÂĬĀ ÂļÂĬ
ĀÂĮ đÂĳ
ÃĿ ÃĩÃ»
(ā ÂĴ
Ãı qÃ¿
Ā* Â±
Âİ ÂĹ
ĀĎ ÂĢ
ġ ÂĬ
Ãı Ã¸R
Ãħ Ã©
Ė Ě
/ ÂĨ
o Ãª
Âĥ Â£
ÃĹ |
Ã¾z ÃĩÃ¿
Ã¾Ã© Ã¾U
Â· :
"Âı &/
R QL
ă< Â¨
? ę
ÃºÃĳ Ã¥
R RÃĵ
Âİ ~Â´
ÂĬ~ (
K Ãķ
Ć ÂĢ-
Ã± l
ÃĴ RÃĳ
Ã¯ Ã°
Ā\ Â¢Â©
Ā^ Â¢
Ãº E
Ã¼Ãª Ãį
Ãµ ÃĦ
Â¼ 4
g ÃĦ
u Ã¡
ÃıV Ã¼
! ąĔ
Ãĺ Ã¸
ÃıÃ¹ Ãµ
Ã· Â¿Â¥
& Â°
Ā? ď
Ã¦ Ãĳ
ÃºÃĴ Ã¹
Ğ '
^ Â·
Ã§ ÃĢ
Âİ }(
nÃħ Ã¾Ã¨Ã¼
gÃĺ ÃĴÃĳ
(Ă ÂŃ
p u
N Âº
q Ã¸ÃĲ
ÃĶS h
Âı Âį
Âĸ ÂĢĖÂĬ
ĀÂ® ÂŃ
h QY
x E
Âı Ď
ġ: Âĸ
Ğ Â¢ÂĢĖÂĬ
Ā ÂŃĀ
Âŀ Âī
ÃºÃĴ R
Âģ @Đ
Ãĩ I
b ÃºP
Ã£ Ã¼j
w ÃĤ
Ã± Ã¾f
= ÂĿ
L Ã»Q
(Â¢ÂĢ ĕ
Ã¹U Âª
ÃĴ Ã»
Y h
Ã§ ÃºT
?Âķ ę
ġÂ« _
: Ą
Ã¾Ã» oÃ±
RT s
Ā* ÂĴ
Ã© f
Ā\ ÂĹ
Â¢ÂĬ Ą
ÃŃ Ã°
ă >Â´
ą -ĔĀ
Ãµ t
Ã« l
ÂĸÂĢ Ě
Ã¹ÃĴ Ã¹
Ã½Ãĥ Ã¼Âª
Ā(Â¢ÂĬĀ(Â¢ÂĬĀ )
Ãĩ Ã¸ÃĶ
( =(
Ã¯ Ã±
Ã² Ã¨
Ã© g
Ã¹Ãĳ Ã¤
Ā(Â¢ÂĬĀ(Â¢ÂĬĀ(Â¢ÂĬĀ(Â¢ÂĬĀ(Â¢ÂĬĀ(Â¢ÂĬĀ(Â¢ÂĬĀ(Â¢ÂĬĀ (Â¢ÂĬĀ(Â¢ÂĬĀ(Â¢ÂĬĀ(Â¢ÂĬĀ(Â¢ÂĬĀ(Â¢ÂĬĀ(Â¢ÂĬĀ
Ā\ ÂĽ
Ã¸ m
Â¯ Ă
A Ã¼Âª
] |
Âİ ?:
Ãľ Ã«
ÃĤ t
(ā <
ĝ Âŀ
ÂŁ Â¢
Ãķ Ã±
Âľ })
Ãı Ã¸U
Ā| Ě>
QM Ãļ
Ãł ÃºP
ć ĞÂĶ
ě ÂıÂŃ
Ã³ Fh
ÃĦ Âµ
Ã¡ Ã¼Âª
ĀĔ Âį
= Ą
Â¢ÂĬ(ĀÂ¢ÂĬ(ĀÂ¢ÂĬ(ĀÂ¢ÂĬ(ĀÂ¢ÂĬ(Ā Â¢ÂĬ(ă
&ÂĮ ÂļĀ
@ĕ Â®
ĕ= Ĕā
Â¤Â¥Â¢ÂĢ ĒÂĬ
Ă: *
ÂĿ Ĕā
k Ãģ
" ÂĢ"
Ã· ġĚ
Ãı CÃ¿
ĎÂĤ ÂĸÂĲ
ġÂĻ Â«
G JZ
Ā< ě
Â¥Â¤ ĝą
q x
Ã° Ã¶
Ã©S Ãĳ
Ã¼Ã» CÃ¿
t sÃ¨
Ã¡ Âµ
ĂÂĢ )
^ -
ć Â»
Âı ē
? Ē
ÃŁ I
ÃĶÃĳ Ã¥
ÂĮ ġ:
Ã½Ã¡ Ã¼Ã©
Ď Â¡ÂĶ
(Â¢ÂĢĐ ÂĢ
(Â¦ !
ÃĲS Ã¨
ÃºÃĶ ÃĶ
Ã¼Ã¨ Ã§ÃĲ
Ć ÂĬĀ
Ã¸ x
?Ã· [
ÂµE U
(Â¢ÂĴ ÂĢĖÂĬ
e Ã±
Ãĥ x
~Â´ Â´
ÃĲ ÃĳÃ¶
A Ã½h
Âı ą
ąĀ -
A Ã½j
C Ã¼Ãį
(Ă Â¤
QÃ§ EÃ¿
Ã½Ãħ Ã¼Âª
! Â¥Â¤
Â© Â¨ā
Ãı Ã¸Ãĵ
Âŀ Ã·
(Ă ě
ĂÂĻ /
= =Â©
_ ě
)ÂĢ ÂĶ
Ā- -
Ã½Ãģ Ã¼Âª
ĀÂ® Â¿
ĠĞ Â£
hÃģ Ã¾Ã±
^ Ē
s Ã¸S
Âı }
> Ė
Q FhÃį
Ãı Ã¼Ã³
Â¯ ā
Â¯ Â¤
Â¢ÂĬ* Âī
Ã½Ãĳ Ã¿
Ã± d
Â± }ą
? ÂĳÂ£
y Âµ
Ć ÂĢ#
Âĩ Â´
Âŀ Âļ
Ã½ÃĨ ÃºP
= }Â©
ÃĻ k
Ā^ ÂĮ
ÃıE Ã¼Ã¨Ã³
Ãĳ Ã¡
(Â¢Âģ ą
ē Â£
Ã° Ã²
Â¢ÂĢ Ğ
(Â¢ÂĬ @
ď ÂĢ
Ãĩ Ã½Ã´
Â¸ :
(Â¢ÂĬĀ(Â¢ÂĬĀ(Â¢ÂĬĀ(Â¢ÂĬĀ(Â¢ÂĬĀ(Â¢ÂĬĀ(Â¢ÂĬĀ(Â¢ÂĬĀ(Â¢ÂĬĀ(Â¢ÂĬĀ(Â¢ÂĬĀ(Â¢ÂĬĀ(Â¢ÂĬĀ(Â¢ÂĬĀ(Â¢ÂĬĀ(Â¢ÂĬĀ (Â¢ÂĬĀ(Â¢ÂĬĀ
q ÃºÃĲ
Ā~ _
D Ãķ
Y j
Ãº H
Ãħ Ã¢
Â® Â´
Ā< ė
U Ã»Ãĥ
Ę >ÂĶ
ĔÂ´ ÂĶÂ´Ā
Ãħ ME
/ Ĉ
X x
ÂĬĀ Âī
ĀÂ« ğ
Ã¾Ã¸ oÃ°
Â¥ Â¯
Ãµ oÃ»Ã¨
Ãº ÃĬ
ĀÂĸ ġ
Ã½Ã¦ Ã¼Ã¨
ā-ĕ ė
% Â¯
| [
ÃŁ Ãł
Ãĳ Ã¢
R dg
Y Ã¸
Ã¾T o
ÃĿÃŃF Ã¯j
- Ā!
Ė {
Ã§ Ã¹P
QP Ã¹
Ć Ćą
ÃĹ ^
Ãı Ã¸Ãĳ
ÃĹ Â£
^ Ă
Ã« Ã¾z
ÂĻ Â¯
ÃºÃĶ Ãº
Ãĩ ÃĳE
Ãĳ Ry
ğÃ· ġ
} Ă
Ã¦ ÃĮ
Ãªj Z
Ã½Ã¦ Ã¾f
" ÂĢě
. Âı
Ā? ć
g Ãł
ġ =
ġ* ?
{ =
Ĕā Đ
C KE
?Ã· ě
Ã½Ã¶ ÃŁÃ£
ÃĶIÃ¾Ã© Ã¾T
Ã¹ Ã£Ã¿
ÂŃĀ >ÂĬ
(Đ Â´
- |
Âİ ġ:
Ã¥ RP
(Ă Âľ
Âı ]
(Ă #
ÃĢ ÃıJ
Â¯ ą
Â¿Â¥ Ğ
. Âİ
Ã« ST
Â©Â¨ Â¢ÂĢ
gÃ« Ã¹Q
ÂĩÂŃěÂĩ ÂŃ
$Âľ Âĵ
S dÃ»
{ Ą
Âİ Â©
ÃĹ Â¬
@= @
ĀÂĳ Â£
ĀÂ¬ _
! Ě
c Ã¼i
Âµ Ã¡
Ď Â¶
= ?*
ÃŃP Ã¿
z QE
Âļ }Ĕ
Ã« Ã¹ÃĲ
zÃĴ Ãĳ
Ã»Ãĭ Ã¼Ãħ
%-% ĀĔ
Â¼ 5
Ā| ď
Â¢ ÂĸÂĴÂĢ
Ã³ ÃĿÃ¿
OÃ¹ Ã¤
Âµ ÃĽÃ¿
)ÂĢ Â´
AÃ¹Ãĳ Ãı
Ã£ ÃŁÃ²
Âµ Ã¯
ġÂ¸ Â¿
Âģ :
Â¢ Ě
Ã³ ÃĲÃ¿
ÃįÃŃ GÃį
ÃºT Ãµ
Ãļ Ã¸
cÃľ ÃĴÃĳ
~ !
Â¢ÂĬ(ĀÂ¢ÂĬ(ĀÂ¢ÂĬ(ĀÂ¢ÂĬ(Ā Â¢ÂĬ(ă
ĞÂ´ Â´
Ã° Ãĵ
ÂĬ( Â«
ġÂĿ ğ
Âģ /
z Ã¯
z Ãŀ
Âĩ ÂŃĀ
>ÂĻ ď
ÂĽ :
ġÂŃ ?
ā= ĕć
x K
Q Ã¹R
p t
ÃĤ Ã©
k Ãĵ
Ãµ Ã¾Ã°Ã¼Ã©
Ã» ÃŃÃ¿
Ãĳ Py
ĔĀ Âŀ
Ã¥F Ã¡Ã¯
Âº Ãģ
Â¿ Â¸ġ
\ =
ÂĶ ĚĀ
Ã¶ J
Â¯ Ĕā
Ã± ÃŁÃ°
*Âİ ÂĢ
ĝ Â¦
Â¦ ÂĮÂŁ
> Â±
Âİ >Â´
Â¿ Â¢
Ã± t
ÂĢ$ Â¢Â¢
ÂĲÂ£ $
Ĝ ~Â´
Ã¨ u
?* ?
Ã«I Ã¦
ÂĸÂĢ ě
hÃī Ã¾Ã©
e Ã°
ĠÂĮ Âİ
@đ Âĺ
oÃ¯ Ã¾
x G
Ã¾ p
Ãº Ãı
Ã¤ Ã©
Ã»Ã« Ã¹Ãĵ
Ãª Ã³
Â¢ÂĬ *ÂĮ
Ã¸ o
ÂĮ (Ā
ÂĶ Â¦ÂĴ
ĀÂ¬ ğ
Ć ÂĢ+
Ã£ Ã½Ãĵ
(Ă ÂĿ
Ă ÂĸÂĬĀ
Ãİ g
/Ã· Â¿
X Ã¨
)ā Ą
@ď Â¤
Ã¾Âº Ã¿
} Ė
ÃĹ :
ÃĴ Ã¸
Y k
q Ã¼Âª
Ã´ B
Ĕā Âĳ
(Ă đ
OÃ¹ Ãª
Ãĩ Ã¸Ãĵ
Ā= ą
& ÂĢ&
ÂĸÂĢ +
ÂĢ% Â¢Â¡
g Ãħ
-% ĔĀ
Ãµ Âµ
Ã½Ãĳ K
ğ Âĥ
(Â¢ÂĬĀ (
-ĔĀ ÂĺÃ·
@ą-% ĔĀ
f OÃ®
Ě Ã·
ÂĢ' Â¢Â¡
= Âķ
Ã¾Ã¡ Ã¼Ãħ
Ę ĞÂĶ`
Â¢ÂĬĀ (
ġ* }ĔĀ
(Â¢ ÂĻā
ÃĲÃĵ Ã©
Â¿ÂŃ Ğ
Ā} Âļ>
Ã¯F Ãız
Ă ÂİÂĶ
ăĂ Ĉ
G Ãĳ
Ã³S Ã»ÃĤ
Ã» Ã²Ã¿
ÃĹ ÂĻ
Ã´ I
'Âĸ ÂŁ
Â¥ :Âļ
Ã½Ã¡ Ã¹ÃĲ
AÃ¹Q Âµ
G Ã§G
Ã¥F ÃĳÃ¨
ÂļĀ ÂĽ
ÃĹ Âĩ
ÂĮğ _
Fq Ãŀ
Ē Ã·
Ġ Â¢Â§
Ãµ ÃıÃº
Â¤Â¢ÂĢ "
Ā? +
s Ã¸P
~ Â¬
Ã± ÃŁÃ±
Q ÃıÃ¾
Ãļ Ã¯
Âľ ġ*
/ ď
Âİ} (ā
Ã¤ zÃĲ
" ÂĤÂĬ(
Ã» Ã¤U
/ ÂĪ
ÂĸÂĢ #
Â¥Ā -
Ã» Âº
Ã¶ ÃºÃĲ
K Ã«
ĀÂ¸ *
Ď Â·
Ã¹ ÃŃÃ¿
Ĝ ]
Â¢ÂĢě Âĥ
Ē ÂĬ)
ĝ (ă
Ã± X
G Ã¼h
Âĭ Â¢
@Ą Âĵ
h ÃĳE
< ć
Â¢Âĺ ąĔ
R sÃŃG
Ã¹Ãķ Âª
Ãłg Ãĸ
= ~Â´
Ĝ })
ÃµÃ¾Ã°Ã¼Ã¨ Ãŀ
Âľ =
$ :
K Ã©
Â¢ÂĬĀ (Â¢
Ã¾ O
Âŀ ġ*
Ġ ĚĀ
(Ă Â»
Ãĸ z
Â¨ā Â´
s Ã¸T
Ãł ÃºR
ćÂ¥ -
Ã©I Ã¥
qÃ¾ Ã£
/ Ć
Ãª cÃ¿
Ā ĞÂĶ
ÂĤ Âī
k ÃĢ
Âĥ @Đ
Ã¼Ã» EÃ¿
| ,
-Ā '
" ÂĢ-
/ ]
đ ÂļĀ
ÂĬ, Ĝ
} Ĝ
Ãł ÃĤ
Ã¾u j
Ã½k Ã¿
ą Â¢ÂĬ(ĀÂ¢ÂĬ(ĀÂ¢ÂĬ(Ā
ÂĤ :ÂĬ
Ã¢ ÃĮ
Ã»Ãĳ Ã¥
Ē Ě
(ā ÂĨ
Âĵ Â¬
B t
ÃĪ ÃıZ
Âŀ ?*
s Ã£
ĀĔ Âĺ
q ÃºÃĵ
Ā= (
ĠÂĮ ÂĬ
^ ē
ď ÂĤ
ÂĬĀ Â°
Â¥Â¢ÂĢē '
s ÃºS
Ã¬ ÃĵÃ¿
Ã©K Ã¥
Ã¨ l
Ã¡Ã«F Ã¡
O Ã¸P
s ÃºT
Ãª Ã»
Ã½Ãĵ Ã¼Ãħ
ÃĢ Ã¾T
Ã° U
? ÂĻÂ£
} ,
ē Â¤
Ã§ Ã¹Ãĵ
~ÂĶ ġ
Ã¡ Ã¼Ãª
ğÂĿ &
K Ã¢
ĀÂģ Ě
Ĕā =Ĕ
ÃŁt ÃĲ
Âİ =)
Ãł Ãģ
ăĂ ÂĮ
zÃĴ P
Â£ć ÃĹ
Ã½ÃĨ ÃºS
= ĔĀ
b ÂµÃ¿
Ã£ GÃ¼
ÃĲ Ã¾U
Ãĳ Ã°
z ÃºÃĴ
{ >
ĀÂ® Â«
Ã«S P
ÂĹ Â«
Ã½Ã£ M
(ĀÂ¢ÂĬ(Ā Â¢ÂĬ
ē ÂŃ
Ġ ÂĥÂĥ
āÂģ Ą
ÂĹ Â£
D Ã½
| Ć
ĀÂŁ ÂĺÂ¿
Ã¨ Âº
(ā ď
ÂŁÂį ğÂį
Â¡ÂĶ Â©
ÃĶsÃŃ KE
Q Ãł
Ãİ l
ÂŃĀ .
ĔĀ Â£
ÂĬĀ Âĳ
ÂļĀ Âĭ
Â¯Ã· ÂĹ
Ā} Âı
ďÃ· Âĩ
Ã½i Ã¿
Â£Âķ Âĩ
Ĕ ĞÂ´
ĔĀ Â¿
y Ã°
ĝ &
W ÃĤ
^ Âī
ĀÂİ ġ
Ã¤ x
ÃŁ Ãĳ
(Â¢ÂĬĀ(Â¢ÂĬĀ(Â¢ÂĬĀ (Â¢
s Ã¹Ãĵ
Ã³ ÃĥÃ¿
Ā^ Â¤
c Ã¹Q
ĝ ġ:
(ā ÂĤ
W ÃĦ
[ ąĔ
Ă ĞÂĶ
Ã¾ Ã¡Ã¿
Âļ} ĀĔ
~ Ą
ÃĲÃĳ Ã¦
ÃĩÃ¼ Ã²
ÃĽ Ãł
k Ã¼Âª
Ã´ i
# >ÂĶ
Ã¦ hÃ¾
ÂĢĜ )
RÃĳ K
E qÃ¾
ÃĮ Ãµ
Ã¼Ã³ Z
Ã½Ãģ G
' Âĭ
s Ãªh
~ /
Ĕā Âı
D ÃĶ
s IE
Ď Ą
Ã¢ ÃĤ
Ãģ Ãķ
Ã£ Ã¾Ã¹
Ãį OE
^ Â¯
ÂŃĀ >
Ā^ ÂŃ
?Ã· ?
Â¢ÂĬ) ÂĮ
w QÂº
Ã¼h Ã²
Ğ ĝ
Ã¼ ÃŀÃĶ
ÂļĀ Â¿
ÂĲ :Âļ
(Ă )
s Ã¹ÃĶ
Ġ Ã¸
v OÃ»
Â¢ÂĢ đ
a Ã±
{ <
Âģ Â¬
Ãº X
ÂŁ ÂĨ
ÃĿ Ã¾Ãĭ
Â° =(
Âĩ Â¢
@ĎÂ¢ÂĽ Âĵ
F Ã¯c
@Ď Â¢ÂĬ(Ā
z ÃºÃĶ
ĀÂŁ Âģ
ĕ% ąĔ
, Âļ
_ đ
Ğ Â±
Âĵġ Â©ġÃ·
Ãª Âº
ę Ą`
Ãı FÃ¼
ĝ Âĸ
@Đ \
Ã« e
ÃŁÃ³ ÃĨ
Ã»Ãĥ Ã¿
(Â¢ÂĬ Â¢
Ĝ %
Ã¥F ÃķÃ´
Ã¡I Ã´
ÂĲ (Ă
Ġ Â¢ÂĬ(ĀÂ¢ÂĬ(ĀÂ¢ÂĬ(Ā
Ãº Ã¼
Ã¤ ÃºÃĵ
>Â´ ÂĨ
Ã£Ã¢ O
Ãµ Âº
Âŀ })
Ã½Ã° hÃ»
k Ãł
= Â¦
Ãħ Ã±
ĀÂŁ ÂĦ
EÃ¶ x
ĝ ?Ě
ÃĮ ÃĳÃ½
n t
Â¢ ÂįÂĭ
ġÃĹ /
%Ĕ ÂĢ
Ã¹ Ã¥Ã¿
ĔĀ Â»
Ć ÂĢ&
Ã¾Ã© Ã¾b
{ ]
i QY
Ã»Ã§ Ã¹
Â§ ÂĬĀ
>ÂĶ ÂĨ
ÃıÃ¹ Ã´
S Ã¹ÃĴ
i ÃĶQ
s Ã¸Ãĵ
ÂĮ ġÂį
@ě Ĕ
Ã° Ãĳ
Â¢ÂĢ /
k ÃŁ
f J
Âĩ Ė
q Ã¸S
Āĕ ě
Ã¥ Ã¸
Â¥Ā ;
Ą ĝ)
Âĭ Â¤
Ã¥G Ãĺ
Gz Z
r t
ą Â¥Â¦
Ã½Ãĵ Ã¼Âª
~ Â¯
Ę Ā`
Ã§ Ã«R
ÃĶ RÃĲ
OÃ» Ã¤Ã¿
Â¨Â¥ Âĺ
D Ã¸
Â· @ąĔ
(Â¢ÂĢ ĝ
Ã¥ Ã¾Ã°Ã¼Ã©
Ã½Ãĳ Ã¼Ãį
W Z
` Â£,
Ã§ Ã¹T
Āĝ Â£
ÃºT ÃĶ
Ġ Č
ÂŁ ą
\ Â¢ÂĢ)
Âı Đ
_ Âĥ
Ã´ W
Ã® ÃīÃ¿
Ă **
ğÃ· ą
M KE
p o
ÃĪ ÃĳÃ½
Â¨Â® ġ
k Ãļ
Ã½ KÃ½
PÃĬ U
: (Â¢ÂĢ
S QE
ğÂĿ ěÂĩÂ¨
_ Âģ
@đ ÂĪ
ĀĚ ÂĴ
>Âķ -
Â¿ÂĿ Ā:ÂĬ
(Ę Â´
s Ã¸ÃĲ
Âİ Ğ
Âĩ ď
ĔĀ ÂįÃ·
V J
Ć ÂĢě
Â¯ ÂĨ
ĀÂ« ?
Ã¾ W
Ã« Ã¤
; ĚĀ
ÂĬ }Ĕ
Ã·? ē
ĔÂĦ ÂĢ
C Ã¡
a Ã°
ĀÂĦ ÂĤ
Â¢ÂĢ ĒÂĬ
Âĩ ÂĽ
ÃĲS Ã©
Ãĵ Ã´Âª
Ã½j Ã¥
= <
s Ã¹ÃĴ
Ã¥G ÃĽ
^ /
ÂĴġ Â«
z Ã¾t
Ã» Ã¤ÃĶ
Ã¦ Z
ÂŁÃ· Âı
^ .
Â¢Âģ ąĔ
~ +
Ã´ oÃĬ
Ā- %
Ā ÂĤĈ
Ã¹ Ã¡Ã¿
ÃºÃĶ Ã´
_ ÂĪ
(Â¢Âĺ ą
Âŀ Ğ
(ā Â±
ÃºU Ãļ
Ãº y
Ã² Ã«
Ãķ Ãŀ
= ġ:
ĀĔ ÂĩÂ¡Â¥Â¤=
ÃĲÃĵ Ã¨
āĝ Ĕ
x y
Ā? /
8 84
q Ã¸T
Ã¼Ã¨ Ã¿
EV Ã»
Ã½ Ã¨Ã¿
ÃĿ t
Ãĥ ÃĻ
Âº hÃīÃ¾Ã©
Â¥Âı @
ą ÂĬ)
Ã¸ B
Ãªh Ã²
ÃĹ ÂĽ
ĀÂŁ Âĥ
(Ă ÂĶ
& ÂĢě
G Ã¿ÃĻ
Ã® IÃ¿
Ā^ ÂĹ
ġÃ· Âı
} Ě
Ãģ Z
GÃ¥ J
Ã»ÃĶ y
ÃīÃµ Ã¾
Ã§ ÃºS
ÃĶ ÃĺÃ¿
Ã¤ Ã¾T
Ã½Ã¯ ÃĤ
A ÃĦ
Ĝ <
Âµ Ã©
Ãĳ Ã«
Â¦Âį Â¦
= >Â´
> ĕ
Ġ Â¢ÂĬ(Ę
Ã´ D
Ãº Ã¨ÃŁÃİ
Ãļ Ã°
ĔĀ ć
Ğ (ā
Âĸ ÂĬ@
Â¢ÂĬĀ(Â¢ÂĬĀ *
Ã¸Q Ã¸
Ã¾ÃĶ oÃ¶
Âİ Āę
Ĕā Âķ
RÃĴ w
Â¢Âĭ ÂĢ
. ÂĲ
Âģ ÂŀÂ´
Ãĸ Z
s Ã¼Âª
ÂŁ Ď
Ã©I Ã¦
Ãģ M
zQ p
Ė :
Ã«M Ã»
Âķ Ĝğ
Ğ Âİ
Ã³ ÃĮÃ¿
Ã± Ã¨ÃŁ
Ã½Ãĵ Ã¹P
Ã£Ãļ O
Â¥Â¤ Ĕ
Ã½Ã´ hÃ³
ÂĹ ]
ÂĬ( ă
Ã· ?Ě
Ã¯ Ã¼y
Ã«K Ã¦
ąÂ¢Âĵ ć
ă ÂİÂĶ
Ã¾ CÃ¼
Ã¥ RQ
Ã¢ Ãĭ
Ā} ÂļĀ
?Âķ ě[
q Ã¸P
Āğ /
K Ãª
Â» ^
_Ã· ÃĹ
OÃ» Ã¨Ã¿
Â¢Â« }
Ğ Ĝ
Âľ ÂŁÃ·
Ãĳ Ã±
Ď ~Â´
< Ĉ
z Ãģ
ÃĪ t
ZA ÃĲRÃĲ
ÃºÃ¾T gÃ«
Ã½Ãĵ FO
s Ã¹P
Ă ÂĸÂĲ
?ÂĿ :
Ã¼ n
QH b
Ā(Â¢ÂĬĀ(Â¢ÂĬĀ *
O ÃºÃ¦
ÂŁ Â«
} ę
Â¥ Â¢Âĺ
Ã¸ ÃŁ
Ã¡Ã«F Ã¡Ã«
ă ÂŀÂĶ
ĝ ^
Ãī ÃıJ
ĀÂı Ě
Ā\ ġ
z Ã¾T
ÂĹ ÂĦ
Ā~ Â¿
E Ã¾ÃłÃ¾U
s ÃĩZ
GÃ¥ GÃįÃª
Ãµ ÃºÃĲ
ÂĽ Â¬
>Â´ ÂĢ
ÂĬ} Ā
Ãĩ Ã¸T
ĀÂ© Âı
ÂĮ{ ÂŁ
Â¢ÂĬ(ĀÂ¢ÂĬ(ĀÂ¢ÂĬ(ĀÂ¢ÂĬ(ĀÂ¢ÂĬ(ĀÂ¢ÂĬ(ĀÂ¢ÂĬ(ĀÂ¢ÂĬ(ĀÂ¢ÂĬ(ĀÂ¢ÂĬ(ĀÂ¢ÂĬ(ĀÂ¢ÂĬ(ĀÂ¢ÂĬ(ĀÂ¢ÂĬ(ĀÂ¢ÂĬ(ĀÂ¢ÂĬ(ĀÂ¢ÂĬ(ĀÂ¢ÂĬ(ĀÂ¢ÂĬ(ĀÂ¢ÂĬ(ĀÂ¢ÂĬ(ĀÂ¢ÂĬ(ĀÂ¢ÂĬ(ĀÂ¢ÂĬ(ĀÂ¢ÂĬ(ĀÂ¢ÂĬ(ĀÂ¢ÂĬ(ĀÂ¢ÂĬ(ĀÂ¢ÂĬ(ĀÂ¢ÂĬ(ĀÂ¢ÂĬ(ĀÂ¢ÂĬ(Ā Â¢ÂĬ(ĀÂ¢ÂĬ(ĀÂ¢ÂĬ(ĀÂ¢ÂĬ(ĀÂ¢ÂĬ(ĀÂ¢ÂĬ(ĀÂ¢ÂĬ(ĀÂ¢ÂĬ(ĀÂ¢ÂĬ(ĀÂ¢ÂĬ(ĀÂ¢ÂĬ(ĀÂ¢ÂĬ(ĀÂ¢ÂĬ(ĀÂ¢ÂĬ(ĀÂ¢ÂĬ(ĀÂ¢ÂĬ(ĀÂ¢ÂĬ(ĀÂ¢ÂĬ(ĀÂ¢ÂĬ(ĀÂ¢ÂĬ(ĀÂ¢ÂĬ(ĀÂ¢ÂĬ(ĀÂ¢ÂĬ(ĀÂ¢ÂĬ(ĀÂ¢ÂĬ(ĀÂ¢ÂĬ(ĀÂ¢ÂĬ(ĀÂ¢ÂĬ(ĀÂ¢ÂĬ(ĀÂ¢ÂĬ(ĀÂ¢ÂĬ(ĀÂ¢ÂĬ(Ā
ĝ ĀĔ
Â£ Â¢ÂĢ$
Ã¨ Ã¸
ÃĶG Ã¾Ã¨Ã¾T
Ã° Y
Ã¼Ãª Ãķ
Â¢ÂĬ(ĀÂ¢ÂĬ(ĀÂ¢ÂĬ(ĀÂ¢ÂĬ(ĀÂ¢ÂĬ(ĀÂ¢ÂĬ(Ā Â¢ÂĬ(ă
Ã§G ÃįÃ¨
Ã± r
RÃĳ I
oÃ¹ Ã¦ÃŁ
Ã²Ã£Ã¾ Ã¢
Â´ =
Ā? Â¥
Ā^ ÂĿ
>ÂĶ ÂĢ
Â¸Â£ ĔĀ
Â¥Ę ĞÂĶ
Āğ ď
W ÃĲQÂµ
ď ē
ă ÂĳÂļ
Ã¼Ã± Z
ă ăĂ
Âĭ ÂŃ
Â¨ Â°\
ÃºR Ã½
ÂŃ :Âļ
< })
Ã¼ Ã¼ÃħÃ¿
Ãī ÃĩJ
Ã¾U j
ĂÂĢ +
Ã»Ã¨ Ãĵ
*ğ Â´
Ã¾T Ãª
Ã§G Ãĺ
Ĕ} Âĸ
Q Ã¼Ã¨
Ãľ Ã½i
Ã« Ãĥ
Ã© Ã½i
ğÃ· Â¿
(Â¢ÂĬĀ(Â¢ÂĬĀ(Â¢ÂĬĀ(Â¢ÂĬĀ )
Â· Â¬
} -
Ãĩ JZ
Ĕā Â©
Ã©S P
Ã« Ã£Ã¿
ÂĲ ā$
Ãļ ÃŁÃŁ
Âĭ ]
ÂŃĀ [
} /
Ã± ÃĻ
Ā& }Âįę
ĂÂĴ ÂĬ(Ā
Âĭ Â£
(ĝ (
Ã¹ Ãŀ
Âı Ĉ
Ã¤ zÃĴ
Ãĥ ÃĢ
Ã° Ã¨
(Â¢ÂĬĀ ))
ğ Ğ
ÂļĀ Âļ
ė ÂĦ
Ã½Ã² hÃ»
Ã¯ y
Â¥ -ĀĔ
Ã» Ã±Ã¿
o Ã¸Ã¸
Ã¾Ã¨ Ã¾f
q Ã¹ÃĲ
Ãł ÃºT
Â¥Â¢ÂĢē ć
= }*
A Ã¹S
Â¤Â¢ÂĢ Ė
ĀÂĦ ÂĴ
ÃŁÃ³ ÃĲ
}Â¦ ğ
ÃĲ k
Ãħ kÃ¿
Ĉ ĄĐ
ÂŃĀ -
Ã° D
Âŀ ÂĬ(
zÃ± Ãĸ
} Â¦ď
ġ ;
Ãł zP
ZA ÃĴ
ÂĲ (ā
(Ă Â·
~ÂĤ ÂĿ
@ď Â¦
ÂĢ% Â¢
ď Đ
Ãµ ÃĳÃ¿
Ã¬ vÃ¿
@Đ ÂĽ
Ã½ GÃ²
ÂĤ āć
* (Â¢ÂĢ
Ã¾ H
ā( Â¥Â¤
Ã§ ÃĿÃ¿
Ã· ÂįĀ
Ã° Ã¾T
Ã«W Ã¨
ÃĶG Ã¾Ã¨Ã¾U
^ (ā
ÂļĀ ÂĮ
Ã© ST
ĀĞ ÂĴ
Ã§Âª Ã¾t
Ã« Ã¢
@ć Ĕ
Ãħ Ã¯
ćÂ¥ &
Ã¨ Ãĸ
ĀĞ Â°
Ãı Ãģ
GÃ§F Ã¡Ãª
& ÂĢ+
ÂŃĀ &
Ē Âļ
ğ ÂĳÂ£
Ã° Ã¾b
ĀÂĦ ~
ĀÂģ /
ē Âĭ
ĀĀ Ā`
Ã¾Ã° Ã¾B
ĝ ē
Â¢ ÂĮğ
Ã½Ã¡ Ã¹P
Ã¹ÃĶ Âµ
ÂĥÂ¥ -ĀĔ
ġ ě
Ã¦ jJ
ÂĻ >ÂĶ
Ã° Z
Ã«I Ã¥
Ã¤ Z
ÂĤ Ğ
ăÂ¨ Â¢ÂĬĀ(Â¢ÂĬĀ(Â¢ÂĬĀ
Ã£ Ã¼h
< ]
Ã° d
Ã§G ÃĽ
Ã¼j Ãķ
/Âĸ ÂŁ
ġ* Âİ
ÃµÃ¼Ã¨ Ãĩ
G Ã¾Ãº
= =*
Ā[ '
) (Ā
Â¢ÂĬ *@
Â¦ ÂŀÂ´
- ą
q ÃĩJ
Ć ÂĢ"
Ā* Âŀ
Ã½Ãĳ Ã¹T
Ã± j
Āĝ ą
ÂĤ: Âĥ
^ Âĳ
x Âº
Ã´ p
ÂŁ ]
~Âķ %
o ÃºÃ¨
Ã¾ Ã§Ãµ
Âı &?
Ã« j
f z
Â¢ÂĬ Ć
Ă ÂĹĔ
Ã© RÃĲ
ÂĹ Ě
(Â¢ÂĬĀ(Â¢ÂĬĀ(Â¢ÂĬĀ(Â¢ÂĬĀ *
ĀÂı Âĩ
ÃºS Ãª
Ĝ }*
}Â¢ ?
^ ÂĪ
Âĥ ÂİÂ´
Ã¼i h
(Â¢ÂĬĀ(Â¢ÂĬĀ(Â¢ÂĬĀ(Â¢ÂĬĀ(Â¢ÂĬĀ(Â¢ÂĬĀ(Â¢ÂĬĀ(Â¢ÂĬĀ(Â¢ÂĬĀ(Â¢ÂĬĀ(Â¢ÂĬĀ(Â¢ÂĬĀ(Â¢ÂĬĀ(Â¢ÂĬĀ(Â¢ÂĬĀ(Â¢ÂĬĀ(Â¢ÂĬĀ(Â¢ÂĬĀ(Â¢ÂĬĀ(Â¢ÂĬĀ(Â¢ÂĬĀ(Â¢ÂĬĀ(Â¢ÂĬĀ(Â¢ÂĬĀ(Â¢ÂĬĀ(Â¢ÂĬĀ(Â¢ÂĬĀ(Â¢ÂĬĀ(Â¢ÂĬĀ(Â¢ÂĬĀ(Â¢ÂĬĀ(Â¢ÂĬĀ(Â¢ÂĬĀ(Â¢ÂĬĀ(Â¢ÂĬĀ(Â¢ÂĬĀ(Â¢ÂĬĀ(Â¢ÂĬĀ(Â¢ÂĬĀ(Â¢ÂĬĀ(Â¢ÂĬĀ(Â¢ÂĬĀ(Â¢ÂĬĀ(Â¢ÂĬĀ(Â¢ÂĬĀ(Â¢ÂĬĀ(Â¢ÂĬĀ(Â¢ÂĬĀ(Â¢ÂĬĀ(Â¢ÂĬĀ(Â¢ÂĬĀ(Â¢ÂĬĀ(Â¢ÂĬĀ(Â¢ÂĬĀ(Â¢ÂĬĀ(Â¢ÂĬĀ(Â¢ÂĬĀ(Â¢ÂĬĀ(Â¢ÂĬĀ(Â¢ÂĬĀ(Â¢ÂĬĀ(Â¢ÂĬĀ(Â¢ÂĬĀ(Â¢ÂĬĀ (Â¢ÂĬĀ(Â¢ÂĬĀ(Â¢ÂĬĀ(Â¢ÂĬĀ(Â¢ÂĬĀ(Â¢ÂĬĀ(Â¢ÂĬĀ(Â¢ÂĬĀ(Â¢ÂĬĀ(Â¢ÂĬĀ(Â¢ÂĬĀ(Â¢ÂĬĀ(Â¢ÂĬĀ(Â¢ÂĬĀ(Â¢ÂĬĀ(Â¢ÂĬĀ(Â¢ÂĬĀ(Â¢ÂĬĀ(Â¢ÂĬĀ(Â¢ÂĬĀ(Â¢ÂĬĀ(Â¢ÂĬĀ(Â¢ÂĬĀ(Â¢ÂĬĀ(Â¢ÂĬĀ(Â¢ÂĬĀ(Â¢ÂĬĀ(Â¢ÂĬĀ(Â¢ÂĬĀ(Â¢ÂĬĀ(Â¢ÂĬĀ(Â¢ÂĬĀ(Â¢ÂĬĀ(Â¢ÂĬĀ(Â¢ÂĬĀ(Â¢ÂĬĀ(Â¢ÂĬĀ(Â¢ÂĬĀ(Â¢ÂĬĀ(Â¢ÂĬĀ(Â¢ÂĬĀ(Â¢ÂĬĀ(Â¢ÂĬĀ(Â¢ÂĬĀ(Â¢ÂĬĀ(Â¢ÂĬĀ(Â¢ÂĬĀ(Â¢ÂĬĀ
Ġ Ã¤P
Ãº ÃĶÃķ
~ Â»
Ã½ tÃ¿
Ã° Âµ
ĀÂŁ Âķ
?Âķ &
Ã©H c
@Đ Âĭ
ÃĮ Ã´
dg ÃĴ
' ă'
Ğ Ă
Â· Â¤
@ą -
Ãłd ÃĲ
Ãĭ Ã¡
Ã¼Ã³ OÃĬ
M Ãº
o K
ď Âģ
Ãª Ã¸
Ā^ Â´
Ã© Ã¹ÃĲ
ÃĦ Ã¸
ĞÂĶ ÂĢ
ď Ď
Ã´ t
Ã± Ã£Ã¾
Ã»Ã¸ ÃŁÃ£
^ Â©
Ġ Â¢ÂĬ*
Ã½ OÃ³
ÃĲ Ã¾f
d zÃķ
Ã© Ã¸ÃĲ
w Ãĳ
ÃĪ ÃıJ
?ÂŃ >
Â± Â¥Â¢ÂĢē>
(ā |
ÃĶS p
oÃ¹ Ã¨ÃŁ
Ã§ Ã¹S
?Ã· ć
ćÂ¥Ā -Ĕ
Ãĥ C
ĀĞ Âĳ
^ ă
ĝ '
Ã£ Ã¹ÃĲ
?ÂĿ &
?ÂĿ ěÂĽ
k Ã¯
ÃŁÃ³ Ãļ
Ã«K Ã¥
ă ĝ)
a ÃĦ
Ã¹ Ã«Ã¿
Ã¤ hÃ¾
Ãł zR
ÂĦ ÂŁÃ·
ÂļĀ Â«
ďÃ·Âį Ę?
ć Â¤
Ā- Â¿
Ã¾Âµ n
y ÃıÃ¿
Âİ Âĵ
L Ã¸
ÃĪ ÃĩZ
s Ã¸ÃĶ
ġ* Âŀ
ĀÂŁ Âĩ
Ã£ Ã¹ÃĶ
ĀÂŁ ÂĨ
Ãº Ã½i
ğÂķ -ĔĀÂĽ
. Â´
Â£ "ÂĢ
m ÂµÃ¿
ÂŃ ĚĀ
@Ĉ @
Ã«H d
ĉ Ġ
ÂĿ @đ
ÂĢ ~Â´
ÂĴ Ě
ĔÂ´ ÂĶĀ
@ĎÂ¢ÂĽ Â»
( Â¯
] {
Ā ~Â´
Ā Â¢ÂĬ(ĀÂ¢ÂĬ(ĀÂ¢ÂĬ(ĀÂ¢ÂĬ(ā
Âİ ÂŀÂĶ
Ã»Ã« Ã¹ÃĴ
P zÃĳ
Ã¹ Ã®Ã¿
ÂĴ ÂĸÂĴÂĢ
Ãħ Ã¾ÃłÃ¾U
q ÃºÃĶ
Ġ Ã¯Ãµ
Ãµ Ãŀ
Ãł Ãı
s ÃºÃĵ
A Ã¼Ãħ
c Ã¼j
Â¿ Ď
ÃŁ ÃµÃį
? ĝ
ĔĀ Â¸
ĀÂ´ ÂĶ
G ÃĦ
QE HÃĤ
>Â´ ÂĶ
ĀĂ _
[ })
Ã¾Ã± Ã¾F
ÃĳÃ¯ Ã¹Ãĳ
Ă :Ě
Ãı FÃ¿
Â¦ ?Ã·
@Ď Â¨
Ã¤S Ã¨
Ãĸ Ã¸
Ā-Ĕ ÂŁ
~ Ğ
Ã§ Ã«N
ĀÂ¨ Âı
Âľ }*
ÃĢ Ã¾t
ĂÂĬ )ÂĴ
Ã«V j
= '
Ã½ Ã§Ã»
ĝ !
ÂĹ Âĭ
(ă /
ÂĬ( Đ
Ã¼Ã² Z
ġ} ġ:Ā
Ãµ ÃºÃĵ
Ãº I
ďÃ· ÂĹ
ĔÂĢ )
c Ã¹T
w ÃºÃķ
Âĵ @ė
?Âĺ Â«
ÂļĀ )
Q Ã°
ĀÂĢ Âļ
Ã© IJ
Ã¾Ã¢Ã¾T yQÃ¿
= ?Ě
} ă
Ã½ XÃ¿
Ãº Ã¸Ã¿
QM Ãĺ
P zQ
Ą Â¤Â§
ė Âĭ
(ā ć
Ã¯c Ã¹Q
Ã¢ Ã¯
Â¢ÂĢ :
FI ÃĢ
ÃŁ ÃŃFÃ¿
Y Ã©
ÂŁ Ĉ
Ãľ Ã¸
Â¢ÂĢ ď
> Â¢ÂĿ
Ē ĔĒ
ďÃ· ?
)Ā ÂĶ
& ÂĢĜ
. Â·
Ã§ ÃľÃ¿
~ÂĶ ÂĨ
Ã¡Ã¯ Ã¹Q
, Â´
Ãĳ KI
oQÃ¹Q Ã³z
Ã¼Ã© w
ĞÂĨ Âı
Ã¹Ã§ Ãº
Ć ąĀ
ĝ })
Âľ ~Ĕ
ÂĴ (Ă
Â¿ ÂĤ
(ă '
Q ÃıÂµ
Â¾ 4
S Ã±F
ĀĎ ÂĤ
ÂĬĀ Â¢
s Ã¨h
Ãı Ãħ
Âģ ÂŀÂĶ
s ÃºÃĸ
ğ Â£
ğ Â«
/ ė
Ğ ă
Âķ =Ĉ
ÃĶT P
} Â¿*
ġÂĻ Â©
S IE
Ã« OÃ»
ÂıÂŃ Ę
@Ė >
Â¨Ā Â¢ÂĬ(ā
FÃħ Ã¾Ã¨
ÃŁ Ãķ
Ã¾u n
KI KH
G ZJ
ÃĶÃĵ Ã¨
> -
` ÃĹ
S OZ
Ğ Â©
Ãł zS
}Âį -ĔĀÂĻ
| ą
Âĵ @Đ
ġÂ« ?
Ã«H c
ÃºÃ¾t cÃ«
= ?:
Ã½Ãĳ Ã¹ÃĲ
Ã¹Ãĵ h
ÃĶÃĴ ÃĴ
ÃĿÃ¼ GÃ³
Ã§ Ã¼i
ć Đ
Ã£ ÃºP
Ãı dÃ¿
Ã¹Ãķ Âº
Ã²c Ã¾Ãł
Ā ÂĤď
@ę <
ĕÂĥ (
ÃĿÃ¼ OÃ³
s Ã¹S
Ãĩ oÃ¿
Ã£ Ã½Ãĥ
?ÂĿ .
Ãĩ H
Ãĩ Ã½Ã²
ěÂı Â©
& ÂĢ"
Ă ĞÂĨ
Ã¼ Ã½E
Ã³ Ã¸ÃĲ
Âĵ Â¤
Âģ @Ĕ
Ã¯ IÃ¿
Ã± Ã¾F
Ãı Oz
Ãı Ã¸Ãķ
ÂļĀ ÂĶ
Ãĩ Ã¸Ã¿
ĂÂĢ -
" ÂĢ&
Ã£ Ã¼Âª
Ã¬ ÃĳÃ¶
(Â¢ÂĢ Ĝ
Ĉ (Â©
Ãģ ÃıZ
Ã¸S Ã¨
W Ã¾Ã¹
` -Ĕ
Ãµ ÃĵÃ¿
Ã¯ Ã¹ÃĴ
ÃĿ Ã¡
GÃ¥ I
q Ã¸ÃĴ
s Ã¼Ã¨
Ãı ÃĢ
^ đ
Ć Ćć
Ã° Ã¥
KI KL
@Ą ÂŀÂĤ
q Ã¹ÃĶ
ÃĹ \
ÂĬĀ ]
H FF
Ġ Â¢ÂĬ(Ă
Âĥ Âī
Ãį Ã¢
GÃ¥ H
ć ÂĦ
Ã§Ã¼ Ã¾
Âļ(Ă Â·
ÃĽ Ã¼h
ĂĈ Ą
Ã·? đ
< :
Â¥Ā .
. Â¨
Ã© Ã´P
Ã½j ÃŃ
Ãĩ Y
Ã¾t l
Ā] ġ
ĀÂĸ Âĥ
q ÃıJ
C Ã¾Ãº
ÃĽ kÃ¿
Â¥Ā &
Ã§ ÃĦ
ÃŁÃ³ ÃĻ
Ğ Âĳ
Ã¼Ã© Ã´P
Ã¹R y
Ãłd Ã´
Ã«R T
?Âķ ;
i QE
Âĭ :
oAÃ¹Ãĳ Ã³z
Â¶ /Ã·
Ĕā Ĉ
GÃ¥ M
ĀÂ¿ _
ÃŁJ u
C Ã¢
Ã¦ Ã±
Ã©M Ã»
t ÃĵÃ©
ZÂª Âº
Ã¨ Ã½
Ã£Ã½ ÃĨÃ½
Â¢ÂĢ ?
ĀĔ Âĩ
?Âķ .
ĀÂı ÂĦ
Ā~ Âı
ă ĔÂ´
W Ã¾ÃºÃ¿
Ã«S ÃĶ
? Ą
=ą -ĔĀÂĽ
Âı> ğ
Ġ ÂĤď
Ã² ÃŁÃ¾
ÃĩÃ» F
(Đ ÂĶ
@ď Â¢Âĺ
Ã©K Ã¦
ĀÂŃ ğ
yi Ã½Ãĳ
Âİ =Â©
Ã´ QÃŀ
(Ă Â¥
@đ [
Âı- }
ĀĞ Â§
Â¢ÂĬ(ĀÂ¢ÂĬ(ĀÂ¢ÂĬ(ĀÂ¢ÂĬ(ĀÂ¢ÂĬ(ĀÂ¢ÂĬ(Ā Â¢ÂĬ
ÃĻ oÃ¿
ĔĀ Â«
q Ã©N
Ãł ÃºÃĲ
Āĕ ĝ
GÃ§F Ã¥Ãµ
= ~ÂĶ
{ *
Ã¤ zÃĵ
@Ė <
ĀÂĸ Âĩ
Â¦Â· ē
Âĥ ÂĽ
(Â¢ÂĬĀ(Â¢ÂĬĀ(Â¢ÂĬĀ(Â¢ÂĬĀ (Â¢
ÂĬĀ ÂĴÂĬ(
ÃĻ Ã¯FÃız
Ã´ H
ÂļĀ Âį
ÃĶR Q
Ã³ ÃľÃ¿
Âİ (ă
n Âº
Ã¹ ÃłÃ¿
OE A
ÂļĀ ÂĴÂĬ(
ÃºÃĴ Ã½
o G
ā (Â¥Â¢ÂĢ
ė Â»
Ã£ Ã¾Ãº
Ãı GÃ½
ÃĢ ÃĩJ
| >
Ãµ ÃĪÃ¿
Â¥Ā >
ÃľÃ¾t m
Âħ Âł
Â¯ ĔĀ
(Ă Ę
Â¢ÂĿ Âģ
Q Ã¹Ãĵ
ĀÂŁ ġ
ÃºU Ãª
Ğ |?
Ā~ ?
Ã· Â¨Ă
ĀÂį ě
q Ã¹P
Â¦ ÂĢĝ
Ā] Â¢Â©
k Ãŀ
q Ã½j
q ÃºP
Ġ Ã¾T
+Ć ę
Â´ Â¿Ã·
Âĩ Ă
ĀÂ¿ Â¿
Ã¼Ã° OÃĬ
Âİ Ě
ÃŁÃ³ ÃĪ
: āÂĬ
Âģ ÂİÂĶ
Ã§ Ã¡Ã¿
Ã¤ ÃºÃĴ
Ã¹Ã¢ ÃŁ
Ãµ ÃĶÃ¿
~Â´ ÂĨ
q Ã¹Ãĵ
E ÃĤÃħ
S Ã¼Ãį
Ã¯ ÃĭÃ¿
Āğ Ē
C Ã°
u Ãĵ
Ã¼Ãª ÃĿ
Ãµ Ã±
Ãº Ã´Ã¿
ğÂŃ ğ
Ã§ Ã«M
ĔĀ Ě
Ã» ÃłÃĲ
ÃĲ Ã«
s Ã©N
Ã½b Ã½
? Đ
Y Ã«
Ã¾Ã¨ Âª
=ą &
Âļ ?Â´
Ã£ ÃĦ
Ãį Ãł
Ã¯ i
Ã½Ãĳ Ã¼Âª
Ã¾Ã© Âª
> *
^ Âĸ
Ġ ÃºS
Â¢ÂĬĀ (Â¢ÂĬĀ(Â¢ÂĬĀ(Â¢ÂĬĀ(Â¢ÂĬĀ(Â¢ÂĬĀ(Â¢ÂĬĀ(Â¢ÂĬĀ(Â¢ÂĬĀ(Â¢ÂĬĀ(Â¢ÂĬĀ(Â¢ÂĬĀ(Â¢ÂĬĀ(Â¢ÂĬĀ(Â¢ÂĬĀ(Â¢ÂĬĀ(Â¢ÂĬĀ(Â¢ÂĬĀ(Â¢ÂĬĀ(Â¢ÂĬĀ(Â¢ÂĬĀ(Â¢ÂĬĀ(Â¢ÂĬĀ(Â¢ÂĬĀ(Â¢ÂĬĀ(Â¢ÂĬĀ(Â¢ÂĬĀ(Â¢ÂĬĀ(Â¢ÂĬĀ(Â¢ÂĬĀ(Â¢ÂĬĀ(Â¢ÂĬĀ(Â¢ÂĬĀ(Â¢ÂĬĀ(Â¢ÂĬĀ(Â¢ÂĬĀ(Â¢ÂĬĀ(Â¢ÂĬĀ(Â¢ÂĬĀ(Â¢ÂĬĀ(Â¢ÂĬĀ(Â¢ÂĬĀ(Â¢ÂĬĀ(Â¢ÂĬĀ(Â¢ÂĬĀ(Â¢ÂĬĀ(Â¢ÂĬĀ(Â¢ÂĬĀ(Â¢ÂĬĀ(Â¢ÂĬĀ(Â¢ÂĬĀ(Â¢ÂĬĀ(Â¢ÂĬĀ(Â¢ÂĬĀ(Â¢ÂĬĀ(Â¢ÂĬĀ(Â¢ÂĬĀ(Â¢ÂĬĀ(Â¢ÂĬĀ(Â¢ÂĬĀ(Â¢ÂĬĀ(Â¢ÂĬĀ(Â¢ÂĬĀ(Â¢ÂĬĀ(Â¢ÂĬĀ(Â¢ÂĬĀ(Â¢ÂĬĀ(Â¢ÂĬĀ(Â¢ÂĬĀ(Â¢ÂĬĀ(Â¢ÂĬĀ(Â¢ÂĬĀ(Â¢ÂĬĀ(Â¢ÂĬĀ(Â¢ÂĬĀ(Â¢ÂĬĀ(Â¢ÂĬĀ(Â¢ÂĬĀ(Â¢ÂĬĀ(Â¢ÂĬĀ(Â¢ÂĬĀ(Â¢ÂĬĀ(Â¢ÂĬĀ(Â¢ÂĬĀ(Â¢ÂĬĀ(Â¢ÂĬĀ(Â¢ÂĬĀ(Â¢ÂĬĀ(Â¢ÂĬĀ(Â¢ÂĬĀ(Â¢ÂĬĀ(Â¢ÂĬĀ(Â¢ÂĬĀ(Â¢ÂĬĀ(Â¢ÂĬĀ(Â¢ÂĬĀ(Â¢ÂĬĀ(Â¢ÂĬĀ(Â¢ÂĬĀ(Â¢ÂĬĀ(Â¢ÂĬĀ(Â¢ÂĬĀ(Â¢ÂĬĀ(Â¢ÂĬĀ(Â¢ÂĬĀ(Â¢ÂĬĀ(Â¢ÂĬĀ(Â¢ÂĬĀ(Â¢ÂĬĀ(Â¢ÂĬĀ(Â¢ÂĬĀ(Â¢ÂĬĀ(Â¢ÂĬĀ(Â¢ÂĬĀ(Â¢ÂĬĀ(Â¢ÂĬĀ(Â¢ÂĬĀ(Â¢ÂĬĀ(Â¢ÂĬĀ(Â¢ÂĬĀ(Â¢ÂĬĀ(Â¢ÂĬĀ(Â¢ÂĬĀ(Â¢ÂĬĀ(Â¢ÂĬĀ(Â¢ÂĬĀ(Â¢ÂĬĀ(Â¢ÂĬĀ(Â¢ÂĬĀ
@# Â¡
ÃĶR n
Âı ď
Ā Â¢ÂĬ(ă
Ã¡ t
QRP QE
' ĝ)
Ā( Â¦
ÃļhÃļ h
_ }
Ā\ Â¢
Ã«W h
Ã¿ Ã¾
_ ÂĬ
q Ã«N
Ã¤ ÃĭÃ¿
Ã«Q Ã¿
ÂĸÂĲ ąĔ
z Ã½i
Ă ÂĢĖ
Ġ Ġ
ĀĚ Âĸ
(Ă ĝ
?ÂĿ ;
jÃħ W
ÂĶ ÂŁÃ·
Â¶ (ā
Ã¹R Ã¹
Ãı Oj
ÂĤ ^
Ã©H d
ÂĹ Â¬
Ã¹T ÃĶ
Ãµ x
ÂĤ: Ě
ÂªI Ã¨
) Â´Ā
Â¿: <
A Ã«E
Ã© z
ĀÂŁ Âīġ
Ãĭ Ã¼Ãħ
(Ă Âı
ĞÂĶ ÂĨ
' )
ę ĞÂ¢ÂĮÂı
Ã³ Ã®Ã¿
Ā[ ğ
ÃľÃĴ Ã¦
ě Â¥Ā
Ãµ Ã±Ã¿
Ã¹ÃĴ Ã¿
Ą ĞÂĨ
ÂĻ @ąĔ
oÃ» Ã¸
ÂĮ} ġ:
Āġ ġ
ĀÂ¦ ġÃ·
Ã»Ã¨ ÃĶ
ĄĂ Ď
e ÃĴ
Ãº ÃĥÃ´
oÂº j
! :
ć ġÂŃ
ď Â¢
Â¥Â¤ ā
AÃĪ ÃĪ
ĀÂ¢ÂĬ(Ā Â¤
& ÂĢ'
( āĂ
Ãı Ã¼Ã±
ĀÂ¡ ĚĀ
ĠÂĥ ÂĤ
Ã¯ ÃıÃ¿
(Â¦ Â»
ÃŁZ u
} ?ÂŃ
Ãº Ã©Ã¿
Â¥Â¢ÂĢ +
7 4Â¹
Ď ąĀ
Ã·?ÂĿ ě}
Ã¨ ÃĽÃ¯
Ãł ÃºÃĵ
Ĕā Â«
ÂĢĎ }
Âŀ Ą
ÃĢ Ãİp
Ã½Ã£ N
H ÃŁt
Ãº Âº
ĀÂŁ ÂĹ
< }*
a Ã¾Ã»
" ÂĢ*
Ã¯c FÃ¯c
= ~Âķ
q Ã¼Ã¨
(Â¢ÂĢ -
OÃµ kÃ´
Â§Â¡ Ę
Ãī ÃĩZ
Âĥ :
Â¥Ā [
Ğ Â¢ÂĲ
ġ: ?
Ā: Â±
LÃĴ ÃĲ
@ď Â¢Âļ
g Ã¿ÃĻ
ÂĬĀ @
E Ãĸ
{ ,
Ã½ m
Â¢ÂĢě Â·
ÃĨ Ã¾Ã©Ã¼
@đ Â´
Ã½Ã¡ Ã´
S Ã¼Ã¨
Â± @ē
?ÂĻ Â§
Ã¹ Ã¾t
Ãĥ Ãĥ
@Ď Â¢ÂĬ
ÃŃ KH
Ã£ Ã¹Ãĵ
Ã± Ã®Ã¿
RT p
Ãºd ÃŁÃª
Ā: Âĸ
Â¥Â¤ ĔÂ´Ā
ÃŁ V
ÃıÃ¼ Ã¼
( ÃĹ
Ě ÂĴÂ£
Âĥ @ė
Ãł Ã½i
Ãģ D
}Âį Ā-ĔÂĻ
q Ã«M
Ã¡ ÃĦ
Ã¯ Ã¯Ã¿
q ÃºT
Ã© Ã¹P
Ã° Âº
Ĕā >
O Ã¸ÃĶ
ÃĮ oZ
Ã¹ÃĴ Ã½
Â¢ÂĢě Â±ġ
Ď Â¢ÂĽ
Ãģ Ãĳ
x Ã½i
Ā Ćć
Ãģ FX
Ã° Ã³
Â¥ -Ā
Â¢ÂĬ) ÂĲĔ
_ Â¤
Ã¨ÃŁ Ã¯
Ā\ Âĩ
>ÂĨ ÂĿ
ÂĸÂĬ `
Â© Â¯Ã·
ÃŃ Ã¹ÃĲ
Ã¯ Ã¾y
Ãµ MÃ´
^ Â°
ÂĢė Ĕ
Ã§ ÃħÃ¿
ÃĹ ÂĪ
ÂĬĀ _
Ę >Â¦
ĞÂ´ ÂĶ
ĝ ?:
Ãģ ÃĩJ
@Ė Â¨Â¨
ĝ Ą
Ã¹R Ã½
'Ã· ġ
Â´ġ Âĵ
Ã± e
Ā= Â¥
Ã³ dÃ¿
Ã· ġÂŃ
Â¥Â¢ÂĢ ě
@Đ ]
& ÂĢ.
ć Âĭ
(Ę ÂĶ
s ÃıJ
ĂÂĬ Âİ
Ã½Ã¶ i
Ā= "
Ã½Ã¶ hÃ»
ĞÂĶÂ´ ÂĩÂ¥
( Â£Ĕ
Ãĩ W
Â¢ÂĲ Âľ
88 8
Ā}Ě ?
Ą -Ĕ
Ã£ Ã«N
Ã´ G
Ã¨ ÃºT
ÃºÃĵ h
Ã° n
Ã³cÃ¾ÃºÃ¾t y
Âİ Âī
Ã¹Q Âµ
Ã¹Ã¬ ÃŁ
S Ã¼Âª
Ā? -
Ã« ÃĮ
Ãį z
ÂļĀ ÂŁ
@ĕ Âļ
ď Ě
Ã£ ÃºT
Â§ ĝ)
(Ă ę
Ã¹Ã½ WÃ²
Ã¯ Ã¾x
i sM
Â´ ÂįÃ·
ÂĬĀ Âĺ
ÃºÃķ Ãª
Q ÃĩÂµ
ÃĳÃ©FÃĳ Ã©
Ğ |_
Âı Â£
Ãĸ J
oÃ¹ ÃªÃ¿
Ã¡G Ã¼
Ãł Ãİ
ÃĹ ÂİÂ´
ĀÂı ÂĨ
ăÂ¥ -
G Ã¸ÃĶ
W ÃĲP
Â° ĄĞ
Ã½ÃŁ Ã¾
ĝ -
?Âķ :
' ē
Â¸ ĞÂĶ
Ã« ÃºT
ĂÂĢ Ĕ
Ć Āă
Ãªi h
Ã¹ Ã§Ã¿
Ã³ Ã¸P
ğ Ē
Ãļ Ãµ
Ãª Ãº
Ã± ÃºÃĲ
Ĕā Âľ
Ãĩ Ã¹ÃĶ
Q Ã±
Ãĥ Z
?Â¸ )
Ă ĐĈ
Ã½Ã£ Ã¹Ãĳ
q Ã©L
Ĕā `
ÃºÃĶ n
ÂŃĀ \
Ã«G ÃĻ
ÂĨ Â¿
d Ã¸
s ÃĩJ
Â¤ ##
Ã½Ã¡ O
N u
O Ã¸T
Ã§ ÃºU
ĀÂĮ Ğ
(Â¤ Ĕ
: ÂŁÂŃ
Ď >Â´
Ã« Ã¹Ãĵ
Ãł ÃºÃĶ
ĕ -Ā
OÃ¹ Ã®
" ÂĢ!
Ã£ Ã£
Ã© IE
Ã¤ ÃºÃĲ
Ã³ ÃĢÃ¿
Ã© ÃĩZ
Ãħ OE
Ā? '
Ã½Ã¡ N
ÃĴ k
ÂĬĀ |
Ã« ÃºÃĲ
QL B
ÃıÃ§F ÃŁs
Â¢ÂĬ(ĀÂ¢ÂĬ(ĀÂ¢ÂĬ(Ā Â¨
Q Ã¹S
S ÃĳE
ĝ ġĚ
Ď Â©
ą Ě
Ã¹Q p
Ã¹Ã© Ãº
eH Ãµ
ÃŃ z
ÂĹ [
Ā) ď
Ã¬ Ã±Ã¿
Ā" Âį
A Ã¼Ãª
Ġ Â¢ÂĬ)ÂĢ
Ā- '
^ ÃĹ
` ~ÂĨ
Ãº gÃ¿
(ā Â¢
ÂĬÂĴ ÂĬĀÂı
ÃĶÃĴ ÃĲ
oÃ¹ Ã¥
G qÃ¾
ÃĽ Ã¢
ÂĤ ÂĢĝ
ÂļĀ Â°
Ã«R ÃĶ
-ĕ ė
Â¢ÂĬ Â¢
Ã© y
\ ě
Ā ġ*
Ā* Âĸ
>ÂĤ ÂĿ
EÃ¶ h
Ãĩ Ã¾Ã¨
Ã©E ÃĢ
Â¥- #
= ,
s Fj
ĚĀ Âİ
Ã¼ ÃºP
(Ā Â£
ÂļĀ Â®
ÂŃ* (ă
" ÃĹ
s Ã°
>ÂĨ ÂĢ
& ąĘ
: Â¥
s ÃºÃķ
Ã§ ÃŁÃ¿
(ā Â¤
% Ā-ĔÂĶ
u Ãķ
Âĥ ÂİÂĶ
Âĺ ĞÂĤÂĮď
ĕ= ĀĔ
?Âĺ Â§
s Ã¸R
Ã« Ã¹P
ćÂ¡ Ĕ
Ãģ ÃıJ
ÃıÃ¼ Ã°
Y t
Ãī Ã¾Ã¯
ÂĬ` Ĕ
= ďÂ¥
a Ã¡
Ã´ Ã½j
Â¦ Â¢ÂĢ+
Â¥Ā (
Ã«V Âª
oÃ» Ã¤ÃĲ
ġÃĹ '
Â¯Â¥ Ğ
Ã¤ Ã¾t
Ãħ Ã¸P
Ď ?:
ĀĔ ÂĨÂĸÂĲ
ġÂ¸ *
ĔÂĢ ÂĤ
?Âĺ Â©
ğ ď
Ã¹ Ã©Ã¿
Â¢ÂĢ ă
Z Ã¼
i ÃĳE
Ă ĞÂķ
Ã½Ã¯ Ãĸ
~ ÂĮ
Ã¯ Ã¹Ãĵ
@ę Â¿
Ã½b Ã½E
Ã¾ v
Ã£ Ã¹P
Ã¨j j
ÂĬ) ÂĪ
ď ĔĀ
ğ ÂĮ
GÃ¶ u
ÃŃv ÃŁÃ³Ã±
ÃĲ zP
@Ď Â¢ÂĬ(ā
@ĕ Âĸ
Ã¾u r
-Ĕā Ė
Ã£ Ã¹T
Ã¼Âª ÃĿ
Ã£Ãĸ o
q Ã«R
s Ã¹T
Ã«S ÃĲ
ĀÂ© ġÃ·
ÃıÃ¹ Ã¶
*ÂĮ Ā
Ã³ Ã¹P
ġÂĺ Â©*
Ã¥ ST
Ã° Ã¡
ÃŁÃ± Ã³
= >ÂĶ
Ãł zÃĵ
Ã½Ã£ Ãµ
? Â£
q Ã¹T
ÃĿ Ã½M
Ã¡ Ã¯Ã¹
ĔÂ´ ÂĶÂ´
Âĥ @Ě
Ã¥F Ã¯c
| &
ÂŃ -ĀĔ
Ā: <
Ã½h Ã²
ĀĚ Â·
ġÂ¬ ?
ă ÂŀÂ´
Ć ÂĢĜ
ÃĹ ÂĿ
Ã¸U Âª
Ã¼Ã´OÃ»Ã¨ P
b ÃºS
Ã´ L
Ã¾Âµ r
ĂÂĴ ÂĬ
L RÃ¢
W Ãħ
Ã¤ zÃĶ
ÃŁÃ¾x GÃ¿
ĞÂ´ ÂĢ
Ã« Ã¶
QL Ã³
Ã¼Ã´ OÃİ
k Ã¹P
ĝ |
KE D
Ã· Â¨ā
Ã¡ IÃ¶
(ā Â¦
ďÃ· ď
(Â¢ÂĬĀ(Â¢ÂĬĀ(Â¢ÂĬĀ(Â¢ÂĬĀ(Â¢ÂĬĀ(Â¢ÂĬĀ(Â¢ÂĬĀ(Â¢ÂĬĀ(Â¢ÂĬĀ(Â¢ÂĬĀ(Â¢ÂĬĀ(Â¢ÂĬĀ(Â¢ÂĬĀ(Â¢ÂĬĀ(Â¢ÂĬĀ(Â¢ÂĬĀ(Â¢ÂĬĀ(Â¢ÂĬĀ(Â¢ÂĬĀ(Â¢ÂĬĀ(Â¢ÂĬĀ(Â¢ÂĬĀ(Â¢ÂĬĀ(Â¢ÂĬĀ(Â¢ÂĬĀ(Â¢ÂĬĀ(Â¢ÂĬĀ(Â¢ÂĬĀ(Â¢ÂĬĀ(Â¢ÂĬĀ(Â¢ÂĬĀ(Â¢ÂĬĀ(Â¢ÂĬĀ(Â¢ÂĬĀ(Â¢ÂĬĀ(Â¢ÂĬĀ(Â¢ÂĬĀ(Â¢ÂĬĀ(Â¢ÂĬĀ(Â¢ÂĬĀ(Â¢ÂĬĀ(Â¢ÂĬĀ(Â¢ÂĬĀ(Â¢ÂĬĀ(Â¢ÂĬĀ(Â¢ÂĬĀ(Â¢ÂĬĀ(Â¢ÂĬĀ(Â¢ÂĬĀ(Â¢ÂĬĀ(Â¢ÂĬĀ(Â¢ÂĬĀ(Â¢ÂĬĀ(Â¢ÂĬĀ(Â¢ÂĬĀ(Â¢ÂĬĀ(Â¢ÂĬĀ(Â¢ÂĬĀ(Â¢ÂĬĀ(Â¢ÂĬĀ(Â¢ÂĬĀ(Â¢ÂĬĀ(Â¢ÂĬĀ(Â¢ÂĬĀ(Â¢ÂĬĀ(Â¢ÂĬĀ(Â¢ÂĬĀ(Â¢ÂĬĀ(Â¢ÂĬĀ(Â¢ÂĬĀ(Â¢ÂĬĀ(Â¢ÂĬĀ(Â¢ÂĬĀ(Â¢ÂĬĀ(Â¢ÂĬĀ(Â¢ÂĬĀ(Â¢ÂĬĀ(Â¢ÂĬĀ(Â¢ÂĬĀ(Â¢ÂĬĀ(Â¢ÂĬĀ(Â¢ÂĬĀ(Â¢ÂĬĀ(Â¢ÂĬĀ(Â¢ÂĬĀ(Â¢ÂĬĀ(Â¢ÂĬĀ(Â¢ÂĬĀ(Â¢ÂĬĀ(Â¢ÂĬĀ(Â¢ÂĬĀ(Â¢ÂĬĀ(Â¢ÂĬĀ(Â¢ÂĬĀ(Â¢ÂĬĀ(Â¢ÂĬĀ(Â¢ÂĬĀ(Â¢ÂĬĀ(Â¢ÂĬĀ(Â¢ÂĬĀ(Â¢ÂĬĀ(Â¢ÂĬĀ(Â¢ÂĬĀ(Â¢ÂĬĀ(Â¢ÂĬĀ(Â¢ÂĬĀ(Â¢ÂĬĀ(Â¢ÂĬĀ(Â¢ÂĬĀ(Â¢ÂĬĀ(Â¢ÂĬĀ(Â¢ÂĬĀ (Â¢ÂĬĀ(Â¢ÂĬĀ(Â¢ÂĬĀ(Â¢ÂĬĀ(Â¢ÂĬĀ(Â¢ÂĬĀ(Â¢ÂĬĀ(Â¢ÂĬĀ(Â¢ÂĬĀ(Â¢ÂĬĀ(Â¢ÂĬĀ(Â¢ÂĬĀ(Â¢ÂĬĀ(Â¢ÂĬĀ(Â¢ÂĬĀ
Ĝ ġ*
C yÃ¿
h ÃĩÃĸ
Ė Â»
AÃ¹ RÃĳ
V Ã¸
X ÃŁZ
Āğ )
Â¥ -Ĕ
] `
ĂÂĬ @
s x
Ă ĖÂĬ
Ã¦ ÃĲ
ĝ Ğ
Â¥ >ÂĬĀ
Â¢ÂĢ Ē
q Ã¹S
> Â®
@đ Â¬
ÃıE Ã¼Ã©
Ã§ Ã¹Ãķ
Ã¹Ãº P
Ã§h Ãı
Ã§ Ã©R
ÂŁ ėÃ·
Ã¯ ÃĦ
(Ă ă
? ě
Ã½ ÃºÃ¿
Ã¼Ãº ÃħÃ¿
d ÃĳE
ď Ĉ
ě ^
ġ Âİ
ġÃ· Â¿
Âĩ ė
ĔÂ´ Ĉ
& ÂĢĚ
ć =*
Âµ Ã°
ĀÂŁ Â¨Â¿
Ãµ ÃºÃĶ
Ãı Ã¸ÃĴ
X ÂªÃ¶
Âģ @Ĉ
ġ* _
ěÂĩ ÂŃ
Âİ ÂĬĀ
ÃĶQ Ãļ
ÃºÃĵ Ãª
q Ã¡
} Â¨ă
Ã§ ÂªÃ¿
Â¥Â¤ =)
Ã½ Ã½Ã¿
Ãµ Ã°
ć ć#
Ãı oJ
@ą .
Ĕā *
Ã½Ã£ O
$Ď Â´
Ġ ÃºT
Ãĩ Ã¼Ã³
Ã¤ Ã»ÃĶ
GÃ¥ L
Â¥Â¤Â¢ÂĢ ĖÂĬ(
ď ā
Ě Ā}
Ã© t
Ãł zT
ĀÂ® ğ
-% -Ā
Â£" ÂĸÂĬĀ
Ã± v
Ĉ# Â¨
hÃĳ Y
& ÂĢę
s Ã«N
Ć ÂĢĚ
Â¢ÂĬĀ(Â¢ÂĬĀ(Â¢ÂĬĀ(Â¢ÂĬĀ(Â¢ÂĬĀ(Â¢ÂĬĀ(Â¢ÂĬĀ(Â¢ÂĬĀ(Â¢ÂĬĀ(Â¢ÂĬĀ(Â¢ÂĬĀ(Â¢ÂĬĀ(Â¢ÂĬĀ(Â¢ÂĬĀ(Â¢ÂĬĀ(Â¢ÂĬĀ(Â¢ÂĬĀ(Â¢ÂĬĀ(Â¢ÂĬĀ(Â¢ÂĬĀ(Â¢ÂĬĀ(Â¢ÂĬĀ(Â¢ÂĬĀ(Â¢ÂĬĀ(Â¢ÂĬĀ(Â¢ÂĬĀ(Â¢ÂĬĀ(Â¢ÂĬĀ(Â¢ÂĬĀ(Â¢ÂĬĀ(Â¢ÂĬĀ(Â¢ÂĬĀ(Â¢ÂĬĀ(Â¢ÂĬĀ(Â¢ÂĬĀ(Â¢ÂĬĀ(Â¢ÂĬĀ(Â¢ÂĬĀ(Â¢ÂĬĀ(Â¢ÂĬĀ(Â¢ÂĬĀ(Â¢ÂĬĀ(Â¢ÂĬĀ(Â¢ÂĬĀ(Â¢ÂĬĀ(Â¢ÂĬĀ(Â¢ÂĬĀ(Â¢ÂĬĀ(Â¢ÂĬĀ(Â¢ÂĬĀ(Â¢ÂĬĀ(Â¢ÂĬĀ(Â¢ÂĬĀ(Â¢ÂĬĀ(Â¢ÂĬĀ(Â¢ÂĬĀ(Â¢ÂĬĀ(Â¢ÂĬĀ(Â¢ÂĬĀ(Â¢ÂĬĀ(Â¢ÂĬĀ(Â¢ÂĬĀ(Â¢ÂĬĀ(Â¢ÂĬĀ(Â¢ÂĬĀ(Â¢ÂĬĀ(Â¢ÂĬĀ(Â¢ÂĬĀ(Â¢ÂĬĀ(Â¢ÂĬĀ(Â¢ÂĬĀ(Â¢ÂĬĀ(Â¢ÂĬĀ(Â¢ÂĬĀ(Â¢ÂĬĀ(Â¢ÂĬĀ(Â¢ÂĬĀ(Â¢ÂĬĀ(Â¢ÂĬĀ(Â¢ÂĬĀ(Â¢ÂĬĀ(Â¢ÂĬĀ(Â¢ÂĬĀ(Â¢ÂĬĀ(Â¢ÂĬĀ(Â¢ÂĬĀ(Â¢ÂĬĀ(Â¢ÂĬĀ(Â¢ÂĬĀ(Â¢ÂĬĀ(Â¢ÂĬĀ(Â¢ÂĬĀ(Â¢ÂĬĀ(Â¢ÂĬĀ(Â¢ÂĬĀ(Â¢ÂĬĀ(Â¢ÂĬĀ(Â¢ÂĬĀ(Â¢ÂĬĀ(Â¢ÂĬĀ(Â¢ÂĬĀ(Â¢ÂĬĀ(Â¢ÂĬĀ(Â¢ÂĬĀ(Â¢ÂĬĀ(Â¢ÂĬĀ(Â¢ÂĬĀ(Â¢ÂĬĀ(Â¢ÂĬĀ(Â¢ÂĬĀ(Â¢ÂĬĀ(Â¢ÂĬĀ(Â¢ÂĬĀ(Â¢ÂĬĀ(Â¢ÂĬĀ(Â¢ÂĬĀ(Â¢ÂĬĀ(Â¢ÂĬĀ(Â¢ÂĬĀ(Â¢ÂĬĀ(Â¢ÂĬĀ(Â¢ÂĬĀ(Â¢ÂĬĀ(Â¢ÂĬĀ(Â¢ÂĬĀ(Â¢ÂĬĀ(Â¢ÂĬĀ(Â¢ÂĬĀ(Â¢ÂĬĀ (Â¢ÂĬĀ(Â¢ÂĬĀ(Â¢ÂĬĀ(Â¢ÂĬĀ(Â¢ÂĬĀ(Â¢ÂĬĀ(Â¢ÂĬĀ(Â¢ÂĬĀ(Â¢ÂĬĀ(Â¢ÂĬĀ(Â¢ÂĬĀ(Â¢ÂĬĀ(Â¢ÂĬĀ(Â¢ÂĬĀ(Â¢ÂĬĀ(Â¢ÂĬĀ(Â¢ÂĬĀ(Â¢ÂĬĀ(Â¢ÂĬĀ(Â¢ÂĬĀ(Â¢ÂĬĀ(Â¢ÂĬĀ(Â¢ÂĬĀ(Â¢ÂĬĀ(Â¢ÂĬĀ(Â¢ÂĬĀ(Â¢ÂĬĀ(Â¢ÂĬĀ(Â¢ÂĬĀ(Â¢ÂĬĀ(Â¢ÂĬĀ(Â¢ÂĬĀ(Â¢ÂĬĀ(Â¢ÂĬĀ(Â¢ÂĬĀ(Â¢ÂĬĀ(Â¢ÂĬĀ(Â¢ÂĬĀ(Â¢ÂĬĀ(Â¢ÂĬĀ(Â¢ÂĬĀ(Â¢ÂĬĀ(Â¢ÂĬĀ(Â¢ÂĬĀ(Â¢ÂĬĀ(Â¢ÂĬĀ(Â¢ÂĬĀ(Â¢ÂĬĀ(Â¢ÂĬĀ(Â¢ÂĬĀ(Â¢ÂĬĀ(Â¢ÂĬĀ(Â¢ÂĬĀ(Â¢ÂĬĀ(Â¢ÂĬĀ(Â¢ÂĬĀ(Â¢ÂĬĀ(Â¢ÂĬĀ(Â¢ÂĬĀ(Â¢ÂĬĀ(Â¢ÂĬĀ(Â¢ÂĬĀ(Â¢ÂĬĀ(Â¢ÂĬĀ(Â¢ÂĬĀ(Â¢ÂĬĀ(Â¢ÂĬĀ(Â¢ÂĬĀ(Â¢ÂĬĀ(Â¢ÂĬĀ(Â¢ÂĬĀ(Â¢ÂĬĀ(Â¢ÂĬĀ(Â¢ÂĬĀ(Â¢ÂĬĀ(Â¢ÂĬĀ(Â¢ÂĬĀ(Â¢ÂĬĀ(Â¢ÂĬĀ(Â¢ÂĬĀ(Â¢ÂĬĀ(Â¢ÂĬĀ(Â¢ÂĬĀ(Â¢ÂĬĀ(Â¢ÂĬĀ(Â¢ÂĬĀ(Â¢ÂĬĀ(Â¢ÂĬĀ(Â¢ÂĬĀ(Â¢ÂĬĀ(Â¢ÂĬĀ(Â¢ÂĬĀ(Â¢ÂĬĀ(Â¢ÂĬĀ(Â¢ÂĬĀ(Â¢ÂĬĀ(Â¢ÂĬĀ(Â¢ÂĬĀ(Â¢ÂĬĀ(Â¢ÂĬĀ(Â¢ÂĬĀ(Â¢ÂĬĀ(Â¢ÂĬĀ(Â¢ÂĬĀ(Â¢ÂĬĀ(Â¢ÂĬĀ(Â¢ÂĬĀ(Â¢ÂĬĀ(Â¢ÂĬĀ(Â¢ÂĬĀ(Â¢ÂĬĀ(Â¢ÂĬĀ(Â¢ÂĬĀ(Â¢ÂĬĀ(Â¢ÂĬĀ(Â¢ÂĬĀ(Â¢ÂĬĀ(Â¢ÂĬĀ(Â¢ÂĬĀ(Â¢ÂĬĀ(Â¢ÂĬĀ(Â¢ÂĬĀ(Â¢ÂĬĀ(Â¢ÂĬĀ(Â¢ÂĬĀ(Â¢ÂĬĀ(Â¢ÂĬĀ
Ć Ć)
Ã¹U Âº
S Ã¾A
Âª Ã¾t
ď Ă
oÃ» M
Ā, Â¿
Ã¸Ãķ Âª
ą :ÂĬĀ
ÃĲ Ã¸
ÂļĀ ÂĪ
Ã¹ Ã¯Ã¿
Ãĺ Ã½h
Ã¦ Ãĵ
Ã§ Ã©N
ē" ÂĮÂĬ
Ã½Ã£ L
| ;
ġ: _
Ã½j O
ÂĸÂĢ "
ĕ @Ĕ
Ġ Âł
Ãº O
Ã¹Q Ã¥GÃ½ÃħÃ¼
Â¿Âķ ěē
Ĕā ÂŃ
ĄÂ¢ ÂĹć
/ ÂĦ
oÃ» Ãł
( āā
_ ]
Ą Â¤Â¥
ĀÂŀ Ēġ
Ã© Ã¸ÃĴ
(Ă Âĩ
Ā> Â±ġ
ā ĕĕ
ÂĢė ă
Â¿ Ē
ÃĿ Ã«Ã½Ã¡Ã¹Ãĳ
Âİ ÂĲ
ğÂį ğÂį
c Ã¹S
g Ã¡
Ã³ Ã¹S
ĀÂĲ Â£
(Â¢ÂĲ Âľ
iÃĳ Y
J ÂµE
[ ġÃĹ
ć >Â´
ė Â¢
Ã¨ o
Ãħ Ãł
Ã§ Ã¾Ãº
Âĥ ÂŀÂ´
Ď ?Ě
Ãª Ã¯
Ã¢ ÃĲ
FÃµ Ã¾Ã°
y Ã¾Ã£
Ġ zÃĵ
ÂļĀ Âĳ
Ć ÂĢ!
Ã½ÃŁ ÃĴ
ă ĖÂĬ
Ã¼j ÃĿ
Ā ĘĔ
Ğ -
Ãº ÃıÃĤ
Âŀ =)
ĀÂİ ÂŁ
ē ^
Âŀ >ÂĶ
ÃĽ Ã´Ã¿
OÃ¹ Ã§
; ĂÂĮ
S KH
Ď Âĸ
Ã£ Ã«R
Ã³ ÃºP
(Â¢ÂĬĀ(Â¢ÂĬĀ(Â¢ÂĬĀ(Â¢ÂĬĀ(Â¢ÂĬĀ )
' ĞÂĶ
| *
Ĝ ~Ĕ
ÃĨ t
Ãĳ Ãº
Ã½k B
O Ã½Ã²
_ ÂĢ
Âĥ ÂŀÂĶ
ĀÂı ÂĹ
@đ ě
Ãļ Ã³
(Â¢ ÂĶ
QH h
ÂŀÂ´ ÂĶ
Ã¢ Ãĵ
ĀÂı ę
ÃľÃ¼ OÃ³
x Ã¸
Âľ (ā
Ãł Ã¾t
ĔĀ Ď
Ã¥F Ã¿
V Ã¼Ã¨
Ã² Ã¤Ã¿
Âŀ ~ÂĶ
Ã©K L
| ĕ
Âİ }*
(Â¢ÂĢ $
@ď Â¨
q Ã©R
Ã´ ÃıÃµ
Ğ !
Â¦ ÂİÂ´
Âº Ã¨
OÃ¹ Ã¦ÃŁ
Ā ġ:
Ã¥ RÃĲ
ĀÂĢ ÂĬ
(Ă Ĉ
OÃ¹ Ã¦Ã¿
f Ã°
Âİ ?Ě
Ã¤ ÃºÃĶ
Ã©S ÃĶ
I Ãªi
ĀÂı Â¨
ĂÂĢ &
C Ã±
Ã® Ã¾Âµ
c Ã¡
q Ã¨i
Ã½Ãĳ FÃħÃ¾Ã¨
Ã¼Ã´ j
ÂĢĖÂĬ @
ĀÂģ ğ
ÃıÃ§ N
p Ã°
Ã´ ÃºÃĲ
Â¡ Â¯
?ÂŃ :
ÃıÃ¹ Ãħ
Â¦ ÂĢ#
Ã³ÃŃ G
(Â¢Â¨ ÂĲ
Ã§ IÃ¶
Q Ã¡
Ã½Ã¡ Ã¼Ã¨
ĀÂ¯ Âĵ
< =
Â¤ _Ã·
Ã³ Ã¸T
E ÃĤÃĥ
Ã©W h
%ĔĀÂ´ ÂĶ
Ã¼ ÃºÃĲ
ÂļĀ Âĩ
Ã©Q Ã½
Â¤Â¢ÂĢ ĖÂĬ(
ÂĬ, ÂĤ
= ġĚ
Ã¹ Ã¼h
> Đ
Âŀ ÂĬÂĥ
Ã¡ KI
Ãĭ Ã¢
Â¥Â¢ÂĢ ĒÂĬ
ÃĵÃ¼ Ã¢
Ã¤ ÃºÃ¿
ĔĀ Âĭ
Ã½t oÃ§
" ÂĢę
ÃĽ Ã¡
Ĕā Âĭ
ÂĮ Â·Ã·ġ
ÂĬ( Ę
ĀÂŀ Â´
Âĸ :
(Â¢ ÂĮ
/ ą
E mÃ¿
Ã« Ã§
ĔÂĦ Ĕ
Â£Âĺ ,
Ć ÂĢ'
S Ã¹P
Ĕ Â¸Â¥
Ã¼z CÃ¾
ÂĢė #
y qÃ¿
Ã³ Ã°Ã¿
ÃĦ Ã¾ÃºÃ¾u
Ãı UÃ¿
@ć >
Z ÂµE
ÃĺÃ¾T nÃ¶
ć :
ÂĮ ~Â´
ÃĻ t
Ã³ Ã¾y
QE h
Â´ā %
O Ãķ
ġÂ» '
Âĩ Âĩ
@Ĉ Â¿
Ã½Ã° i
} đ
ć ĝ*
/ Â¤
Ã½Ãµ Ã¾u
ę =)
Ã§ Ã¥Ã¿
Âİ ?*
ÂĮ }*
Ĕā /
ĀÂ¯ @Ē
Âµ Ãł
Âĺ *Âĸ
ĂÂĬ) Â®
ÂĹ ğÃ·ė
t Ã¼i
ġ: Âŀ
h ÃĢÃ´
_ Ē
Ď ÂĶĀÂ´
ĀÂ¢ÂĬ(ĀÂ¢ÂĬ(Ā Â¢ÂĬ
Ġ ĒÂĬ
Ãĩ Oz
Ã§ Ã¹U
ÂıÂ¥ -ĀĔ
k Ã°
Ã£ Ã©R
Â© ~ÂĶ
Ã² eÃ¿
) (Â¤
iÃ´ Q
iÃĺ W
Ã³ ÃŁÃ¿
Ã©M Ã³
Ã¤ Ã½i
Ãİ u
ÃĵÃ¼ Ã¦
Ã³ Ã¸ÃĶ
Āĕ Ą
Ã³ Ã¸S
Âī Ã·ė
ĀÂı ÂĶ
> ą
VÃŁ CN
(ā ?
^ ÂĲ
q ÃºS
Ď Ē
ÃĤ Z
Â¶Âį Â´ā
Ġ ÃºP
Ã» ÃłU
m oC
q Ã¸Ãķ
Ā; Âļ
Â£ ĆÂĿ
ĕ ĀĔ
ġ* ÂĴÂ£
Ć ÂĢ.
Âĭ Â¬
ĀÂŁ Âĸ
Ĕā= ĕć
ğ đ
ÂŁ ÂĻÂ£
Âĥ Â¥Ā
Ā_ Â¢
Â¿ÂŃ ę
Ã§ Ã¼j
ZZ m
Ãµ Ã½h
Â¸ ÃĹ
Âİ Ã·
ĞÂ´ ÂĨ
(ă =
Ãº Ãİ
ĀÂŁ Âı
ĂÂĢ "
ĂÂĢ ć
Ã½Ãħ Ã¾U
Â¢ Âı-?
Â¥ -ĔĀ
Ã§ Ã«O
Â¨Ā Â¢ÂĬ(Ă
OÃ¹ Ã¨ÃŁ
S Ã¹Ãĵ
ÂĹ ÂĽ
Ā? ğ
ćÂ¡ Â¨
IQ ÃıÃ¾
Â¯ Âĩ
Ã¸Ãĵ Ã¨
! Â¬
z Ã½j
ÃĤ Ã¸
Ã¾U n
s Ã«M
Ã¹Ãĳ p
, Âķ
ė :
Âĳ ÂŀÂ´
Ā- ď
GÃĻ Ã¡Ã¿
| \
Âŀ Ě
ÃºÃĶ o
r R
Ć -Ĕ
Ď &
Ã»T Ã¿
(Â¢ÂĬĀ (Â¤
@Đ ě
ÃĽ Ã¾Âº
Ã¼Ãµ Z
d ÃŁÃ³
Ā< Â¥
Ãªj j
ÂĢ ÃĹ
zÃĴ y
Â© Â¯Ã·ě
ÂĨ Â°
=) ÂĪ
Ã½Ã´ hÃ»
Ã½Ãĵ Ãµ
Â¢ÂĬĀ(Â¢ÂĬĀ(Â¢ÂĬĀ )
q Ãız
Â¯ Â¬
[ Â¢ÂĢ*
Ã½z Ã¿
ĀĘ ĞÂĶ`
/ }
ā ÂļĀ
ĀÂ¯ @Ė
Ã©S ÃĲ
^ ÂĬĀ
(Ā Â¢ÂĬ(ĀÂ¢ÂĬ(ĀÂ¢ÂĬ(ĀÂ¢ÂĬ(ĀÂ¢ÂĬ(Ā
M z
Ãī ÃıZ
(Â¢ÂĢ ė
ĀÂı Âī?
ÂĸÂĬ Ą
" ÂĢĚ
ą Ā:
Ã§ ÃĲP
Ã± b
Â¢ÂĿ Â´
Ã¾ J
Â¯ ÂĪ
Ã¸Q Ã¿
{ Â´
Âİ Âĸ
ÂŃ :ÂĢ
Ãĥ A
Ã£ GÃĻ
Ãı ÃĢÃ¿
ē Â¢
ĀÂŀ ÂŁÂ¥
OÃ»Ã¸ ÃŁÃ£
" ÂĢ)
Ĝ ÂĢ}
ÂĶ Â¿Ã·
ĀÂ¿ ÂĨ
ćÂ¡ Â¥
ÂŃęĞÂ´ Â´
Ğ Â¢Âĵ
Q Ã¼Ãħ
Ā- ć
ÃŁF Ãº
. (Ă
Ã± z
Â© Ã·ė
RÃĴ ÃĲ
Ĝ ÂİÂĶ
ÃĴ Ãº
ğÂŃ %
q Ã©Q
ÂŁ ā
ĀÂŃ @Ė
Ãģ Ã¨ÃŁ
w ÃºÃĶ
%Ĕ Ĉ
ÂĢĖÂĬ )
G Ã½Ã³
q Ã©H
Â§ ÂİÂĶ
Ã¾Ã¨ Ã¼Ã©
ÃĽ Ã¹T
Ã¡ Ã¡
Â¢ÂĬ(ĀÂ¢ÂĬ(ĀÂ¢ÂĬ(ĀÂ¢ÂĬ(ĀÂ¢ÂĬ(ĀÂ¢ÂĬ(ĀÂ¢ÂĬ(ĀÂ¢ÂĬ(Ā Â¢ÂĬ(ā
ÂĸÂĢ !
s Ã¸ÃĴ
ÃĹ Âĭ
Â¢ÂĢ ā
ÃĳN Ãħ
ġÂĿ :
oÂº i
Ã¥ IÃ¶
Ãĭ oJ
; ^
= >Âķ
z ÃŁ
Ã© ÃºV
Ã° L
Ã¹Ãº ÃĲ
Ã¾Âµ Z
u ÃĲ
Ġ ÂĤ=
ĀĚ Âİ
ÂĸÂĢ *
Ā^ Âĵ
G OJ
ĀÂ® ?
Âº Ã©
Ā\ ď
Ã³ Ã¾z
(ă .
ÂĽ 'Ã·
ĀÂ¸ ?
Â¢Âĭ Ā
' Đ
ĀÂı Âģ
Ā, ġ
} Âŀ?
ĝ /
Âĳ @Ĕ
(Ă ,
Âĵ ÂİÂĶ
ġÂį ě
ĔÂĢ (Â¢ÂĬĀ(Â¢ÂĬĀ
Âı Ă
(ā Ĉ
Ã¾Ã¹ Âª
Āĝ ?
O Ã¸Ã¸
Ę ĞÂķ
Ã½ÃŁ Ã«
ÂĥÂĳ Âļ
Ã« Ã«N
Ã¢ Ã±
qÃ¾ Ã¡
} \
ę ąĔ
ĔĀ ÂĬ
Ãĩ oZ
. Â¶
x x
Ã¬ Ã¾T
QT HQE
z zÃĵ
@ą %-
Ĕā (
@ĕ Â¯
Âº RÃĴ
Ĕ} ÂĴ
ĝ Â¨ă
ÃºT Ã´
Â± ?Â¸Â¿Âķ
ĀÂŀ ġÂŃ
ĀÂ® _
Ã¼Ã½E Ã¿
F zÃĲ
s ÃıZ
Ĕā '
! Â®
> ĝ
Ã¹ Ã¼i
Âľ ġÃ·
ÃŁ Ã¼Ã»
Ã± f
ÂĹ :
ÂĬĀ *
Ã¾Ã¢Ã¾T Ãª
N zP
ÃĲ zÃĲ
Â¢ÂĬ(ĀÂ¢ÂĬ(ĀÂ¢ÂĬ(Ā Â¦
dzÃĴ Ãĳ
^ Âĵ
ÃŁÃ³ Ãĸ
Ã¼z ÃĥÃ¾
č Ġ
ě Â¨Ă
Ã° Ã¾Âµ
Ĕā Âį
ÃĩÃ¹ Ã´
Ĕā-ĕ ė
ă =)
@Ď Â¢ÂĲ
Ã¾u v
(Â¢ÂĬĀ(Â¢ÂĬĀ(Â¢ÂĬĀ(Â¢ÂĬĀ(Â¢ÂĬĀ (Â¢
tU O
' Â´
Ã£ Ã¹S
ĀÂĲ }
rN M
Ãº ÃĿ
Ã¼ l
Ã©V j
Ãĩ Ã¸U
(Ă _
( #Â¡
Ãĥ ÃĿ
(ā Â¡
ÂĬ @Ĕ
Ā Â¢Âĵ
Ã»Ãĩ Ã¾Ã¹
Ã»Ã§ Ã¾Ã¹
Ğ ÂĴ
Ã¡ Td
Ã¬ Rb
Ĕ} Â®
ÃĴ RÃĲ
Â¢ÂĬ ÂĤ
Ã»ÃŁ Ã½j
Ã¼ÃµOÃ»Ã¨ P
ÃĪ ÃµÂª
a ÂµÃ¿
ē ÂĽ
Ã¯ Ã©Ã¿
Â£ Âķć
Ã© x
ĀÂı Âĥ
Ã«E ÃĢ
Â¢Âĭ Âģ
/ Âĩ
Ã¸ Ã§Ã¿
$Âŀ Â¤
} <
Fi i
" ÂĢ.
H zP
Ă ÂİÂ´
ĀĂ ?
cÂµ I
Ã¼Ã´ o
ē ÂģÂļ
Ãĩ Ã¸Ãķ
Ã´ Ã¼Ã©
Ĕā <
Ã½ Ã¤Ã¿
Ã½Ã£ Ã¾
ÂŁÂķ Ğ
ę ĜÂĬ
oÃ¹ Ãł
= ćÂ¥
Ã¯ ÃĩÃ¿
(ă +
N zÃĵ
s ÃºU
Ãı WÃ½
(Ă Â«
ġ: Âİ
Â¿ÂĿ Ā>ÂĬ
ÂŃ -Ā
āĄ ĞÂĨ
L RÃĳ
x Ã¾U
Ãĩ Oj
O Ã¥N
MÃĭ Ã½Ã¡Ã¹Ãĳ
Â·Ã· ÂĽ
ÂĻ ?Â¸
(ā Â¬
'Ã· ć
ÂĬĀ Âķ
ÃľÃ¼ GÃ³
N zÃĲ
ĕ @ĝ
Â¢ÂĬ(ĀÂ¢ÂĬ(ĀÂ¢ÂĬ(ĀÂ¢ÂĬ(Ā Â¨
zR y
z zS
ď }
Ãı Ã¹Ã¿
%Ĕā ğ
Ã° S
ĀÂı Âĭ
>Âķ ^
v Ã»Ãĳ
. Â©
f Ã¸
Âļ ąĔ
Ãİ OZ
(Ă ā
% Ā.
Ã³ Ã¸Ãĵ
ğÂķ !
% Āĕ
Ãº Ã½E
Ã¶ Ã¼Ã¨
Ã¼Ã´ Z
(Â¢Â¤ ĂÂĬ(
Ãº ÃĢ
QL ÃĮ
=Ĕā ć
Ă Â£ÂŁ
Â£ÂĶ .
Q Ã¼Âª
~ Ă
Âİ ġ*
Ã¸ Ãŀ
s Ã«R
Âĳ @ę
Ã© ÃıJ
Ãģ Ã¨i
ÂļĀ _
KE EÃ§
ĚĀ Â·
= ćÂŃ
ÃĨy Ã´
r OÃ»
Ĝ ě
Ã³ Ã¾x
ĀĞ Â«
ÃŁÃ³ ÃĬ
ĒÂĴ ÂĸÂĴ
J Ju
Q Ã¹ÃĶ
Ã¼ Ã¾t
Ãİ zÃĲ
Âĩ ē
@ĕ .
ÃıS Ã¹
ĀÂİ Âļ
ÃĶQ Ã¥
ď ą
ÃŁ ÃĮÃĶ
Â¢Âĭ ć
(Â¢ÂĬĀ(Â¢ÂĬĀ(Â¢ÂĬĀ(Â¢ÂĬĀ(Â¢ÂĬĀ *
OÃ¹ Ã¨Ã¿
!ÂĶ đ
ÂĢ ąĀ
Ã£ Ãªh
Ã©K Hz
QK L
ÃıU Ã¼
Ã½Ã¥ Ã¼Ã¨Ãŀ
ď Â¡Â§
Ã¥ FG
" ÂĢ'
& ÂĢ!
Ě ąĔ
Ã½Ã¶ Ã¾u
IE F
)ę ÂĤ
Ãĥ ÃĤ
ĀÂŃ @Ē
Ĝ ġÂį
Ãº ÃīÃ¿
?Ã· Âį
OÃ§ N
ÃĪ k
ÃĶIÃ¾Ã© Ã¾U
ÂĮ ~Ĕ
Â¥Ā %Ĕ
ÃĶR R
ĖÂĬ( Â¤
Ġ Ã·ĕ
Ã¢ Z
Ã»Ã¶ ÃŁ
q Ã«L
Ã´ Ã¾Âµ
ĔÂ´ ÂĿ
< ~ÂĶ
Ġ ĞÂ¢
Âĩ Â¨Â£
QH c
ĀÂ¢ÂĬ(Ā Â¨
Â¦Â¢ÂĢ "
# =)
Ã§ KÃ¶
Ĕā @
ÂŁ @đ
ÂĢ" Â¢Â¥
z Ã©
Ã³ Ã¹ÃĲ
Āġ ÂŁ
}ą Ğ
ÃıÃµ Ã¾
Ã¯ ÃĳÃ¿
ĔĀ ~
/ Âī
Ć ÂĸÂĬĀ
ÃĲ Ã½M
ÃĻ kÃ¿
ĂĚ *
Ãł zÃĶ
Ãģ Ã¾Ãµ
ĂÂĢ Ě
PÃĬ z
Ġ Ã½i
Ā~ ġ
FÃŁ Ã¶
Ã£ ÃºS
Ãµ ÃºP
Ã© Ã½h
ÃĹ Âī
ĀÂı ÂĽ
Ď Â¡Âĩ
Ã¯ GÃ¾
ĀÂŁ Âī?
@Đ ^
ĕ-Ĕā ė
Ĝ ~ÂĶ
Â¦ ÂĢě
ÂŃ >ÂĬĀ
ĀĚ Âŀ
zÃĴ ÃĴ
Ã½Ã¯ Ã¨i
d ÃºÃĵ
Ď =)
Ġ zÃĲ
j QY
Ã© FG
z ÃĢ
Âľ Â¿Ã·
Â¸ ġÂĳ
ĀÂ¬ ġ
ZE Ã»
ÂĽÂĩ Â¿
ĀĀ {
OÃ¹ Ã©
Ãĺ k
Ĕā Â¯
ćÂ¡ Â¦
O ÃĵÃ¼
w ÃºÃĵ
Âļ} Ā
nÃµ Ã¾Ã°Ã¼Ã¨Ãŀ
K Ã¾Ã¡Ã¾U
Âµ Ã±
ÂŃĀ :
w x
Ã¹ Ã¾T
Ãħ ÃºP
ÃĳL Ãŀ
c Ã¹U
ÃĻ qÃ¿
ÂļĀ Â©
Ą ĚĀ
Â¤ ġÂ¸
ÃĤ k
=( Â¸
ĘÃ· ?ÂĿ
ÃŁg Ã¼h
Ãµ ÃıZ
Âİ ÂĬÂĵ
< Ą
ÃĹ ÂŀÂĶ
ğÂĿ (
ME B
$ })
Ā Â¢ÂĬ(ĀÂ¢ÂĬ(ĀÂ¢ÂĬ(ĀÂ¢ÂĬ(Ă
MÃĥ ÃŁÃ²
A ÃĩJ
ć Ą`
Ã´ ÃºP
Ã¼Ã« B
ď ÂĨ
ď ÂĪ
ę Ąđ
Ã§ ÃºÃĲ
Âı Ć
ÂĤ ÂĸÂĢ
ă ÂŁÂŃ
ď Â¨Â§
Ã± Ã°Ã¿
( ĀĔ
z sÃĸ
z Ã»ÃĲ
ÂŃ Ā?
ĀĞ Â´
Đ ĘĐ
ăāĀĂđăđĀ?Ā Â¿
q Ã«H
Ã½Ãĵ Ã¹
Ã¼ Ã¾T
Ã¾Ã± Ã¾
x Âµ
| #
Ãº A
Ã¾U r
c ÃºÃĲ
Ã½Ãĳ M
ĀÂ® Âī
Ĕā% ĕğ
o Ãĳ
Ã§ ÃłÃ¿
Ã¦ hÃ²
ÃĹ ÂĶ
Āğ ÂŃ
Â¥Â¤ Â¢ÂĢĖÂĬ
IQ ÃģÃ¾
ę >ÂĨ
ÃĻ sÃ¿
ÂĿ @ĕ
Ã»Ã¤ ÃĳÃ¦
Āğ -
ĕ= Ĕ
Ã¾Âµ Ã¾
Ã»Ãĩ Ã¹Ãĵ
Âİ Âļ
Âĵ @Ě
Â¿Ã· ÂĽ
< ě
Â§ *ď
Ā] Â¢
' ÂĺÂŁ
< ÂĪÂ¿
Âĳ @ė
@ąĔ ÂĦ
Â¥Ā :
g ÃĻÃ¿
Ę ĝ)
Ãĥ Ã¾Ã¹
ÃºQ Ã¤
ďÃ· ą
Ã° ÃºÃĲ
Ĕā Âģ
ÂļĀ |
Ã« ÃĩJ
ÂĻ ğÃ·ÃĹ
Ć ÂĢ*
?Â¥ >
@ ăÂ©
K oÃ¹
Ã´ ÃıJ
Âĥ Â¤
ÂŃ %ĔĀ
ĀĎ ÂĶ
ÃŁÃ± Ã£
)Â» ÂĹ
Ã£ ÃºÃĲ
Ã½Ã£ Ã¹
ÂĮď ġ
Ã½Ã³ Ã¼Ãª
Ã¡G ÃĽ
Ã»D Ã¿
ÂĳÂĺ (
Ã³Ã® ÃŁ
i ÃĶÃĵ
Â¥Ā \
Â£ Â¢ÂĢ
Ã³ Ã¹T
Âĵ ÂģÂĵ
Ã½t o
Âķ ğÃ·
ÂĤ ÂįÂĤ
Ãµ ÃºS
Ãµ Ã¼Ãª
ÂļĀ ÂĸÂĬ(
ÂŃę >Â´Ā
ġÂ¥ :
ÃŁÃ³ ÃĴ
Ã¥ AÃµ
x i
Ã©L D
ÂŁ Â£
Ã½h ÃıÃĸ
GÃ¥ Q
ÂĿ `
~Ĕ ~ĔĀ
Â¥ě ě
ÂŁ ÂĳÂ£
Âŀ (Ā
Ã¯ KI
Â¨Ā Â¢ÂĬ
ÂĨĘ Ă=
ÃıF Ã½
Ã½ ÃĦÃ¿
ĀÂĦ ÂĨ
ğ ÂĤ
Ã£ ÃºÃĶ
Ã½ n
Ã¼Ã» ÃĭÃ¿
Ã´ Ã¼h
Âľ ~ĕ
Ã© Ã¸Ãĵ
(Ă Ė
ěÂĩ Â¡
Ā] ē
ĔĈ )
Ãľo Ã¦
Â¤Â¥Â¢ÂĢ ĒÂĬ(
G Ã¸P
O Ã¸Ãĵ
=ą -
ÂĢ& Â¢Â«
ÃľÃĴ ÃĲ
ÃŁÃ± Ã¯
N l
Ãµ Ã¼Âª
f aE
n ÂµÃ¿
ÃĢ ÃĩZ
Ã½Ãĵ Ã¾
ÃĭÃ¾Ã¡ Ã¾U
N zT
ĀÃĹ Â¬
ĘĞ Âĥ
_ Âĩ
Ė ÂĸÂĴ
ÃĶ Ã¾U
Ãµ ÃºT
Ãİ zP
Ã¾Âº O
ÂľĎ Â´
ÂĴ ~Â´
Ã»Ã¬ ÃĲ
Ã³Ã° ÃŁ
Ãĩ Ã¸ÃĴ
Ã¼ sÃ¿
Ã¼Ãį I
Ã¸ Z
(Ă ;
ĀÂŃ ġ
Ã¥Ãĩ Ã½ÃħÃ¼
Z ZC
Ã´ ÃºT
Ã³ Ã¹Ãĵ
Â¥Ā >ÂĬ
ÃŁÃŁ Ã¾Âµ
Ãº Ã¯
Ĕā !
Ā^ Â¦
Ā(Â¢ÂĬĀ (Â¢
ÂĢĒÂĬ\ ğ
= ^
ġ Ą
Ã»Ã¨ Ãĳ
Ã¸ L
Ãİi h
@ Â¢ÂĢ
O JZ
ĀĞ Â©
G Ã»Ãĥ
Ãĩ ÃĲÃ¿
Ã¾ KÃ¾
Ã²ÃĽ ÃĴ
Ã« ÃĳÃ¿
Ã»Ãĳ Ã½
}Âļ ğ
A Ã¹ÃĴ
ġ* ÂĨ
Ãī Ã¼Âª
Ãħ Ã°
Ã½Ã¯ Ã©
s Ã«H
Ę ĞÂ´
Ĝ ÂŀÂ´
ÂļÂļ ÂĢ
ÂĤ āĝ
Â©Â© Ã·ė
Z TP
Ã§ Ã¼h
Ã£ Ã«M
ÂĬĀ ġ
ÂĬĀ (Â¢ÂĬĀ(Â¢ÂĬĀ(Â¢ÂĬĀ
{ }*
c Ã«F
Ġ ÃºR
Ãĩ Ã¹ÃĲ
Ã£ Ã«Ã¾
ĀÂı Âı
ğÃ· ÂĽ
Ã®i i
ÃĩÃĶ Ã¾t
ÃĢ Ã¼Ã©
Ãªi ÃĶ
Ã«V Ãª
ĘĞÂĤ ÂĮď
Âģ @ę
Ãĺ Ã½i
Ãŀ oÃ½
ĔĀ Â¤
/ [
ÃºÃĶ r
Â¢ÂĬ(ĀÂ¢ÂĬ(ĀÂ¢ÂĬ(ĀÂ¢ÂĬ(ĀÂ¢ÂĬ(ĀÂ¢ÂĬ(ĀÂ¢ÂĬ(ĀÂ¢ÂĬ(Ā Â¢ÂĬ(ĀÂ¢ÂĬ(ĀÂ¢ÂĬ(ĀÂ¢ÂĬ(ĀÂ¢ÂĬ(ĀÂ¢ÂĬ(ĀÂ¢ÂĬ(Ā
@ąĔÂ´ ÂĶĀ
E kÃ¿
ğÂķ /
ĀÂ¸ (
ÃĩÃ¹ Ãµ
Âİ Â·
Ã½Ã£ Ã¼Ãª
Ã§ ÃĲQ
Ã§ Ãĥ
Ãī Ã¾T
=) ÂĢ
ÃŁo ÃĤ
q ÃºÃĴ
* ÂĢ:
= Â¿*
ĀÂı Â¥
Ã½Ã¶ j
ÃıÃ¼ z
p zÃĵ
s Ã¸U
Âĳ ÂİÂ´
ÂŁ ÂĤ
(Ă Âķ
Â¸ ĞÂĤ
ĂÂĢ Đ
ąÂ¢ÂĬ(Ā Â¢ÂĬ
ÃĶ Ã¾Ãµ
(Ă ÂĮ
(Ā Â¢ÂĬ(ĀÂ¢ÂĬ(ĀÂ¢ÂĬ(ā
ġÂ¥ >
đ ÂĬĀ
Ã½Ãĳ Ã¼ÂªJ
?ÂĲ Â§
ÂĽÂĩ Â¨
Ã§ ÃĥÃ¿
Ã´ J
Ã¡ Ã¼Ã¨
ĚĀ ć
;ÂĶ ğ
& ÂĢĔ
> Ĝ
O ÃºÃ¨
| @
Ġ ÃºÃĵ
Âľ ~Â´
Â¤Â¥ _
Ā: Âŀ
sÃĵ Ãļ
Ã£ Ã©N
Ãµ Ã¼i
ÂĲ >Â´
Ā^ Â®
] Â¢Â©
Ď Ğ
?Ã· ÃĹ
r zÃĵ
Ãħ Ã¡
ĝ =*
Ã¼ GÃ³
Ã³ Ã«G
ĂÂĢ *
Âĸ= [
z zÃĲ
Ã©V Âª
s Ã©H
ď Ė
Âİ Â¢ÂĽ
ÃĹ Â«
@ą Ā
ă' Â¥
Ã³ i
^ Ą
Âģ @ė
@ą ĕĜ
ÂĤ Ě
ÂĶÂ´ Âį
Ã½Ãļ u
Ãº ÃµÃ¿
. ćÂ¥
O Ã¸Ã´
Ã´ ÃºÃĵ
ĀÂ¶ ġ
Âŀ ÂŀÂĶ
Âĺ ÂĤÂĬ(
Ĕā Âļ
Ā# (
ÂĴÂĬĀ \ÂŁ
" ÂĢė
( Ā=
Ãı ÃģÃ¿
z Ã»S
KE EÃ¦
_ Đ
@Ď Â¢ÂĻ
zÃĴ Ã¹
t Ã½i
Ã« ÃĻ
Ã©K HÃĿ
ÂĬÂļ ÂĢ
g Ã¼i
Ã« Ã¹S
(ā Â¥
>Â¦ Âį
Ġ (Â¢ÂĬĀ
Â£ ĂÂĿ
Ãµ ÃĩJ
Âĩ Â¬
ÂļĀ Â§
ĀÂı Âķ
oÃ» Ã¶
ÃĩÃ¾ Ã«
Ĕ ÂĻÂ£
Ã´ ÃºS
Ãº gÃ¼
ġ* ÂĬ
w ÃºÃĸ
ÃĪ ÃĩJ
>Â´ Ĉ
ÃĨs Ãħ
z ÃºÃ¾
@ÂĤ ÂĬ
Ĝ ~ĕ
Ã» ÃıÃ¹
ÃĢ ÃºÃĵ
Ã«M Ã³
C Ã¹Ãĳ
s Ãł
t RÃĴ
Â¿ ą
ĀÂ¢ÂĬ(Ā Â¦
ÃĳM Ãŀ
Ã§ Ã«H
Âı "/
Âİ ġĚ
Ãĵ ÃºÃĲ
Â¥Â¢ÂĢ Ę
O OJ
ğÂĿ !
ÃľhÃľ i
Ď ġĚ
ĀĘ ăĂ
ď Âį
Ã´ ÃºÃĶ
ÃºU Ãº
ă< Â´
K Ã°
ÂŃ: (ă
Â¥Â¤ĝą -ĀĔ
~ÂĶ ÂĢ
QN Ãħ
ÃĽÃ¾ Ãĵ
& }Â¨
= Âĸ
s Ã«L
@ą @
Ãµ ÃĩZ
ÃĩÃ¹ Ãį
ÂĸÂĢ ę
ÂĢĝ Âĳ
Ğ ē
Ā^ ÂĶ
Ā! ę
# ĞÂ´
Ãĩ Ã«R
Ãī J
OÃ» Ã£Ã¿
Ã¹Ãķ ÃĬ
Â¢ÂĬ)ÂĪ (Â¢ÂĬĀ
Ãº kÃ¿
Ã¾z Ã¾
ÃŃS Ã¿
> đ
q ÃºÃķ
@ĕ ġ
Ã½ÃŁ ÃĨ
ÃŁp Ã½
z Ã»P
Â° ÃĹ
Ãĵ Ã»ÃĥÃ³
Ã« Ã¹ÃĶ
ĀÂŁ ÂŃ
Ã½Ã³ Z
ĔĈ (Â¢ÂĬĀ(Â¢ÂĬĀ
H PI
Ãµ Ã¨Ã¿
QE X
Ā-Ĕ ÂĽÂĩÂ¨Â£
"Â¢ Â¥
< <
ă ÂİÂ´
ġ* Âĵ
ğÂķ (
& ÂĢė
_ ď
Ġ Ã½j
Ġ ÂİÂ´
ā ÂĬĀ
Ãµ Ã¾T
ĂĎ ÂĶÂ´
ÃĻ FÃĬ
Âĩ Â»
>ÂĶ Ĉ
ÂŀÂ´ ÂĨ
G Ã½Ãµ
Ã¾ Ã£Ã¿
Āğ +
: đÂļ
ÃĨ zÃĲ
ÃĹ Ě
~Âķ ^
Ã§ Ã©M
Ã³ x
ġÂĿ >
Ã¼Ã³ j
ÃĨq Ãħ
ÃªÃŁ ÃĴ
s Ã©R
Ġ Ã¤S
Â¢ÂĬĀ(Â¢ÂĬĀ(Â¢ÂĬĀ *
q Ã½i
ġ* @
ĀĚ |
ÃĶS Ã¨
'Ã· Â¿
E TÃ»
z Ã»Ãĵ
A Ã¹T
ÃĪ Ã¾T
Ã½Ãĳ Ãµ
Ã«Q Ã¶
ÂĢ$ Â¢ÂĻ
Âĳ ÂŀÂĶ
Âĵ ÂŀÂĶ
Ã¨ FE
ÂĿÂ£ =
N zS
Ãŀ Ã°
ÂĢĖ ÂĴ
/ Âį
Q Gz
Â¤Â¢ÂĢ ė'
ę$ ā
Ã¾Ã²Ã¾t oOÃ¯
| !
=) Ā
_ Ğ
Ãĩ Ã¸R
Ãģ ÃªÃŁ
QE E
Ã² cÃ¿
ÃıÃ¹ Ã¢
Ãı uÃ¿
(Â¢ÂĬ Âĳ
C Ã¼Âª
ÂŃ :ÂĬĀ
Âĥ Âĭ
oÃ¹ Ã¹
Ď ġ:
Ãı fÃ¼
Ā\ ?
Ã¼Ã» ÃĲ
g Ã¹P
oÃ¹ Ã¶
ĀÂģ ď
A Ã¼Ã©
Ãī Ã¼Ã©
ĔĀ ÂĤ
o Âª
s ÃºR
ÃĿ ÃĶn
Ã¹Q Ã¤
oÃ¹ Ã®
/ ÂŃĀ
ĀÂ¿ Â§
Ã»Ãį Ã¹Ãĳ
Ã© Ã¹Ãĵ
Ã¸ C
(Ă &
ġÂ¸ ?
Ã£Ã¾ Y
q Ãĩj
Ã½ ÃħÃ¿
Ãĵ ÃºÃķ
" ÂĢĘ
Ā: Âİ
ÃŃ Ã¹Ãĳ
@ĕ ?
zÃĳ p
ć ÂİÂĶ
ÃĨ zÃĵ
Ã« Ã¤Ã¿
(Ă Â¸
ÃıT Ã¼Ã¨
Ã½Ã³ V
ĂÂĢ ę
X Ã«
Ā (ā
QH X
oÃ¹ Ã©
ÃªÃŁ Ãİ
?ÂĲ Â©
Ã´ ÃĩZ
y ÃĴÃ¿
| ć
Ğ Â¢Â£
ÃŃ GÃį
ĖÂĴ ÂĬ(Ā
! ęĘ
ġ* Âļ
Ã¢ J
^ Âļ
Âŀ }*
Ã¡ Ã¼Ã©
ġ* `
* ÂİÂ¤
_ Âī
ď Âĩ
ÃĿ Ã½j
~Â´ ÂĢ
ÂĹĔ Â¸
Âİ Â¢ÂĢ
ĀĔ Â«
Ã½Ãĳ R
" Ě
Âı Â¬
ĀĀ :
Ã± ÃıÃ¾
Ĕā #
ÃľhÃľ h
Ã¾ N
Â¢ÂĬĀ (Â¤
~Â´ ÂĶ
Ã¼Ã» Ã¿
Â¢ÂĢě ÂĬ
ĆÂķ Ĕ
ÃĮ ÃĳÃ¶
ĂÂĢ .
Ġ zÃĶ
ĀÂ¬ Âı
Ã£Ã¦ O
Ãıo Ã¼
o Ãħ
q Ã¸R
s Ã©M
Ã³Ã¢ Ã¾Ã¸
F zÃĵ
ÂŃĀ %Ĕ
Ã½Ãĵ M
Ã©R T
q ÃĨi
Ā Â¢Âİ
Ãŀ oÃ¦
ĀÂĦ Âİ
O Ã¸S
ÂĢ$ Â¤
Ã·Â© (
Ć ÂĢę
Ã¯ k
oÃ¹ Ã§
s Ãĩz
| ė
Ā Â¢ÂĲ
ÂļĀ Âĥ
Ġ Ã¾U
Ãº Ã½j
Ãº ÃŁÃ£
Ã½k F
O Ãĳ
@Ĕ Â¿
> Â¢Âı
Ē ÃĹ
Ã¦ jZ
Â¡ Â£'
ÂĤ ÂĬ)
(ā Â»}
ÂļĀ Âī
ąÂ¢Âĵ ĂÂĮ
C Ã¼Ãª
g Ã¼j
s Ã«Q
ġ* Ą
Ã«M Ã²
Ã«F Ã¡
> ,
z ÃºS
Ãµ ÃıÃ´
ÃĲ RÃĳE
Ãĥ Ã¡
Ã¼ Ã¼Ãĩ
Ãĭ qÃ¿
ĀÂı (?
ĀĔ ā
ÃĩÃ¾ Ã£
= Ğ
Ã½ ÃĶÃ¿
Ã»Ã¤QÃ¶ x
ĀÂı ÂŁ
@ę Ã·
Ĉ =)
ĆÂį Ĕ
q Ã«Q
Ã½ ÃĺÃ¿
Ã¾u z
Ã¼i Ã´
ÃŁÃ± Ã®
Ã¥ KÃ¶
ĞÂĶ ÂĽ
Â¢ÂĬ(ĀÂ¢ÂĬ(ĀÂ¢ÂĬ(Ā Â¤
L Rb
Ę Â¢ÂĢ
Âı Ė
Ãī Ã¾Ã±
ÂĨ ĀÂĥ
(Ā Â¥Â¤Â¥
{ })
GÃ¶ x
Ã«L D
" ÂĢĜ
~ Â¢ÂĢ
Ã´ Âº
Ãİ Ãº
Ãħ mÃ¿
Ã»Ã« Ã¹ÃĶ
ā ÂĨĈ
Â¢ÂĬ(ĀÂ¢ÂĬ(ĀÂ¢ÂĬ(ĀÂ¢ÂĬ(ĀÂ¢ÂĬ(ĀÂ¢ÂĬ(ĀÂ¢ÂĬ(ĀÂ¢ÂĬ(Ā Â¢ÂĬ(Ă
E Ã¾t
Ċ Âł
ÂĢ$ Â¨
ćÂ¥ĘĞ ÂĶĀÂ´
ć Ě
Ãģ Ã¼Ã©
@ď Â¢ÂĬ(Ā
E AÃ¶
ć >ÂĶ
Ã¸ ÃĳÃ¿
ÂĤ ~ÂĶ
Ġ Ã¾t
Ã³ Ã¹ÃĶ
G Ã¸Ãĵ
ÃĨ OZ
Ã£ ÃĲÃĵ
Âº iÃ´Ãī
ąĀ &
q Ã¹ÃĴ
ĝ Ē
ÂŃ ĔĀ
ÃĹ Â»
E sÃ¾
oÃº Ã¤
c ÃºÃĶ
Âŀ (ă
Ã« ÃıZ
Ã©L C
| $
Ã©H b
ÃºÂµ ÃºS
Ãł zÃĲ
ġ* Â¯
E SÃ¾
ē ÂĬĀ
Ã± ÃºÃĵ
Ã©F ÃķÃ´
ğ ]
ĝ }*
ÃĬ OJ
Ã± ÃĵÃ¾
ÃŁÃ³ ÃĶ
Ã½Ã¯ Ã¨h
& ÂĢĐ
B ÃĳI
K IJ
r zÃĲ
ÂĨ Â»
ÃĶR f
Đ {Ě
Ã³ ÃºT
Â± @Ē
ĀĀ Ď
*ď Â¶
Ā|ÂĬ< ÂĪġ
ÂľÂŀ Â§
Â£ "ÂĽ
Ĕā Âī
ĀÂı Â·
:ÂĬ @
p zS
Ã§ ÃĶQ
ÃĪ ÃĳÃ¶
Ã» ÃłS
?Âķ !
ÂĥÂĥ Âĥ
? Ă
P GC
Ď !
Âŀ ~Âķ
^ Â¢ÂĢ(
Âı Â¡Â§
Āğ ă
Ã»Ã¨ ÃĳÃ½
Ġ Ã»S
Ć ÂĢĐ
Ğ ÂŀÂĶ
Ãł ÃºÃĴ
ÂĦ ÃĹ
O OZ
Âŀ Â¿Â¥
ĂÂĬ( Â¤
Āğ ć
Ġ Ãªh
Ã£ Ã¹U
s ÃŃH
Ã« Ã¹ÃĴ
ĀÂ¬ ?
Ă ~Ĕ
Ā^ ÂĲ
?Âĳ Â©
ą: ÂĽğ
" ÂĸÂĬĀ
ğ ÂĬ
ÃĶ Ã¾F
Ã´ K
Âĵ ^
Ãł ÃºU
Ć ÂĢĒ
Ã¯I Ã¾
}Â¦ /
ÂĻ >Â´
Ã¸ K
Ã¸U Âº
Ã»Ã¨ ÃĳÃ¥
H ÃĩZ
Ă ÂĢĖÂĬ(
ĀÃĹ &
c zQ
Ġ Ã»T
Â£Ă ÂĢĖÂĬ
ę Â¤Â¢ÂĢ
Ġ ÃºÃĶ
Ġ Ã¾Âµ
Ãī Ã¼Ãª
GE I
s Ã¸Ãķ
Â¢ÂĬ(ĀÂ¢ÂĬ(ĀÂ¢ÂĬ(ĀÂ¢ÂĬ(Ā Â¦
Ã½Ã¶ Ãº
Ā(Â¢ ÂĸÂĢ
Âİ ÂĬ(
Ā^ Âļ
QM Ã¹
ĀğÂį ğÂį
: ^
Âļ (ă
QH a
ĂÂĢ ė
Ã¼Ãµ Ã½
Ã½ÃĨ Ã½
? ÂĤ
Âĥ @Ĉ
Āĝ Ĕ
= `
Ā ÂĬÂĬ
Ãį Ã¡
ÃĿ iÃ¿
Ā| ÂĬ?
Ã¾y Âµ
Â¿ÂĻ Â©
m z
| ĝ
ď Â¡Â©
Ãĩ K
Ã» Ã¤Ãķ
@ą ăÂŃ
ÂļĀ Âĺ
Ā( Â§
Ã© ÃºÃķ
ÃĶÃĳ Ã¶
Ã§Ã¾ Y
Ãº Ãŀ
Ã¤ ÃºP
Ã½j E
ă ĞÂĶ
Ãº K
ĠĖ ÂĬ(
ÃŁÃĿÃ½h Ãĭ
} ^
Ã± a
ÃĹ Â¤
Â¥Ā :ÂĬ(
jÃĳ Y
Ã¯ Ã¹R
Âį ĀĔ
Ã½Ã¥ Ã¼Ã¨
Â§ ÂŀÂĶ
Ã³ Ã©G
=ąĀ -Ĕ
ÃĲ Ã¾u
ÂŁÂŃ .
ĂÂĢ ē
ÃıÃ¡ N
ĔĀ Âķ
Ã½Ã¡ Ã¹ÃĴ
Ãİq Ãŀ
Â¡ÂĶ ÂĤď
/ Ă
s Ãªi
y Ã±Ã¿
Ã»Ãĭ Ã¹
Ã½Ãĳ Ã¹RÃĳ
Ã¼Ãĩ Ã¸P
Ã·ġ đ
G Ã¸Ãķ
\ ĚĀ
cÃ« Ã¹Ãĳ
ąĀ-Ĕ ÂĺĔ`
ć ĞÂķ
s Ã¹Ãķ
Ã« Ã¼Ãª
Ã©R ÃĶ
ÃĲQ Ã¦
Ãı ÃĦÃ¿
ďÃ· ć
Ã§Ã¼ Ã¢
Ã« Ã¸P
ęÂĤ Â©
z Ã»ÃĶ
Ãı Ã©N
Ã¾ YÃ¿
Ã¼Âª Ã¥
/Ã· Âį
Ã½Ã° k
*? Â´
ÂĸÂĺ ąĔ
Ã¼ÃµOÃ»Ã¨ QÃ§
Y Ã¨
Ĝ ~Âķ
ġ ĝ
Ã£ Ã¹Ãķ
Ã³ ÃºS
Ã¤ ÃºT
Āğ Ēġ
āÂģ ÂĬ
Â¢ÂĴ ÂĮ
?Â¥ :
ć# "
' Â¤
Ãł Ã½j
Ãģ Ã¨j
Â´ā ^
Ã½Ã¡ M
ĞÂ¢ ÂĸÂĲ
ÃĵÃ»Ãĭ Ã¹Ãĳ
Q ÃĲP
Ă ÂĻ$
(Ă ]
Ã»Ãĭ Ãµ
< ~Âķ
@Ė |
oÃ¹ Ã«
Ãĩ Ã¹T
(Ă Â£
Ā` `
>Â¦ ÂĢ
Ė ăÂ©
Ğ Ē
ÂĨ -Ĕ
Ã± ÃºP
j QE
ę ĞÂĶ
ÂĬĀ ÂĸÂĬ(
Ã»Ã¨ T
ćÂ¥Ę ĞÂķ
Ã¹R Ã¿
ĀÂİ ÂĬÂĵ
Ā ÂĺÂ£
ė [
Ã£ Ã«H
Ã£ Ã«L
Ãı Ã¥N
ÃıZ Z
Ã¾Ã² Ã¾u
E gÃ¿
Ãİs Ãĸ
Ã³ Fj
@ę ÂŁ
/ ÂĺÂŁ
GÃĻ mÃ¿
z zP
q Ãĩz
Â¦ ÂĸÂĲ
C FO
ą Ā>
Ď Âļ
Ã« z
ă Āď
ĀÂı Âĸ
Ãİq Ãį
)Â» ė
~ ĔĀÂ´
Ã»Ã¨ S
Ãı gÃ¼
ÂļĀ ]
GÃ¥ O
ÂŃě ÂĹ
< ~Â´
ē @Ē
Ã± Ã´Ã¿
ÃĳN Ãļ
Ã© Ã¹ÃĶ
"Âı "ğ
ÃĽ qÃ¿
Ã° Ã¸
Â¢ÂĬ(ĀÂ¢ÂĬ(ĀÂ¢ÂĬ(ĀÂ¢ÂĬ(ĀÂ¢ÂĬ(ĀÂ¢ÂĬ(ĀÂ¢ÂĬ(ĀÂ¢ÂĬ(Ā Â¢ÂĬ(ĀÂ¢ÂĬ(ā
Ã¾z P
Ã¨ ÃºU
Ã¼Ã¨ Ãĭz
Ā Â¢ÂĬ(ĀÂ¢ÂĬ(ĀÂ¢ÂĬ(ĀÂ¢ÂĬ(ĀÂ¢ÂĬ(ā
Ď Âī
Ğ ÂŁÂŃ
zR Ãĵ
ĂÂĢ Ĝ
c Ã¹ÃĲ
Ď }Â©
ć ĝÂ©
Ã§ ÃĶÃĲ
Ã½Ã´ hÃ¾
IÃ¶ x
z zÃĶ
Ãµ ÃıJ
Ãı Ã©R
Ãı QÃ¹
Ã« ÃĤ
ÂŀÂ´ Â´
ğ Â¢
Ã´ ÃıZ
e NE
z Ã»T
ę Â¢ÂĢ
Ãı OZ
ÂĽ ÂĩÂŃěÂĩ
(Ā Â¢ÂĬ(ĀÂ¢ÂĬ(ĀÂ¢ÂĬ(ĀÂ¢ÂĬ(ĀÂ¢ÂĬ(ĀÂ¢ÂĬ(Ā
Ā^ Â¥
Ā( Â£ć
c Ã¹R
s Ã©Q
ÂŃ -!
Ã¬ Ã¾t
ď ď
Ã½Ã¡ Ã¼Ãª
ăę =
; ĔÂĺ
Y ÂªÃļ
Ā Â¢ÂĬ)
Â» @ąĔ
ĂÂĬ( Â¦
Ãªj z
ďÃ· ġ
Ā( Â¨
Ãİ zÃĵ
Ã± ÃŁÃ¾
Ãļ Ã´
ă' Âģ
Ãļ ÃŃÃ¿
ÃĽ Ã¼i
Ã½Ã¯ Ã»
~Â¿Âķ ę
O Ã¸ÃĴ
v Ã¸
Ãı Ã¸Ã³
(Â¤ '
OE W
IQ Ãľ
Âĳ @Ĝ
Ā= Â¢
Ã¼ ÃºT
Ãĵ OÃ»
ÂĤ =Â©
ġÂĺ Â§
đ @Ē
ġ @
ÂļĀ Â¬
Ā% %-%
Ã© Ã¸ÃĶ
ÃĽ sÃ¿
h YÃ¿
ÂĮ ÂĤď
Ã¼ ÃºS
Âİ =*
ÃĹ }
@ĕ ÂŃ
ÂĢē ă
Ã§ KÃ¿
Â¦ ĚĀ
Ã©M Ã²
Ã´ Ã¼j
QH AE
Ã»Ãį Ãµ
Ã± Ã¬Ã¿
ĀÂ¯ @ē
q Ã¸U
Ã¥ SÃĶ
(ă <
Ā^ Â¢Â¨
Ã¤Ãĵ Ã¨
Ã½s Ã½
ÂĢĝ Â¸
Ã©K I
?Â» '
Âĥ @Ĕ
Ã° Ãļ
(Ā ĝ
zQ Ã¶
Ã½k J
' Â©Â¤
* ?:
Ã«Ã½Ã¡ Ã¹ÃĴ
y OÃ¿
đ @đ
Âļ (Â¢ÂĢ
Ãº ÃģÃ´
ÃºR ÃŃ
ĞÂ¢ ÂĿ
Ã»Ã¨ ÃĳÃ¶
Ã¾Âµ v
(ă #
Ã¨h Ãļ
ġ: @
A ÃıJ
Ã£ Ã¾Âº
Âŀ >Âķ
Âį Ā:ÂĬ
Ã«H b
& ÂĢĞ
> Âī
ą Ā:ÂĬ(
Âĥ Â¬
Âī Â¯
ÂŃĀ <
zÃĵ Ã©
&ąĘ ĔĀÂ´
^ ÂĹ
oÃ» Ã®
ÂĢĆ Ā
x Ã½j
ÃĨ zS
Âľ ġÂį
Ã§Ã¼ Ãµ
ĕ @Ā
Âİ Â¿ÂĿ
Ãµ ÃºÃķ
ÃľR b
ĝ }Â©
Ã£ Ã¼Ã¨
ÂĢ$ Â¢
Ã«N Ã»
>Â¿ÂĿ Ę
Ã§ ÃĻÃ¿
ĂÂĬ \
Ã»Ãĩ Ã¼
q ÃµÂª
ăĂ ď
ĔĒ Ĕ
Ã¾ w
Ã» Ã³Ã¿
?ÂĿ !
Â¥Â¦ ā
ěÂĶ Âı
* ÂĢĀ
?ÂĿ [
Ã¼Ã» ÃĩÃ¿
Ãģ Ã±
Ã§Ã¾ Z
Ã»Ã¨ ÃĴ
Z OÃ¢Ã¼
~ Â±
Âŀ ?:
Â¿Â¥ ğ
@ąĔ ÂĮ
~ÂĶ Âŀ
Ã¥Ã¾Ã° Ã¼Ãª
ÂĢ Ā`
ÃĻ Ã¸
ÂļĀ (Â¢ÂĬĀ
ĀÂı ď
Ã½Ã¡ L
Ã§Ã¼ Ã¦
H FA
ą ę'
Ã¸ J
ĂÂĬ ÂĬ
sÃ« KE
= Âŀ
o Ã¸Ã¹
Ãľ RÃ¢
Ãª CÃĴ
Ã½Ãĵ U
(Ă Â¢
Ā& ćÂ¥
QK Hz
@Ćć Â¥ĘĞÂĶ
v ÃºÃĲ
ď Ĕā
ÃĶÃĴ Q
~ -
Ã¬ Ã³Ã¿
Ã¸R Ã½
S cÃ»
Ã¼ ÃºÃĵ
Ã¨j z
' =)
ÃĢ ÃºÃĶ
Ãī ÃºÃĲ
| Ĉ
Âı "?
Ã³ Ã¼Ã¨
ÂĬĀ Âľ
Ã½j Ã¿
Ã¥F ÃĦÃ¾ÃªÃ¾T
ă< Â¤
GÃĺ m
= Ć)
Ą =*
Ę >Â´
Ãĭ Lc
ÃıÃ¹ Ã¼
Ã£ Ã½Ãļ
Ãļ aÃ¿
Ã¹T Ã´
Ã© Ã¼Ã©
ÂĸÂĢ )
ę ĝ*
Ã«L C
QÃ¶ x
Ãµ Ã¾t
ÂĬĀ `
Ĕā Ć
r zS
Ãĩ Ã½Ã±
Ã© Ã¹S
ĀĚ ?Â±
Ã»ÃŃ Ã¹Ãĳ
u J
z zT
Âĩ ÂĦ
-ĔĀ ÂĻĔ
O Ã¸U
Â¦ ÂĢ,
ĀÂķ ě
Ď @#
Ã¤ ÃºS
@Ė ~
:Âļ ~
Ãī Ã¾ÃŃ
ÂĨ Ę#
Ã¼Ã» G
Ġ Â¢ÂĬ(ĀÂ¢ÂĬ(ā
Ãĩ Ã¹P
Ã³ Ã¼Âª
Ã¡ Ãł
ğÂķ Ā:ÂĬ
| +
ė Ã·Â¿
Âŀ Â¿Âķ
Ā[ ė
Ã«Ã½Ã¡ FÃµÃ¾Ã°
n oS
Â¦ Â¢Âĭ
& ÂĢ*
j ZC
ĀÂĸ _
Ã¾C Ã¼h
Â£ ĆÂĢ
ĀĞ Ĕ
Ã©V Ãª
Ãº M
Ãı Ã¾y
ğÂŃ >
Ã½Ãģ Ã¼ÂªJ
k ÂºÃĨ
ÂĮ ÂĵÂģ
ĀÂı Ę
ğÂŃ :
Ã³c Ã¾Ã¸
q Ãªi
Ãĥ kÃ¿
ăāĀĂđăđĀ?Ā Â¥
Ã½Ã¯ Ã¾Âµ
(Â¢ÂĬĀ(Â¢ÂĬĀ(Â¢ÂĬĀ(Â¢ÂĬĀ(Â¢ÂĬĀ(Â¢ÂĬĀ (Â¢
Ě ?Â´
Ġ Ã·Â¦
Ã« Ã¸T
Â¨ā (Â¥
Ã½Ãķ Ã¾Âµ
N zÃĴ
s Ã©L
s Ã¹R
ġ Ć
Â¢ÂĬ(ĀÂ¢ÂĬ(ĀÂ¢ÂĬ(ĀÂ¢ÂĬ(Ā Â¤
=( Đ
| =
Ġ zS
Ã½j Ãµ
ÃªÃĽ Ã¨j
Āğ ÂĲ
~Âķ -
ÂĤ: đ
Ã© Ã¼Ãª
Ãı Ã¹Ãº
ĀÂı ÂĺÂ¿
ÃºÃķ j
ÃºÃĳ Ã§
qÃĵ Ãŀ
Ã½Ã¦ Ã¼Ã©
Â¢ÂŁ @ąĔ
ÂĨ ęĔ
Ã½j k
ÃºÃķ Ã¿
Ã½Ãĳ Ã¾
Ã«R y
PÃĬ TÃ´
> ÂĪ
H k
GZ u
ÃŁÃĿ Ã½i
C Ã¹R
Ãĵ Ã¾Ãº
Ã« Ã¼Ã©
Â¯ ÂĬ
@ą-% -
F zÃĴ
ąĀ .
Ď })
Ãĩ X
Ãº Ã½h
Â¢ÂĬĀ ))
ÂŁÂŃ &
ĂÂĻ '
Â¢ÂĬ(ĀÂ¢ÂĬ(ĀÂ¢ÂĬ(ĀÂ¢ÂĬ(ĀÂ¢ÂĬ(ĀÂ¢ÂĬ(ĀÂ¢ÂĬ(Ā Â¢ÂĬ
Ã§ RP
Ā? Ě
ĀĚ Âļ
RÃĴ RÃĵ
QK F
Ã»Ãĵ Ã¨
~Â´Ā Â´
Ã§ Ã«V
@ď Â¢
Ã½Ã³ M
ÃĨ zP
Ā ăĂ
Ã³ Ã¼Ã©
Ã¬ Ã²Ã¿
(Ă @
l ÂµÃ¿
x ÃºP
Ã§ ÃºR
Ã§ ÃĺÃĳ
Ã¶ Ã¼Ã©
ĞÂĤ ÂĿ
ĀÂ¸ ġ
ěÂī #
z ÃºP
Ãĥ Ã¢
Ã»Ã¨ QÃ½
q Ãıj
~ÂĶ `
ÃĳÃ©FÃĳ Ã©KE
M ME
o Ãķ
ă ĒÂĬ
ğ ā
Ã£ ÃľÃĳ
Ã® oÃ¯
_ Ĉ
ĝ ÂįĀ
Ā} Âļ<
Ā< Â¦
@ ĈĔ
G Ã¸Ã¿
ÃĴ RÃĴ
ÃĿ Ã¾Ãī
ÃŁÃ± Ã±
Ĕ ĞÂĶ
ā' Ā
(Â¢ÂĬĀ(Â¢ÂĬĀ(Â¢ÂĬĀ(Â¢ÂĬĀ(Â¢ÂĬĀ(Â¢ÂĬĀ )
Â¥Â¨ ÂŃ
} Âļď
ė Â´
Ãµ Ã¥
Ãº ÃĩÃ¿
Ã³ ÃĭÃµ
Ãı OJ
Ãı eÃ¿
ĀÂı Â¸
ĂÂ£ Â¸
ĔĎ ÂĢ
Âĵ ÂİÂ´
Ã§ Ã«L
Âĳ @Ĉ
Ãİ zS
ÃĽ Ã«K
Ā^ Âľ
ĂÂľ ą
A ÃıZ
C Ã¹ÃĲ
Ãı Ã¾x
Ãĥ ÃĶT
ĔĀ ā
ĀÂı Âī
Ã»ÃŁ ÃĲT
OS I
U Ã¾Âµ
Ĕ ĎÂĶ
ÂĬĀ ;
?Â¸ ?
Ğ ÂŀÂ´
Ã§ ÃĲÃĳ
ÂĴ Âķ~
Ã¦ z
?: ]
=ąĘĞÂĤ ÂĢ
s KI
ĀÂ¦ Â¿Ã·
sV h
ćÂ¡ Â¤
_Â¥ :
(ā Â¨
ğÂĿ :ÂĬĀ
ĀÂ¯ Âı
Ã½Ã£ Ã´
Ã½Ãķ Ã¾
Ã¾Ã² Ã¾T
*: (Ă
F PÃĥ
Ã½ rÃ¿
Ãº Ã¥Ã¿
Âŀ ?Ě
Â¢Âģ Âī
ÂĴ@ Ğ
Â¿ Đ
Ã± ÃºT
Ĕā ġ
ĀÂ® Â¯
ÂĤĈ Ą
Cu Ã¾
ė Â¬
Ã§ Ã©H
Ã² Ã½Ã¨
ÃĢ ÃºS
?ÂŃ ğ
Ã§ RT
ÂĮ ÂĤ=
Âĵ @Ĉ
Ã« Ã¹Ãĳ
Ĕā Âĩ
Q Ã½j
d ÃºÃĶ
Âŀ ÂŀÂ´
Ãł Ãļ
Ã½Ã¶ hÃ¾
āĝ ĕ
Â¥ Ā?
Ãł Ãŀ
Ã»Ã« Ã¹
> Ē
u Ãĳ
Â© Ą{
(ā ĕ
QT Ã¿
Ãĩ Ã«N
Ã¯ KH
Âı- Â¿
QEI AE
Ġ Ã¤T
Ā: ÂĮ
RRÃĴ S
k Ã¹T
u ÃĴ
ÂĢ ĔĀ
Â¦ ÂĢğ
zQ Ãĩ
Ã½Ãģ Ã¼ÂªZ
) ą-
Ãģ ÃºÃĵ
Ã£ Ã¼Ã©
Ãŀ Ã³
ÂļĀ Âķ
Ã½Ã¶ Ã¼
Ć ÂĢĞ
Ġ zT
(Â¢ÂĢ .
Ā] [
ĂÂĢ !
ĀÂĦ ÂĬ
ÂŃĀ ]
ÂĸÂĬ Ć
p zP
q Ã¨j
ÃĶ Ã¾u
ÂŃ -Ĕ
@Ą ġ
= ďÂŃ
Ã£ Ã«O
Â© )ÂĴ
ăÂ¨ Â¢ÂĬĀ(Â¢ÂĬĀ(Â¢ÂĬĀ(Â¢ÂĬĀ
Ã¼Ã³OÃ»Ã¤Q Ã¤ÃħÃ¿
Âİ >ÂĶ
QE t
zR Ã¹
Ã«Q Ã¦
Ã»Ã§ Ã¹ÃĶ
Ã¾Ã°Ã¼Ã¨ Ãľ
Ã¾Ã¹ Ã½
ĔÂ´ Âĩ
ÂĬ~ )
ā (Â¥Â¢ÂĢĒÂĬ
(ă *
sÃĵ Ãŀ
Ã»Ãĥ Ã«
ĞÂĨ ÂĿ
Âİ} ?
ÃĳN ÃĢ
Ã§ ÃĶP
Ã£ Ã©Q
% -!
s Ãız
ā ĕĔ
ÃĴ QI
Âľ ~ÂĶ
Ã½Ã³ N
Â¢Âį Â¢ÂĸÂĬĀ
c Ã¼Ã¨
Ď `
ď ÂĦ
Ãº ÃĳE
ĜÂĮ Âİ
E ME
z ÃºT
{ :
Ć ÂĢė
ÃĲ QÃ¶
Ā} *
Ā. (
Ę >ÂĶ`
ÂĬ ÂĬ(
Ã§ Ã«Q
Ã§ RQ
Ã§ Ã«J
Ã´ Ã¾T
ÂŀÂĶ ÂĨ
Â¨Â® Â¿
ÂĸÂģ ąĔ
` Â£`
ą Â¢Â£
ÃĨq Ãļ
ÃıÃ£ N
}Âļ /
Ē ÂĸÂĬ
Â± ąĔ
Ã½Ã£ Ã½
Ã§G Ã½Ã±
ĆÂĿ Ĕ
ğÂĿĀ-Ĕ ÂĽÂĹ
Ĕā {
ăāĀĂđăđĀ?Ā Â»
ĂÂĢ '
ĞÂ¦ ÂŁ
Ã¡KI Ã¼
O Ãģ
Ã´ ÃĩJ
ÃĢ Ã¾u
āĀ Âŀ
Â¢ÂĬ(ĀÂ¢ÂĬ(ĀÂ¢ÂĬ(ĀÂ¢ÂĬ(ĀÂ¢ÂĬ(ĀÂ¢ÂĬ(ĀÂ¢ÂĬ(ĀÂ¢ÂĬ(Ā Â¢ÂĬ(ĀÂ¢ÂĬ(Ă
ğÂĿ ė
R OA
Ã» ÃµÃ¿
Âĵ ÂŀÂ´
ĀÂı ÂĻġ
Ā* Âİ
c Ã¢
Â¸ ąĔ
Ã¸ Âµ
Â¯ Â¥ě
ĀĚ ÂĬ
ÂŁÂ¥ &
z OÃ»
Ã« Ã¼Âª
ÃŁ Ã«N
ĀĂ ğ
ĀÂŁ Â¨
ÂĮÂı ġ
ÃĶÃĴ R
ġ: Âļ
Āĝ Ā
ÂĳÂĥ )
Ã½Ã° ÃŁ
ÃıÃ¡ M
C Ji
Ã¾Âµ X
Ã½Ãĵ L
/Ã· Âĵ
-Ā %-Ĕ
cÃľ ÃĴ
ĆÂį ĕ
/ ÂŃĞ
Ã± ÃºÃĶ
(Â¢ÂĬĀ(Â¢ÂĬĀ(Â¢ÂĬĀ(Â¢ÂĬĀ(Â¢ÂĬĀ(Â¢ÂĬĀ *
R gÃļ
q KI
Ã« Ã¡
> .
Ã§ Ã¹ÃĴ
Âı Âĩ
Ãº x
Âĵ ÂĽ
(Â¢ÂĬĀ (Â¨
>ÂĤ ÂĢ
Ã¼z Ãį
Ã»Ã¤ Ãĳ
Ã° g
= Â¿:
đ ÂĳÂĬ
Ę ąĔ
ÂĽ ^
>Â¦ Â¬
> Ă
a KE
Ã½j H
Ã¸Ãķ Âº
q Ã¹Ãķ
Ã½Ãµ Ã¼Ã«
Ã¾Ã¸ Ã¾t
M ÃĶn
Ã¥ RÃĳ
Ĕā Âĥ
| ]
ÂŁ Ă
ġ* ]
Ã½ÃĨ Ã¾b
Ã» Ã§Ã´
Ã¼j Ã¥
| %
| -
Ĕ Â®;
Âĳ @Ě
Ã± Ã²Ã¿
ÂĬĀ ć
ĀÂŀ *
Ã£ ÃºÃĵ
Ã»Ã¨ R
c Ã¹ÃĶ
Ãĩ QM
@ď Ĕ
GÃ¶ m
ĞÂĤ Âĵ
Ã¸Ãĳ Ã¸ÃĴ
d Ã¾T
ÂĴ (ā
Āğ ?
ÂļĀ Â¥
ġ* Â·
ÂŃĀ :ÂĬ(
ÃŃR P
(Â¸ Â¬
Ğ ÂĹ
Ġ Ã·Â¨
Ã© Ã¹T
Ã£Ãİ o
Ã« Ã¹T
Ã¯ h
Âº ÃŁÃ¯
ĀÂı Âĵ
ġ: `
Ã½Ãĳ L
>ÂĨ ÂŁ
ÃĨs Ãĸ
Ã±Ã¯ Ã¹
Ğ /
Ã£ Ã«Q
q Ã¹R
ă Āā
Ę Â¥Â¤
Ã³ Ã¸R
ÂĹ Â¤
ĀÂ¿ -
@ą%-% Ā
` Â£$
Ğ Â¿Â¥
Ã» Ã¾t
ÃĭÃ¾Ã¡ Ã¾T
O Ã«V
_ ą
x ÃºS
Â¢ Â¢ÂĢ%
Ã² R
Ãī ÃºP
ÃĢ ÃºT
= |
i ÃľV
ğ Ĉ
Â£ ÂŃ%
Ãĵ Ã¾z
ĚĀ ÂĨ
Â¦ ÂĢ$
Ã·Â£ Âı
Â§Â¢ÂĢ !
O Oj
} ~Â´
ę Â¯
Ã»Ã¤ QÃ½
Â£Ă ÂĢě
Ċ ĉ
Ě ĀÂŀ
Qa Ãľ
Ā^ Â£
ÃĩÃ» ÃĭÃ¼Ãħ
3 4Â¹
Ã§ Ã©L
Â¸ >Âķ
ÂĴ ÂĬ)
(Â¢ Â¶
Ã©R S
?ÂĻ Â«
Ãİ zÃĴ
Ã½Ã£ Ã¼Ã¨
Đ ÃĹ
ġ: Â·
Ã»Ãĭ Ã¹Ãĳ
Ě (ā
Âŀ =*
ĀÂŃ @ē
ĀĎ Âĥ
#Ĝ )
ÂĢĜ :
ăÂ© ď
p zÃĲ
q IE
} Ğ
Ãİq ÃĴ
ė Ã·ġ
Ãĭ OÃĤ
z Ã½h
Ď (ă
Ğ Âī
ġ }ġ
ġ: ÂĬ
Ãİj J
Ĕ} Âŀğ
Ġ Ã»ÃĶ
ÃĽ Ã¹ÃĶ
Ãł Z
ÂĤ ?ÂŃ
ÂļĀ (
Ã¾T d
QK Âµ
Ã£Ãĸ O
ÃĩÃ¼ Ã¼
Ã§ Ã©Q
Ã£ Ã«J
(Ă ÂĦ
Ã½j Y
-Ĕ ÂĻ
ÃĲÃĴ Ãĳ
Ã¼Ã² oÃĮ
oÃµ c
ÃĩÃ£ N
' ĞÂ´
@ ĔĀ
ġ: ]
Ã¾z KÃ¿
:Âļ )
Âŀ ġĚ
Ãħ Ã½Ãģ
Ã´ ÃĭÃµ
Ã« Ã¸ÃĶ
zÃĳ Ã¶
oÃ» Ã¬
q ÃıÃĸ
Ãĩ kÃ¿
Āĝ Â¨
Ĕ} Âļď
Ā ďÂ¥
ÂĢ$ Â¢Âĺ
ā @ă
Ã¾ kÃ¾
ĀÂŀ ÂĨ
ĖÂĬ( Â¦
Ĝ ġÂŁ
Ã½Ã¡ Ã¼Ã«
oÃ» Ã¢
TR ÃĮ
Ã½j X
N zR
Ã° e
y Ã¸
ÃĴ Ã«
Ã´ M
ÂĤ ÂĬĀ
ÃŁÃ½ B
ÃĨ GJ
Ã§ Ã£Ã¿
Ã¼Ã³ Ã½M
ÂµU u
Ã½ÃĵÃ¹Q Âµ
g Ã¢
ÃŁÃ± Ã°
ÃħÃ¸ RÃĴ
Ã³ Ã¯Ã¿
Â¦ ÂĢĚ
ÃĩN ÃĶ
) Â¢Âľ
Ã£ Ã©M
ğÂĿ /
ÂŁÃ· ÃĹ
Ã«N Ã³
ZJ V
Ã½Ãħ Ã¾f
ġ} Â¿:
g YÃ¿
o H
q ÃĩÃĸ
ÂĴ ?*
Ãĺ ÃŃÃ¿
ÃĳFÃĳ KE
Ġ ÂĴā
Ā> Â±
Ã¹Ãķ Ãļ
I KH
` >Â¦
h Ã£Ãĸ
Ã´ x
Ã« Ã¸S
}) ÂĪ
ĀÂĸ Âĭ
M Ã°
{ Â¬
Ă ÂĮď
Â¿ ÂĻÂ£
OÃ¹ Ã´
ġÂ© ġÃ·
Q Ã½i
Â¿ ÂįĀ
Ã¯ ÂµÃ¿
@Ĕ Â´
AÃĪ Ãį
^ Ã·
q Ã«I
ÃĹ ğÃ·
Āğ '
Ā] ą
Ã«L Ã»
$( $Âľā
ÂĤ >Â´
Âħ Ġ
ĀÂı Âĳ
}ą Ĝ
> ă
Ã§ ÃĶÃĳ
Ã³ Ã¼Ãª
Ãĵ ÃºÃĶ
Ãĵ Ji
Āğ #
ÃºS h
ÃĶG Ã¾Ã¨
ÃĨ ÃĳE
u Ã¼Ã©
ĝ =Â©
Ãµ Ã½i
Ã©F ÃĨÃ´
^ Ğ
q Ã¹U
Ã· ?ÂŃ
O Ã¸Ã¹
ą ĝ)
i GJ
Ã¨ Fi
ÂıÂŃ ěÂıÂŃ
ÃıÃ¥ V
ÃıA Ã¹
Ć ÂĢĔ
Āğ _
ĀÂŀ Ē~
Â¤ ć#
Ã« ÃĿ
?Âķ (
F zP
ĀÂŁ Âĳ
ÃŁÃ³ Ãİ
ÂŁÂŃ ;
ÃĢ ÃºÃĲ
/Ã· ġ
Ã½Ã² hÃ¾
> ÂŀÂĶ
ă ÂıÂŃ
Ãı ÃĩÃ¾
Ãŀ ÃĲ
ÂĦ Â¿Ã·
ĔĀ Â¬
ąĀ ;
zS h
(Â¢ÂĸÂĢ ĒÂĬ
ğÂķ ;
Ã¼Ã²OÃ» Ã¤T
j ÃĳE
q Ã¯N
Âı &/
-Ā %
\ Â¢Â©
Ãº aÃ¿
Ãģ ÃĪÃĪ
(Â¢ÂĢ :
ĀÂŃ Âı
~ ÂĹ
Ã¯ Ã¹ÃĶ
ĞÂĤ ÂĲ
ĀÂ¦ _ÂŃ
> Â¸Â§
d ÃºR
ÃĨ GZ
Ã´ Ã¼Ã¨
Ãħ Ã¸Ã¿
ÂĤ ÂĢğ
ĀÂı (
(Â¢ÂĬĀ(Â¢ÂĬĀ(Â¢ÂĬĀ(Â¢ÂĬĀ(Â¢ÂĬĀ(Â¢ÂĬĀ(Â¢ÂĬĀ(Â¢ÂĬĀ(Â¢ÂĬĀ(Â¢ÂĬĀ(Â¢ÂĬĀ(Â¢ÂĬĀ(Â¢ÂĬĀ(Â¢ÂĬĀ(Â¢ÂĬĀ(Â¢ÂĬĀ (Â¢ÂĬĀ(Â¢ÂĬĀ(Â¢ÂĬĀ
ÃŃV h
oÂº ii
Ā(Â¢ ÂĴ
c ÃºÃĵ
Ã½ Ã¸Ã¿
Ã¯ Ã¾z
ÂĿÂĤ Â¨
Ãµ ÃºÃĴ
Ã¯ Ã¹S
?Âķ [
ġ} Â¿
S ÃĩJ
S GÃĻ
i sL
ĝ ~ÂĶ
Ãĵ KH
Ãĭ oj
Â£Ĕ Â¸
ĞÂ¢ Âļ
x Ã½h
ć =Â©
Âĺ ĞÂĶ
Ã¸ Ã¯Ã¿
Ã¾Âµ Y
Ã½Ãĳ U
oÃ» ÃŃ
ÃĨq ÃĴ
ÂĢ: ā
O Ã¸Ãº
ć ğÂį
Ãĩ Ã¹Ãĵ
Ã¸Q Ã§
ĞÂĿ )
ġÃ· Âĩ
IKI L
A Ã©K
q Ã©I
Ġ ġ:
Ã§ ÂºÃ¿
(Ă Âį
>Âķ ,
@Ć ąĘĔ
jÃį V
Ã¾ÃºÃ¾t y
Ã¼ Rb
(Â¤ Â¢ÂĢĖÂĬ
ą Âļ)
z Ã»ÃĴ
Ą Â¢ÂĬ(ĀÂ¢ÂĬ(Ā
Âļ ÂĸÂĬ
ÂıÃ· Â¿
Âı> ?
ÃıÂµ Ã¿
Ã½Ã¶ Ã¼Ã¨Ã³
ĂÂĲ Âľ
Ã¼Ã¶ Z
Ã¯ RQ
Ãĥ Ã¹ÃĶ
ĜÂ¨ .
ÂŃ-ĔĀ ÂĻĞÂ´
Ãı oZ
ÂĤ ?Ě
ĀĞ ÂŃ
@ď Â¢ÂĬ(ā
Ã¸ÃĴ Ã½
Ď =Â©
} ġĚ
ÂĬĀ Â´
ÂļĀ ġ
Â¡ÂĶ Â«
ÃĽ Ã¹U
(ā ~
~Â´ Âŀ
Ã¾Ãª Ã¾
Ãĩ ÃĶÃĳ
(Ă :*
Ã½j K
ÂŃĀ ^
Ã½Ã³ O
>ÂĻ Â§
ÂĢ =)
Âľ ~Âķ
ÂıÃ· ġ
(Â¢ÂĢę /
Ã£ Ã¼Ã¿
Ã© Ã¼Âª
Ã² ÃĽÃ¾
Āġ ą
OÃ¹ Ãł
GÃĺ ÃŃ
Ĕ ĀĀ
ÃŁ Ã«S
ÃªÃŁ ÃĬ
) \,
s ÃµÂª
?ÂĿ \
(ă ÂŁ
?ÂŃ [
+ ąĔ
Ã´ ÃĵÃ¾
ÃĦ Ã¾t
Âľ) Â¢Âľ
_ Ĕ
ĝ ?*
Ã½ ÃģÃ´
ÂıÂ¥ &
_Ã· Â¿
_Ã· Âį
ďÃ· ÂĽ
Ã»Ã¤ ÃĳÃ¶
q Ãİi
ÂĢ ġÂŃ
Â¥ -ĔĀÂĽ
Ã« Ã¸ÃĲ
(ă Âŀ
ÂĢĝ Âģ
Â¥Ā-Ĕ Âľ
ćÂ¡ Â£
ÂĤ ÂįÂĭ
Ã® oÃ®
[...]
