{"!":0,"\"":1,"#":2,"$":3,"%":4,"&":5,"'":6,"(":7,")":8,"*":9,"+":10,",":11,"-":12,".":13,"/":14,"0":15,"1":16,"2":17,"3":18,"4":19,"5":20,"6":21,"7":22,"8":23,"9":24,":":25,";":26,"<":27,"=":28,">":29,"?":30,"@":31,"A":32,"B":33,"C":34,"D":35,"E":36,"F":37,"G":38,"H":39,"I":40,"J":41,"K":42,"L":43,"M":44,"N":45,"O":46,"P":47,"Q":48,"R":49,"S":50,"T":51,"U":52,"V":53,"W":54,"X":55,"Y":56,"Z":57,"[":58,"\\":59,"]":60,"^":61,"_":62,"`":63,"a":64,"b":65,"c":66,"d":67,"e":68,"f":69,"g":70,"h":71,"i":72,"j":73,"k":74,"l":75,"m":76,"n":77,"o":78,"p":79,"q":80,"r":81,"s":82,"t":83,"u":84,"v":85,"w":86,"x":87,"y":88,"z":89,"{":90,"|":91,"}":92,"~":93,"¡":94,"¢":95,"£":96,"¤":97,"¥":98,"¦":99,"§":100,"¨":101,"©":102,"ª":103,"«":104,"¬":105,"®":106,"¯":107,"°":108,"±":109,"²":110,"³":111,"´":112,"µ":113,"¶":114,"·":115,"¸":116,"¹":117,"º":118,"»":119,"¼":120,"½":121,"¾":122,"¿":123,"À":124,"Á":125,"Â":126,"Ã":127,"Ä":128,"Å":129,"Æ":130,"Ç":131,"È":132,"É":133,"Ê":134,"Ë":135,"Ì":136,"Í":137,"Î":138,"Ï":139,"Ð":140,"Ñ":141,"Ò":142,"Ó":143,"Ô":144,"Õ":145,"Ö":146,"×":147,"Ø":148,"Ù":149,"Ú":150,"Û":151,"Ü":152,"Ý":153,"Þ":154,"ß":155,"à":156,"á":157,"â":158,"ã":159,"ä":160,"å":161,"æ":162,"ç":163,"è":164,"é":165,"ê":166,"ë":167,"ì":168,"í":169,"î":170,"ï":171,"ð":172,"ñ":173,"ò":174,"ó":175,"ô":176,"õ":177,"ö":178,"÷":179,"ø":180,"ù":181,"ú":182,"û":183,"ü":184,"ý":185,"þ":186,"ÿ":187,"Ā":188,"ā":189,"Ă":190,"ă":191,"Ą":192,"ą":193,"Ć":194,"ć":195,"Ĉ":196,"ĉ":197,"Ċ":198,"ċ":199,"Č":200,"č":201,"Ď":202,"ď":203,"Đ":204,"đ":205,"Ē":206,"ē":207,"Ĕ":208,"ĕ":209,"Ė":210,"ė":211,"Ę":212,"ę":213,"Ě":214,"ě":215,"Ĝ":216,"ĝ":217,"Ğ":218,"ğ":219,"Ġ":220,"ġ":221,"Ģ":222,"ģ":223,"Ĥ":224,"ĥ":225,"Ħ":226,"ħ":227,"Ĩ":228,"ĩ":229,"Ī":230,"ī":231,"Ĭ":232,"ĭ":233,"Į":234,"į":235,"İ":236,"ı":237,"Ĳ":238,"ĳ":239,"Ĵ":240,"ĵ":241,"Ķ":242,"ķ":243,"ĸ":244,"Ĺ":245,"ĺ":246,"Ļ":247,"ļ":248,"Ľ":249,"ľ":250,"Ŀ":251,"ŀ":252,"Ł":253,"ł":254,"Ń":255,"ÃĨ":256,"ÂĬ":257,"Â¢":258,"Ã¿":259,"ÃĨÃĨ":260,"ÂĢ":261,"Âł":262,"Ã¾":263,"Â¥":264,"Ãĩ":265,"Âļ":266,"Ã§":267,"ÃĶ":268,"Â¨":269,"Ã¹":270,"ÂĮ":271,"ÃĴ":272,"Â¤":273,"Ã£":274,"ÃĨÃĨÃĨÃĨ":275,"Â©":276,"Â§":277,"Â£":278,"Ã½":279,"Ãµ":280,"Âı":281,"Ã´":282,"Âĳ":283,"Ãº":284,"Â´":285,"Ã¼":286,"ÂŁ":287,"Ã³":288,"Â¢ÂĬ":289,"Ã·":290,"ÃĪ":291,"Âľ":292,"Â¸":293,"Ã©":294,"Ã»":295,"Âİ":296,"Âĵ":297,"ÂĶ":298,"Ã²":299,"Ãı":300,"Â¦":301,"ÂĴ":302,"Ã¤":303,"Ãĵ":304,"Âŀ":305,"ÃĲ":306,"Âķ":307,"Âµ":308,"ÂĲ":309,"Ãİ":310,"Âª":311,"Ãļ":312,"Âģ":313,"ÂŃ":314,"Ãī":315,"ÃĦ":316,"Ã¦":317,"ÃĬ":318,"Ãĳ":319,"Âĥ":320,"Ã¥":321,"Ãħ":322,"Ãĸ":323,"ÃĢ":324,"Ãľ":325,"Ãª":326,"Ã«":327,"Âĸ":328,"Â¹":329,"Ãį":330,"Â·":331,"Â±":332,"Ã¨":333,"Â¿":334,"ÃŃ":335,"ÃĽ":336,"Ãł":337,"ÂĤ":338,"Ã¯":339,"Ã¶":340,"Ãĺ":341,"Âĺ":342,"ĀĀ":343,"Ã®":344,"Âħ":345,"Ãģ":346,"Âį":347,"Ãķ":348,"ÂĨ":349,"QE":350,"Â«":351,"ÃŁ":352,"Â¡":353,"Ã¢":354,"Ã±":355,"ÂĻ":356,"Ãŀ":357,"Â®":358,"ÃĿ":359,"ÃĻ":360,"Â¶":361,"Ãĥ":362,"ÂĪ":363,"ÂĹ":364,"Âĩ":365,"Â³":366,"ÂĿ":367,"āā":368,"ÂĦ":369,"Â²":370,"Â»":371,"ÃĹ":372,"Â½":373,"Â¬":374,"Ã¡":375,"ÃĮ":376,"ÃĤ":377,"Ãĭ":378,"Ã¸":379,"Âī":380,"Âº":381,"Ã¬":382,"Ã°":383,"Â¢ÂĬĀ":384,"Â¾":385,"ÂĽ":386,"Â°":387,"Â¯":388,"(Â¢ÂĬĀ":389,"Â¼":390,"ÃĨÃĨÃĨÃĨÃĨÃĨÃĨÃĨ":391,"Âĭ":392,"Â¢ÂĢ":393,"(Â¢ÂĬĀ(Â¢ÂĬĀ":394,"ĔĀ":395,"ÂĬ(":396,"Â¢ÂĬ(":397,"@ą":398,"ĀĔ":399,"(Â¢ÂĢ":400,"Â¢ÂĬ(Ā":401,"@ąĔ":402,"ĂÂĬ(":403,"āĂ":404,"Â¢ÂĬ(ĀÂ¢ÂĬ(Ā":405,"āĀ":406,"ĀĀĀĀ":407,"āāāā":408,"ÃĨÃĨÃĨÃĨÃĨÃĨÃĨÃĨÃĨÃĨÃĨÃĨÃĨÃĨÃĨÃĨ":409,"(Â¢ÂĬĀ(Â¢ÂĬĀ(Â¢ÂĬĀ(Â¢ÂĬĀ":410,"āĂă":411,"Ã¿ÃĦ":412,"ÂĬĀ":413,"ĀĂ":414,"Ąą":415,"ĄĄ":416,"Āğ":417,"Ĕā":418,"(ā":419,"Â¤Â¥":420,"FG":421,"ÃĶÃķ":422,"ÂĬÂĴ":423,"Ćć":424,"89":425,"Â¢Â£":426,"Â§Â¨":427,"Ęę":428,"ST":429,"Ã¹Ãº":430,"IJ":431,"āă":432,"ÃĪÃī":433,"Ã´Ãµ":434,"Ã§Ã¨":435,"UV":436,"ij":437,"67":438,"ÃĴÃĵ":439,"de":440,"Zc":441,"Â¢ÂĬ(ĀÂ¢ÂĬ(ĀÂ¢ÂĬ(ĀÂ¢ÂĬ(Ā":442,"br":443,")*":444,"gh":445,"ā\"":446,"Â¶Â·":447,"(Ă":448,"ÂĶÂķ":449,"Ã²Ã³":450,"Ã£Ã¤":451,"ÂĻÂļ":452,"ÃĻÃļ":453,"ÃĨÃĩ":454,"ÃĤÃĥ":455,"Ã©Ãª":456,"ÂĳÂ¡":457,"Â²Â³":458,"st":459,"vw":460,"ÃĦÃħ":461,"ÂĸÂĹ":462,"CD":463,"ÂĪÂī":464,"XY":465,"&'":466,"Ã¥Ã¦":467,"yz":468,"ĀĀā":469,"ÂĨÂĩ":470,"ÂĥÂĦ":471,"Â¤Â¥Â¦":472,"ĉĊ":473,"āĀă":474,"Â§Â¨Â©":475,"ÂĬÂĴÂĵ":476,"ėĘę":477,"Ã´ÃµÃ¶":478,"def":479,"EFG":480,"UVW":481,"Â¶Â·Â¸":482,"ÃĺÃĻÃļ":483,"ÃĶÃķÃĸ":484,"Ã¸Ã¹Ãº":485,"Ã¢Ã£Ã¤":486,"567":487,"ÃĪÃīÃĬ":488,"ąĄĄ":489,"ÂĺÂĻÂļ":490,"&'(":491,"ĆćĈ":492,"uvw":493,"ÂºÃĤÃĥ":494,"HIJ":495,"xyz":496,"ÃĦÃħÃĨÃĩ":497,"ÂĶÂķÂĸÂĹ":498,"Ã¿ÃĽ":499,"ÃĨÃĨÃĨÃĨÃĨÃĨÃĨÃĨÃĨÃĨÃĨÃĨÃĨÃĨÃĨÃĨÃĨÃĨÃĨÃĨÃĨÃĨÃĨÃĨÃĨÃĨÃĨÃĨÃĨÃĨÃĨÃĨ":500,"āĂăĄą":501,"Â¢Â£Â¤Â¥Â¦":502,"STUVW":503,"Ã§Ã¨Ã©Ãª":504,"ijst":505,"ÃĴÃĵÃĶÃķÃĸ":506,"Zcdef":507,"ghijst":508,"Ã²Ã³Ã´ÃµÃ¶":509,"CDEFG":510,"ÂĪÂīÂĬÂĴÂĵ":511,"XYZcdef":512,"Ã¥Ã¦Ã§Ã¨Ã©Ãª":513,"ÂĨÂĩÂĪÂīÂĬÂĴÂĵ":514,"ėĘęĚ":515,"Ã¢Ã£Ã¤Ã¥Ã¦Ã§Ã¨Ã©Ãª":516,"56789":517,"ÃĪÃīÃĬÃĴÃĵÃĶÃķÃĸ":518,"ÂĺÂĻÂļÂ¢Â£Â¤Â¥Â¦":519,"&'()*":520,"uvwxyz":521,"ÂºÃĤÃĥÃĦÃħÃĨÃĩ":522,"HIJSTUVW":523,"ÂĶÂķÂĸÂĹÂĺÂĻÂļÂ¢Â£Â¤Â¥Â¦":524,"āĂăĄąĆćĈ":525,"ghijstuvwxyz":526,"CDEFGHIJSTUVW":527,"XYZcdefghijstuvwxyz":528,"ÂĨÂĩÂĪÂīÂĬÂĴÂĵÂĶÂķÂĸÂĹÂĺÂĻÂļÂ¢Â£Â¤Â¥Â¦":529,"ÂºÃĤÃĥÃĦÃħÃĨÃĩÃĪÃīÃĬÃĴÃĵÃĶÃķÃĸ":530,"CDEFGHIJSTUVWXYZcdefghijstuvwxyz":531,"ÂĨÂĩÂĪÂīÂĬÂĴÂĵÂĶÂķÂĸÂĹÂĺÂĻÂļÂ¢Â£Â¤Â¥Â¦Â§Â¨Â©":532,"ĀÂŀ":533,"Ā?":534,"RÃĳ":535,"ÂļĀ":536,"(Â¢ÂĬĀ(Â¢ÂĬĀ(Â¢ÂĬĀ(Â¢ÂĬĀ(Â¢ÂĬĀ(Â¢ÂĬĀ(Â¢ÂĬĀ(Â¢ÂĬĀ":537,"ÃĺÃ¿":538,"ĜĚ":539,"ĘĔ":540,"ĘĜ":541,"Ĉ#":542,"Āđ":543,"Ąđ":544,"ăĂ":545,"FI":546,"ĀĐ":547,"Ąă":548,"ć\"":549,"|Âļ":550,"ăĄ":551,"Ā}":552,"AQ":553,"ÂľÂĢ":554,"bF":555,"Ė$":556,"ÂĲÂ¸":557,"Â¢Â®":558,"np":559,"ĠĖ":560,"ăđ":561,"Ã²Ãł":562,"Ē!":563,"$$":564,"Â¥Ā":565,"ÃİÃĲ":566,"ĈĔ":567,"Ăđ":568,"aq":569,"ÂĪÂ®":570,"ġ*":571,"Qa":572,"40":573,"44":574,"ē\"":575,"tf":576,"fp":577,"ĀÂı":578,"ÃĬÃİ":579,"Ġ&":580,"đā":581,",,":582,"$\"":583,"zx":584,"ĆĒ":585,"RÃ°":586,"Ćē":587,"Â´Ā":588,"ÃĪÃ°":589,"ġ:":590,"Ā=":591,"Ã½j":592,"āĀĀ":593,"ĠĜĚ":594,"ĀĄđ":595,"JFI":596,"ĐĀĂ":597,"ĈāĀ":598,"ĀāĂ":599,"ąĒ!":600,"Āāā":601,"ăāĀ":602,"ÂĢÂĲÂ¸":603,"ÃĬÃİÃĨ":604,"ÃĨÃĨÃ¿":605,"ÂģĈĔ":606,"Ã¢Ã²Ãł":607,"ĀĂđ":608,"đĀĂ":609,"bFJ":610,"ÂĪÂ®ÂĬ":611,"ăĄć":612,"brÃĳ":613,"Ąą!":614,"RÃĳÃ°":615,"ÂģÂĳÂ¡":616,"Ąăą":617,"Ptf":618,"ÃİÃĲÃİ":619,"rfp":620,"ÂĳÂ¡Â±":621,"Ĝ$\"":622,"ĀĀĀĀĀĀ":623,"ÂĤÂĥÂĦ":624,"ĀĀāĀ":625,"āăăĂ":626,"ĀĀā}":627,"ĠĖĘĜ":628,"đĄą!":629,"Ã¸Ã¹ÃºÃ¿":630,"āĂĄĄ":631,"ÃĺÃĻÃļÃ¡":632,"ăđĀ?":633,"%&'()*":634,"456789":635,"ĀāĂă":636,"āĀĀĀĀĀĀ":637,"ąāāāā":638,"ĖėĘęĚ":639,"Ã¿ÃĺÃ¿":640,"ÃĦÃİÃĲÃİ":641,"Ã±Ã²Ã³Ã´ÃµÃ¶":642,"āāĀĀĀĀ":643,"ĀĀĀĀāĂăĄąĆćĈ":644,"āāāāāāāā":645,"ÃĨÃĨÃĨÃĨÃĨÃĨÃĨÃĨÃĨÃĨÃĨÃĨÃĨÃĨÃĨÃĨÃĨÃĨÃ¿":646,"āĂăĀĄđ":647,"ĀğĀĀā":648,"ĀğāĀă":649,"āăđā":650,"ā\"$$":651,"ā\"ĀĂđ":652,"āĀăā\"ĀĂđ":653,"ÃĺÃĻÃļÃ¢Ã£Ã¤Ã¥Ã¦Ã§Ã¨Ã©Ãª":654,"Ã¸Ã¹ÃºÃ¿ÃĦ":655,"ąĄĄĀāĂ":656,"ąĄĄĀĀā}":657,"ÃĨÃĨÃĨÃĨÃĨÃĨÃĨÃĨÃĨÃĨÃĨÃĨÃĨÃĨÃĨÃĨÃĨÃĨÃĨÃĨÃĨÃĨÃĨÃĨÃĨÃĨÃĨÃĨÃĨÃĨÃĨÃĨÃĨÃĨÃĨÃĨÃĨÃĨÃĨÃĨÃĨÃĨÃĨÃĨÃĨÃĨÃĨÃĨÃĨÃĨÃ¿":658,"ėĘęĚ&'()*":659,"Ã¢Ã£Ã¤Ã¥Ã¦Ã§Ã¨Ã©ÃªÃ±Ã²Ã³Ã´ÃµÃ¶":660,"ĀđĈāĀ":661,"ÂľÂĢÂĪÂ®ÂĬ":662,"ĂđăđĀ?":663,"zxrfp":664,"ĠĜĚĜ$\"":665,"JFIF":666,"ĐĀĂāăăĂ":667,"ĀāāĀĀāĀ":668,"ăāĀĂđăđĀ?":669,"ÂĢÂĲÂ¸ÂľÂĢÂĪÂ®ÂĬ":670,"ÃĬÃİÃĨÃ¿ÃĽ":671,"Ã¢Ã²ÃłÃĪÃ°":672,"đĀĂāĂĄĄ":673,"ăĄćąĄĄĀāĂ":674,"ÂģÂĳÂ¡Ĉ#":675,"ĄăąąĄĄĀĀā}":676,"Ptfzxrfp":677,"ĠĖĘĜĘĔ":678,"Ã¸Ã¹ÃºÃ¿Ãļ":679,"ÃĺÃĻÃļÃ¡Ã¢Ã£Ã¤Ã¥Ã¦Ã§Ã¨Ã©ÃªÃ±Ã²Ã³Ã´ÃµÃ¶":680,"ĀāĂăđĄą!":681,"āĀĀĀĀĀĀāĂăĄąĆćĈ":682,"ąāāāāāāĀĀĀĀ":683,"ĖėĘęĚ%&'()*":684,"Ã¿ÃĺÃ¿Ãł":685,"āāāāāāāāāĀĀĀĀĀĀāĂăĄąĆćĈ":686,"āĂăĀĄđąĒ!":687,"ĀğĀĀāąāāāāāāĀĀĀĀ":688,"ĀğāĀăāāāāāāāāāĀĀĀĀĀĀāĂăĄąĆćĈ":689,"āĀăā\"ĀĂđāăđā":690,"ÃĺÃĻÃļÃ¢Ã£Ã¤Ã¥Ã¦Ã§Ã¨Ã©ÃªÃ²Ã³Ã´ÃµÃ¶":691,"ÃĨÃĨÃĨÃĨÃĨÃĨÃĨÃĨÃĨÃĨÃĨÃĨÃĨÃĨÃĨÃĨÃĨÃĨÃĨÃĨÃĨÃĨÃĨÃĨÃĨÃĨÃĨÃĨÃĨÃĨÃĨÃĨÃĨÃĨÃĨÃĨÃĨÃĨÃĨÃĨÃĨÃĨÃĨÃĨÃĨÃĨÃĨÃĨÃĨÃĨÃ¿ÃĢ":692,"ĀđĈāĀāĀăā\"ĀĂđāăđā":693,"ĐĀĂāăăĂĄăąąĄĄĀĀā}":694,"ĀāāĀĀāĀāĀĀ":695,"đĀĂāĂĄĄăĄćąĄĄĀāĂ":696,"Ptfzxrfpn":697,"ĀğĀĀāąāāāāāāĀĀĀĀĀĀĀĀāĂăĄąĆćĈ":698,"ĐĀĂāăăĂĄăąąĄĄĀĀā}āĂăĀĄđąĒ!":699,"Ã¿ÃĻ":700,"ăāĀĂđăđĀ?Ā":701,"Ã¾T":702,"ÂŃĀ":703,"Ã¾t":704,"KE":705,"(Â¢":706,"Ā<":707,"Ā:":708,"-Ĕ":709,"(Ā":710,"Ã¼Ã¨":711,"ĚĀ":712,"ÂĶĀ":713,"Ā|":714,"ÃºÃĶ":715,"@đ":716,"@Ď":717,"Ã¾Âµ":718,"@Ē":719,">ÂĶ":720,"ÃĳE":721,">Â´":722,"ĀÂŁ":723,"ÃºP":724,"@ĕ":725,"ĞÂĶ":726,"Ā*":727,"ÃºÃĲ":728,"ÃºS":729,"ĀĞ":730,"Ã½i":731,"?*":732,"ÃºÃĵ":733,"IE":734,"=)":735,"?Âķ":736,"@Ė":737,"ÃºT":738,"ĀĚ":739,"Ã¼Ã©":740,"?ÂĿ":741,"ĀÃĹ":742,"Ã¼Âª":743,"~Â´":744,"Ā>":745,"?:":746,"~ÂĶ":747,"ĞÂ´":748,"Ã½h":749,"Ã¾Ãº":750,"(ă":751,"Ã¾Ã¹":752,"ÃºÃķ":753,"ÂĢĖ":754,"JZ":755,"Â¢ÂĬ(ĀÂ¢ÂĬ(ĀÂ¢ÂĬ(ĀÂ¢ÂĬ(ĀÂ¢ÂĬ(ĀÂ¢ÂĬ(ĀÂ¢ÂĬ(ĀÂ¢ÂĬ(Ā":756,"})":757,"@ď":758,"%Ĕ":759,"ğÂķ":760,"Ã¾U":761,"ÃºR":762,"Ã¼Ãª":763,"@Đ":764,"ąĔ":765,"ÃºÃĴ":766,"ÃĶP":767,"Ã½Ãĳ":768,"@Ĕ":769,"Ã¾u":770,"ĀÂ®":771,"@ē":772,"ąĀ":773,"ÂĸÂĢ":774,"ğÂĿ":775,"ÂĸÂĬĀ":776,"Āĕ":777,"Â¥Â¤":778,"ĀÂŃ":779,"ĂÂĬ":780,"ÂĢĝ":781,"ÃºU":782,"Ã¹Q":783,"@ę":784,"Â¨Ă":785,"Ã¾y":786,"@Ĉ":787,"Ã¹P":788,"Â¥Â¢ÂĢ":789,"=*":790,"Ã¼h":791,"RÃĴ":792,"Â´ā":793,"Ã¾z":794,"ĀÂ¯":795,"}*":796,"Â¨ā":797,"Ā^":798,"Ã½Ã¡":799,"Ã¹Ãĳ":800,"zP":801,"ğÃ·":802,"Ã¹ÃĲ":803,"(Â¢ÂĬĀ(Â¢ÂĬĀ(Â¢ÂĬĀ(Â¢ÂĬĀ(Â¢ÂĬĀ(Â¢ÂĬĀ(Â¢ÂĬĀ(Â¢ÂĬĀ(Â¢ÂĬĀ(Â¢ÂĬĀ(Â¢ÂĬĀ(Â¢ÂĬĀ(Â¢ÂĬĀ(Â¢ÂĬĀ(Â¢ÂĬĀ(Â¢ÂĬĀ":804,"Ã«R":805,">Âķ":806,"OÃ»":807,"Ã¼i":808,"Ã¾Ã¨":809,"RÃĲ":810,"Ã¼j":811,"ĀÂĲ":812,"?Ã·":813,"=Â©":814,"QH":815,"ĀÂį":816,"zS":817,"ÂĢ$":818,"zÃĲ":819,"Ã©N":820,"Ā\\":821,"ĔÂ´":822,"ÂŁÃ·":823,"zÃĵ":824,"ÃĢÃ´":825,"ÃµÂª":826,"ćÂ¥":827,"-ĔĀ":828,"Ã½Ãĵ":829,"Ã«N":830,"ÂŀÂĶ":831,"Ã©K":832,"Â¢ÂĬ(ā":833,"Ā&":834,"Ã¹T":835,"Ã¾Ã°":836,"Ā]":837,"ĝ)":838,"Â¢Âĵ":839,"Ã¹S":840,"Āġ":841,"Ā!":842,"ÂĢğ":843,"~Âķ":844,"?ÂŃ":845,"Ã©R":846,"Ãªi":847,"zÃĴ":848,"ÃıZ":849,"ÃĶS":850,"(Â¤":851,"ġÂķ":852,"ÃºÃĳ":853,"ÃıJ":854,"ÃŁÃ³":855,"ÂİÂĶ":856,"@ė":857,"ÃºQ":858,"ĀÂ´":859,"Ã½Ã£":860,"ÂŀÂ´":861,"Ã¨i":862,"ÂŁÂŃ":863,"GÃ¶":864,"Â¿Âķ":865,"ÃĩJ":866,"Ã©M":867,"Ã´Âª":868,"zT":869,"ġÂį":870,"Ā-Ĕ":871,"zR":872,"ÃĩZ":873,"ÂĢ,":874,"Ã¹Ãĵ":875,"Ã¾Ã©":876,"Ãªj":877,"Ã«Q":878,"GÃ¥":879,"ġÂĿ":880,"ĀÂĸ":881,"=ą":882,"zÃĶ":883,"Ã«M":884,"ÃıÂµ":885,"ÂĢ#":886,"Â¢ÂĴ":887,"QL":888,"Ā-":889,"Ã«V":890,"?Â¥":891,"ÃĪÃµ":892,"Ã»Ãĥ":893,"ĞÂķ":894,"Āā":895,"ĀÂ¿":896,"ÂŁÂ¥":897,"Ã©Q":898,"Ã½Ã³":899,"Ã©H":900,"Â¿ÂĿ":901,"Ã©L":902,"ÃĳI":903,"ġÂŃ":904,"QK":905,"Ã¾Ã±":906,"Ã«S":907,"ğÂŃ":908,"Ã¨j":909,"Ã¹ÃĶ":910,"ÂıÂ¥":911,"Āă":912,"=(":913,"/Ã·":914,"ÂĢ%":915,"ÂĢě":916,"Ã¹R":917,"ăÂ¨":918,"Ã½Ã´":919,"Ã¼Ã³":920,"ÂĶā":921,"Ãªh":922,"?Ě":923,"Ã¨h":924,"@Ě":925,"Ã«H":926,"OZ":927,"cÃ¿":928,"Ã½Ãµ":929,"Â¿Ã·":930,"Ã¾Ã¸":931,"Ã½z":932,"ĔÂĢ":933,"ÃīÃ¿":934,"ÂİÂ´":935,"Ã¹ÃĴ":936,"Ā)":937,"OJ":938,"ġÂ¥":939,"ġÃ·":940,"@ć":941,"(Â¢ÂĬ":942,"Ã½Ã²":943,"(Â¢ÂĬĀ(Â¢ÂĬĀ(Â¢ÂĬĀ":944,"Ã©F":945,"Ã¸P":946,"Ã«L":947,"Ã©V":948,"ÃĩÃ¿":949,"QM":950,"ÂıÂŃ":951,"Ã¼Ãį":952,"ĂÂĢ":953,"Ã¤Ã¿":954,"ĀÂİ":955,"Fh":956,"Ã¾Ã»":957,"Ã·Â©":958,"Ā~":959,"Fi":960,"Ã«O":961,"AE":962,"Ã¾x":963,"ġĚ":964,"@Ć":965,"Â¢ÂĲ":966,"ÂĶÂ´":967,"ÂĸÂĴ":968,"Ãıj":969,"Â¨Ā":970,"QI":971,"oÃ¹":972,"ÂĮď":973,"qÃ¿":974,"Āĝ":975,"ğÂį":976,"Ã¸ÃĲ":977,"ĀÃ·":978,"Ã¼Ãħ":979,"ĞÂĤ":980,"ÂĢ*":981,"Ã¼Ã´":982,"Ã«K":983,"Ã«U":984,"Ã»ÃĶ":985,"Â¢ÂĬ(Ă":986,"Ã©O":987,"}Â©":988,"_Ã·":989,"Âİ)":990,"ďÂ¥":991,"hÃį":992,"Ãĩj":993,"Ā`":994,"ME":995,"sÃ¿":996,"Ã§Ã¿":997,"Â£ă":998,"ÃĶR":999,"'Ã·":1000,"Ā{":1001,"ÂĢ+":1002,"-%":1003,"ĀĎ":1004,"ÃĶT":1005,"Ãız":1006,"Ã©U":1007,"Ã¥G":1008,"}(":1009,"Ã«I":1010,"ÃĶQ":1011,"ĔĀÂ´":1012,"ÂĮÂĮ":1013,"Ã¾B":1014,"Ã«P":1015,"Ã©I":1016,"Ã§Ãļ":1017,"ÃıÃ¿":1018,"Ã¹U":1019,"Ā#":1020,"ďÂŃ":1021,"ÂĢ)":1022,"ĀĜ":1023,"RQ":1024,"KI":1025,"ÂĢ&":1026,"Ã«J":1027,"ÂĸÂĲ":1028,"ćÂŃ":1029,"Ã»Ãĩ":1030,":ÂĬ":1031,":Âļ":1032,"ĔÂĨ":1033,"ĀÂ¦":1034,"Â¯Ã·":1035,"ÂĮÂı":1036,"OÃ¹":1037,"@Ę":1038,"Ã©J":1039,"(Â¥":1040,"ć#":1041,"))":1042,"Ã§Ãĸ":1043,"Ã©S":1044,"Oj":1045,"dÃ¿":1046,"ğÂ¥":1047,"Âŀ)":1048,"Ã¸T":1049,"Ã¸S":1050,"ÃºÃĸ":1051,"ÂĢ-":1052,"ÂĳÂľ":1053,"ĜÂĮ":1054,"zU":1055,"ÂĢĒ":1056,"ÂĢĖÂĬ":1057,"ĀÂ«":1058,"Ã»T":1059,"mÃ¿":1060,"ÃĩÂµ":1061,"Āď":1062,"Ā;":1063,"zQ":1064,"@Ā":1065,"ÃºV":1066,"Ã´Ã¿":1067,"ÂĢ'":1068,"Â¤Â¢ÂĢ":1069,"Â¢ÂĬ(ĀÂ¢ÂĬ(ĀÂ¢ÂĬ(Ā":1070,"ďÃ·":1071,"ÂĢĜ":1072,"-Ā":1073,"ÃĶÃĵ":1074,"ÂĢę":1075,"Ã«F":1076,"Ã¹Ãķ":1077,"Â£Ĕ":1078,"Â£#":1079,"Â¢ÂĬ)":1080,"ĝ*":1081,"ÂŀÂķ":1082,"IÃ¿":1083,"OÃ®":1084,"ĀÂ¥":1085,"OÃ¯":1086,"Ã´P":1087,"Ã§ÃĴ":1088,"ÃŃR":1089,"Ã±Ã¿":1090,"ZJ":1091,"Ã½Ãª":1092,"zÃĳ":1093,"Ĕ`":1094,"Ã¸ÃĶ":1095,"Ã¸Ãĵ":1096,"ÃµÃį":1097,"zÃķ":1098,"ÂĢ\"":1099,"Ā(":1100,"ÃĳÃ¿":1101,"@Ĝ":1102,"Ãĩz":1103,"oÃ»":1104,"ġÃĹ":1105,"Ã½Ã¶":1106,"ăÂ©":1107,"ÃĭÃ¿":1108,"ÃĲP":1109,"Ã£Ã¿":1110,"RP":1111,"ĀÂ¸":1112,"Ã½Ãļ":1113,"ÂĬ)":1114,"ÃºÃ´":1115,"ÃĩÃĸ":1116,"Ã·Â§":1117,"ÃĶÃĶ":1118,"Ã¾Âº":1119,"94":1120,"ÂĳÂİ":1121,"ÂıÃ·":1122,"ĀÂĢ":1123,"ĀÂģ":1124,"ĜÂĬ":1125,"ĞÂ¢":1126,"ĝÂ©":1127,"?Âį":1128,"Ã©P":1129,"Ā.":1130,"ĠÂĮ":1131,"ĞÂĨ":1132,"GJ":1133,"iÃ¿":1134,"{Âļ":1135,"Ã¾b":1136,"ÃłÃ¿":1137,"ÃıÃĸ":1138,"(Â¦":1139,"Ã£ÃĴ":1140,"Āć":1141,"aE":1142,"ÃĲS":1143,"Oz":1144,"KH":1145,"ÃĲÃĲ":1146,"@ĝ":1147,"QQ":1148,"ÂĮÂŁ":1149,"Ãİi":1150,"ÂĬ(Ā":1151,"}ą":1152,"eÃ¿":1153,"Ā'":1154,"ÃĶÃĴ":1155,"Ã·Â¦":1156,"84":1157,"ÂĮğ":1158,"ÂĢė":1159,"ÃĶÃĲ":1160,"Ã£Ãĸ":1161,"qÃ¾":1162,"ĀĘ":1163,"OE":1164,"ćę":1165,"Ã¥F":1166,"ÃĲÃĵ":1167,"ÃĨi":1168,"Ã³Ãį":1169,"GÃ¿":1170,"ĀÂĴ":1171,"Â¨Â¤":1172,"Â£'":1173,"aÃ¿":1174,"ÃĶÃ¿":1175,"ÂĢē":1176,"Ã¸Ã¿":1177,"ăă":1178,"Ã¾f":1179,"ÃĩÃĴ":1180,"Ã·Â¤":1181,"Ã²Ã¿":1182,"ÃĲÃ¿":1183,"##":1184,"ÂĬ@":1185,"GZ":1186,"Ā_":1187,"Ā[":1188,"Ã¯R":1189,"Ã»ÃĨ":1190,"ÂĤÂĬ(":1191,"sN":1192,"ćĝ":1193,"ÂįÂ£":1194,"ÂģÂİ":1195,"Â¿Â¥":1196,"(Â¨":1197,"ÃŃQ":1198,"ġÂ¸":1199,"ÃĨq":1200,"Â¢ÂĽ":1201,"ih":1202,"ÃĩÃ¼":1203,"Ã»ÃŁ":1204,"ĀÂ¬":1205,"Ą`":1206,"ÂĢĘ":1207,"Ãİq":1208,"Ã½k":1209,"Â¿*":1210,"Ã£Ãŀ":1211,"ĀÂ©":1212,"OÃĸ":1213,"ÃľÃ¿":1214,"Ã§G":1215,"oÃ¿":1216,"ĂÂĲ":1217,"ÃģÃ¿":1218,"bÃ¿":1219,"Ã«Ã¾":1220,"-ĀĔ":1221,"ÃµÃ¿":1222,"ÂľĎ":1223,"ĀÂĳ":1224,"Ã©G":1225,"ÂļÂĬ":1226,">Â¦":1227,"āÂģ":1228,"sH":1229,"Âİ}":1230,"ÃºÃ¿":1231,"ÂĢĚ":1232,"ă$":1233,"Ã«T":1234,"ÃĪÃ¿":1235,"~Ĕ":1236,"Ã½Ã¯":1237,"OÃĴ":1238,"Āę":1239,"ćć":1240,"ă'":1241,"ĀÂ»":1242,"Ā,":1243,"Ã»ÃĤ":1244,"Ã¹Ã¦":1245,"ÃīÃµ":1246,"ÂĮÂľ":1247,"Ã¯Ã¿":1248,"ÂĢ.":1249,"Ã§Ã¼":1250,"ÂĥÂİ":1251,"ÃģÃ´":1252,"ĀÂķ":1253,"ÃĶU":1254,"ÂĢ!":1255,"ĕ%":1256,"Ã¥Ã¿":1257,"Ã½E":1258,"Ã«G":1259,"ÂĢć":1260,"ÃĲT":1261,">ÂĨ":1262,"xÃ¿":1263,"Ã¸Q":1264,"ĀÂĮ":1265,"ęĘ":1266,"qN":1267,"Â©Â¨":1268,"ÃĥÃ¿":1269,"Ã£Ãļ":1270,"ÂĸÂĬ":1271,"Ã¾ÃŃ":1272,"ÃµÃħ":1273,"Ã´Ãį":1274,"Ã¸R":1275,"ÂĳÂĮ":1276,"ri":1277,"Ã»Ãķ":1278,"ÂĢ:":1279,"sM":1280,"ăÂĮ":1281,"Ã¾Ãµ":1282,"Ã¯N":1283,"ÂģÂľ":1284,"$ÂĮ":1285,"Â¨Â¨":1286,"Ã½M":1287,"IÃ¶":1288,"Ã§Âµ":1289,"Ã¸ÃĴ":1290,"88":1291,"ĄÂ¢":1292,"ćÂ¡":1293,"ÂĳÂĥ":1294,"ĔĈ":1295,"ĀÂ§":1296,"ÂĢď":1297,"Gz":1298,"ÃıÃĴ":1299,"Ã½ÃŁ":1300,"ÂĢĔ":1301,"ć=":1302,"Ã¤g":1303,"Ã»Ã¦":1304,"Ni":1305,"Ď)":1306,"ÂµÃ¿":1307,"Gj":1308,"ĀÂľ":1309,"sR":1310,"Ã»P":1311,"Âİ*":1312,"gÃ¿":1313,"Ď:":1314,"ÃĩÃ¥":1315,"Ã·Â¨":1316,"@ă":1317,"ÂĬ\\":1318,"ć'":1319,"Ã§F":1320,"ęÂ¦":1321,"Ãłg":1322,"QU":1323,"Ã¸U":1324,"Ã§Ãŀ":1325,"ÃĽÃ¿":1326,"WÃ»":1327,"Â¢Âģ":1328,"Â¨ă":1329,"ÂĥÂľ":1330,"Ã´Ãħ":1331,"@ā":1332,"ÃŃN":1333,"OÂµ":1334,"Ã·Âı":1335,"Ã¸Ãķ":1336,"Ã£Ã¾":1337,"(Ę":1338,"sÃ¾":1339,"Ã©Ã¾":1340,"99":1341,"Â¤ă":1342,"ÃĲÃĴ":1343,"Ã¼Ã±":1344,"qR":1345,"ĜÂİ":1346,"Â£ÂŁ":1347,"Ã¤S":1348,"Ã¼Ãµ":1349,"ąÂ¢Âĵ":1350,"{Ě":1351,"Â§Ã·":1352,"FE":1353,"Ã³Ã¿":1354,"Â¨Â¦":1355,"yÃ¿":1356,"Ã¤c":1357,"ÂļÂĴ":1358,"ć<":1359,"AÃ¿":1360,"OÃĬ":1361,"Ã¹Ã¿":1362,"ÃĨs":1363,"Â©(":1364,"ÃºÃ¦":1365,"ęę":1366,"ĄĞ":1367,"ÂĮÂĬ":1368,"ÂĢĐ":1369,"ăÂľ":1370,"ă<":1371,"AÃĪ":1372,"Ã¨Ã¿":1373,"ĀÂĿ":1374,"Ã«W":1375,"Ry":1376,"ġÂ»":1377,"ÂĳÂŀ":1378,"ÂĵÂİ":1379,"ÂµE":1380,"ęĔ":1381,"ěÂĩ":1382,"ÃŃÃ¿":1383,"ĀÂ¨":1384,"Ã¤P":1385,"pi":1386,"Ã»S":1387,"Fq":1388,"Â¿:":1389,"ÃŃM":1390,"oÃĬ":1391,"Ãİj":1392,"ęÂ¤":1393,"ÂĥÂĮ":1394,"ÂĲď":1395,"ăĜ":1396,"23":1397,"Ã«Ã¿":1398,":ÂĬĀ":1399,"Ã¼Ã²":1400,"Ã£Âµ":1401,"ĘÂ§":1402,"ÂĥÂŀ":1403,"ÂĴġ":1404,"Ã¼Ã¿":1405,"pq":1406,"ÂĵÂĮ":1407,"ÂģÂĮ":1408,"Ãİs":1409,"$`":1410,"ćĔ":1411,"ÃĩÃ»":1412,"Â¥Â¦":1413,"uÃ¿":1414,"Ã¸Ãĳ":1415,"ÃĻÃ¿":1416,"Â©Â©":1417,"ăÂİ":1418,"ăÂŀ":1419,"QP":1420,"ZC":1421,"ÂĵÂľ":1422,"OÃ¿":1423,"98":1424,"Â¿ÂŃ":1425,"Ã®i":1426,"Ã¡Ã¿":1427,"EÃ¿":1428,"Â£ć":1429,"ÃĲÃĶ":1430,"ăÂļ":1431,"oÃİ":1432,"QÃ¿":1433,"qM":1434,"qH":1435,"sÃĵ":1436,"''":1437,"ÃĪÃģ":1438,"Ã·Â¥":1439,"KÃ¿":1440,"Ã¤T":1441,"ÂľÂľ":1442,"ÂĤď":1443,"XÃ¿":1444,"ĜĎ":1445,"jJ":1446,"CÃ¿":1447,"ÃŁÃŀ":1448,"tÃ¿":1449,"Ã¡G":1450,"sL":1451,"ĀÂĵ":1452,"ĀÂ±":1453,">ÂĤ":1454,"Ã¯S":1455,"Ã¤Ãĵ":1456,"ÃŃV":1457,"Â¥Â¢ÂĢē":1458,"Ã©T":1459,"Ġc":1460,"ÂİÂķ":1461,"ÂºÃ¿":1462,"sÃĸ":1463,"OÃ³":1464,"Â¢Âĺ":1465,"QT":1466,"Ã¾Ã¯":1467,"ÂĥÂĳ":1468,"Ã¼Ã»":1469,"qÃĵ":1470,"kÃ¿":1471,"ćĘ":1472,"ii":1473,"@ě":1474,"Āē":1475,"ĂÂĴ":1476,"ĜĜ":1477,"ÃĪÃĩ":1478,"Ã®h":1479,"ÃŃL":1480,"Â¢ÂĻ":1481,"Ã¤Ã£":1482,"{ÂĬ":1483,"QÃ¶":1484,"qÃį":1485,"ÃŃH":1486,"qÃħ":1487,"ÂĢā":1488,"ÂĢĞ":1489,"Ĕ}":1490,"Â¥Â¨":1491,"ĠÂİ":1492,"ÃĶÃĳ":1493,"Ďď":1494,"#Ĝ":1495,"Â©*":1496,"ÂĵÂŀ":1497,"Ã«Z":1498,"\\ġ":1499,"Ā%Ĕ":1500,"qL":1501,"ÃŃP":1502,"qÃĴ":1503,")(":1504,"ÂģÂģ":1505,"jZ":1506,"oÃ®":1507,"Â¢Â«":1508,"Ã¾F":1509,"Ā@":1510,"Ã»ÃĴ":1511,"Ãłc":1512,"-!":1513,"ÃĵÃ¿":1514,"$Ď":1515,"oÃ¯":1516,"21":1517,"ÂĮĜ":1518,"Ã©W":1519,"ćĜ":1520,"Ã»R":1521,"ĀÂ¡":1522,"Ã©Ã¿":1523,"ĠÃ¿":1524,"#Ą":1525,"ÃħÃ¿":1526,"HÃĩ":1527,"ĠĜ":1528,"sÃĴ":1529,"Âŀ*":1530,"Â§ÂŃ":1531,"qÃµ":1532,"OÃµ":1533,"Ã©E":1534,"Ã½Ãĥ":1535,"Ā/":1536,"ÃłÃ£":1537,"ÂĬ`":1538,"qÃĸ":1539,"Ã·Â«":1540,"ÂĻÂ£":1541,"FA":1542,"IÃ¦":1543,"ÃĲR":1544,"$ÂĴ":1545,"ÃĨj":1546,"ćĄ":1547,"Ã¯M":1548,"Ã¯Q":1549,"ĠÃ¤":1550,"Ã»Ãĵ":1551,"rj":1552,"Ā%":1553,"ĖÂĬ":1554,"ÃīÃ´":1555,"ÃĩÃ¾":1556,"ÃĨy":1557,"Ã©Ãħ":1558,"ĝą":1559,"Ã»Ã¿":1560,"ÃłT":1561,"ę#":1562,"dg":1563,"Ā\"":1564,"@Ą":1565,"Ã©Ãį":1566,"Ã¯H":1567,"qÃĩ":1568,"ÂĢĎ":1569,"OÃ²":1570,"Ã¤Ã§":1571,"Ę#":1572,"ÂľÂŀ":1573,"}Â¨":1574,"Â§Â¥":1575,"qÃı":1576,"ĀÂĦ":1577,"Ā$":1578,"ÂģÂŀ":1579,"ÂĳÂĳ":1580,"rG":1581,"Ã¯L":1582,"pj":1583,"ĂÂĮ":1584,"pG":1585,"IÃĢ":1586,"zÃ¿":1587,"FO":1588,"ÂĳÂı":1589,"ĀĈ":1590,"ÃıÃ¾":1591,"ÂĥÂļ":1592,"ĠÃ§":1593,"ĀÂ¤":1594,"Ã·Â£":1595,"ÂĵÂĵ":1596,"ÃŁÃ¾":1597,"Ã«E":1598,"ă#":1599,"HÃģ":1600,"ÃŁÃ²":1601,"Ã¬i":1602,"ÃĲQ":1603,"(Â¸":1604,"Ã½Ã±":1605,"Ã¯Ã¾":1606,"ÂĲ:":1607,"$Âŀ":1608,"Â¨Â£":1609,"ÂŁÂĺ":1610,"ĔÂĶ":1611,"ăÂĬ":1612,"ÃĩÃ²":1613,"Ã©Z":1614,"Â¢Âļ":1615,"Ã¬h":1616,"Ã¯V":1617,"sÃħ":1618,"ÃŃS":1619,"Ã¶Ã¿":1620,"=Âį":1621,"rO":1622,"dP":1623,"ĜÂľ":1624,"sÃį":1625,"ĠÃ£":1626,"ÃĪÃı":1627,"ĄÂĶ":1628,"ĜÂŀ":1629,"=ć":1630,"Ġg":1631,"Â¢ÂĿ":1632,"Ġ`":1633,"ĠÃ´":1634,"ÂĮĎ":1635,"Ã©Y":1636,"Ã¶Âª":1637,"TÃ¿":1638,"ĞÂ¦":1639,"ÂĢĆ":1640,"Ã«Ãħ":1641,"ÂŁÂķ":1642,"?Â»":1643,"ÂģÂĵ":1644,"Ã§Ã¾":1645,"@ğ":1646,"=ď":1647,"sK":1648,"ę$":1649,"ÂĳÂĬ":1650,"'Âļ":1651,"Ã»Ã¨":1652,"oÃµ":1653,"ÂıÂĺ":1654,"qQ":1655,"ÂĲĎ":1656,"Â¨Â¥":1657,"ÃłS":1658,"Ã«Ãį":1659,"sJ":1660,"AÃģ":1661,"ÃİO":1662,"ÃŁJ":1663,"Â¤Ă":1664,"ÃĨG":1665,"Ã¤R":1666,"ĜÂļ":1667,"ĄÂĮ":1668,"Ã£Ã¦":1669,"ĠĞ":1670,"=Â¨":1671,"ę'":1672,"ÂľÂĮ":1673,"Ã¥N":1674,"ÂĥÂĬ":1675,"Ã¤ÃĶ":1676,"ĕĜ":1677,"Ã°Ã¿":1678,"Ã½s":1679,"EE":1680,"ĘÂ©":1681,"Ã¤ÃĲ":1682,"ÂĤĈ":1683,"ĕĔ":1684,"sÃµ":1685,"ÃłÃ§":1686,"ăĔ":1687,"ÃĩÃĮ":1688,"Âİ:":1689,"ĘÂ¦":1690,"Ã¥O":1691,"cÃľ":1692,"ÂıÂĽ":1693,"rI":1694,"Ã½Ã°":1695,"ĜĞ":1696,"_Â¥":1697,"ăĝ":1698,"ÃºÃµ":1699,"ÂĢĀ":1700,"ÃīÃı":1701,"#ĝ":1702,"ÃĴÃĴ":1703,"Â¨Â§":1704,"ry":1705,"ÃĪÃİ":1706,"ÃīÃĩ":1707,"Âļ@":1708,"GÃ§":1709,"Ã½Ã¦":1710,"Ã¼Ã«":1711,"ÃŁZ":1712,"Ã¼Ã¶":1713,"rz":1714,"gÃļ":1715,"Ã¯Âª":1716,"ÃĢÃ£":1717,"Â©#":1718,"Ã½Ãģ":1719,"wÃ¿":1720,"Ã¯U":1721,"oÂº":1722,"ĎÂĶ":1723,"QN":1724,"ÃĢÃ§":1725,"ÃŃK":1726,"FÃĳ":1727,"ÃłÃĵ":1728,"Ã·Âĩ":1729,"Ã½t":1730,"ĘÂ¤":1731,"Ã»ÃĲ":1732,"ÃŃU":1733,"ÃĪÃĪ":1734,"ĀĒ":1735,"sQ":1736,"ăÂ¥":1737,"Ã¯P":1738,"ÂĬÂĬ":1739,"ęĝ":1740,"Ã«ÃĴ":1741,"ÂĮÂİ":1742,"ĂÂ£":1743,"ćÂ¯":1744,"Ĝ`":1745,"Â¢Â¢":1746,"$Âľ":1747,"}Âį":1748,"Ã¹V":1749,"oj":1750,"Ġu":1751,"Ã§Ã¦":1752,"qV":1753,"ÃĲÃķ":1754,"ÃģÃµ":1755,"85":1756,"Ď*":1757,"ĘÂ¥":1758,"ÂįÂ§":1759,"ĀĆ":1760,"qÃ´":1761,"Ã£Ã½":1762,"ÃĲU":1763,"ÂĮÂŀ":1764,"ÃĽÃ¾":1765,"CÃ¾":1766,"ÂĥÂĥ":1767,"qK":1768,"Ã®j":1769,"sV":1770,")Â»":1771,")ÂĴ":1772,"ÃłP":1773,"ěÂı":1774,"Âİď":1775,"Ãİh":1776,"ÃįÃ¿":1777,"Ã¤ÃĴ":1778,"Âĳ@":1779,"Ã¤d":1780,"ĂÂļ":1781,"ĕ^":1782,"HÃĪ":1783,"ÃĨx":1784,"ZZ":1785,"Nh":1786,"Ã»U":1787,"Â´ÂĶ":1788,";Âı":1789,"FF":1790,"ăÂŃ":1791,"\"ÂĲ":1792,"ÂľĜ":1793,"ÂĢ(":1794,"ÂĤ)":1795,"ÂģÂļ":1796,">ÂĻ":1797,"ĒÂĬ":1798,"OS":1799,"sÃĩ":1800,"$Âİ":1801,"ÃĢÃı":1802,"(Â¢ÂĬĀ(Â¢ÂĬĀ(Â¢ÂĬĀ(Â¢ÂĬĀ(Â¢ÂĬĀ(Â¢ÂĬĀ(Â¢ÂĬĀ(Â¢ÂĬĀ(Â¢ÂĬĀ(Â¢ÂĬĀ(Â¢ÂĬĀ(Â¢ÂĬĀ(Â¢ÂĬĀ(Â¢ÂĬĀ(Â¢ÂĬĀ(Â¢ÂĬĀ(Â¢ÂĬĀ(Â¢ÂĬĀ(Â¢ÂĬĀ(Â¢ÂĬĀ(Â¢ÂĬĀ(Â¢ÂĬĀ(Â¢ÂĬĀ(Â¢ÂĬĀ(Â¢ÂĬĀ(Â¢ÂĬĀ(Â¢ÂĬĀ(Â¢ÂĬĀ(Â¢ÂĬĀ(Â¢ÂĬĀ(Â¢ÂĬĀ(Â¢ÂĬĀ":1803,"ăę":1804,"Ġđ":1805,"GÂµ":1806,"ÃŁt":1807,"#ć":1808,"<ÂĬ":1809,"ÂĲĆ":1810,"Ã¯J":1811,"sI":1812,"oJ":1813,"ÂĮ{":1814,"Â©Â¦":1815,"ÃĳÃ¶":1816,"}Ĕ":1817,"sÃı":1818,"ÂĢ/":1819,"Ã¬j":1820,"Â©Â§":1821,"Ĝđ":1822,"Ã£Ã²":1823,"ĄÂİ":1824,"ÂľÂŁ":1825,"ÂĮ`":1826,"'ĝ":1827,"ĠÃł":1828,"Â¢Âĭ":1829,"ÂģÂĬ":1830,"oZ":1831,"ÃĨh":1832,"ĕ$":1833,"GÃ³":1834,"ÃĢÃ¿":1835,"Ã¼Ãĩ":1836,"GÃĴ":1837,"Ã²Ãĵ":1838,"Â¢Âİ":1839,"ĕ=":1840,"GÃļ":1841,"Ã³Ã¾":1842,"Â°\\":1843,"ÂĳÂļ":1844,"Âģ@":1845,"ęć":1846,"ā=":1847,"MÃ¿":1848,"HÃı":1849,"ÃĨO":1850,"dc":1851,"ÂĳÂĤ":1852,"ÃĶÃĸ":1853,"Â§Ĕ":1854,"20":1855,"ÃģÃĩ":1856,"Ã¹Ã¨":1857,"ÂĲġ":1858,"ĜÂĥ":1859,"qJ":1860,"*?":1861,"Ã»D":1862,"Ã¢Ã¿":1863,"SÃ¿":1864,"ÂľÂİ":1865,"āÂĵ":1866,"ğÂĺ":1867,"Ę`":1868,"Ć)":1869,"GÃ¼":1870,"SÃĶ":1871,"Ā(Â¢ÂĬĀ":1872,"ĕ-":1873,"ÃĪÃħ":1874,"ÂıÂĶ":1875,"ÃĭÃ¾":1876,"Nj":1877,"ÂĮĚ":1878,"sÃŃ":1879,"95":1880,">Â£":1881,"TP":1882,"Ã¯K":1883,"ÃĢÃĩ":1884,"Âľ`":1885,"ÃıÃ¡":1886,"FÃ¡":1887,"ÃıÃ¼":1888,"Â¤Ą":1889,"ÃıÃĮ":1890,"ġÂŁ":1891,"#ę":1892,"IÃī":1893,"ÂĴÂĬ":1894,"ĜÂŁ":1895,")ā":1896,"Â¤Â¨":1897,"$Âĵ":1898,"ÃľT":1899,"Â©<":1900,"tP":1901,"qI":1902,"Ã½Ã¿":1903,"Ãłd":1904,"Ã£Ã¥":1905,"pA":1906,"$Âĳ":1907,"ăÂĵ":1908,"ÂľĞ":1909,"Ãİx":1910,")Ā":1911,"ÃıÃ¹":1912,"OA":1913,"OÃ¥":1914,"hÃ´":1915,"ÂĢđ":1916,"ÂıÂ´":1917,"QR":1918,"Âļ`":1919,"ÃĶV":1920,"ÂĴď":1921,"Ã¤u":1922,"Ãªk":1923,"iÃ´":1924,"(Â¢ÂĲ":1925,"ÃľÃĴ":1926,"~ÂĤ":1927,"Â¤ā":1928,"Ã¤Ã³":1929,"pÃ¿":1930,"[ġ":1931,"ÃĿÃ¿":1932,"ÃĹÂĬ":1933,"ÂĤ:":1934,"ĘĞ":1935,"Ãİy":1936,"ÂĮĞ":1937,"Ã½Ãķ":1938,"ÃŀÃĶ":1939,"ęÂ§":1940,";ÂĬ":1941,"Ã¤Ãµ":1942,"ÃĥÃ¾":1943,"?Â¸":1944,"sO":1945,"Â·Ã·":1946,"SQ":1947,"Ã§Ã²":1948,"ÃĳL":1949,"ăÂŁ":1950,"Ã«Y":1951,")ÂĪ":1952,"Ĉ=":1953,"GÃ²":1954,"ÃīÃ¾":1955,"Fj":1956,"*ď":1957,"_ÂŃ":1958,"ćÂ¨":1959,"@=":1960,"*ÂĮ":1961,"?Âĺ":1962,"Hc":1963,"ÃŃI":1964,"ÂģÂı":1965,"dR":1966,"ÃŁB":1967,"ÃĹÂļ":1968,"Â©Ę":1969,"#<":1970,"ÂĮġ":1971,"Ã®Ã¿":1972,"NO":1973,"ÂªÃ¿":1974,"Â±ġ":1975,"ÂŃę":1976,"Âı-":1977,"Ã¬Ã¿":1978,"ć?":1979,"ÃıÃ§":1980,"HÃİ":1981,"01":1982,"ÃĩÃ³":1983,"Â¨Â®":1984,"Â·ğ":1985,"ĂÂľ":1986,"ÃŁÃĿ":1987,"RÃ¢":1988,"rq":1989,"pz":1990,"Ã§Ã¥":1991,"Ã¹Ãĸ":1992,"pO":1993,"ĂÂ«":1994,"Ĝğ":1995,"Ã½Ãħ":1996,"Tm":1997,"ĄÂŀ":1998,"ÂĳÂŁ":1999,"Ã¤U":2000,"ÃľÃĵ":2001,"ÃĢÃĢ":2002,"Â¦!":2003,"ÃłÃĶ":2004,"ÃĴÂª":2005,"Ã¤Ã´":2006,"vÃ¿":2007,"Ã¼z":2008,"ÃıÃ¥":2009,"ÂĴ}":2010,"#'":2011,"*)":2012,"=:":2013,"IQ":2014,"HÃ¿":2015,"Ã§Ã³":2016,"55":2017,"Â©Â¤":2018,"Â©ÂŃ":2019,"NÃ´":2020,"#Ę":2021,"#ğ":2022,"ć$":2023,"Ã«Ãĸ":2024,"ćÂ§":2025,"ÃĪÃį":2026,"ę<":2027,"ÃľS":2028,"ă&":2029,"ĞÂ£":2030,"ÃŃJ":2031,"Â©$":2032,"ÃģÃı":2033,"HÃĢ":2034,"ÂĳÂĲ":2035,"AÃĩ":2036,"LÃĴ":2037,"Ġd":2038,"ÃİG":2039,"ÂįĀ":2040,"(Â¢ÂĬĀ(Â¢ÂĬĀ(Â¢ÂĬĀ(Â¢ÂĬĀ(Â¢ÂĬĀ":2041,"Ã¤t":2042,"IÃ¥":2043,"Ãłu":2044,"ĀÂ·":2045,"hÃľ":2046,"qÃļ":2047,"qU":2048,"ÃĽÃ³":2049,"ęĄ":2050,"ăÂģ":2051,"ăĘ":2052,"Ã¯O":2053,"(Â§":2054,"29":2055,"mÃĩ":2056,"Ã»Q":2057,"ÂĲĈ":2058,"qF":2059,"Ăď":2060,"Â«Ĕ":2061,"rs":2062,"~ĕ":2063,"dz":2064,"ę?":2065,"ÂĢĕ":2066,"'$":2067,"ÃĶQE":2068,"ps":2069,"ġÂ´":2070,"āĘ":2071,")<":2072,"ÂĴÂĬĀ":2073,"ÂĴ@":2074,"lc":2075,"qO":2076,"ÂĿÂ£":2077,"ÂĴć":2078,"ĂÂĵ":2079,"Âİ=":2080,"SM":2081,")ÂĢ":2082,"Ã¾Ãª":2083,"ĀÂĥ":2084,"HÃ£":2085,"RT":2086,"ĄÂ´":2087,"Ã·Ĕ":2088,"ăÂı":2089,"Ã½Ã¥":2090,"Ã¼Ã¼":2091,"ÃĢÃī":2092,"ĎĈ":2093,"ÃŃO":2094,"\"ÂĮ":2095,"ÂĴĆ":2096,"ÃŁÃ±":2097,"09":2098,"ÂĬÂ¯":2099,"Âľď":2100,"#ÂĮ":2101,"AÃı":2102,"ćÂļ":2103,"ÂĬ}":2104,"ěÂĨ":2105,"AÃ¶":2106,"(ę":2107,"Ã½Âª":2108,"ĂÂ¤":2109,"GÃĻ":2110,"LÃĳ":2111,"Ã³Ãħ":2112,"4Â¹":2113,"FÃľ":2114,"03":2115,"ĜÂı":2116,"Ã©Ãĸ":2117,"Ãİz":2118,"Ã©ÃĴ":2119,"qÃĺ":2120,"Â¢ÂŁ":2121,"ÃĵÃ¼":2122,"ÃīÃī":2123,"Ĝā":2124,"ăğ":2125,"08":2126,"rh":2127,"ĀÂ£":2128,"ÂĵÂģ":2129,"NI":2130,"#=":2131,"Ġğ":2132,"ā'":2133,"Â¢ÂĮ":2134,"?/":2135,"ÃłÃĲ":2136,"NG":2137,"ÃłR":2138,"vÃ£":2139,"fÃ¿":2140,"\\,":2141,"ęÂ¥":2142,"Ã½Ãĸ":2143,"ćğ":2144,"Â¨Â©":2145,"ÂıÂĹ":2146,"ĘĘ":2147,"ÃĨz":2148,"ÂľÂļ":2149,"Â¡Â§":2150,"GÃ¾":2151,"ÃĪÃ£":2152,"ÂĲ}":2153,"ĔÂĦ":2154,"Â¢Â¡":2155,">Âĺ":2156,"ÃıÃ³":2157,"Â£Âļ":2158,"ÃĨI":2159,"ăÂ·":2160,"ĀÂĬ":2161,"Ã³ÃĴ":2162,"ÂŁÂĿ":2163,"Â®ġ":2164,"Âİć":2165,"ÃĩÃŀ":2166,"Td":2167,"ÃĩÃĬ":2168,"hÃ»":2169,"Ĝ{":2170,"ĔÂŀ":2171,"Ã»Ãĭ":2172,"hÃ¿":2173,"cÃŀ":2174,"ĘÃ·":2175,"px":2176,"Fs":2177,"QJ":2178,"ÂĵÂŁ":2179,"ÂĳÃĹ":2180,"pÃµ":2181,"ÂĳÂģ":2182,"ġÂ«":2183,":Ě":2184,"Ã»Ã«":2185,"ÃĪÂª":2186,"<Ě":2187,"py":2188,"OÃĮ":2189,"Ã¾Ã³":2190,"qÃī":2191,"ÂĬĆ":2192,"OÃİ":2193,"@#":2194,"Fy":2195,"ÃĵÃĸ":2196,"ćÃ·":2197,"lÃ¿":2198,"cÃ³":2199,"Â©Â£":2200,"ÃµÃ¨":2201,"ÃŁÃ¿":2202,"Ã´S":2203,"ă=":2204,"ÂĢ;":2205,"ÂĬÂİ":2206,"Â¤`":2207,"Â¥Ĕ":2208,"Ã¦Ã¿":2209,"ÃµÃ©":2210,",ė":2211,"Ãłt":2212,"rÃ¿":2213,"ę=":2214,"ĀÂ¶":2215,"rx":2216,"ÂĵÂļ":2217,"ph":2218,"Ã¯I":2219,"rH":2220,"Ęğ":2221,"ĠĎ":2222,"ÂŁÂĶ":2223,"ÃªÃŁ":2224,"ÂĴ)":2225,"OÃ§":2226,"Âľā":2227,"Ęĝ":2228,"ÂĬÂĸ":2229,"ÂľĚ":2230,"Ã¥H":2231,"ÂĬÂ±":2232,"āĝ":2233,"QO":2234,"ÂĹĔ":2235,"sS":2236,"ęĕ":2237,"Ã³S":2238,"ÂĻ$":2239,"GÃ»":2240,"ÃłÃĴ":2241,"KÃ¶":2242,"QY":2243,"qS":2244,"Â¤Âİ":2245,"ā$":2246,"Ã¡N":2247,"ÃıÃ£":2248,"qÃĪ":2249,"Â¦Âļ":2250,"^ÂĶ":2251,"Ã¾Ãł":2252,"ęĜ":2253,"Ã¥I":2254,"Ĕġ":2255,"}ć":2256,"ÂĴ:":2257,"ÃħI":2258,"ÃłU":2259,"ÃļÃ¿":2260,"ÃĵÃ¾":2261,"ÃĢÃµ":2262,"ÃŁF":2263,"ăÂĥ":2264,"Ġā":2265,"Ã²Âª":2266,"ĘÂ¨":2267,"gÃĺ":2268,"ą-":2269,"ÂĩÂ¥":2270,"ăĞ":2271,"Ĝď":2272,"Ã¹G":2273,"ĔÂĮ":2274,"ÃģÃģ":2275,"Fx":2276,"Âľġ":2277,"ÃľÃĲ":2278,"Âİġ":2279,"Â®?":2280,"sU":2281,"Ã¨ÃŁ":2282,"\"ÂĢ":2283,"Â¢Â©":2284,"Ã³c":2285,"'=":2286,"Xd":2287,"rÃĩ":2288,"FM":2289,"ÂĮÂļ":2290,"ġÂĺ":2291,"ĆÂĿ":2292,"Â¸Â§":2293,"Âŀ:":2294,"qÃŀ":2295,"qÃ²":2296,"ĂÂĺ":2297,"^Â´":2298,"ÃĢÃį":2299,"Â¤đ":2300,"ĀÂĤ":2301,"Â¦\"":2302,"#Âļ":2303,"ÃıÃ»":2304,"Âľđ":2305,"ĠÃµ":2306,"zg":2307,":ÂĢ":2308,".?":2309,"Ã¾A":2310,"ĔÂĺ":2311,"ĀÂī":2312,"ĂĈ":2313,"ÂĨĘ":2314,"(Đ":2315,"ÃĦÃ¿":2316,"sÃļ":2317,"?ÂĻ":2318,"ĜÂĵ":2319,"Qp":2320,"Â¢Âĸ":2321,"ĂÂĿ":2322,"Â«ġ":2323,"qP":2324,"Â¤ÂĴ":2325,"XÃ£":2326,"ÃľP":2327,"Ā:ÂĬ":2328,"ĠĐ":2329,"ÂģÃĹ":2330,"'<":2331,"ÃĨN":2332,"Ã¼M":2333,"ĀÂĶ":2334,"QV":2335,"Ã«Ãĵ":2336,"RI":2337,"Ã§Ã°":2338,"ġ!":2339,"ăÂ¯":2340,"ÂŃě":2341,"ÃīÃ¦":2342,"RÃĵ":2343,"QG":2344,"AÃ¾":2345,"QF":2346,"Â¥ě":2347,"Ďć":2348,"rF":2349,"ÂŀÂ£":2350,"Ã¹Ã¤":2351,"wc":2352,"Âľğ":2353,"#$":2354,"Âİ?":2355,"ĄĐ":2356,"rN":2357,"pH":2358,"Ã§Ã½":2359,"Â©ę":2360,"YÃ¿":2361,"ďÂĺ":2362,"Â¨ÂŃ":2363,"ÂļÂĸ":2364,"ÂĮđ":2365,"Ju":2366,"ğ/":2367,"ÂĵÂĬ":2368,"'ę":2369,"ÂĥÂŁ":2370,"ĎÂ´":2371,"(ĝ":2372,"ăÂĳ":2373,"Ć:":2374,"Âĸ=":2375,"ğ)":2376,"ÂľÂĬ":2377,"Ã»Âµ":2378,"ćĕ":2379,"Â®)":2380,"AÃµ":2381,"(Â¢ÂĬĀ(Â¢ÂĬĀ(Â¢ÂĬĀ(Â¢ÂĬĀ(Â¢ÂĬĀ(Â¢ÂĬĀ":2382,"Ã»Ãª":2383,"lg":2384,"āÂİ":2385,"Lc":2386,"qÃ³":2387,"ÂĴÂĢ":2388,"Ã¾Ã¢":2389,"@$":2390,"ÂĵÂı":2391,"ÃıÃĬ":2392,"ÃĪÃ§":2393,"ÃŁT":2394,"ĞÂĩ":2395,"ÃŃF":2396,"hÃ²":2397,"ÃłÃ´":2398,"ÂįÂ¸":2399,"~\\":2400,"ÂĮ}":2401,"Ã·ĕ":2402,"Ã¯T":2403,"sÃ´":2404,"ěÂ±":2405,"zV":2406,"IÃ§":2407,"ÃĩÃ§":2408,"Ã»Ãĳ":2409,"ÃłÃµ":2410,"Â¢ÂĬĀ(Â¢ÂĬĀ":2411,"Ã¶Ãħ":2412,"ÃĹĔ":2413,"pÃĥ":2414,"vÃ§":2415,"Â©Â«":2416,"Ã¤Ãķ":2417,"Ą{":2418,"Ã£Ã®":2419,"ÂŀÂ§":2420,"#Âĳ":2421,"ÃĲÃĳ":2422,"ÃıÃŀ":2423,"Ēġ":2424,"'Ę":2425,"Â©Â¥":2426,"Â¦)":2427,"ZÃ¿":2428,"Ã¾Ã´":2429,"Â©?":2430,"'ÂŃ":2431,"ÃĩÃ£":2432,"QKE":2433,"ÃĨF":2434,"ÂĴÂ£":2435,"HÃī":2436,"qÃģ":2437,"ÃĳU":2438,"ĞÂĥ":2439,"ÂĴ=":2440,"ĄÂĳ":2441,">\\":2442,"Ã³Ãī":2443,"Â¸Â¦":2444,"ÂĿÂ§":2445,"ÂįÃ·":2446,"Ã½ÃĨ":2447,"zÃ±":2448,"ÂĬ<":2449,">ÂĢ":2450,"RÃ¿":2451,"28":2452,"Ã³Ãļ":2453,"Ã¾Ã¡":2454,"PI":2455,"Ã£Ã¼":2456,"sÃŀ":2457,"ÂĢą":2458,"PÃ¿":2459,"$đ":2460,">ÂĬĀ":2461,"ÂĲÂ£":2462,")ę":2463,"Â¨Â«":2464,"Ã¹W":2465,"ÃĪÃĢ":2466,"ĕĕ":2467,"?ÂĪ":2468,"'Âĸ":2469,"hÃ³":2470,"Â¡Â¦":2471,"ÂĥÂı":2472,"ÃĶf":2473,"Âļ\\":2474,"Â¥-":2475,"Ã¾Ã²":2476,"ăÂ¨Â¦":2477,"Âķ#":2478,"zc":2479,"LÃ¿":2480,"ÃıC":2481,"ĔÂĽ":2482,"Â¤ÂĮ":2483,"Ąğ":2484,"SÃ¨":2485,"ÃĳH":2486,"ÂĳÂ·":2487,"ÂĴĈ":2488,"Ã¶Ãį":2489,"ÂĤ=":2490,"ÃĹ?":2491,"pN":2492,"ÂŀÂĿ":2493,"ÂĺÂ£":2494,"ÃıN":2495,"ÃªM":2496,"Ã£Ã³":2497,"ĀÂĹ":2498,"QÃ½":2499,"Ã§Ã±":2500,"qÃĽ":2501,"ÃĸÂª":2502,"ĠÂı":2503,">Âĩ":2504,"Ã»Ã¢":2505,"ÃĩÃĿ":2506,"ÂļÂ±":2507,"ÂĴ;":2508,"Ã·ġ":2509,"āÂı":2510,"ÂŃ!":2511,"ÃĳQ":2512,"qÃĢ":2513,"ĎĎ":2514,"Ã¸Ãµ":2515,"ā@":2516,"Ã©A":2517,"XÃ¤":2518,"($":2519,"ÃľÃĶ":2520,"SÃ¾":2521,"Â¢ÂĬ(ă":2522,"~Â¦":2523,"GE":2524,"Ã»Ãį":2525,"RH":2526,"Â«Ė":2527,"Â¡Â©":2528,"?Â´":2529,"Â«đ":2530,"?)":2531,"'Â¥":2532,">Â§":2533,"ĕ#":2534,"Ĝē":2535,"hÃĽ":2536,"zu":2537,"ÃĵÃĴ":2538,"}ġ":2539,"Â¨$":2540,"VÃ¿":2541,"Â¸Â¤":2542,"(Â£":2543,"ÂĤ;":2544,"cÃ²":2545,"*ě":2546,"cÃļ":2547,"ĀÂĨ":2548,"Ã³Ãĸ":2549,"ÃºÃ¢":2550,"ąÂ¤":2551,"#Âİ":2552,"ÂįÂ¤":2553,"22":2554,"jÃħ":2555,"IÃ¤":2556,"ćă":2557,"ÃĩN":2558,"Ę<":2559,"ĠÂĥ":2560,"Ĝ~":2561,"ġ#":2562,"ĀÂļ":2563,"āĄ":2564,"ĠÂĲ":2565,"ÃıÃ²":2566,"WÃ²":2567,"ÂŁÂĹ":2568,"ÂĢ=":2569,"Ęă":2570,"}+":2571,"Ã·Âį":2572,"ĀĄ":2573,"ÂľÂı":2574,"Ã·ğ":2575,"zÃ£":2576,"sÃ²":2577,"*+":2578,"ÃīÃĢ":2579,"@\\":2580,"ÃľR":2581,"Ã§Ã´":2582,"ÃĨA":2583,"ĕ,":2584,"ĜÂĳ":2585,"ĞÂ§":2586,"Ãºf":2587,"ĠÂĳ":2588,"\"Âĵ":2589,"&ÂĲ":2590,"Â¦Â·":2591,"Â¢Âĳ":2592,"ĂÂĸ":2593,"SÃĲ":2594,"ĠÂŀ":2595,"ÃħH":2596,">Âĥ":2597,"OÃ±":2598,"{ġ":2599,"FÃ£":2600,"|Â§":2601,"ĕě":2602,"ÃħX":2603,"ĜÂĴ":2604,"āć":2605,"ęÂ£":2606,"sÃ³":2607,"Ĝġ":2608,"Ã´Ã¢":2609,"cÃ¼":2610,"ÃªÃ¿":2611,"ÂĻĔ":2612,"ÂĢ}":2613,"Â¸Â¥":2614,"cÂµ":2615,"ÃıL":2616,"SI":2617,"EV":2618,"Â»Âı":2619,"ĂÂ¬":2620,"Ã·?":2621,"zb":2622,"OÃŀ":2623,"#Â¥":2624,"ÂĮā":2625,"=?":2626,"ĠĒ":2627,"ÃķÃ¿":2628,"ÂĮ~":2629,"iÃĶ":2630,"QÃĶ":2631,"Â¦ā":2632,"ÂļÂļ":2633,"ÃĨH":2634,"dÃ£":2635,"Â¢ÂĬ(ĀÂ¢ÂĬ(ĀÂ¢ÂĬ(ĀÂ¢ÂĬ(ĀÂ¢ÂĬ(Ā":2636,"ĕĄ":2637,"RG":2638,"Ã¾Ãĳ":2639,"PH":2640,"dS":2641,"Ã³H":2642,"Ã³Ãĳ":2643,"Â¸Â©":2644,"ęÂ¨":2645,"Ã¤Ã±":2646,"'Âĵ":2647,"ÃłÃ±":2648,"Ã´Ã¦":2649,"ÂĬĄ":2650,"pF":2651,"Ã£Ãµ":2652,"Â¢Âı":2653,"ÂĥÃĹ":2654,"ÃłÃķ":2655,"`Ĕ":2656,"sÃī":2657,"ÂĻÂ¤":2658,"Â¯Â¥":2659,")$":2660,"rÃĦ":2661,"}?":2662,"\"ÂĿ":2663,")Ę":2664,"Ď=":2665,"ÂĬ.":2666,"Âķ$":2667,"Âľ~":2668,"ĜÂģ":2669,"ÂŁÂĽ":2670,"ÃĵÃµ":2671,"qÃĨ":2672,"?.":2673,"ĂÂģ":2674,"TÃµ":2675,"ĕĝ":2676,"`ā":2677,"Â®*":2678,"#Ĕ":2679,"ğÂĹ":2680,"ĂÂ¡":2681,"ÃĴy":2682,"dQ":2683,"Ą~":2684,"<Âļ":2685,"-ĕ":2686,"\"Âĸ":2687,"Ny":2688,"Â¬ġ":2689,"ÂĢĈ":2690,"ÃĳÃ½":2691,"ĆĔ":2692,"SH":2693,"ÃĩÃ¦":2694,"zÃĸ":2695,"FÃļ":2696,"Ã¼x":2697,"RÃĶ":2698,"Ã§Ãµ":2699,"ÃĩÃ¡":2700,"ÃģÃĪ":2701,"ćÂĬ":2702,"ÂŃ:":2703,"#Âŀ":2704,"Â¸?":2705,"OC":2706,"|Â£":2707,"Â¦ă":2708,"OP":2709,"Â¢Âľ":2710,"Ã¾Ãį":2711,"Ãºb":2712,"ÃıÃĿ":2713,"ÂĺÂŁ":2714,"ÃĵÃ´":2715,"ÂĥÂĲ":2716,"ĀĚĀ":2717,"\"Âı":2718,"#ÂĬ":2719,"ÃĴÃĲ":2720,"#Â¡":2721,"ĆÂĲ":2722,"ĠÃ²":2723,"ÂĢĖÂĬ(":2724,"%ĔĀ":2725,"ÃİI":2726,"Ãİp":2727,"Ã¨k":2728,"Â«Đ":2729,"FÃ¿":2730,"Â£ġ":2731,"==":2732,"ĠÃ³":2733,"}ď":2734,"Āě":2735,",ġ":2736,"Ę?":2737,"#Âľ":2738,"ÃĢÃħ":2739,"AN":2740,"ÂĢ?":2741,"Â¦*":2742,"ĞÂĿ":2743,"Ã¹Ã¢":2744,"Â©Ą":2745,"ÃĳN":2746,"ĔÂŁ":2747,"ÂŀÂ¦":2748,"Ãľc":2749,"Ã¤f":2750,"ÂĵÃĹ":2751,"Âļ}":2752,"Zu":2753,"ÂįÂĭ":2754,"OÃ°":2755,"Ę$":2756,"ÂŀÂĩ":2757,"ĂÂĬ)":2758,"ÃĮÃ¿":2759,"ÂĢă":2760,"Ď@":2761,"Ć*":2762,"'Â¯":2763,"ÃĨr":2764,"ĎÂĤ":2765,"ÃıÃº":2766,"Ãĩn":2767,"ÃıS":2768,"lÃ£":2769,")Â¤":2770,"Âŀď":2771,"ĠÃ»":2772,"hÂª":2773,"'Â©":2774,">_":2775,"ÃľÃ§":2776,"ğ(":2777,"Âľ{":2778,"RÃĳE":2779,"KQ":2780,"Ġt":2781,";Âļ":2782,"ÂĮÂĴ":2783,"ÃĨÃ¡":2784,"Â£$":2785,"nÃ£":2786,"~ÂĨ":2787,"Ã¾Ã£":2788,"ÃİÃĳ":2789,"ĀÂĩ":2790,"ăÃĹ":2791,"Ā+":2792,"ÂģÂĴ":2793,"=ġ":2794,"Nx":2795,"sP":2796,"zt":2797,"sF":2798,"ÃŁÃ®":2799,"ÃĩL":2800,"ÃŁÃ½":2801,"ÃµÃµ":2802,"ÂĤ@":2803,"ÂĮÂĥ":2804,"ÃĶn":2805,"ÂĲć":2806,"ZA":2807,"eÃľ":2808,"ęÂ©":2809,"ĂÂ¨":2810,"Â¤Âĳ":2811,"Đď":2812,"ÃĩÃĭ":2813,"Ã»L":2814,"ěÂĹ":2815,"TR":2816,"Ã¡I":2817,"'ÂĬ":2818,"TU":2819,"ÂŀÂĤ":2820,"Xc":2821,"ZB":2822,"Ã·Â¿":2823,"ZF":2824,"Â§ĝ":2825,"NA":2826,"HÃĬ":2827,"ĀÂ°":2828,"ÂģÂŁ":2829,"Âľē":2830,"(Â¢Âĺ":2831,"ÂľÂĥ":2832,"GÃ£":2833,"ÂĤ*":2834,"Rf":2835,"Â£>":2836,"<ÂĮ":2837,"Ã±Ã¯":2838,"đÂİ":2839,"ąĘ":2840,"Hd":2841,"Â¡ÂĶ":2842,"ÃıA":2843,"]Â£":2844,"LQ":2845,"ďÂ¡":2846,"OÃ¾":2847,"pÃĢ":2848,"ĔÂĤ":2849,"ÂĲā":2850,"'ă":2851,";Âİ":2852,"ÂĲ)":2853,"Ã¼Ãĥ":2854,"ÃŁÃ¼":2855,"ÃħW":2856,"\"Âĺ":2857,"Âļ)":2858,"ÂĬÂ«":2859,"ĄÂĴ":2860,"ÂĳÂĨ":2861,"Â§Â¡":2862,"Ã´QE":2863,"ÃĩÃ¹":2864,">^":2865,"ā%":2866,"ĠP":2867,"Ã¹O":2868,"Â¦ą":2869,"Ã»B":2870,"QÃ¦":2871,"GÃ¦":2872,"Ã½Ãŀ":2873,"ÃĶb":2874,"Âĸ?":2875,"Ã»ÃŃ":2876,"GC":2877,"FH":2878,"Ã«A":2879,"ĕę":2880,"MÃĥ":2881,"yc":2882,"Â®:":2883,"Â¢ÂĹ":2884,"ÂĳÂĵ":2885,"ÃĩÃº":2886,"Ćą":2887,"pr":2888,"ĄĂ":2889,"Rn":2890,"Ã¥V":2891,"Ã²ÃĽ":2892,"\"Âľ":2893,"ÂĲ{":2894,"Âī$":2895,"ĄĔ":2896,"wÃµ":2897,"db":2898,"=Ĉ":2899,"\"ÂĴ":2900,"ĘÂ£":2901,"Âļ<":2902,"Ġē":2903,"ÂķĜ":2904,"Ďġ":2905,"Ã²Ã£":2906,"Hb":2907,"ÂŀÂĥ":2908,"\\ÂŁ":2909,"ÃħK":2910,"ÃŁÃª":2911,"pI":2912,"Ã³Ãŀ":2913,"CÃ¶":2914,"Â¨Â¬":2915,"ÃĦc":2916,"ĂÂĻ":2917,"Ã©Ãŀ":2918,"ÃģÃ¾":2919,"Rb":2920,"ÃľU":2921,"RF":2922,"(Â¢Âģ":2923,"<ÂŁ":2924,"Ď;":2925,"hÃī":2926,"*@":2927,"CÃĴ":2928,"āÂĬ":2929,"Ã²Ãĩ":2930,"Â«Â´":2931,"Â¢ÂĶ":2932,"ĝ(":2933,"Â·?":2934,"Âĥ@":2935,"Â¢Â¤":2936,"ÂŀÂĻ":2937,"'ğ":2938,"Âļġ":2939,"Ã£Ã±":2940,"ÃĢÂª":2941,"#Ć":2942,">ÂĿ":2943,"ÃŃW":2944,"#?":2945,"$ÂŁ":2946,"Âİ;":2947,"Tg":2948,"'?":2949,"ÃŃÃį":2950,"Ã²i":2951,"ćÂ©":2952,"Â¹8":2953,"zÃ§":2954,"Â¢ÂĬ(ĀÂ¢ÂĬ(ĀÂ¢ÂĬ(ĀÂ¢ÂĬ(ĀÂ¢ÂĬ(ĀÂ¢ÂĬ(ĀÂ¢ÂĬ(ĀÂ¢ÂĬ(ĀÂ¢ÂĬ(ĀÂ¢ÂĬ(ĀÂ¢ÂĬ(ĀÂ¢ÂĬ(ĀÂ¢ÂĬ(ĀÂ¢ÂĬ(ĀÂ¢ÂĬ(ĀÂ¢ÂĬ(Ā":2955,"ÂİÂĿ":2956,"~ÂŁ":2957,"ÂĤā":2958,"Âŀ?":2959,"Ã¹Ã¶":2960,"ÃıÃµ":2961,"CE":2962,".ġ":2963,"FN":2964,"Â´ÂĨ":2965,"Ã»Ã¤":2966,"GÃĸ":2967,"PÃĬ":2968,"ęğ":2969,"-Â¿":2970,"ĔÂĴ":2971,"Â¦Ă":2972,"Â§ĕ":2973,"ÃŁÃĴ":2974,"zf":2975,"Ã¥U":2976,"Ã¥A":2977,"ÂľÂĵ":2978,"ÂĬÂŃ":2979,"dÃ§":2980,"đÂĳ":2981,"sÃĽ":2982,"EU":2983,"Ã¤b":2984,"ğÂĻ":2985,"HÃĨ":2986,"ER":2987,"Â¢Âķ":2988,"ăÂĤ":2989,"OQ":2990,"Ã¥R":2991,"gÃ¼":2992,"`Ď":2993,"ăĀ":2994,"Ã½Ã©":2995,"hÃ¾":2996,"Â¢ÂĢě":2997,"Âİą":2998,"rM":2999,"ĄĜ":3000,"ÂĬÂĨ":3001,"Ãłf":3002,"ĂÂĶ":3003,"đÂĲ":3004,"*Â¬":3005,"ÃĪÃĽ":3006,"zÃ¢":3007,"ÂģÂĳ":3008,"DÃ¿":3009,"ÃŃE":3010,"Ã¾Ã¿":3011,"ÃµÃ¢":3012,"ÂĮē":3013,"Â¤ÂĬ":3014,"Âĭą":3015,"}Â¢":3016,"Ã¬Ãĳ":3017,"qÃİ":3018,"ÂŀÂ¿":3019,"bI":3020,"Â¸ğ":3021,"Â¥[":3022,"ĔĒ":3023,"Â¯ÂŃ":3024,"OÃ¡":3025,"$ÂĲ":3026,"iÃĺ":3027,"dt":3028,"ÂİĈ":3029,"Āė":3030,"Âķę":3031,"=}":3032,"ā<":3033,"#Â¨":3034,"ÃĵÃļ":3035,"Tc":3036,"ÂĮÂĵ":3037,"ÃīÃ¹":3038,"Â£ğ":3039,"*[":3040,"jÃ¿":3041,"Â£Ğ":3042,"ÂĬÂŀ":3043,"wg":3044,"Â¢ÂĬ(ĀÂ¢ÂĬ(ĀÂ¢ÂĬ(ĀÂ¢ÂĬ(ĀÂ¢ÂĬ(ĀÂ¢ÂĬ(Ā":3045,"Ã¼Ã°":3046,"ÂĩÂŃ":3047,"SL":3048,"'Ĕ":3049,"Ď}":3050,"|Â¿":3051,"NH":3052,"mÃĢ":3053,"sÃĪ":3054,"ăÂĲ":3055,"ĐĈ":3056,"ÃĨÃĳ":3057,"mÃľ":3058,"rA":3059,"OÃĿ":3060,">`":3061,"Âī?":3062,"CÃ¼":3063,"Âİ@":3064,"ÃįI":3065,"KÃ¦":3066,"ÂµI":3067,"Vh":3068,"ÃİA":3069,"#ĕ":3070,"jj":3071,"RR":3072,"ÃĽÃ²":3073,";Âģ":3074,"Ã¹Ãª":3075,"ĄĒ":3076,"ÃµÃª":3077,"TÃ´":3078,"ÂĬ*":3079,"ÃĺÃĵ":3080,"ĂÂĳ":3081,"ÃħF":3082,"ÃĩÃµ":3083,"ÂĴ{":3084,"Ã³N":3085,"-Â´":3086,"$ā":3087,"EW":3088,"jÃį":3089,"HÃ¤":3090,"Â¤ą":3091,"ÃŀÃ¿":3092,"dÃº":3093,"ÃĩÃį":3094,"Â¹4":3095,"Ã§Ã®":3096,"Â¨ġ":3097,"ÂĴ?":3098,"'Âľ":3099,"du":3100,"cÃ¾":3101,"$ğ":3102,"ÃĴÃ¿":3103,"GÃĮ":3104,"ĔÂ´Ā":3105,";ÂĪ":3106,"ÃĨÃ¬":3107,"ĂÂĽ":3108,"ĜÂ±":3109,"Â½1":3110,"'Âĺ":3111,"UÃļ":3112,"Ã©Ãļ":3113,"Ĝ}":3114,"+ÂĮ":3115,"LÃĲ":3116,"ÂŀÂŁ":3117,"Ã¯F":3118,"Â¦Âĺ":3119,"qÃľ":3120,"ęĞ":3121,"Jd":3122,"ÂĹğ":3123,"&Âĺ":3124,"nÃ¿":3125,"'Â§":3126,"Ãłz":3127,"HÃĽ":3128,"ÂįÂĥ":3129,"Â¦Ą":3130,"Ã·ď":3131,"ăÂ§":3132,"+Âİ":3133,"ěÂī":3134,"**":3135,"ÃĶÃµ":3136,"\"Âķ":3137,"Fr":3138,"Ã«Ã½":3139,"lÃ§":3140,"pÃĩ":3141,"NN":3142,";Âĩ":3143,"Ã¥M":3144,"ěÂĪ":3145,"/Âĸ":3146,"Âı,":3147,"sG":3148,"&Âļ":3149,"Â¦Âĵ":3150,"KÃ¾":3151,"Â¦Â¨":3152,"Â¹9":3153,"Ã¸Ã¶":3154,"ÃĺS":3155,"tQ":3156,"ÃīÃ§":3157,">ÂŁ":3158,"āę":3159,"ěÂİ":3160,"Ãľg":3161,"ąÂ¢ÂĴ":3162,"Â¸Â¨":3163,"Ę=":3164,"ĀÂĺ":3165,"+Âľ":3166,"!Âİ":3167,"#Â¯":3168,"Â«Ē":3169,"$Âį":3170,"(Â¢ÂĬĀ(Â¢ÂĬĀ(Â¢ÂĬĀ(Â¢ÂĬĀ(Â¢ÂĬĀ(Â¢ÂĬĀ(Â¢ÂĬĀ":3171,"Tr":3172,"ďÂĶ":3173,"ÃĶm":3174,"ÃĵÂµ":3175,"xÃ£":3176,"Ã¡H":3177,"Ď?":3178,"jz":3179,"ĠÂľ":3180,"QÃį":3181,"ÃľÃĳ":3182,"ÂŀÂĺ":3183,")Âģ":3184,"RÃ¹":3185,"Ã¾Ã½":3186,")Ĉ":3187,"āÂļ":3188,"ÂĬ>":3189,"ÃĪP":3190,"ÃĹğ":3191,"qÃĲ":3192,"Â¦ÂĲ":3193,"Ć=":3194,"NÃ¢":3195,"Ã¨Âª":3196,"'Ĝ":3197,"ÂĸÂĳ":3198,"FÃ»":3199,"ćÂ¿":3200,"ÃħG":3201,"Wh":3202,"RA":3203,"ÂİÂ£":3204,"PÃĥ":3205,"Âļ?":3206,"#ÂŃ":3207,"Â¸`":3208,"*}":3209,"#Âı":3210,"Â¦ÂĽ":3211,">Â¿":3212,"ÃĵÃ¨":3213,"ÃľÃ£":3214,"Ã¡E":3215,"Ã¾ÃĶ":3216,"ÃľF":3217,"ĔÂĳ":3218,"$ġ":3219,"qÃ¼":3220,"ÃĨE":3221,"ÃıÃ´":3222,"dV":3223,"ĀÂ¢ÂĬ(Ā":3224,"ÂŀÂĨ":3225,"Lg":3226,"Â»Âİ":3227,"Â§`":3228,"Ã¾Ã¨Ã¼":3229,"*/":3230,"ÃİN":3231,"JÃ£":3232,"ni":3233,"oA":3234,"RÃĩ":3235,"ÃĴÃĳ":3236,"Ã¹Ã£":3237,"ĕĘ":3238,"&ÂĿ":3239,"ĕ<":3240,"Â¥Âİ":3241,"\\`":3242,"Ã»ÃĥÃ³":3243,"đÂľ":3244,"ÂĩÂ¡":3245,"ĄÂĵ":3246,"Oa":3247,"Â£Â©":3248,"Ć}":3249,"ĆÂĺ":3250,"ġÂ¬":3251,"QÃħ":3252,"#ÂĲ":3253,"ÂĮÂ±":3254,"Ă`":3255,"Ã¾Ãı":3256,"ğÂ»":3257,"ÃĺÃ£":3258,"qE":3259,"Ã³ÃŃ":3260,"Â¢Â¨":3261,")?":3262,")Â´":3263,"ÃĢÃ¤":3264,"oz":3265,"oÃ¶":3266,"Ã¦h":3267,";Â±":3268,"\"Âļ":3269,"/Âĺ":3270,"ĂÂİ":3271,"@?":3272,"ĂÂŁ":3273,"ÂĸÂĵ":3274,"ĄÂľ":3275,"ÂĬÂĤ":3276,"ăÂ°":3277,"ĄĎ":3278,"Â¢Âį":3279,"ÂĴā":3280,"KÃ¥":3281,"'Ā":3282,"ZL":3283,"Ã«Ãŀ":3284,"Ã½Ã¢":3285,"Ã¯Ãµ":3286,"Ã«ÃĲ":3287,"Zi":3288,"cÃĴ":3289,"\\ď":3290,"ÂĮĒ":3291,"ĞÂĺ":3292,"\\Âı":3293,"cÃ¦":3294,"HÃ§":3295,"dd":3296,"=Â±":3297,"61":3298,"Ã¾Ãķ":3299,"sE":3300,"Ri":3301,"Py":3302,"ĄÂĢ":3303,";ÂĨ":3304,"ÂŀÂĢ":3305,"Ã°Âª":3306,"ÃŃÃĩ":3307,"ĂÂ¢":3308,"ĔĎ":3309,"mÃĥ":3310,"qÃĶ":3311,"QÃĴ":3312,"ÃľÃķ":3313,"IÃĩ":3314,"AÃ¼":3315,"ÃĨp":3316,"ĠÂĤ":3317,"@ĎÂ¢ÂĽ":3318,"{ğ":3319,"Ã«Ãļ":3320,"GÃĬ":3321,"ÃŁÃĸ":3322,"cÃĸ":3323,"zÃ¦":3324,"Ãľo":3325,"ÂŃ+":3326,"~_":3327,"Ã»Ã¬":3328,"JC":3329,"gÂµ":3330,"ĞÂĻ":3331,"Ã·ć":3332,"vÂª":3333,"Â·Â¥":3334,"$Âı":3335,"Ã¤Ã¤":3336,"ĕą":3337,"%Ā":3338,"<Â±":3339,"sÃģ":3340,"ĝď":3341,"ĂÂ©":3342,"(đ":3343,"Ve":3344,"ÃłÃ³":3345,"Â®ď":3346,"ÃĵÃŀ":3347,"{Âı":3348,"ĆÂļ":3349,"Pi":3350,"ÃĺT":3351,"Ã§N":3352,"KM":3353,";Ě":3354,"'Âŀ":3355,"ÂİÂ§":3356,"\\ÂĮ":3357,"$Âģ":3358,"ÂĬ~":3359,"FX":3360,"?(":3361,"HÃĥ":3362,"ÂĳÂ¸":3363,"&Âĵ":3364,"Â©-":3365,"ĜĒ":3366,"ĈÂ¤":3367,"Ã»Ã£":3368,"ÂĳÂĢ":3369,"ÃŁÃļ":3370,"ĠÃ¶":3371,"QZ":3372,"ÂŁÂ»":3373,"$Ē":3374,"ÃŁÃĬ":3375,"*Â¤":3376,"Ã¸V":3377,"Ã·ė":3378,"ÂĽğ":3379,"hÃģ":3380,"Ã¾ÃĲ":3381,"26":3382,"ÃŃÃļ":3383,"QÃī":3384,"FÃª":3385,"ÂĮĐ":3386,"ĝ:":3387,"He":3388,"Â©\"":3389,"ÃĵM":3390,"SÃĴ":3391,"Âķć":3392,"ÂĳÂ£":3393,"^)":3394,"Ã¯Ã¹":3395,"ÂķĘ":3396,"(Â°":3397,"Â¡Â¤":3398,"ĆÂ¤":3399,"ÂĶ`":3400,"ÃĹÂ¥":3401,"Â¢Â¬":3402,"ÃŃT":3403,"āÂ¸":3404,"ÃĺÃĶ":3405,"ęă":3406,"ÂŃ;":3407,"@<":3408,"SÃ¼":3409,"qÃ©":3410,"ĠÂĬ":3411,"!Âī":3412,"\\ğ":3413,"ZE":3414,"Ĕą":3415,"ÃĪÃ¹":3416,"AÃ´":3417,"Ã¨E":3418,"ÃĪÃ´":3419,"Ã¤Ãº":3420,"ÂĮÂģ":3421,"=+":3422,"ÂĨĈ":3423,"Âľ}":3424,"mÃ£":3425,"ÂİÂ¤":3426,"Āą":3427,"ÂĻ#":3428,"`ď":3429,"ÂĪġ":3430,"sÃ©":3431,"$Ğ":3432,"QÃľ":3433,"pE":3434,"FÃĵ":3435,"Ã¼y":3436,"Tu":3437,"sÃĲ":3438,"ĔÂ±":3439,"#Â§":3440,"ÃİH":3441,"00":3442,"ĂÂ§":3443,"*;":3444,"ÃµÃ¦":3445,"!ÂĪ":3446,"RÃĴP":3447,"\"ÂŁ":3448,"ÃģÃį":3449,"Âĵ@":3450,"ÂĬÂļ":3451,"ĄÂŁ":3452,"Â´ÂĮ":3453,"ÃĢÃł":3454,"\"Â¬":3455,"Âŀą":3456,"ÃıÃĭ":3457,"ÃŃÃ¾":3458,"ÃªE":3459,"ĠĀ":3460,"~^":3461,"dU":3462,"ÂªI":3463,"?Âĩ":3464,"Ã«B":3465,"hÃļ":3466,"ÃĿÃĩ":3467,"ÃĺP":3468,"Ã±Ã¾":3469,"ÃĮÃĳ":3470,"đÂĥ":3471,":ÂĲ":3472,"LP":3473,"ÃĢc":3474,"ÂľĂ":3475,"SÃ³":3476,"ÂĬÂ®":3477,"mÃĽ":3478,"Ã¯E":3479,"Ąġ":3480,"ÃĦg":3481,"ÂªO":3482,"sÃĶ":3483,"#Â¸":3484,"Ã½Ã¬":3485,"ÂªZ":3486,"Ã¾Ã¬":3487,"?{":3488,"Ã¡M":3489,"SV":3490,"*Ĉ":3491,"Â´ġ":3492,"SU":3493,"EÃ¶":3494,"Tl":3495,"Ď{":3496,"Ę'":3497,"ĜĐ":3498,"ĝÂ¨":3499,"Â©)":3500,"ÃīÃħ":3501,"ÃľH":3502,"ĔĀÂĶ":3503,"ĕć":3504,"Fp":3505,"ĘÂ«":3506,"WÃ¿":3507,"ĝÂį":3508,"ĜÂ¨":3509,"ÃĲÃĸ":3510,"ĘĀ":3511,"Ā}Ě":3512,"Ġď":3513,"đġ":3514,"ĔÂĻ":3515,"SP":3516,"ĜÂĢ":3517,"#ă":3518,"Tf":3519,"FÃ¬":3520,"Ji":3521,"SN":3522,"Ã¸Ã¹":3523,"xÃı":3524,"tU":3525,"Â¤ÂĲ":3526,"ĄÂĲ":3527,"SÃ²":3528,"GÃŀ":3529,"ĔÂ»":3530,"<{":3531,"77":3532,"ÃŃÃĸ":3533,"Â¤Ē":3534,"Â¢ÂĬ*":3535,"?#":3536,"ÃĪÃª":3537,"ÃŃÃħ":3538,"ÃīÃ¶":3539,"đÂı":3540,"ĆÂķ":3541,"ÃīÃį":3542,"ÃĩÃ´":3543,"vÃµ":3544,"ÂĥÂĤ":3545,"ÂŃ*":3546,"ÃĢÃİ":3547,"ĔÂ¸":3548,"ÂįÂ«":3549,"ÃĺÃĴ":3550,"ÂĮÂĳ":3551,"ÃĺÃĲ":3552,"ÂľÂĳ":3553,"ÂĹ?":3554,"ĕ\\":3555,"$ÂĬ":3556,"]Â§":3557,"NM":3558,"ÂľÂĴ":3559,"<`":3560,"sÃ¼":3561,")Â¦":3562,"āÂ´":3563,"ÃĪU":3564,"74":3565,"SE":3566,"ě[":3567,"Â¿Â»":3568,"ÃģÃ£":3569,"QÂº":3570,"Â±Â¨":3571,")Ą":3572,"VV":3573,"\"Â¤":3574,"ĠÂĴ":3575,"ÂĿÂ¸":3576,"QÃĲ":3577,"Ã¡O":3578,"Ã³Ãµ":3579,"Âķğ":3580,"ÂŃ&":3581,"rp":3582,"Ćď":3583,"QA":3584,"jH":3585,"!Âı":3586,"ÃīÃ£":3587,"Ã¥P":3588,"|Â¸":3589,"ÂĵÃ·":3590,"ćÂ·":3591,"sÃ«":3592,"#Â·":3593,"Ġă":3594,"ÂĬÂĮ":3595,"=Âĩ":3596,"ÂŀÂ¸":3597,"!ÂĨ":3598,"dÃ³":3599,"<Âİ":3600,"Ã®Ã¾":3601,"~Ã·":3602,"āĜ":3603,"ÂĻ?":3604,"SR":3605,"ėğ":3606,"IÃı":3607,"HÃĿ":3608,"fÃľ":3609,"dT":3610,"<ġ":3611,".ć":3612,"gÃŀ":3613,"GÃį":3614,"Â½8":3615,"sÃĢ":3616,"LÃĵ":3617,"ĄÂĥ":3618,"Ã¯Z":3619,"ÃĮp":3620,"'Âĳ":3621,"Ã©B":3622,"Ã¤Ãł":3623,"ÂŀÂĦ":3624,"Â¦ÂĴ":3625,"Â£`":3626,"ÂľĐ":3627,"ÃĨÃ£":3628,"$ÂĢ":3629,".Ė":3630,"ÂļÂİ":3631,"ĕğ":3632,"=(ā":3633,".ď":3634,"Ć?":3635,"ĝÂ¿":3636,"cÃ¥":3637,"Ć;":3638,"Âµb":3639,"Tn":3640,"oÃ±":3641,"Â¦Â´":3642,"ā#":3643,"ÃŃÃµ":3644,"ÃħY":3645,"Ā|Âļ":3646,")ě":3647,"ÃİM":3648,"XÃĶ":3649,"QÃĸ":3650,"\\Âİ":3651,"Ã©Ã´":3652,"FÃŀ":3653,"Ã§Ã»":3654,"Ã¾Y":3655,"ÂĻĘ":3656,"(Â¥Â¢ÂĢ":3657,"Ġb":3658,"GR":3659,"ĠĂ":3660,"df":3661,"ÂĤć":3662,"dÃ´":3663,">ÂĶĀ":3664,"Fz":3665,"In":3666,"LS":3667,"ÂĳÂķ":3668,"Âŀġ":3669,"ÂµU":3670,"yÃĩ":3671,"*Âĸ":3672,"ÂŃ-":3673,"ÃĨÃŀ":3674,"Ãİr":3675,")Âŀ":3676,"54":3677,"ÃĮT":3678,")ď":3679,"ĄÂģ":3680,"hÃĺ":3681,"Ã²j":3682,"AF":3683,"ÃĪÃ¤":3684,"Â²1":3685,"#}":3686,"ĝÂĩ":3687,"Ã¦i":3688,"ăÂĴ":3689,"*:":3690,"ÃįK":3691,"Â¦ġ":3692,"Ã¾Z":3693,"ÃĬÂª":3694,"ă?":3695,"ÃĳM":3696,"ÂŀÂľ":3697,"ÃªO":3698,"āÂŁ":3699,"'ÂĮ":3700,"fÃļ":3701,"Ã³M":3702,"ĄÂı":3703,"Ã¢Âª":3704,"ÂĥÃ·":3705,"ĂÂķ":3706,"Ã¹i":3707,"&Â¬":3708,"ăĕ":3709,"'Âİ":3710,")#":3711,"Ã³ÃĨ":3712,"Ã¹q":3713,";Âī":3714,"Ēď":3715,"SK":3716,"ĔÂ¬":3717,"Â£Âı":3718,"*(":3719,"|Â¤":3720,"Ã±H":3721,"mÃĺ":3722,"${":3723,"ÂĴĔ":3724,"xÃĩ":3725,"ÃīÃ¨":3726,"ÂĬÂı":3727,"Â·Ĝ":3728,"Ã½Ãľ":3729,"CN":3730,"Ãĭc":3731,"=Â¿":3732,"#Ğ":3733,";ġ":3734,"ÂĬÂĲ":3735,"ÃłÃł":3736,"<Âľ":3737,"ÃĮÃĴ":3738,"Ph":3739,"ÂļÂŀ":3740,"ÂįÂ¿":3741,"đÂĮ":3742,"ÃĳIE":3743,"Ġ9":3744,")\\":3745,"Ã£M":3746,"ÃĨM":3747,"Ã½Ã®":3748,"ÃģÃ§":3749,"TÃ¤":3750,"AÃª":3751,"ÃĦd":3752,"AÃ§":3753,"ĆÂ¥":3754,"Â§#":3755,"ÃĮP":3756,"ÃŃÃı":3757,"ĠU":3758,"vÃľ":3759,"sZ":3760,"SY":3761,"ÃģÃħ":3762,"QÃ³":3763,"Ă:":3764,"ĔÂĬ":3765,"Ĕ\\":3766,"_ġ":3767,"Â«ĕ":3768,"xÃ´":3769,"vÃ®":3770,"Ã¼k":3771,"ÂĵÂĴ":3772,"gÃ»":3773,"{ÂŁ":3774,"ÃŃY":3775,"āÂ»":3776,"Â¸ę":3777,"ÂĸÂŁ":3778,"\"Â£":3779,"Â´`":3780,"QÃĪ":3781,"[Â¨":3782,"ěÂĽ":3783,"Â¦?":3784,"ěÂģ":3785,"oÃ°":3786,"Ã·ÂĹ":3787,"ĖÂĬ(":3788,"'ć":3789,"Âŀć":3790,"ÃįM":3791,"Âªz":3792,"ÂľÂ±":3793,"ÂĲĀ":3794,"ÃŁÃ¯":3795,"ÃĬÃ¿":3796,"@Â§":3797,"27":3798,"ă>":3799,"ÃĩÃ½":3800,"ÂİÂĩ":3801,"ÂļĆ":3802,"ÃİÃ¬":3803,"Â¦ÂĿ":3804,"ÃªI":3805,"ÂİÂĤ":3806,"wn":3807,"oÃ¾":3808,"qÃ«":3809,"ÃĳP":3810,"ÃĨÃľ":3811,"ÃĥÃĸ":3812,"UÃ¿":3813,"ÃłÃ¤":3814,"Âŀ=":3815,"ĠÃĵ":3816,"Ã³L":3817,"ÂĨć":3818,"ğÂĶ":3819,"Ã¸Ãĸ":3820,"ÂĢġ":3821,"AÃ¦":3822,"63":3823,"%Âī":3824,"Âĸ<":3825,"!Âį":3826,"Ğ[":3827,"ÂĲĒ":3828,"Nz":3829,"ĞÂŁ":3830,"iX":3831,"Ãºd":3832,"ÃºÃ¾":3833,"ÂĢ{":3834,"ě}":3835,"đÂĤ":3836,"Ã¼E":3837,"ÂĨę":3838,"Ã´Ãı":3839,"Ã©C":3840,"ÃİÃŀ":3841,"Ã¹Ã¹":3842,"ĝÂ±":3843,"Ã£V":3844,"ÃĺÃ§":3845,"+ÂŁ":3846,"Âµf":3847,"ÂĲ;":3848,"Â¶?":3849,"ÂŀÂ¤":3850,"PÂª":3851,"UÃ»":3852,"Â®;":3853,")ć":3854,"RE":3855,"ÂİÂĻ":3856,"AÃī":3857,"#Âĵ":3858,"Jc":3859,"%Âı":3860,"Ã¯W":3861,"ĕ\"":3862,"FÃĴ":3863,"ÂĲ*":3864,"%Â¸":3865,"ÃĬÃ£":3866,"Zk":3867,"ÃĽÃĸ":3868,"ÂĥÂĵ":3869,"ÃĶÃ´":3870,"Â¦Âķ":3871,"ÂĹ'":3872,"SS":3873,"\\}":3874,"ÂĬ_":3875,"^ġ":3876,"ÃĿi":3877,"ÃĶc":3878,"!ÂĶ":3879,"Â¥Â¸":3880,"Ã½Ãł":3881,"Tw":3882,"rÃĥ":3883,"BÃ§":3884,"Â¦Â¬":3885,"qÃŁ":3886,"ÃıÃį":3887,"\"Â«":3888,"Ā}Ĕ":3889,"mÃĦ":3890,"ăÃ·":3891,"Ã®Ãĩ":3892,"ĕÂĻ":3893,"ÂĹ#":3894,"ĄÂĤ":3895,"ğ.":3896,"Âıġ":3897,"ÂĿÂ¤":3898,"Ã±Ãį":3899,"Â¨?":3900,"Ĉć":3901,"ěÂ¸":3902,"Ã¤v":3903,"Ãľy":3904,"ÂīĘ":3905,"Âİ(":3906,"OÃ¶":3907,"Ã½ÃĻ":3908,"Â½9":3909,"Â±Â©":3910,"ĞÂĦ":3911,"jX":3912,"Â¶)":3913,"{ď":3914,"ÃĢÃ¹":3915,"Â¡Â¥":3916,"Ĉ<":3917,"Ē)":3918,"ÂĬÂĳ":3919,"ěė":3920,"IÃ´":3921,"tS":3922,"Âļ_":3923,"QÃŀ":3924,"ĆÂĢ":3925,"qW":3926,"ÃĹÂŃ":3927,"ĂÂ¥":3928,"Â§$":3929,"Â§ę":3930,"Ã±L":3931,"ĝÂ¸":3932,"ÃĶg":3933,"Â´ÂĢ":3934,"mÃĿ":3935,"sÃĨ":3936,"āÂĨ":3937,"\"Âĳ":3938,"GA":3939,"Âķ=":3940,"Ęć":3941,"ÂĭÃ·":3942,"Ğ)":3943,"Â£&":3944,"Ã±M":3945,"ÃģÃİ":3946,"ĠÃ¾":3947,"Â¶Âį":3948,"Ē:":3949,"OÃ´":3950,"ÃĪÃĨ":3951,"ÃĩC":3952,"Ãģr":3953,"Ã®Ã£":3954,"Ã§M":3955,"]Â¤":3956,"ÂļÂŃ":3957,"*Â»":3958,"mÃ¤":3959,"Â¨.":3960,"ĎĆ":3961,"Â§ğ":3962,"ÂļĄ":3963,"ÂĲĐ":3964,"ÃĲV":3965,"ġÂĳ":3966,"Â¿Âį":3967,"mÃ¾":3968,"ÃįV":3969,"Ã³J":3970,"QÃ¥":3971,"XÃ§":3972,"Ēć":3973,"Â©!":3974,"Ã³Ãķ":3975,"Â§Ą":3976,"ÃºÃ¨":3977,"@'":3978,"ąğ":3979,"ÂªH":3980,"UÂº":3981,"ÃįH":3982,"Â¢ÂĢ+":3983,"Âİ{":3984,"Ã¹c":3985,"ĎÂ¤":3986,"ÂİÂĺ":3987,"Â¯Ĕ":3988,"ÂĬÂį":3989,"ÃĪT":3990,"āÂŀ":3991,"ĝć":3992,"Â¨Ę":3993,"Ã±Ãµ":3994,"Â¤Âį":3995,"ĆÂ£":3996,"yÃ£":3997,"\"ÂĽ":3998,"sÃŁ":3999,"Ã¥W":4000,"ÂĻę":4001,"ÂĴ[":4002,"(Ą":4003,"\\Âľ":4004,"Ā-ĔÂĶ":4005,"OÂº":4006,"yÃı":4007,"ÂİÂľ":4008,"|ÂŁ":4009,"ÃĩA":4010,"ĈĘ":4011,"ÂĮÂĤ":4012,"-ĔĀÂĶ":4013,"Â§ć":4014,"Hz":4015,"Ġv":4016,"\\Ĝ":4017,"ld":4018,"ÂģÂĥ":4019,"ÂĳÂĺ":4020,"cR":4021,"ÃŁb":4022,"@Ă":4023,"Â¢ġ":4024,"ĞÂ¤":4025,"ěÂĺ":4026,"Â«Âķ":4027,"SÃħ":4028,"Â¶*":4029,"Â£?":4030,"Ã¡V":4031,"Â£Ā":4032,"jÃĮ":4033,"Âļ>":4034,"ÃĪÃ«":4035,"ĈÂ¥":4036,"PG":4037,"$Ĝ":4038,"rr":4039,"AÃİ":4040,"āÂĳ":4041,"QÃı":4042,"Â¦Â¤":4043,"+Ē":4044,"SZ":4045,"JÃ§":4046,"ĔÂĲ":4047,"Ã´Ãī":4048,"ÃŁÃ«":4049,"āÂĶ":4050,"Â©'":4051,"ăÂ¸":4052,"Â«Ě":4053,"ON":4054,"ĆĘ":4055,"ÃľI":4056,"yi":4057,"TÃ£":4058,"Ã±Ãħ":4059,"ÂģÂĢ":4060,"ą[":4061,"Ld":4062,"ÃŁÃµ":4063,"ġ}":4064,"ÂĪÂ¿":4065,"aÃ³":4066,"Ã¤Ã²":4067,"ÃĶÃ¢":4068,"ĆĀ":4069,"#ÂŁ":4070,"~Â¿":4071,"jÃĦ":4072,"Rd":4073,"Zd":4074,"ÃŃÃĽ":4075,"ÃŃÃĴ":4076,"Âļ|":4077,"#Ā":4078,"Â§*":4079,"Âįě":4080,"ÃīÃĨ":4081,"pp":4082,"Â±ÂĮ":4083,"Â§=":4084,"ÃĬÃ§":4085,"\\Ď":4086,"<Âı":4087,"+Âı":4088,"ÃģÃ¶":4089,"ġÂĪ":4090,"?Âĳ":4091,"Ã³O":4092,"Ã½Ã¨":4093,"ÃĻÃĩ":4094,"ÂĬÂĵ":4095,"Â¦ÂĢ":4096,"ÂŃĚ":4097,"ÃŁo":4098,"?ÂĲ":4099,"Ã°i":4100,"Â£Âķ":4101,"ą;":4102,"Gn":4103,"āÂĴ":4104,"ÃłÃº":4105,"Ã¯c":4106,"ÂĳÂĶ":4107,"Ã¤h":4108,"oQ":4109,"RS":4110,"-Â»":4111,"ĂĎ":4112,"OL":4113,"+Âŀ":4114,"VÃļ":4115,"ĕÂĽ":4116,"Â·Â·":4117,"Â§ă":4118,"ÂĶġ":4119,"Ã£Ã´":4120,"sÃİ":4121,"ÂĬ,":4122,"\"Â¢":4123,"ĀÂĪ":4124,"~?":4125,"Â£Âĳ":4126,"SÃĸ":4127,"ĆÂ¬":4128,"Ã¯Ãį":4129,"CM":4130,",{":4131,"ĀÂĽ":4132,"qZ":4133,"Âĺġ":4134,"Ã¾Ã¾":4135,"=Â«":4136,"Ã»ÃĢ":4137,"ÂĻÂ¥":4138,"Â§'":4139,"ÂĤ}":4140,"Â©Ĕ":4141,"Ã¾Âª":4142,"+Ď":4143,"Ã¸Ã´":4144,"ąÂī":4145,"Te":4146,"<Âŀ":4147,"Ã²c":4148,"Ã¡F":4149,"Âķě":4150,"Ãľv":4151,"Â§?":4152,"ćĀ":4153,"Ã§V":4154,"nÃĩ":4155,"Ã³Ã´":4156,"ÂŃ[":4157,"Â¨Â¡":4158,"Ã£Ã°":4159,"Rw":4160,"Â·ĝ":4161,"tÂª":4162,"Ã¹Ãµ":4163,"*ÂĴ":4164,"&ÂĽ":4165,"mÃĻ":4166,"ÃĪÃ¢":4167,"Zh":4168,"Ã¡b":4169,"AÃ¨":4170,"ÂĭÂģ":4171,"ĞÂľ":4172,"Ã¾Ã«":4173,"UK":4174,"Â»ġ":4175,"Ã§h":4176,"Â£Ĝ":4177,"Â¤ġ":4178,"ēÂĮ":4179,"UI":4180,"Âĸ$":4181,"Ã³Ãĵ":4182,"Ã¥E":4183,")Âĳ":4184,"Ã¤Q":4185,"=Ĕ":4186,"ÃĿj":4187,"SÃĳ":4188,"52":4189,"ĄÂĬ":4190,"Vf":4191,"'ÂŁ":4192,"ÃľG":4193,"NÃ¬":4194,"cÃ½":4195,"=;":4196,"Ub":4197,"Ã¦Âª":4198,"Â§Ę":4199,"ÃĺÃĩ":4200,"Nq":4201,"Âī#":4202,"ÃĨw":4203,"sW":4204,"FÃģ":4205,"ĂÂŀ":4206,"zÃ´":4207,"ĆÂĵ":4208,"ÃŃZ":4209,"Ã¥K":4210,"ÂĮÂĢ":4211,"ÃĨÃĴ":4212,"Â¡Â«":4213,"XÃµ":4214,"Ã¥T":4215,"Â¨ę":4216,"`Ĉ":4217,"gÃ³":4218,"ąÂļ":4219,"`Â¸":4220,"ÃĨÃ®":4221,"ÂĺÂ¿":4222,"Â§Â·":4223,"āÂĢ":4224,"Â©ĕ":4225,"Ã©Ãµ":4226,"ďġ":4227,"ÂĵÂ¸":4228,"*Âľ":4229,"Â¡Âģ":4230,"Ã±N":4231,"Âķĝ":4232,"Ãİv":4233,"dÃĵ":4234,"Ã±Âª":4235,"ÂİÂĥ":4236,"ÃĽÃĽ":4237,"SJ":4238,"ÃİÃĵ":4239,"ÃİÃľ":4240,"Â²3":4241,"Ã£p":4242,"Ã»Ã§":4243,"ăć":4244,"Â½3":4245,"$Â±":4246,"āÂĮ":4247,"<Ď":4248,"-Ĕā":4249,"zw":4250,"ėÃ·":4251,"-ÂĮ":4252,"Â´ÂŁ":4253,"Ã»V":4254,"ěÃĹ":4255,"(Ĕ":4256,"Ã¯Ãħ":4257,"Đġ":4258,".)":4259,"Ã³I":4260,"!Âĳ":4261,"ÂĤĎ":4262,"<Â¶":4263,"Ãın":4264,"EI":4265,"ÃįX":4266,"Â¤Â¥Â¤":4267,"Â»ğ":4268,"4Â¾":4269,"Â£Â¥":4270,"ÂĬÂ¬":4271,">Â´Ā":4272,"HÃĻ":4273,"Jb":4274,"Â´Âĩ":4275,"EP":4276,"ÃİF":4277,"GÃĿ":4278,"ĠR":4279,"XÃł":4280,"ÂİÂ¸":4281,"AÃĢ":4282,"Â§,":4283,"ÂıÂ¯":4284,"ĂÂ±":4285,"ÂĬÂ¡":4286,"\"ÂĶ":4287,"aÃ²":4288,"ĠÃ¹":4289,"Ãĭn":4290,"Â´{":4291,"<Âĥ":4292,"ÃĨÃ¢":4293,"GÃĺ":4294,"02":4295,"Ts":4296,"Â¦}":4297,"Ã±Ãļ":4298,"Ã¡W":4299,"<ğ":4300,"KL":4301,"Â¤Â·":4302,"ÃĶr":4303,"đÂ·":4304,"Â¤Đ":4305,"Ęĕ":4306,"Âĵġ":4307,"ĝÂ»":4308,"ÃĩÃ°":4309,"71":4310,"ÂļÂĳ":4311,"Ã«C":4312,"Ąē":4313,"*Â®":4314,"ÂįÂĩ":4315,"'Â°":4316,"(=":4317,"Ãľq":4318,"ďÂĹ":4319,"MÃ¾":4320,"ĝ}":4321,">ÂĬ":4322,"*ę":4323,")ÂĮ":4324,"ÃŁx":4325,"++":4326,"#ą":4327,"Â©ġ":4328,"ÂµF":4329,"<Â¨":4330,"Rm":4331,"ÃŁf":4332,"ĆÂĽ":4333,"ÂİÂŁ":4334,"ÃĽÃ¼":4335,"JÃĮ":4336,"<Âĵ":4337,"ÃĽÃ®":4338,"Â©ć":4339,"Ā(Â¢ÂĬĀ(Â¢ÂĬĀ":4340,"āğ":4341,"Â¦ÂĦ":4342,"Ã¸Ã¸":4343,"Ef":4344,"Ãłw":4345,"RÃĺ":4346,"iÃĳ":4347,"ĄÂ±":4348,"ÂįÂŃ":4349,"EX":4350,"Â§Â¯":4351,"FÃħ":4352,"Tb":4353,"Ġw":4354,"pÃĦ":4355,"ĈÂ£":4356,"ÂĨ?":4357,")|":4358,"ÂµY":4359,"jÃķ":4360,"ÃŀÃ´":4361,"ÃĢP":4362,"UY":4363,"Â¥Â·":4364,"Ã£Ãĵ":4365,"SÃ»":4366,"ĠÂĵ":4367,"Â¸ÂĮ":4368,"Â¢ÂĬ+":4369,"*Ć":4370,"HÃĮ":4371,"ÂģÂĲ":4372,"ÃĪÃ¨":4373,"ÃĪÃĥ":4374,"ÃĶu":4375,"Kc":4376,")>":4377,"Ã¥S":4378,"Ã²y":4379,"ÂĬ]":4380,"'ÂĴ":4381,"Ã³Âª":4382,"(`":4383,"69":4384,"_Âĺ":4385,"ĜÂĤ":4386,"Ā%ĔÂ´":4387,"ÃĮÃĲ":4388,"Ăā":4389,"ÃĪÃ©":4390,"Â«ğ":4391,"Â²0":4392,"ěÂĶ":4393,"ąÂĪ":4394,"ÂĬ|":4395,"RÃĽ":4396,"QÃļ":4397,"Ã¥X":4398,"Ã¼ÃĦ":4399,"Ã¥J":4400,"ÃĪÃ¦":4401,"hÃ¦":4402,"qÃ¦":4403,"Ãĩl":4404,"ÂĸĘ":4405,"tT":4406,"Ãĩa":4407,"`ġ":4408,"ÃįW":4409,"68":4410,"IÃ¨":4411,"ĂÂŃ":4412,"ÂĬÂĥ":4413,"vÃł":4414,"!@":4415,"Ã¥L":4416,"Â¬[":4417,"eÃļ":4418,"Â»Âģ":4419,"ĕ]":4420,"<Ğ":4421,"ĕÂ¡":4422,"NÃĶ":4423,"qY":4424,"Â«ē":4425,"mÃı":4426,"Â©ĝ":4427,"Â©>":4428,"Â«Âĸ":4429,"``":4430,"ĀĖ":4431,"ĔÂį":4432,"*{":4433,"nÃĿ":4434,"Ns":4435,"ÂĨĝ":4436,"Ã²G":4437,"Ġ}":4438,"Â¨Â¢":4439,"&?":4440,"ÂĵÂĢ":4441,"(ć":4442,"@Â¤":4443,"ĆÂŁ":4444,"Â¨>":4445,"Â¸ġ":4446,"*ġ":4447,"ÃĢÃ¶":4448,"*Â±":4449,"ÂĳÂ¶":4450,"ÂµH":4451,"ÂĬÂ»":4452,"ZÂª":4453,"ĂÂĹ":4454,"Tt":4455,"Ă)":4456,"*ÂĦ":4457,"VÃľ":4458,"ÂķĔ":4459,"TÃł":4460,"Ã¥Y":4461,"*Ę":4462,"ÂŃ.":4463,"TÃ§":4464,"Â´ÂĦ":4465,"OÃĨ":4466,"ÂŃ\"":4467,"gÃ¦":4468,"gÃľ":4469,"Â±?":4470,"Ã¯ÃĴ":4471,"RÃĦ":4472,"ÃĬÃĥ":4473,"ÂµX":4474,"ÃŃÃŀ":4475,"#Âĥ":4476,"ÃĢÃĨ":4477,"Ã»ÃĦ":4478,"Â»Â·":4479,"Ã±Ã´":4480,"ÂģÃ·":4481,"ÂļÂĲ":4482,"ÂļÂ¯":4483,"āÂľ":4484,"ĆÂĶ":4485,"ÂļÂ«":4486,"ÂĬ?":4487,"ÂļÂį":4488,"ÃīÃİ":4489,"Â¸ĝ":4490,"ÂĸÂĺ":4491,"gÃĸ":4492,"ÃĺÃķ":4493,"IÃ¾":4494,"Uk":4495,"Ã¤z":4496,"Mn":4497,"xÃ¶":4498,"ÃĶw":4499,"ĚÂĴ":4500,"\\Âŀ":4501,"mÃģ":4502,"ÃĬr":4503,"Âĸ'":4504,"đÂŀ":4505,"ÂİÂĨ":4506,"Zb":4507,"cÃµ":4508,"Ġf":4509,"SO":4510,"Â¥Âı":4511,"Â¦Âĳ":4512,"}Âŀ":4513,"ĈÂ§":4514,"ÂģÂ·":4515,"VÃª":4516,"Ã©X":4517,"ÃĶÃ¦":4518,"[ę":4519,"Ã¯G":4520,"Â»ÂĨ":4521,"AÃį":4522,"Â¦ÂĻ":4523,"dÃĲ":4524,"ÃĿÂª":4525,"ĆĆ":4526,"Â±Âľ":4527,"ąÂı":4528,"ġ:Ā":4529,"CÃ½":4530,"ćÂĳ":4531,"ÃĮr":4532,"dr":4533,"ÂĬġ":4534,"Â»Âĩ":4535,"QÃĩ":4536,"Â´ÂĴ":4537,"CH":4538,"Ĉ?":4539,"Ã¤w":4540,"ĠS":4541,"ÃŁÃ¬":4542,"Â¥?":4543,"Ã´Ã´":4544,"Ã¼Ã½":4545,"ÃĹĕ":4546,"Â°ġ":4547,"Ã¹Ã§":4548,"EY":4549,"AÃħ":4550,"ď\\":4551,"ÃĨÃ¿":4552,"Â©Ē":4553,"Â¡Â¨":4554,"Gl":4555,"Â©Ā":4556,"&Â¤":4557,"ĂÂ®":4558,"jI":4559,"*ÂŃ":4560,"Ã¥Ãµ":4561,"ĂÂı":4562,"ēÂľ":4563,"iÃĽ":4564,"dÃ²":4565,"Â«Ã·":4566,"FÃĽ":4567,"Â§<":4568,"UX":4569,"gÃ½":4570,"cÃĵ":4571,"ÂĳÂĴ":4572,"$ă":4573,"*ğ":4574,"Â©,":4575,"RÃľ":4576,"ėę":4577,"MÃĺ":4578,"ÃīÃģ":4579,"sÃ¨":4580,"iv":4581,"RÃķ":4582,"Â¶ġ":4583,"sT":4584,"ÂĳÃ·":4585,"+Đ":4586,"ÂĬÂ¥":4587,"ZV":4588,"AÃ¤":4589,"GÃµ":4590,"qT":4591,"SÃĵ":4592,"ĞÂĢ":4593,"iw":4594,"QÂµ":4595,"4Â²":4596,"MI":4597,"Ãłb":4598,"HÃħ":4599,"TÃ»":4600,"$Âĥ":4601,"Â½0":4602,"āě":4603,"RÃŃ":4604,"ÃĶÃ£":4605,"=(Ă":4606,"#;":4607,"ÂįÂ·":4608,"dÃĴ":4609,"ÃŃG":4610,"ÂĬÂĭ":4611,"ć\\":4612,"Ã½Ã¼":4613,"Ĉę":4614,"Â¬Â¿":4615,"ĀÂĭ":4616,"ÂļÂ¡":4617,"=Âı":4618,"ĠĘ":4619,"ÂĳÂ»":4620,"MX":4621,"ĚÂĸ":4622,"Ã±Ã³":4623,"ĕ_":4624,"IÃµ":4625,"ĆÂľ":4626,"\"Â¨":4627,"jF":4628,"ÂµV":4629,"ÂĬÂ°":4630,"AK":4631,"Â¸Ĝ":4632,"Ã·ÂŃ":4633,"ÂªÃĴ":4634,"={":4635,"ÃŁÃ£":4636,"ÂªÃ²":4637,"dÃµ":4638,"Â¢Âŀ":4639,"xÃ§":4640,"Cn":4641,"CL":4642,"ÃĪÃ¼":4643,"HÃľ":4644,"āĔ":4645,"Ā(Â¢ÂĬĀ(Â¢ÂĬĀ(Â¢ÂĬĀ(Â¢ÂĬĀ(Â¢ÂĬĀ(Â¢ÂĬĀ(Â¢ÂĬĀ(Â¢ÂĬĀ":4646,"Uf":4647,"WÃ³":4648,"NE":4649,"ġđ":4650,">Âľ":4651,"Â¦Âĸ":4652,"ÃļG":4653,"ÂĮă":4654,"Â±Â§":4655,"ÃģÃ¹":4656,"Wi":4657,"ÂİĆ":4658,"HÃ¶":4659,"ÂĻě":4660,"\"Âŀ":4661,"ÃİÃ¡":4662,"ĂĘ":4663,"Ty":4664,"Â¦[":4665,"@Â¥":4666,"Ã³Ã³":4667,"ÂĹă":4668,"Cc":4669,"Ã¤V":4670,"jÃĿ":4671,"ÂĦ`":4672,"Ã§Ã¯":4673,"ġÂĻ":4674,"Ã§O":4675,"<đ":4676,"*Â¸":4677,"Â£,":4678,"HÃª":4679,"|ġ":4680,"MP":4681,"ĔÂ®":4682,"Ãīn":4683,"ď^":4684,"Ã¶h":4685,"'Ą":4686,"Âļ]":4687,"Ĉ$":4688,"ÃĴP":4689,"Ã´Ã¶":4690,"Ġe":4691,"Â±Âı":4692,"Ãĥn":4693,"Ã¥Q":4694,"ą!":4695,"ÂĶÂĢ":4696,"-Â¸":4697,"ÂŃ%":4698,"Ã¤Ã¾":4699,"\"Â®":4700,"Ãĭg":4701,"ÃĪÃĬ":4702,"@ÂĦ":4703,"ĒĆ":4704,"RO":4705,"JJ":4706,"vÃŃ":4707,"ÃīÃ¼":4708,"ĞÂ´Ā":4709,"ÃľÃĩ":4710,"dl":4711,"'Â·":4712,"ÃģÃĨ":4713,"ÃľV":4714,"QS":4715,"āÂ¥":4716,";{":4717,"Â£<":4718,"ÃĺU":4719,"Ã±Ãĵ":4720,"Â²2":4721,"Pz":4722,"QW":4723,"ZÂµ":4724,"ÃįY":4725,"Xg":4726,"ÂŁÂ¯":4727,"ÂļÂĨ":4728,"ÂĽÂı":4729,"=Â»":4730,"ÃĢÃ¦":4731,"+ÂĴ":4732,"&ÂĢ":4733,"FÃł":4734,"&)":4735,"ÂĮĂ":4736,"ÃĪÃ¶":4737,"jE":4738,"Ã¥Âº":4739,"ÂĬď":4740,"~`":4741,"ĚÂ±":4742,"ąę":4743,"HÂª":4744,"IÃ£":4745,"ÃµÃĩ":4746,"Âĳ[":4747,"ÂĽ'":4748,"Â¢Âĥ":4749,"ÂŃ#":4750,"Ãľz":4751,"ÃħA":4752,"ĠÃĶ":4753,"ÃĴf":4754,"%Âİ":4755,"hÃĿ":4756,"Â¤ÂĨ":4757,"CÃ¦":4758,"Â¤Âĵ":4759,"On":4760,"ÂıÂ»":4761,"*Â´":4762,"qÃª":4763,"|Â±":4764,"Ĝă":4765,"\"Âģ":4766,"ÂĹć":4767,"Ġr":4768,"!ÂĲ":4769,"TS":4770,"Â£Â¸":4771,"Ġĝ":4772,"QÃ¼":4773,"Â¥Âī":4774,".Ć":4775,"Ďā":4776,"'#":4777,"vÃ´":4778,"ÂĥÂģ":4779,"}(ā":4780,"FÃ®":4781,"\\ÂĴ":4782,"ÃĥÃ¦":4783,"ÃªJ":4784,"AÃĴ":4785,"~ġ":4786,"VÃ»":4787,"HÃĺ":4788,"ĕ[":4789,"*Âİ":4790,"@ÂĪ":4791,"Uy":4792,"ĝ=":4793,"Ã§L":4794,"ġ*Ā":4795,"XÃķ":4796,"Â«ÂĶ":4797,"EÃĢ":4798,"ÂĿÂ¿":4799,"jh":4800,"Â¢ÂĬĀ(Â¢ÂĬĀ(Â¢ÂĬĀ(Â¢ÂĬĀ(Â¢ÂĬĀ(Â¢ÂĬĀ(Â¢ÂĬĀ(Â¢ÂĬĀ(Â¢ÂĬĀ":4801,"Â·đ":4802,"ÃľÃĦ":4803,"ÂŃ?":4804,"ÃĤÃĦ":4805,"ÂĤ?":4806,"mn":4807,"\"ÂĨ":4808,"JÂª":4809,"<Ĝ":4810,"Â¶ÂĮ":4811,"ăÂ¡":4812,"hÃħ":4813,"QÃ¾":4814,"Ã«Ãµ":4815,"NÃħ":4816,"ěÂĢ":4817,"Ã¤Ã¦":4818,"pÂª":4819,"kB":4820,"Ã½Ã»":4821,"ÂįÂ»":4822,";ÂĢ":4823,"ÂĳÂ°":4824,"Ãıl":4825,"Vl":4826,"ÂķĄ":4827,"yÃį":4828,"ĂÂ¯":4829,"ĠÃº":4830,"zÃ¾":4831,"ÂĬć":4832,"FÃ¢":4833,"ĠÃ±":4834,"Âļ(":4835,"cÃĲ":4836,"ĄÂ¢ÂĸÂĬĀ":4837,"Â¢ÂĢę":4838,"&ÂŁ":4839,"%-":4840,"eb":4841,"GÃ¤":4842,"Â·Ē":4843,"ÃĢÃ¢":4844,"QÃĬ":4845,"ÃłÃ¢":4846,"ÂĤĆ":4847,"!ÂĮ":4848,"Â¦ÂŁ":4849,"ji":4850,"ÂĬÂī":4851,"UU":4852,"ÃĩÃļ":4853,"Ã§Âª":4854,"ěÂ°":4855,"Ġ$":4856,"ĞÂ¿":4857,"ĠÂį":4858,"<~":4859,"Â§Â§":4860,"Ã³W":4861,"ÃĨÃł":4862,"Ã£Ã¯":4863,"ÃĪÃĿ":4864,"Ã®Ã§":4865,"ĘĄ":4866,"Ã¹ÃŃ":4867,"#`":4868,"&Âı":4869,"ĜÂĲ":4870,"ĕÂī":4871,"Ã¹Âº":4872,"_-":4873,"_ÂĶ":4874,"ÃŀÂµ":4875,"Â¬Â¬":4876,"Â£ÂĴ":4877,";ÂĶ":4878,"&ÂĶ":4879,"GÃĭ":4880,"ÃĢu":4881,"ÃĪÃĳ":4882,"Âķ%":4883,"OÃ¢":4884,"Ã½ÃĴ":4885,"SÃķ":4886,":ÂĴ":4887,"dÃ»":4888,"Ã¡L":4889,"ÃģÃ¦":4890,"#,":4891,"ÂĤ{":4892,"Â´Âİ":4893,"ĠÂĢ":4894,"HÃį":4895,"ĂÂĥ":4896,"+.":4897,"ĔÂľ":4898,")Âį":4899,"yÂª":4900,"Eg":4901,"ÃŀÃ¾":4902,"Si":4903,"Ãłv":4904,"ÃĳÃį":4905,"ÂµK":4906,"Â´Âĥ":4907,"Â©%":4908,"ÃĤÃ£":4909,";ď":4910,"ĞÂ¸":4911,"2Â¹":4912,"Ġ0":4913,"*ÂĢ":4914,":ÂĮ":4915,"Â¦ď":4916,"\"ÂĹ":4917,"18":4918,"LR":4919,"Âŀ{":4920,"cp":4921,"zÃµ":4922,"Ã±ÃŃ":4923,">[":4924,"ÂķÂĩ":4925,"Gq":4926,";Âĺ":4927,"'ÂĻ":4928,"Ã³R":4929,"ÃĽÃļ":4930,"Âı\\":4931,"Â¹5":4932,"Ãıa":4933,"ÂªJ":4934,"ÃĨT":4935,"Ãľw":4936,"Ã±ÃĴ":4937,"Vb":4938,"]ġ":4939,"VE":4940,"Ġp":4941,"ÃĵÃ©":4942,"cÃ»":4943,"GÃĽ":4944,"ĒĀ":4945,"āÂ·":4946,"`ÂĮ":4947,"ÃĨX":4948,"gÃĴ":4949,"Ã¹f":4950,"Zv":4951,"yk":4952,"yÃ¶":4953,"BÃ£":4954,"hÃĳ":4955,"ÃĤÃ§":4956,":Âĵ":4957,"Ď~":4958,"ÃĽÃĴ":4959,"cn":4960,"Ã¤Ã¶":4961,"Ġn":4962,"Â©|":4963,"ÃĬÃĦ":4964,";Ĕ":4965,"\"Âį":4966,"ąĝ":4967,"ÂļÂ·":4968,"<Âĳ":4969,"Â¿ÂĻ":4970,"Â»Ĝ":4971,"FW":4972,"YX":4973,"ÃĵÃ²":4974,"AR":4975,"Âŀ}":4976,"Â«Ğ":4977,"gi":4978,"ĠĚ":4979,"ÃĩÃ±":4980,"GP":4981,"ęě":4982,"OÃ¼":4983,"ę>":4984,"ÃĵÃ±":4985,"[Âı":4986,")Â¿":4987,"ĕ~":4988,"Â¸Ę":4989,"Ã³ÃĲ":4990,"\\Ē":4991,"ė?":4992,"ĕē":4993,"jC":4994,"ÂĬÂ§":4995,"Ă@":4996,"Â®ć":4997,"Ã¤n":4998,"Â«Ć":4999,"Â»Â±":5000,"<ď":5001,"SÃį":5002,"Ã¤Ã»":5003,"ÃĤÂª":5004,"rÃĻ":5005,"ÂŃĔ":5006,"Â¢ÂĬ(ĀÂ¢ÂĬ(ĀÂ¢ÂĬ(ĀÂ¢ÂĬ(ĀÂ¢ÂĬ(ĀÂ¢ÂĬ(ĀÂ¢ÂĬ(Ā":5007,"+Ć":5008,"Â©Â¬":5009,"TW":5010,"Â¦Âį":5011,"ÃłÃ¶":5012,"ÃĶW":5013,"ÂĳÂ¤":5014,"Â©ā":5015,"Ã¹Ã©":5016,"ăÂ±":5017,"Âŀ;":5018,"Ã¹I":5019,"Â©ÂĴ":5020,"ćÂľ":5021,"ÃĺÃİ":5022,"qÃ¨":5023,"ÃķÃ´":5024,"ĆÂĹ":5025,"Âºi":5026,"Â¸Â¬":5027,"Â¥&":5028,"Â¥Ĝ":5029,"+Âķ":5030,"ÂĲÂĢ":5031,"$(":5032,"Ã¡U":5033,"?!":5034,"Ã¤Ãĳ":5035,"ăĒ":5036,"Âĵ#":5037,"TV":5038,"yn":5039,"rÃĢ":5040,"ÃªÃĽ":5041,"QÃ²":5042,"jY":5043,"1Â¹":5044,"Jp":5045,"*Â°":5046,"\"ÂĻ":5047,"*Ď":5048,"zv":5049,"Â©Ė":5050,"TÃ®":5051,",ÂĬ":5052,"\\Â±":5053,"ĀÂ¢":5054,"jk":5055,"ln":5056,"Ã¨F":5057,"Ã¯Ãļ":5058,"Ã¼ÃĢ":5059,"[Âī":5060,"<Âģ":5061,"Ã½Z":5062,"Ãªx":5063,"Ã¯Ãĸ":5064,"Kp":5065,"Ã»F":5066,"ė'":5067,"HÃĦ":5068,"ÃĨÂª":5069,"ÂĻġ":5070,");":5071,"yÃ´":5072,"(Â¬":5073,"sY":5074,"ÂĮÂĲ":5075,"Ã¤Ã¢":5076,"!Â¸":5077,"Ġġ":5078,"ÃĪÃł":5079,"dn":5080,"Â¡Âİ":5081,"ĕÂĪ":5082,"Ã«Ã´":5083,"ěġ":5084,"ĕÂŁ":5085,"ÃĵÃ®":5086,"Ãľu":5087,"Ã²ÃŁ":5088,"ÂĺÂ¤":5089,"ÃīÂª":5090,"HÃĭ":5091,"Kg":5092,"Kn":5093,"NÃ£":5094,"CÃ¥":5095,"Km":5096,"ÂķÂĨ":5097,"@ą!":5098,"ÂĿÂĬ":5099,"Uv":5100,"ÂĶÂŁ":5101,"Â§ġ":5102,"ÃĴÃ¦":5103,"Ã½Ãĺ":5104,"-Âľ":5105,"ă%":5106,"Ã½u":5107,"ĠÂŁ":5108,"Â£~":5109,"mÃ´":5110,"EG":5111,"on":5112,"Â¨<":5113,"Ã¯Y":5114,"OB":5115,"\"Â¥":5116,"Âķ'":5117,"(Â¢ÂĢĐ":5118,"ăÂ®":5119,"62":5120,"ÂķÂĺ":5121,"ĂÂ´":5122,"mÃĬ":5123,"Â¦Âī":5124,"ÃĶÃ¶":5125,"|Â¶":5126,"$ď":5127,";Ď":5128,"ÃĻÃı":5129,"RÃ¦":5130,"Rc":5131,"ēÂİ":5132,"[ÂĪ":5133,"ÂŃ(":5134,"Ãĥc":5135,"Ã¸Ãº":5136,"ÂŃÂ¿":5137,"yl":5138,"JÃĴ":5139,"Ã¾Ãİ":5140,"AÃ¹":5141,"xÃİ":5142,"Â¥=":5143,"rÃĺ":5144,"ÃļH":5145,"ĜÂ¬":5146,"GN":5147,"āÂ§":5148,"Â·ę":5149,"ÃīÃ¥":5150,"Âŀ(":5151,"ÃŁz":5152,"Ã¾Ãĭ":5153,"ğ_":5154,"BI":5155,"!Âģ":5156,"Â½Â½":5157,"đÂŁ":5158,"Ã¬Ã±":5159,"Â£ę":5160,"Â¢Â¶":5161,"Â«+":5162,"Â¨#":5163,"Jm":5164,"%ĔĀÂ´":5165,"{{":5166,"ā\\":5167,"^Âķ":5168,"Ã¾Ãĵ":5169,"ĕÂĿ":5170,"Â¸Âİ":5171,"Bp":5172,"Â£ÂĻ":5173,"ÃºÂµ":5174,"qÃ¹":5175,"oÃĿ":5176,"ėĝ":5177,"}Â¿":5178,"ÂĴ(":5179,"ÂªÃŃ":5180,"lP":5181,"Â¤ğ":5182,"ÃİX":5183,"EF":5184,"Ã²Ã®":5185,"Ã§n":5186,"GQ":5187,"ďÂĻ":5188,"Jv":5189,"ÂĳÂ´":5190,"Rz":5191,"ĎÂ§":5192,"ÂľÂĲ":5193,"ÂªÃ¶":5194,"+Âĸ":5195,"yÃħ":5196,"GL":5197,"JZJ":5198,"ăÂĢ":5199,"cP":5200,"ġ|":5201,"Ãľs":5202,"Ã²Ãĺ":5203,"ĀÂĻ":5204,"Â¥Âį":5205,"ÃļI":5206,"ÂĶĀÂ´":5207,"ĕÂ·":5208,"Ã°j":5209,"ÃĨv":5210,"Ā>ÂĬ":5211,"(?":5212,"Â¶ÂŁ":5213,"qÃ¥":5214,"ÃłÃ¦":5215,"ÃµÃı":5216,"ÂĴĀ":5217,"Ã¼Ã¾":5218,"Â»ė":5219,"Â¦:":5220,"=@":5221,"BÃĦ":5222,"Ã·_":5223,"Â¶ď":5224,"60":5225,"ÃĿÃĽ":5226,"oÃĴ":5227,"Jz":5228,"ĕ`":5229,"ĕ*":5230,"ÂªÃĦ":5231,"Ã²Ã¤":5232,"Âºh":5233,"ÃīÃ©":5234,"'Âı":5235,"ĠÃĲ":5236,"Ue":5237,"Â¥!":5238,"ÃİÃĴ":5239,"$Â·":5240,"ÂĶÂĨ":5241,"<Â·":5242,"ÃĬH":5243,"Â«ÂĮ":5244,"ÃĸÃ¿":5245,"ET":5246,"ÂĹę":5247,"ÂĺĎ":5248,"mÃĮ":5249,"Â¤Âĸ":5250,"Kr":5251,"in":5252,"Ã§R":5253,"ĘĐ":5254,"Ã·ÂĽ":5255,"ġ{":5256,"ěğ":5257,"ÃĸÂµ":5258,"Xw":5259,"$Âĸ":5260,"ÂģÂ¸":5261,"MY":5262,"PÃĢ":5263,"ĕĞ":5264,"Ee":5265,"yÃ§":5266,"Ã·Â¬":5267,"Ã²Ã§":5268,"\"Â©":5269,"Ã¦F":5270,"ÃīÃª":5271,"PA":5272,"Â¥.":5273,"HÃĴ":5274,"ÃįF":5275,"ÃĶt":5276,"ĘÂĲ":5277,"Â¥`":5278,"ēÂĢ":5279,"0Â¹":5280,"OÃº":5281,"ÃĽÃĪ":5282,"ÃĨW":5283,"Â¢Â·":5284,"Pr":5285,"Uo":5286,"%-%":5287,"ĄÂ¥":5288,"Dc":5289,"jÂµ":5290,"ÃĩÃ®":5291,"Âĳġ":5292,"Â£ÂĬ":5293,"\"Â¡":5294,"Ġ~":5295,"Kq":5296,"$Ā":5297,"xÃµ":5298,"Â´Âį":5299,"āÂ±":5300,"Cu":5301,"ÂĨ=":5302,"Ã½ÃĲ":5303,"Â¤Â¤":5304,"ÂĨĄ":5305,"QÃĵ":5306,"&ÂĴ":5307,"Ē@":5308,"\"Â¶":5309,"SÃļ":5310,"ćÂĮ":5311,"ÃĢÃ¼":5312,"ÃĳÃ¥":5313,"'Âķ":5314,"nÃħ":5315,"%ÂĪ":5316,"\\Ğ":5317,"NÃ¦":5318,"ĔÂĩ":5319,"|Â¬":5320,"Ãĳp":5321,"Ã¤i":5322,"ďÂĽ":5323,"Ě}":5324,"Ġ8":5325,"ÂĶÂĮ":5326,"Ã£i":5327,"xÃ¢":5328,"ÂĬÂ©":5329,"ÂĿÂĩ":5330,"@Âĩ":5331,"ēÂŁ":5332,"xÃħ":5333,"ÂĵÂĥ":5334,"Ã³ÃĪ":5335,"%Â·":5336,"RÃ®":5337,"Â¤Âı":5338,"Ã£Ã»":5339,"ăÂ¿":5340,"Â£ĝ":5341,"ĕ&":5342,">Ã·":5343,"RB":5344,"Ã¹d":5345,"_Â´":5346,"%ĀĔ":5347,"ZI":5348,"jÂª":5349,"ÃªG":5350,"]Â¸":5351,"ÃĶv":5352,"ÃĪÃľ":5353,"Â¢Â¸":5354,"hÃĻ":5355,"TÂµ":5356,"xÃģ":5357,"ĠÂ·":5358,"NÃŀ":5359,"ÃļF":5360,"Ă(":5361,"+Â¸":5362,"ĎÂķ":5363,"ÂĬÂ·":5364,"ęĀ":5365,"bB":5366,";ÂŁ":5367,"ÂıÂ±":5368,"AÃĨ":5369,"Â«Â±":5370,"Â¨\\":5371,"Âľă":5372,"ĕė":5373,"Ã¹r":5374,"-'":5375,"Zl":5376,"XÃ²":5377,"jÃº":5378,"Â¢Â´":5379,"ą:":5380,"ÃīÃ«":5381,"ą=":5382,"#*":5383,"}Â¡":5384,"Â¤Â¶":5385,"ÂľÂģ":5386,"ğÂĸ":5387,"&Âķ":5388,"nÃµ":5389,"ÂĴĎ":5390,"ÂľÂĤ":5391,"nÃ¶":5392,"ÃĵÃ³":5393,"ÃŁj":5394,"VÃ¨":5395,"34":5396,"ÂŃÂ´":5397,"AÃ©":5398,"ÂľÂ·":5399,"ÂªÃį":5400,"Ã§i":5401,"MÃį":5402,"ÃİÃ£":5403,"Â²6":5404,"ÂĲÂĮ":5405,"ÂĢĂ":5406,"19":5407,"Â©ě":5408,"ÃĶÃ±":5409,",ÂĮ":5410,"ÃĹĝ":5411,"ÃĤÃ¿":5412,"dv":5413,"Ãĭo":5414,"Ã»Ãĺ":5415,"ÃĥÃ¥":5416,"Ã´ÃĪ":5417,"ÃķÂº":5418,"ÂĲ?":5419,"+Ė":5420,",ć":5421,"ÃıÃ¶":5422,"Â©\\":5423,"ÃŁÃ°":5424,"Fv":5425,"Â£Ă":5426,"GÃ¹":5427,"AU":5428,"XÃ¶":5429,"OÃį":5430,"Ãºg":5431,"OÃ½":5432,"HÃ®":5433,"ÃĦÃĴ":5434,"Ku":5435,"Â§Âļ":5436,"Np":5437,"Â©ğ":5438,"$ē":5439,"ÂĢ~":5440,"ÃŁÃİ":5441,"kr":5442,"Ã¬ÃĲ":5443,"Â½2":5444,"Ã¸Ã¾":5445,"IÃ¼":5446,"ÃĨÃ¥":5447,"hÃĪ":5448,"LÃ£":5449,"#Ē":5450,"#ÂĴ":5451,"FÃķ":5452,"ĈĄ":5453,"ĠÃĴ":5454,"Âķ<":5455,"Ã´Ãĩ":5456,"ąÂĨ":5457,"ÂİÂ¿":5458,"Ã±Ã®":5459,"mÃ§":5460,"ÂİÂĦ":5461,"+Â»":5462,"+Â´":5463,"SÃ©":5464,"Â£ÂĮ":5465,"Â¶:":5466,"Â©.":5467,"Ã¸Ã±":5468,"Ã³Ã¯":5469,"Âķ`":5470,"ÂľĒ":5471,"ÃĻÃ£":5472,"ÂŁ\\":5473,",}":5474,"ěĘ":5475,"=Ā":5476,"&ÂĮ":5477,"LÃ§":5478,"ÂļÂĤ":5479,"Ãĵi":5480,"bÂª":5481,"ÃĽÂµ":5482,"PÃľ":5483,"ěÂ¿":5484,"_ÂĽ":5485,"Ĕ{":5486,"Â¢Â¥":5487,"ÂŁÂĻ":5488,"ÃħE":5489,"Ã¢i":5490,"aÃľ":5491,"ÃķÂª":5492,"ÂĵÂ»":5493,"ÃĢÃĪ":5494,"Â¬ÂĽ":5495,"ZM":5496,"Ãĩc":5497,"Â·ÂŃ":5498,"ÃĢÃ©":5499,"ÃĢÃģ":5500,"+:":5501,"ÂļÂı":5502,"5Â¹":5503,"'ÂĹ":5504,"TÃĶ":5505,"UÃľ":5506,";Â°":5507,"TÃ²":5508,"ÃĳG":5509,"Ã¾Ãī":5510,"LÃ»":5511,"'Â¡":5512,"Â®~":5513,"fÃĿ":5514,"Ln":5515,"ÃĭÃª":5516,"Âĵğ":5517,"ÃŁÂµ":5518,"Ã£N":5519,"wÃ¼":5520,"Â¿Âĺ":5521,"ÃħM":5522,"jd":5523,"Ta":5524,"ąÂ¢ÂĴÂĬĀ":5525,"!Âĩ":5526,"JÃł":5527,"ÃħC":5528,"Wv":5529,"Â·<":5530,"jV":5531,"&Â¥":5532,"}(Ă":5533,"*Â¨":5534,"ÂķÂĪ":5535,"ÂĺĒ":5536,"āÂĪ":5537,"OÃĭ":5538,"Ã³K":5539,"ÃĪÃĲ":5540,"Il":5541,"Â·Ę":5542,"XÃ´":5543,"Ãīl":5544,"SÃ¦":5545,"Ã¼Ãº":5546,"uÂª":5547,";ÂĹ":5548,"ă)":5549,"Ã³Ãİ":5550,"IÃ¹":5551,"66":5552,"ÃħD":5553,"ÃĶÃ§":5554,"Â¸Â«":5555,"đÂģ":5556,"ÃĨÃĵ":5557,"Ã¹g":5558,"ÂĴĘ":5559,"rÃľ":5560,"Ic":5561,"XÃĲ":5562,"Âļ.":5563,"Ě@":5564,"Âľ)":5565,"oÃĮ":5566,"]Â¬":5567,"Â±Â¤":5568,"Ă?":5569,"ÂŃġ":5570,"ğÂĳ":5571,"ÂīĔ":5572,"JÃĥ":5573,"NÃķ":5574,"Ãªy":5575,"+ÂĲ":5576,"ÃļÃĦ":5577,"[Ę":5578,"SW":5579,"Â«Ĝ":5580,"BÃ®":5581,"Âĸę":5582,"Â©`":5583,".:":5584,"ÃĺR":5585,"Ġę":5586,"ÂŃ$":5587,"BÂª":5588,"eH":5589,"+>":5590,"ćÂŀ":5591,"\"ÂĤ":5592,"Â¸Âį":5593,"ÃĽÃŀ":5594,"ĂÂ¦":5595,"ÂĳÂĪ":5596,"ÃįG":5597,"Ã½ÃħÃ¼":5598,"JÃĬ":5599,"<Â°":5600,"#(":5601,"ğÂĽ":5602,"Ćġ":5603,"Ã¼ÃĻ":5604,"%Â±":5605,"hÃı":5606,"\\ē":5607,"OR":5608,"ÂĴ~":5609,";}":5610,"PÃĿ":5611,"Âĵę":5612,"YH":5613,"Ă}":5614,"ÂĺÃ·":5615,"-Âİ":5616,"Â¬Âĭ":5617,"AV":5618,"CÃ³":5619,"XÃ®":5620,"Ąď":5621,"ÃįE":5622,"]Â¿":5623,"Â¥ĝ":5624,"^:":5625,"Ã¾Ã¼":5626,",Â¤":5627,"ÃĢg":5628,"aÃĲ":5629,"Ĉ>":5630,"ğ{":5631,"qÃ¯":5632,"Â¥ė":5633,"SÃ®":5634,"ĠÃ¦":5635,"Â©Ã·":5636,"tV":5637,"Â«}":5638,"$ÂĤ":5639,"Ġ1":5640,"ÂĸÂļ":5641,"Ã»Ã¾":5642,"pÃĿ":5643,"Ã¸Ã³":5644,"ĕÂķ":5645,"ăĐ":5646,"Â¸ÂĲ":5647,"&Â®":5648,"Ã¨Ãĥ":5649,"ÂĨ#":5650,"&Â£":5651,"oÃŀ":5652,"AÃ£":5653,"ÂĬÂ£":5654,"cF":5655,"ÂŃ=":5656,"ĕ@":5657,"ÃĪÃĴ":5658,"ā?":5659,"nÃ¢":5660,"xP":5661,"Â´Â´":5662,"Âīę":5663,"Â¸Âĳ":5664,"ĆĈ":5665,"Ã»ÃĻ":5666,"Ã¡T":5667,"đ@":5668,"ÃĩÃ¯":5669,"Â¸Â¿":5670,"ĠT":5671,"ÃĽÃ½":5672,"Â¸ă":5673,"&Âľ":5674,"ÃĲb":5675,"ÃģÂª":5676,"ĠÂ¹":5677,"ÃĪQ":5678,"Âĺ?":5679,"!ÂĴ":5680,"nc":5681,"OÃ¦":5682,"Ã£R":5683,"ćÃĹ":5684,"iÃĻ":5685,"ÃģÃī":5686,"ÂļÂĮ":5687,"Â¸=":5688,"Ãĩq":5689,"Â¡Â£":5690,"Ã¤r":5691,"ÂĤÂ¤":5692,"Ã»J":5693,"Ã®ÃĶ":5694,"Uu":5695,"FÃ¦":5696,"nÃ¬":5697,"Â¦Âĭ":5698,"Ã´T":5699,"Â§Â©":5700,"Â°Â®":5701,"HÃĤ":5702,"<ÂĴ":5703,"ÂļÂĵ":5704,"ą$":5705,"Ãĭp":5706,"ÃĢÃ¨":5707,"ÂŃÃ·":5708,"Ã±Ãª":5709,"Ã¶Ãµ":5710,"ćÂİ":5711,"ĘÂĮ":5712,"Jr":5713,"JÃĳ":5714,"ā^":5715,"Ã¼Ãĺ":5716,"Â«Â¶":5717,"Ãĭu":5718,"#Â¶":5719,"Ã®M":5720,"ĜÂ¯":5721,"]Âĭ":5722,"Â¬Â»":5723,"ąě":5724,"Gp":5725,"\"Âİ":5726,"Ga":5727,"Ġ{":5728,"ăě":5729,"ÂĲĔ":5730,"ÃĩÃĵ":5731,"ÃħU":5732,"Cm":5733,"PÃĦ":5734,"Yc":5735,"Ã¹h":5736,"Zm":5737,"ÃĳT":5738,"IKI":5739,"`:":5740,"ÂĲ=":5741,"GÃ½":5742,"ÂĽÂĩ":5743,"sÃª":5744,"|Â´":5745,"Zw":5746,"FÃĥ":5747,".[":5748,".(":5749,"Â«ÂŁ":5750,"_,":5751,"ĠÂģ":5752,"ÃĶd":5753,"Â¦;":5754,"ĂĆ":5755,"vÃ¬":5756,"ÃİE":5757,"Âªw":5758,"ÂĲē":5759,"#Âģ":5760,"ÂľÃ·":5761,"qÃŃ":5762,"\\Â¨":5763,"Ol":5764,"Â¢ÂĬĀ(Â¢ÂĬĀ(Â¢ÂĬĀ":5765,"ÂĶĜ":5766,"nÃľ":5767,"Nr":5768,"Ã±Ã©":5769,".>":5770,"ÃħV":5771,"ÃŃÃ£":5772,"Ã¬k":5773,"$ÂĪ":5774,"EÃļ":5775,",@":5776,"*=":5777,"Yw":5778,"Cg":5779,"Ã³V":5780,"<Â´":5781,"\"Â´":5782,"\\Đ":5783,"Â¦Ć":5784,"$~":5785,"ÂļÂ°":5786,":ğ":5787,"ÂļÂŁ":5788,"#Â±":5789,"ėĘ":5790,"Â¢ÂĬ(ĀÂ¢ÂĬ(ā":5791,"Ã§U":5792,"ÂķÂī":5793,"Â©Â¡":5794,"Ã³Ã®":5795,"Ã¾ÃĬ":5796,"Âŀ[":5797,"Âķ~":5798,"Ă=":5799,"#Â°":5800,"Ã±Ã«":5801,"ÂµB":5802,"Ã¯Ãŀ":5803,"Ã£Ã¸":5804,"NF":5805,"HÃ¹":5806,"tn":5807,"ĂĚ":5808,"Â©Ĝ":5809,"iÃĢ":5810,"Ã¤m":5811,"Ãĭm":5812,"QÃ¹":5813,"+Ğ":5814,"jK":5815,"ÂıÂĻ":5816,"ÃħJ":5817,"Ã§Ã¸":5818,"Ãİw":5819,"*ÂĿ":5820,"nÃĽ":5821,"ÃıE":5822,"ćÂ±":5823,"ÃĬÃĽ":5824,"ÂĬÂ¤":5825,"xÃį":5826,"Â¥ğ":5827,"jU":5828,"@)":5829,"ÃłÃ¾":5830,";[":5831,"Ã©D":5832,"Ã±I":5833,"Ã¡R":5834,"EÃľ":5835,"hÃŀ":5836,"qX":5837,"Â¥$":5838,"ÂĢ`":5839,"Â¤=":5840,"Â·Âĸ":5841,"eX":5842,"ďÂ¯":5843,"+)":5844,",Â¿":5845,"'ÂĶ":5846,"ÂĵÂĳ":5847,".Ĉ":5848,"vÃĳ":5849,"ÂªÂª":5850,"UÃĽ":5851,"Â«~":5852,"?ÂĹ":5853,"_ÂĹ":5854,"tR":5855,"ąÂĩ":5856,"ÃŃÃ´":5857,"sÃ½":5858,"ÂĤ(":5859,"\\Â¶":5860,"Oc":5861,"NÃł":5862,"Â¡Ĕ":5863,"ė$":5864,"ĒĈ":5865,"ĠÃ·":5866,"HÃ¢":5867,"ÂĢÂ±":5868,"ÃŁÃľ":5869,"Â¥Ė":5870,"ĕÂ£":5871,"Âŀ@":5872,"Ã©KH":5873,"eP":5874,"Ãĥg":5875,"aÃĶ":5876,"ĒĔ":5877,"Â´Âĳ":5878,"pÃĺ":5879,"Â¸'":5880,"YA":5881,"xÃ¦":5882,"Ă;":5883,"Â¸Â£":5884,"EA":5885,"Â¡ÂĪ":5886,"Â»Â¶":5887,"Â¤ÂŁ":5888,"Ã¥Ãĩ":5889,"Ã«ÃĶ":5890,"/ÂĻ":5891,"?_":5892,"Â¥Â¶":5893,"Âīġ":5894,"ěÂ·":5895,"Ã©Ãĵ":5896,"Ã¤Ã®":5897,"ĕĒ":5898,"ÃĳÃ¦":5899,"Â©Â¢":5900,"ÂĤÂ§":5901,"79":5902,"+Âģ":5903,"&Âį":5904,"Ã´Q":5905,"Â½4":5906,"āÂĩ":5907,"Â¤Ė":5908,"Ã³P":5909,"ĕÂı":5910,"ÂĶĐ":5911,"Ãľr":5912,"*ć":5913,"Ã»ÃĮ":5914,"Â¨^":5915,"UÃĺ":5916,"Â«Ď":5917,"ĆÂģ":5918,"Â£Âİ":5919,"Ã²h":5920,"Ġs":5921,"UÃĬ":5922,"NT":5923,"vÃļ":5924,".ā":5925,"ÃĮQ":5926,"ED":5927,"ÃŃÃĢ":5928,"ÂĶÂĲ":5929,"Â¥ÂĨ":5930,"ÂµZ":5931,"ÂŃĘ":5932,"AP":5933,"Âĺď":5934,"by":5935,"Ã§H":5936,"ic":5937,"nO":5938,"ÃĪc":5939,"pÃĬ":5940,"Ãľt":5941,"Ã§Ãĵ":5942,":Âı":5943,"Ã²I":5944,"lu":5945,"ÂŃĜ":5946,"Ã±J":5947,"Ã·Âĵ":5948,"*Â¶":5949,"AL":5950,"Ã¡K":5951,"$Âī":5952,"FÃĢ":5953,"wÃį":5954,"rÃĽ":5955,"hÃĩ":5956,"'Âģ":5957,"eÃı":5958,"SÃ½":5959,"$}":5960,"Ãºc":5961,"Â§}":5962,"Âĭā":5963,"rÃĬ":5964,":ÂŁ":5965,"ym":5966,"\"Â±":5967,"ÃİÃ®":5968,"MÃĦ":5969,"ćÂĥ":5970,"pÃĽ":5971,"Â¦ÂĹ":5972,"]Âĩ":5973,"ěÂ¶":5974,"Ã³G":5975,"$Đ":5976,"Ġm":5977,"ĔÂ¿":5978,"ÃĭOÃ®":5979,"SG":5980,"ÃĭÃ¦":5981,"Ã§I":5982,"ÂŀĈ":5983,";ÂĽ":5984,"Â»ÂĹ":5985,"&ÂĻ":5986,"dm":5987,"-Â·":5988,">Â´ā":5989,"Âı^":5990,"#>":5991,"ÂĲÂ¨":5992,"ÂļÂī":5993,"ćÂ®":5994,"Â©Ě":5995,"Ã§Ãª":5996,"sÃ¦":5997,"ĔÂĵ":5998,"Eu":5999,"vÃħ":6000,"~ÂĶĀ":6001,"ćĞ":6002,"Â¦@":6003,"VR":6004,"Ã¹Ã¸":6005,"ÃĩÃĶ":6006,"Â»ÂĪ":6007,"\"Â°":6008,"nb":6009,",[":6010,"Jw":6011,"ÂĤġ":6012,"~Â§":6013,"LT":6014,"ÃŀÃķ":6015,"Ĝ)":6016,"ďÂĸ":6017,"Ę>":6018,"Â¥ę":6019,"ěě":6020,"JB":6021,"ÂĭÂĢ":6022,"nÃĨ":6023,"hÃ£":6024,"HH":6025,"AÃļ":6026,"FÃĿ":6027,"ĔÂĥ":6028,",ā":6029,"nÃģ":6030,"Â¥;":6031,"Ã±Ã²":6032,"Ã¸Ã»":6033,"ÃĮI":6034,"Ã§o":6035,"ĔÂģ":6036,"ĜÃ·":6037,":Âľ":6038,"Âķ\\":6039,"Ã¹Ã¬":6040,"Â¥đ":6041,"ÃĪb":6042,"*Â£":6043,"ÂĹ`":6044,"Ã²ÃĵÃ»":6045,"Â®[":6046,"Â¸ÂĴ":6047,"!Â·":6048,"YÂº":6049,"ÂĮÃ·":6050,"ÂĲ[":6051,"Â¬ÂĬ":6052,"Â¦Âı":6053,"ÂŃ)":6054,"ÃĶÃī":6055,"@Âī":6056,"XÃ³":6057,"yÃµ":6058,"*Â¥":6059,"ÃįD":6060,"Â©Ğ":6061,"*Ė":6062,"ĕă":6063,"ĂÂ°":6064,"ÃĪS":6065,"ÃĢÃ«":6066,"78":6067,"ÃĴÃ¹":6068,"Âİā":6069,"hÃİ":6070,"dÃľ":6071,"Â¦ÂĬ":6072,"ćÂĵ":6073,"~Â´ā":6074,"?ÂĦ":6075,"ąÂĺ":6076,"Ã£w":6077,"El":6078,"Â¥'":6079,"ÃĦr":6080,"@>":6081,"WÃ®":6082,"+}":6083,"iÃľ":6084,"Vv":6085,"ę\\":6086,":/":6087,"*ė":6088,"QÃĽ":6089,"`{":6090,".}":6091,"Â¡ÂĨ":6092,"zd":6093,"Â¤ÂĢ":6094,"Â¯Â¿":6095,"iÃ¶":6096,"OÃ»Ã¨":6097,"Ha":6098,"pÃľ":6099,"Cq":6100,"ÂŁ,":6101,"Ē}":6102,"ĚÂĨ":6103,"ĕÂĹ":6104,"JF":6105,"zZ":6106,"JI":6107,"XÃº":6108,"Â¤Âŀ":6109,"#Đ":6110,"HÃł":6111,"ÂķĀ":6112,"Ã¤q":6113,"+ē":6114,"ÂŁ_":6115,"Â¥Ę":6116,"Â¨ĝ":6117,"ÃļÂª":6118,"ÃĹ=":6119,"Ã´Ã£":6120,"NÃ¡":6121,"ÂķÂĻ":6122,"rÃĿ":6123,"AS":6124,"Â¤Ć":6125,"ÃĮÃĬ":6126,"Â¤ÂĤ":6127,"Ãĩo":6128,"HÃĳ":6129,"AÃ³":6130,"Â·Âĳ":6131,"ėđ":6132,"Ã»Ãĸ":6133,"ÃĮR":6134,"nÃ¡":6135,"Kt":6136,"Ã½Ã§":6137,"Ã¹j":6138,"ĎĀ":6139,"Ã±R":6140,"ĔÂ¶":6141,"Ã·ÂŁ":6142,"Ãĵh":6143,"ÃħO":6144,"ÂĸÂĽ":6145,"Â¦Â¶":6146,"ÃĵI":6147,"%Â»":6148,"cÃĽ":6149,"ą_":6150,"Â«ÂĲ":6151,",ÂĦ":6152,"ÃĮU":6153,"#!":6154,"VU":6155,"ÂĬ(ā":6156,",Ć":6157,"ÃµÃ¼":6158,"ÃįÃ¾":6159,"Â±$":6160,"ÃĺÃ¢":6161,"CI":6162,"ÂĮÂ·":6163,"~ÂĶā":6164,"ĝĔ":6165,"đÂļ":6166,"Â°Â§":6167,"vÃ²":6168,"Vm":6169,"|Â¨":6170,"ĕÂĺ":6171,"Â«Ă":6172,"ÃŃÃ«":6173,"Gc":6174,"jÃ¥":6175,"Sw":6176,"Ã¤s":6177,",ÂĪ":6178,"pÃĻ":6179,"Ã½Ãı":6180,".Â£":6181,"Ď>":6182,"ćÂŁ":6183,"+ÂĤ":6184,"ěÂŁ":6185,"JM":6186,"ÂİĀ":6187,"Ã¤Ãĩ":6188,"@Â¬":6189,"ÃĪÃ¾":6190,"ÃģÃ¼":6191,"Ãļy":6192,"EK":6193,"jM":6194,"FT":6195,"ĕď":6196,"~Â£":6197,"ÂĬÂĪ":6198,"kÃ´":6199,"Ã³Ã²":6200,"ÃĬÃĬ":6201,"ÂļÂĻ":6202,"ĠÃķ":6203,"Ã»b":6204,")ÂĨ":6205,"ćÂ¦":6206,"Â©ă":6207,"tÃį":6208,"ĠÃ¨":6209,"vÃ¶":6210,"đÂ¸":6211,"ÃĿÃı":6212,"Ã²Ãı":6213,"ÃģÃĢ":6214,"ÃĲf":6215,"ĆÂ¢":6216,"Ĉĝ":6217,"Ã¹Ã´":6218,"JÃĦ":6219,"WÃ¯":6220,"JH":6221,")Â¸":6222,"ēġ":6223,"Â·'":6224,"ÂĳÂĩ":6225,"Â«$":6226,"Ĝ(":6227,"Ě`":6228,"ÂľÂ°":6229,"Ã¥Ãľ":6230,"Â©Â®":6231,"ZO":6232,"ĔÂĭ":6233,"Jl":6234,"Â¤{":6235,"Âķ?":6236,"Ã±Ãĸ":6237,")ą":6238,"Â©=":6239,"ÂĳÂī":6240,"ÂįÂĺ":6241,"co":6242,"āÂĽ":6243,"Ã¡A":6244,"ÃŀÂª":6245,"+&":6246,"FP":6247,"ĆÂŃ":6248,"TT":6249,"Â«ÂĴ":6250,"Fb":6251,"ÃĪÃĺ":6252,"Â«(":6253,"ÃŃA":6254,"ÂĬÂĽ":6255,"ĞÂĶ`":6256,"ÂµW":6257,"ĕÂģ":6258,"@ÂĨ":6259,"/Â¿":6260,"dÃł":6261,"Ã»Ã¶":6262,"ăÂ¶":6263,"ĂÂĤ":6264,"Ã²O":6265,"ÂĮÂ®":6266,"ÃĮÂª":6267,"ÂĻ!":6268,")Ĕ":6269,"Â»Âī":6270,"ÂļÂ®":6271,"Rr":6272,"%Â°":6273,"ÃĽÃĨ":6274,"ĒÂĬ(":6275,"Â¤Âĥ":6276,"FÃĬ":6277,"ĠÃ®":6278,"*Âķ":6279,")ÂŃ":6280,":ď":6281,"Â©Ĉ":6282,"\"Â¦":6283,"hÃĢ":6284,"ÃģÃ©":6285,"ÂĹĘ":6286,"Ã»ÃĿ":6287,"Ãĭt":6288,"sÃ¥":6289,"iE":6290,"*Ā":6291,"Â£Âŀ":6292,"Ã·Â¢":6293,"ÃĮÃĵ":6294,"ć>":6295,"đÂĵ":6296,"$Â¶":6297,"Â»}":6298,"UP":6299,"ÂĬÂ¨":6300,"ÂµG":6301,"+Âĵ":6302,"MM":6303,"NÃĴ":6304,"Â©Â´":6305,"Ã·[":6306,"ÃªÃĩ":6307,"NÃĳ":6308,"ÂĲÂľ":6309,"ĄÂį":6310,"ÂıÂ§":6311,"ćÂ¥Ā":6312,"ÂİÂĢ":6313,"-&":6314,"Ãºt":6315,"Ã¹Ã«":6316,"xÃĨ":6317,"\\ÂĤ":6318,"ĎÂĩ":6319,"ēÂĵ":6320,"gÃ¥":6321,"#Â®":6322,"!Ę":6323,"BÃĬ":6324,",ÂĴ":6325,"?ÃĹ":6326,"+ÂĢ":6327,"Â«Âĳ":6328,"Ã§Q":6329,"ÃĪÃ¬":6330,"Ãıc":6331,"Ã¹s":6332,"Â¤[":6333,"Ãµc":6334,"Â½6":6335,"ÃĪÃĻ":6336,"ġÂĦ":6337,"Âļ~":6338,"Â£Â¨":6339,"Â©&":6340,"Ć@":6341,"jA":6342,"ěÂ¨":6343,"đÂĴ":6344,"Ãļr":6345,"ÃµÃ´":6346,"+\"":6347,"lÃŃ":6348,"nI":6349,"Ã¬Q":6350,"gÃ²":6351,"ÃĴÃ®":6352,"ÂĲĖ":6353,"nÃĢ":6354,"yr":6355,"UÃĶ":6356,"ÃµÃ¶":6357,"Âķ>":6358,"ÂĻ%":6359,"ÃĩÃľ":6360,"Zp":6361,"ēÂģ":6362,"ÂŃÂ¸":6363,"JO":6364,"bX":6365,"CV":6366,"Ć{":6367,"ÂĲ~":6368,"aI":6369,"UÃ®":6370,"vÃ¢":6371,"ĈÂ¡":6372,"Dd":6373,"Â£Ę":6374,"Rp":6375,"Â£Â·":6376,"?:Ā":6377,"ÃĪV":6378,"FÃ¥":6379,"ÂĻğ":6380,"*ā":6381,"Ďą":6382,"}ĔĀ":6383,"#Âį":6384,"ÂıÂ¶":6385,"Zt":6386,"Uc":6387,">ÂĶā":6388,"ÂĬĂ":6389,"Â¤Â§":6390,"jO":6391,"!Âķ":6392,"Â¢Â±":6393,"ĕÂ±":6394,"ÃĮq":6395,"Â«)":6396,"Âĩğ":6397,"41":6398,"Ě<":6399,"Â©ą":6400,"ÃĪÃĦ":6401,"ÃĺÃ¦":6402,".@":6403,"SÃ¥":6404,"ÃļO":6405,"Â»Â°":6406,"iÃĤ":6407,"ĠÃ°":6408,"ÃĴÂµ":6409,"LÃ²":6410,"Ãłs":6411,"+;":6412,"ÂıÂ·":6413,"HÃ¬":6414,"Er":6415,"Â«ė":6416,"*Â¯":6417,"ÂŃ/":6418,"FÃĸ":6419,"Ã§P":6420,"Ã´ÃĢ":6421,"ēÂĴ":6422,"RÃĻ":6423,"ĠÂ±":6424,"Ã¤Ã¼":6425,"&ÂĹ":6426,"xÃī":6427,"ÃĶl":6428,"Â¦ÂĶ":6429,"ÂįÂ´":6430,"iÃģ":6431,"ěę":6432,"Ãµb":6433,"ES":6434,"!ę":6435,"ăĖ":6436,"āÂĥ":6437,"ÂĤĘ":6438,"ÂĲÂ®":6439,"Â½7":6440,"BÃĴ":6441,"aÃĩ":6442,"Ã³Ã«":6443,"Fc":6444,"UÃī":6445,"(<":6446,"%ÂĶ":6447,">ġ":6448,"Fe":6449,"ďĔ":6450,"IÃľ":6451,"Ã½T":6452,";~":6453,"*Â§":6454,"Âĩę":6455,"Â»ę":6456,"ÃĿÃĢ":6457,"ÂŁÂį":6458,"HÃ¨":6459,"Â¤,":6460,"ÃĮÃĽ":6461,"'Â¿":6462,"ĞÂĶĀ":6463,"Ã¡P":6464,"ÃĶs":6465,".=":6466,"Â£-":6467,"ir":6468,"\"Â·":6469,"ÂļÂĽ":6470,"ju":6471,"ēÂı":6472,"Â¸$":6473,"ēÂŀ":6474,"ÃĿÃĨ":6475,"+Ĝ":6476,"HX":6477,"ÂĬ[":6478,"ĐĎ":6479,"ÂķÂĶ":6480,"QÃµ":6481,"đÂ±":6482,"ĝ?":6483,"Ãªz":6484,"JÃ¿":6485,"Â»ÂŁ":6486,"ĕÂĳ":6487,"ÃŁÃ´":6488,"ÃĪÃ»":6489,"ÃĪÃŃ":6490,"lm":6491,"ÂįÂı":6492,"ÃĦq":6493,"Ą?":6494,"(ğ":6495,"IL":6496,"Ã¾ÃºÃ¿":6497,"ÂŃ>":6498,"ÃĿÃ©":6499,"Â«Âı":6500,"ĆÂĻ":6501,"ÂĢ@":6502,"Ã¬Ã£":6503,"ÂĲÂ±":6504,"āÃĹ":6505,"ÃĨÃ¦":6506,"Â¨,":6507,"ą\\":6508,"Â»Âľ":6509,"cÃ®":6510,"+ğ":6511,"`}":6512,"NÃ¿":6513,"Âļ,":6514,"ĆÂ¡":6515,"ĠÂĸ":6516,"ÃĵÃ¦":6517,"Ky":6518,"Ã¹Ã¯":6519,"ĆĄ":6520,"Â¨'":6521,"ÂŁ/":6522,"EÃ¾":6523,"Â½Â³":6524,"Â«Âľ":6525,"Â¸#":6526,"ÂİĘ":6527,"Â«[":6528,"aÃı":6529,"ÂłÂł":6530,"ÂĨ$":6531,"ÃºÃ§":6532,"AM":6533,"ÃµÃ£":6534,"gp":6535,"~Âĥ":6536,"Đ}":6537,"56":6538,"rÃ§":6539,"ćÂĸ":6540,"ĕÂĶ":6541,"Â¬Ę":6542,"+Ă":6543,"ĆÂĴ":6544,"QB":6545,"&=":6546,"TÃ¶":6547,"ÂĦÂĮ":6548,"ÃģÃ«":6549,"ĕ'":6550,"ÃįL":6551,"rÂª":6552,"Â¥Ē":6553,"Ãľp":6554,"VÃĿ":6555,"HÃļ":6556,"ĝĈ":6557,"Ã¡J":6558,"Â²9":6559,"ćÂı":6560,"Ã³ÃĤ":6561,"ZD":6562,"Â¤Âģ":6563,"ÃĽÃī":6564,"ÃĮc":6565,"bÃĩ":6566,"FÃŁ":6567,"Ã¬ÃĴ":6568,")Â¥":6569,"ď_":6570,"ÂĵÂ´":6571,"Â«Â·":6572,"lÃĴ":6573,")ÂĽ":6574,"ć;":6575,"Ġq":6576,"&Âŀ":6577,"Â¦Â¿":6578,"iÃĨ":6579,"Ą}":6580,"GS":6581,"Â°?":6582,"&Âĳ":6583,"ÃĵÃ¥":6584,"ÃİÃķ":6585,"ÃģÃª":6586,"ZU":6587,"(\\":6588,"ÂªÃĸ":6589,")Â±":6590,"Â¨-":6591,"ÃĢÃ¾":6592,"ÂŃĈ":6593,"#Âķ":6594,"Đ:":6595,"Â®{":6596,"iY":6597,"ć^":6598,"ÃĽÃĩ":6599,"ĠÂ¸":6600,"Â²8":6601,"5Â¼":6602,"Ã§K":6603,"ÂīÂ¿":6604,"uÃĩ":6605,"ÃŁÃŁ":6606,"ÃĪR":6607,"Ã¹b":6608,"ÂĬ{":6609,"CR":6610,"PÃĩ":6611,"ÃĦÃĳ":6612,"ÂĵĘ":6613,"ÂŃĞ":6614,"Â¯?":6615,"BÃĩ":6616,"Â·ÂĮ":6617,"ÃĮÃĥ":6618,"Wp":6619,"BÃ¿":6620,"+/":6621,"ÃŀÃ½":6622,"ĜĂ":6623,"+!":6624,"Â«Â°":6625,".Ď":6626,"Ã³ÃĬ":6627,"ÃĭÃ²":6628,"Ã¾Ã°Ã¼Ã¨":6629,"āÃ·":6630,"Â¥ÂĪ":6631,"Â£Âĵ":6632,"ÃħÃ´":6633,"ġď":6634,"Ą_":6635,"nÃ¦":6636,"Â«Â¸":6637,"ÂĲđ":6638,"Âªj":6639,"Â§Âİ":6640,"Ã¤Ã°":6641,"}Â¦":6642,"Ct":6643,"Ãķk":6644,"Â¡Âĩ":6645,"%Ĕā":6646,"ÃĮÃĢ":6647,"ĐĀ":6648,")Â¬":6649,"er":6650,"HÃ¼":6651,"ÃĺÃı":6652,"OU":6653,"'Â±":6654,"Ã·ě":6655,"Â¤Ď":6656,"Ćę":6657,"Â§ÂĬ":6658,"QX":6659,"ĆÂŀ":6660,"ÂĥÂĴ":6661,"BÃĽ":6662,"EÃ¦":6663,"nÃĥ":6664,"ĒĎ":6665,"Bi":6666,"Âįğ":6667,"ćÂ°":6668,"yÃī":6669,"ÂĲÂ°":6670,"ÃĶÂµ":6671,"ĕĚ":6672,"Ã´Ã§":6673,"Ã¬Ãĭ":6674,"Â¦Âŀ":6675,"ą?":6676,"Tv":6677,"Â¡Âī":6678,"Ã³Ãĩ":6679,"%Âį":6680,"ĠÂ¥":6681,"ÃľQ":6682,"fU":6683,"Ãľb":6684,"ā>":6685,"OÃĤ":6686,"$Ă":6687,"PO":6688,"FÃĻ":6689,"ÃľÃ¾":6690,"Â»Â¸":6691,"ÂŃ,":6692,"ĕ!":6693,"Â¨ÂĴ":6694,"lr":6695,"hÃ¤":6696,"Â¦ÂĨ":6697,"Â¤?":6698,"ÃĴR":6699,"nÃł":6700,"ÂªÃħ":6701,"BÃł":6702,"Ã³U":6703,"ÂģÂĤ":6704,"70":6705,"ÃĹĜ":6706,"EÃ¥":6707,"dw":6708,"eÃĽ":6709,"Kv":6710,"Â«\"":6711,"ÃĬz":6712,"ÃĶy":6713,")!":6714,"Â¥Â±":6715,"Â¬}":6716,"Ć>":6717,"tÃĲ":6718,"Â¿ğ":6719,"ÃĮÃĩ":6720,"ÃĶÃº":6721,"ėă":6722,"~Âĩ":6723,"EQ":6724,"Â£Âľ":6725,"eÃĺ":6726,"ĠĔ":6727,"ÂķÂ·":6728,"lÃł":6729,"Ã²ÃĨ":6730,"ā[":6731,"ą'":6732,"Â§Ĝ":6733,"aÃ¾":6734,"Â§Â±":6735,"ÂĦÂĴ":6736,"āÂ¤":6737,"xÃ¤":6738,"Â©Â±":6739,"ÃįJ":6740,"ÂĽÂĨ":6741,"Sd":6742,"(#":6743,"Fw":6744,"XÃī":6745,"Â¨[":6746,"ĠÂ¶":6747,"YI":6748,"ā~":6749,"nÃ§":6750,"ny":6751,"ÂªÃ®":6752,"Â¤Â¦":6753,"ÂĲÂ¬":6754,"ÃĮOÃ¯":6755,"Â¯ġ":6756,"pT":6757,"nG":6758,",ÂĢ":6759,"ÃĽÃĵ":6760,"\"Â¸":6761,",Â¬":6762,"+Âĳ":6763,",Â±":6764,"+ĕ":6765,"Ã²Ãľ":6766,"Ã²ÃĪ":6767,"ÂĲ\\":6768,"Ã¦Ãµ":6769,"ÂĽ$":6770,"oÃ¥":6771,"qG":6772,"/ÂĶ":6773,"rÃº":6774,".~":6775,"ÃģE":6776,"vÃĨ":6777,"FU":6778,"MH":6779,"ÂĸÂģ":6780,"cÃī":6781,"ĀÂ¢ÂĬ(ĀÂ¢ÂĬ(ĀÂ¢ÂĬ(ĀÂ¢ÂĬ(ĀÂ¢ÂĬ(ĀÂ¢ÂĬ(ĀÂ¢ÂĬ(ĀÂ¢ÂĬ(Ā":6782,"Â¤Âī":6783,"Âµj":6784,"ZÃļ":6785,"dÃļ":6786,"Â¢ÂĤ":6787,"Â®}":6788,"Ġ#":6789,",?":6790,"ÃŃÃī":6791,"Ã¥Ãı":6792,"Ã»Ãł":6793,"Ã¾Ã¢Ã¾T":6794,"ā&":6795,"SÃª":6796,"ÂļÂĶ":6797,"ÃĴQ":6798,"Â®Ĉ":6799,"ĔĂ":6800,"ÂĹ$":6801,"ĔÂİ":6802,"YT":6803,"Cp":6804,"Ãķb":6805,")=":6806,"ÂĲ@":6807,"Ã£ÃĬ":6808,"Â»ÂĮ":6809,"Ãĥp":6810,"ÂĻĜ":6811,"ÃİÂª":6812,"ÃĺÃĨ":6813,"ĝÂĪ":6814,"ÃĻÃ¶":6815,"'>":6816,"ÂļÂĢ":6817,"Ã¯Ã¶":6818,"ÃĿÃį":6819,"Ã½Ãº":6820,"ěĜ":6821,"Ğ`":6822,"hÃĪÃµ":6823,"ÃİÃł":6824,"is":6825,"Ã¹y":6826,"Â¥ÂĶ":6827,"ÃĮÃĦ":6828,"72":6829,"ÃĭÃ³":6830,"Ã«D":6831,"+Â·":6832,")ÂĶ":6833,"ÂŃÂĮ":6834,"Ġa":6835,"ÃĹÂŁ":6836,",Âĥ":6837,"Â¦Â¢ÂĢ":6838,"ÂĳÂĿ":6839,"Âĸğ":6840,"ÃĿÃī":6841,"ă!":6842,"ÃĺÃ¤":6843,"PÃĽ":6844,"Â³4":6845,"Ã«FG":6846,"Â²Â¹":6847,"UW":6848,"Â»ÂĢ":6849,"MÃĩ":6850,"xÂª":6851,"đÂĢ":6852,"Ur":6853,"jm":6854,"ĆÂį":6855,"BÃ¤":6856,"āÂī":6857,"JÃ®":6858,"Ã±Ãĩ":6859,"Â¦Â§":6860,"Â£=":6861,"Ã¶Ã¢":6862,"Â»Ę":6863,"je":6864,"|Â°":6865,"Ą^":6866,"Rh":6867,"Ã²H":6868,"NÃľ":6869,"Ã±F":6870,"Ã¹k":6871,"Â¨ğ":6872,"ÂĬÂķ":6873,"jL":6874,"Sh":6875,"Ko":6876,"Â«ď":6877,"TQ":6878,"Âĩ?":6879,"ÂĬÂĶ":6880,"RD":6881,"Â»[":6882,";Âĵ":6883,"JÃ¤":6884,"NÃ®":6885,"ĝġ":6886,"ÂıÂķ":6887,"Rs":6888,"Â¥>":6889,"xÃĢ":6890,"ÂļÂ¬":6891,"Ă/":6892,"ą<":6893,"Â¤Ĝ":6894,"ÃºW":6895,"Âĸ%":6896,"Â£ď":6897,"ÃıÃĶ":6898,"Ã£Ãª":6899,"ÂĨ<":6900,"ĆÂ«":6901,"Â§Â¸":6902,"ÂļÂķ":6903,"Ã£v":6904,"KIK":6905,"Go":6906,"Ã¯Ã´":6907,"Ã»Ã´":6908,"ÂĽġ":6909,"ĕđ":6910,"ÂĬÂģ":6911,"Â¥(":6912,"ÂºP":6913,"cÃ´":6914,"pX":6915,"EH":6916,"Ã¶Ã¦":6917,"~Â´Ā":6918,"lÃ¤":6919,"NX":6920,"oÃļ":6921,"ÂĳÂ±":6922,"mb":6923,":ġ":6924,"jÃĳ":6925,"ÃĪr":6926,"Ã«Ãı":6927,")Â®":6928,"ÃĲÃ¦":6929,"Ãºu":6930,"wÃ»":6931,"nÃ´":6932,"Âľ|":6933,"ĕ>":6934,"Â¦Âģ":6935,"ÂĨ@":6936,",`":6937,"58":6938,"^*":6939,"ĔÃĹ":6940,"ě{":6941,"eV":6942,"Â£Ē":6943,"+đ":6944,"NÃ¥":6945,"Ã½ÃĽ":6946,"Â¦Ĉ":6947,"ÃŁC":6948,")'":6949,"ÃĺÃĽ":6950,"Ãĭr":6951,"BH":6952,"Ã³Ãģ":6953,"$ÂĦ":6954,"ÂĩĘ":6955,"YW":6956,"ÃĢS":6957,"lT":6958,"UÃĿ":6959,"+Ě":6960,"ÂĬÂŁ":6961,"iV":6962,"Ã£L":6963,"ÂĻÂ¿":6964,"Â¨=":6965,"wÃļ":6966,"JL":6967,"ÃŃÃģ":6968,"Ã¹X":6969,"nÃ®":6970,"ÂĻ\"":6971,"ÂĴ>":6972,"\\Â°":6973,"FÃĩ":6974,"ÂĥÂ¸":6975,"ÂļÂĹ":6976,"Ãłr":6977,"ÂĲ(":6978,"sÂµ":6979,"iÃµ":6980,"ch":6981,"yÃ©":6982,"jD":6983,"Â´ÂĿ":6984,"ĎĘ":6985,"QÃģ":6986,"ÂıÂ°":6987,"ÂĮ|":6988,"Â§Â°":6989,"ÂµM":6990,"ė#":6991,"Âĵ'":6992,"ÂıÂŁ":6993,"gÃĽ":6994,"fP":6995,"ğ\\":6996,"*Â·":6997,"/ÂĹ":6998,"Â¡Â¸":6999,"ÂµD":7000,"ÂľÂ¶":7001,"ÃİÃ¢":7002,"ÃħT":7003,"da":7004,"ÂĿÂĢ":7005,"ÃĬI":7006,"HÃµ":7007,"31":7008,"ÂĺÂĩ":7009,"Ã¾ÃĴ":7010,"Ã²ÃĲ":7011,"Ãĭq":7012,"\\Â·":7013,"?ÂĿĀ":7014,"ÂªÂº":7015,"ě?":7016,"Âļ{":7017,"ÂĦÂĢ":7018,"ÃŃb":7019,"Ã²ÃĶ":7020,"Âı)":7021,"ÃŃB":7022,"ÂĳÂĹ":7023,"Je":7024,"ĠÃ¢":7025,"lt":7026,"!$":7027,"Â¥#":7028,"Â»ÂĶ":7029,"ÂĥÂ·":7030,"JQ":7031,"Um":7032,"XÃĨ":7033,"Â¨Ą":7034,"ÂŃ]":7035,"Â®>":7036,"nÃŀ":7037,"Â¹Â½":7038,"ÂĺÂĨ":7039,"Âļ%":7040,"Ã¦Ãĩ":7041,"nÃļ":7042,"ÃĹę":7043,"Ui":7044,"ÃĪÃ®":7045,"Uw":7046,"SÃī":7047,"Â¦Âľ":7048,"oC":7049,"ÃĳÃ¨":7050,"ÂĬ;":7051,"Ã¸Ã¼":7052,"uÃı":7053,"lÃ®":7054,"jÃĸ":7055,"RM":7056,"ěć":7057,"Â´}":7058,"Ã¶Ã´":7059,"RÃĥ":7060,"ă`":7061,"Đć":7062,"Â£Ą":7063,"EC":7064,"Â´Âŀ":7065,"nÃķ":7066,"ąÂ¸":7067,"Ã·Â¡":7068,"Âĸ@":7069,"ÂĺÂ±":7070,"mÃ¹":7071,"dÃ¤":7072,"Â¨ć":7073,"ÃĬA":7074,"Â¥Â°":7075,"vÃį":7076,"ÃĤÃħ":7077,"oÃ¦":7078,"ÂĬĘ":7079,"Â¦ÂĪ":7080,"*ÂĲ":7081,"cM":7082,"ÂĮÂ°":7083,"SÃĩ":7084,"vÃ¼":7085,"kF":7086,"JV":7087,"jB":7088,"jÃĴ":7089,"vÃ¦":7090,"#ÂĤ":7091,"ÂĵĔ":7092,"ÂªÃª":7093,"ÃķI":7094,"ÃµÃ§":7095,"ÂŁÂ§":7096,"ÂĬĈ":7097,"ÂĻė":7098,"ÂĮ(":7099,"RÃ½":7100,"Ã¯A":7101,"Ã³Ãı":7102,"ÃĿÃ¾":7103,"ÂĬÂĦ":7104,"ĕÂĩ":7105,"Â¼Â¹":7106,"mÃİ":7107,"ÂįÂī":7108,"āĞ":7109,"Zz":7110,"Ã£ÃĶ":7111,"-ÃĹ":7112,"ÃķY":7113,"ÂĽÂ±":7114,"-\"":7115,"ĆÂĳ":7116,"cÃĶ":7117,"Ã¬ÃĽ":7118,")ÂĲ":7119,"ÂķÂģ":7120,"30":7121,"Ã¹Ã¡":7122,"ÂĶ}":7123,",Âĩ":7124,"bH":7125,"Â£\"":7126,"+(":7127,"ěÂĥ":7128,"SÃĽ":7129,"lÃĵ":7130,"ăĎ":7131,"FÃĮ":7132,"'ÂĲ":7133,"EB":7134,"Ã§w":7135,"aÃģ":7136,")Âĵ":7137,"Â©Âĸ":7138,"ÃĻÃĽ":7139,"ÂĺĐ":7140,"Ã¹x":7141,"Ć<":7142,"Â¢Â¦":7143,"Â¬Âį":7144,"qÂµ":7145,"]Âī":7146,"FÃĦ":7147,"ÃįZ":7148,"yQ":7149,"ÂĻď":7150,"ÃĿM":7151,"ĕ.":7152,"ÃĪÃĮ":7153,"Ã§Ã¢":7154,">ÂĦ":7155,"`ć":7156,"ÂĢÂ¸":7157,"jÃĬ":7158,"To":7159,"cÃ¨":7160,"Gr":7161,"āÂĲ":7162,"Ã³z":7163,")Â·":7164,"Â¶ÂĲ":7165,"Ã¡Q":7166,"LD":7167,"qÃ½":7168,"fÃŀ":7169,"ÃĦP":7170,"EÃ»":7171,"ĘÂİ":7172,"Â¸{":7173,"ĠÂķ":7174,"TÃķ":7175,"ÃīÃ¢":7176,"#.":7177,"NW":7178,"ÂĿÂ¬":7179,":{":7180,"HÃ¦":7181,"Ã§ÃĲ":7182,"Â¿/":7183,"AÃ«":7184,"ÂªÃĽ":7185,"\\Âĵ":7186,"Â³1":7187,"ą{":7188,"ĜÂ°":7189,"ÂŃğ":7190,"=[":7191,"hÃĶ":7192,"Â¦Â£":7193,"ÃĻÃĨ":7194,"ÂĻĝ":7195,"vÃ³":7196,"Âĳ~":7197,"mÃ¥":7198,"ÃįO":7199,"Â©^":7200,"ĕÂ¥":7201,"Ã©h":7202,"ÃīÃĪ":7203,"ÂĽĘ":7204,"CÃ²":7205,"ÂĨ;":7206,"Eq":7207,"cÃ«":7208,"ÂĺÂī":7209,"ÃıÃ°":7210,"Âĩĝ":7211,"Â¦ć":7212,"ÂĿ@":7213,",ď":7214,"HÃŃ":7215,"IÃļ":7216,"ÂŁ|":7217,"ÃģÃ¢":7218,"EM":7219,"KP":7220,"Âªr":7221,"Ćā":7222,"ÃĬÃł":7223,"XÃĺ":7224,"Â³Â¹":7225,"Ĕă":7226,"ĖÂĴ":7227,"Â¦(":7228,"Eb":7229,"Â§Âĳ":7230,"dÃĳ":7231,"vÃ¤":7232,"ÃĬG":7233,"#ě":7234,"\\Âĥ":7235,"nÃĳ":7236,")ğ":7237,"Â´ÂĤ":7238,"ĠĄ":7239,"ÃħB":7240,"ęÂī":7241,"AÃ¥":7242,"xÃĪ":7243,"tÃ¦":7244,"ÂĶğ":7245,"Âķ^":7246,"ÃīÃ¤":7247,"ÃİW":7248,"Jk":7249,"Â£ÂĲ":7250,"ĔĞ":7251,"Â§Âĸ":7252,"VP":7253,"\\~":7254,"Ã³Q":7255,"XÃļ":7256,"ml":7257,"ÃľÃ´":7258,"ą&":7259,"Â·_":7260,"ÂļÂĪ":7261,"ÂĹ<":7262,"$Âĭ":7263,"@*":7264,"Â·Ğ":7265,"ÂĽÂ¸":7266,"RC":7267,"'Â¸":7268,"ÃİÃĸ":7269,"11":7270,"]ÂĪ":7271,"ÃĭÃ¥":7272,"Ã®ÃĨ":7273,"eÂº":7274,"JÃĪ":7275,"Un":7276,"Vu":7277,"\\đ":7278,"FÃĲ":7279,":(":7280,"ę%":7281,"(ĀÂ¢ÂĬ(Ā":7282,"ĖĘ":7283,"ÃĮÃĶ":7284,"ÂįÂĢ":7285,"ēÂ¸":7286,"ÂĳÂĸ":7287,"Ã£Ã©":7288,"ćÂ¸":7289,"Â¬ÂĪ":7290,"ĕÂĥ":7291,"Âı_":7292,"ÃĩÃ¤":7293,"ęÂ«":7294,"aÃĪ":7295,"Â´Âĺ":7296,"Ã®ÃĽ":7297,".ė":7298,"Ġ,":7299,"ĔÂ¢":7300,"Â¬?":7301,"ÂķÂķ":7302,";ā":7303,"iÃª":7304,"+*":7305,"@ďÂ¢ÂĻ":7306,"UÃģ":7307,"ÂĬÂĢ":7308,"[}":7309,"ÃĿÃĥ":7310,"Ã§Ãĭ":7311,"Ġ*":7312,"ÃĢn":7313,"#Âĸ":7314,"Ã½Ã¤":7315,"ÃĮW":7316,"ĄÂĪ":7317,"tÃħ":7318,"?ÂķĀ":7319,"đÂ¶":7320,"ÃłÃ²":7321,"Ġ(":7322,"Jh":7323,"bO":7324,"ĎÂĥ":7325,"dq":7326,"ÂīÂ¤":7327,"XÃĽ":7328,"Ġ|":7329,"ÂĮÂ¯":7330,"Ãłq":7331,"tÃ¢":7332,"/?":7333,"Ēā":7334,"cÃ¸":7335,"!Âĭ":7336,"Âľ(":7337,"ĜÂ©":7338,"Ãıo":7339,"^}":7340,"ÃĿI":7341,"&(":7342,"Rv":7343,"ąă":7344,")Âı":7345,"Ã§ÃĽ":7346,")ĝ":7347,"Ãķf":7348,"\\ÂĲ":7349,"ĂĐ":7350,"bG":7351,"Â±Âİ":7352,"ÂŃÂ»":7353,"\"?":7354,"`Ā":7355,"Âµh":7356,"wÃ¶":7357,"ÃļÃŀ":7358,"ÃĿÃħ":7359,"đÂĨ":7360,"Rj":7361,"Â§Â¿":7362,"FY":7363,"Ġ'":7364,"Â±Â¦":7365,"iÃĬ":7366,"Ã©Ãĩ":7367,"@ÂĤ":7368,"xÃ¼":7369,"ĄÂĽ":7370,"ÂĬÂĻ":7371,"ÂĩÃ·":7372,"yg":7373,"Ã¢h":7374,"ÂĿÂĭ":7375,"ÂĦğ":7376,"dÃĶ":7377,"ÃªA":7378,"Ġl":7379,"`~":7380,"kÃ¾":7381,"ĆÂ§":7382,"ÃĴH":7383,"Ã¹Ã¥":7384,"ÂĴ*":7385,"Vc":7386,"Â·ă":7387,"JÃĢ":7388,"IÃĨ":7389,"(Â¢ÂĢĚ":7390,"ÂļÂ»":7391,"ÃıÃ¦":7392,"ÂĦă":7393,"Ã¸Ã½":7394,"42":7395,"TÃ³":7396,"tÃµ":7397,"Â©Â¿":7398,"Ua":7399,"ÃĶÃ¾":7400,"Â¨Â¢ÂĬ":7401,"ĄÂ¶":7402,"ÃŁtÃ½":7403,"ĄĚ":7404,"Ġ?":7405,"ÃĦÃĲ":7406,"Ã¨M":7407,"Ã¬M":7408,"Ã»f":7409,"ÃĿÃľ":7410,"<ā":7411,"ÃĮl":7412,"Â¦Âİ":7413,"vÃ±":7414,"Â¡@":7415,"Â¤ÂĪ":7416,"&Âģ":7417,"Â±Â¿":7418,"Eh":7419,"Â¨Âĸ":7420,"ÃŁg":7421,"Â¥ÂĬ":7422,"OÃ£":7423,"uÃľ":7424,"Ď[":7425,"ÂľĀ":7426,"Ãĩb":7427,"Ć(":7428,",Âĭ":7429,"+Â°":7430,"Cs":7431,"AÃ²":7432,"Âīě":7433,"ÃīÃ³":7434,"Dr":7435,"ĆÂĸ":7436,"Â¥:":7437,"gÃ¯":7438,"wd":7439,"Hn":7440,"ÂĿÂĺ":7441,"ÃĽG":7442,"ÂĬÂĹ":7443,"ÂŁ-":7444,"ęÃ·":7445,"ąÂİ":7446,"Â¶ÂĴ":7447,"ĀÂ¢ÂĬ(ĀÂ¢ÂĬ(Ā":7448,"Ã¹N":7449,"ÂĵÂ·":7450,"ÃµÃī":7451,"LÃ³":7452,"ci":7453,"Jq":7454,"ďÂ¨":7455,"eÃģ":7456,"tÃ´":7457,"ĜĀ":7458,"ÃµÃ«":7459,"ÂļÂĭ":7460,"`ğ":7461,"Âĩ#":7462,"yÃ«":7463,"Â«ÂĤ":7464,"Jn":7465,"Ãĺb":7466,"Â±ğ":7467,"Â´ÂĽ":7468,"ăÂĸ":7469,"HT":7470,"Â¸ć":7471,"vÃ¡":7472,"ÃµÃ¾":7473,"Â´Â·":7474,"Â¶Âı":7475,"@;":7476,"ÃĿÃª":7477,"FB":7478,"Ã¯Ã¼":7479,"uÃħ":7480,"ÂĨ)":7481,"ÂĵÂĤ":7482,".;":7483,"Ã¸G":7484,"\\Â®":7485,"ÃºÃ±":7486,"ÃĮO":7487,"ÃĬÃ¤":7488,"Ã¸Ã°":7489,"ar":7490,"uÃ¦":7491,"-ĔĀÂĺ":7492,"ąÂĭ":7493,"NÃĤ":7494,"!`":7495,"AI":7496,"Qv":7497,"hÃ¶":7498,"Ã¹l":7499,"32":7500,"ĄÂĸ":7501,"QÃĢ":7502,"ÃĺÃĳ":7503,"Â«ě":7504,"Â«:":7505,"Ăġ":7506,"ÃŀZ":7507,"ÂĽę":7508,"Â°Ę":7509,"Â¦=":7510,"zq":7511,"[Âĺ":7512,"Â¸Ğ":7513,"XÃĻ":7514,"Â¬ÂŃ":7515,"Ã¥ÃĽ":7516,"fb":7517,"Â¬{":7518,"}:":7519,"ÃļÃĥ":7520,"ÃĺÃ¶":7521,"ÃĦÃĵ":7522,"XÂª":7523,"*Âŀ":7524,"Â±ÂŁ":7525,"Ã¾ÃºÃ¾t":7526,"Â¶Âĳ":7527,"$|":7528,"Â£Âĸ":7529,"An":7530,"ÂģÂ»":7531,"ee":7532,"lS":7533,"ă.":7534,"Â¢Â§":7535,"ZJZ":7536,"ÃĬÃĢ":7537,"Ã§p":7538,"iÃ²":7539,"YY":7540,"RK":7541,"yd":7542,"UB":7543,"ÃŁÃº":7544,"Ab":7545,"ą@":7546,"$Âļ":7547,"ÃĨÃĽ":7548,"Es":7549,"Ã¹Ãį":7550,"ÂĲ>":7551,"XÃ¢":7552,"Ã©Ãı":7553,"Eo":7554,"lÃĲ":7555,"Â¦Â¯":7556,"Â´ÂĬ":7557,"Âķ-":7558,"IÃİ":7559,"'Â¨":7560,"ÃľO":7561,"XÃ°":7562,"`Âİ":7563,"Ãģq":7564,"ÃªH":7565,"jx":7566,"ÃĤÃ¤":7567,"Ğď":7568,"Xn":7569,"Â¢ÂĬ(Đ":7570,"%ÂĮ":7571,"lR":7572,"2Â¼":7573,"ÂĦġ":7574,"yÃİ":7575,"eÃī":7576,"`Ĝ":7577,"Cr":7578,"Ęġ":7579,"yÃ¦":7580,"-?":7581,"[ğ":7582,"Ã¥Ãī":7583,"(ā(Â¥Â¢ÂĢ":7584,"Ãĥr":7585,"Ăē":7586,"ÂĲÂ¤":7587,"Ã«Ã½Ã¡":7588,"ĘĞÂĤ":7589,"ÃŁh":7590,"57":7591,"dp":7592,"Ėę":7593,"Â¸Ā":7594,"+Âĥ":7595,"aN":7596,"FÃ¼":7597,"GB":7598,"āÂĺ":7599,"Ã£h":7600,"Ãķi":7601,"ÂļÂ¿":7602,"ÃŃÃĿ":7603,"ÃĴm":7604,"IÃģ":7605,"ÂĽÂĪ":7606,"ĔÂĿ":7607,"ÃªW":7608,"ĝÂı":7609,"gb":7610,"ku":7611,"Âĳ\\":7612,"yR":7613,"ÃĺÃµ":7614,";ğ":7615,"Â¥,":7616,"ĕÂĭ":7617,"CO":7618,"ÂĻÂĺ":7619,"_Â»":7620,"ÃĩS":7621,"Â«Âİ":7622,"ÃįU":7623,"gÃĭ":7624,"Â¥Âĺ":7625,"Zr":7626,"ÂĬ=":7627,"Yv":7628,"Ã¾ÃĮ":7629,"ĝ@":7630,"Â¸Ą":7631,"xÃķ":7632,"Ã£o":7633,"ćÂĲ":7634,"gn":7635,"Ăě":7636,"Â±\\":7637,"Ã¹Ã±":7638,"ÂįÂ¬":7639,"ÂķÂĢ":7640,"ĕĈ":7641,"Sv":7642,"mÃ®":7643,"Ē[":7644,"ÃĪW":7645,"ÃłÃ°":7646,"IP":7647,"Â·Â¯":7648,"ÃĶÃĢ":7649,"iÃ¢":7650,"Â£đ":7651,"Ã²F":7652,"ÂįÂŁ":7653,"!Âĸ":7654,"ĕĐ":7655,"*&":7656,"āÂĤ":7657,"BÃĢ":7658,"IÃŀ":7659,"ÃĵL":7660,"VF":7661,"3Â¹":7662,"ā)":7663,"ÂĿÂ»":7664,"51":7665,"ÂŀÂŀ":7666,"Ã¼ÃĿ":7667,"Ãłp":7668,"ÂĩĄ":7669,"Ė?":7670,"Ã²ÃĻ":7671,"Âı|":7672,"cÃ¯":7673,"XÃľ":7674,"Ks":7675,"ÃŃÃľ":7676,"QÃİ":7677,"ĂÂ¶":7678,"ĚÂİ":7679,"Â·$":7680,"!ÂĹ":7681,"ÂķĞ":7682,"mÃĭ":7683,"ÃŀÃµ":7684,"ă,":7685,"ÂĲĜ":7686,"yq":7687,"yo":7688,"ef":7689,"Â£{":7690,"Ãĩs":7691,"YÃļ":7692,"Â¥ÂĴ":7693,"ÂĿė":7694,"ą(":7695,"Ã®Ãķ":7696,"Â«*":7697,"ą.":7698,"Âµr":7699,"ÃĽH":7700,"tÃ£":7701,"mÃĨ":7702,"Â©;":7703,"cq":7704,"kp":7705,"ÂĬÂ¿":7706,"zÃ¶":7707,"ÂªÃĮ":7708,"cÃı":7709,"ÂĽÂ°":7710,"ąÂĶ":7711,">Â¸":7712,"Â®Ď":7713,"Â¨Âļ":7714,"Â¤'":7715,"RÃł":7716,"ĂÂĸÂĴ":7717,"ÃĲÃ¢":7718,"Â¨Ã·":7719,"ÂĺÂĪ":7720,"Ã´Ã¼":7721,"Â¥\\":7722,"Ã§Ã«":7723,"\"Â¯":7724,"RÃĢ":7725,"[ÂĨ":7726,"Â®Ć":7727,"!Âĵ":7728,"ĚÂŀ":7729,"Âĳ$":7730,"ġÂ¯":7731,"cv":7732,"SÃģ":7733,"ÂĮĀ":7734,"kb":7735,"QÃ§":7736,"Ã¤p":7737,"Ãħb":7738,"Ã®ÃĿ":7739,"ěÂ»":7740,"Â´Â¿":7741,"[Âĸ":7742,"XÃ¾":7743,"Âķĕ":7744,"RÃĬ":7745,"Tp":7746,"<ē":7747,"Ã³ÃĮ":7748,"ÃĴI":7749,"Â±Ę":7750,"&@":7751,"+ď":7752,"{~":7753,"JÃ¬":7754,"\"ğ":7755,"cV":7756,"Â·Ą":7757,"Â·ÂĲ":7758,"ą>":7759,"Ã·Âĭ":7760,"SÃĪ":7761,"Ãªq":7762,"MÃĽ":7763,"ÂķÂı":7764,")Ě":7765,"Rx":7766,".Ę":7767,"ÂºÃŁ":7768,"Ãļs":7769,"HÃ«":7770,"QÃķ":7771,"Â¤ĝ":7772,"Ãįh":7773,";Ĝ":7774,".Ĕ":7775,"iÃ¦":7776,"ÃļÃľ":7777,"Ãĩp":7778,"ÃºÃ£":7779,"Â¹Â¹":7780,"59":7781,"ÂŃ<":7782,"ÃŃÃ¹":7783,"NÃĵ":7784,"Ã½r":7785,"ÂļÂĦ":7786,"Â¬ď":7787,"BÃ²":7788,"ÂĤÂĢ":7789,"eÃĿ":7790,"ÂĻ'":7791,"ÃĻÃ¢":7792,"JW":7793,"Ps":7794,"Â«Âĵ":7795,"Ăğ":7796,"Ġ2":7797,"ÃħZ":7798,"ÃŁÃŃ":7799,"Âļē":7800,"ÃŁu":7801,"ÃıÃĵ":7802,")Âİ":7803,"-Âŀ":7804,"Â¢ÂĬ)Ā":7805,"Â¬Ĉ":7806,"ÂĢÂ§":7807,"MK":7808,"Ã¡Y":7809,"Â´Âı":7810,"gÃ¾":7811,"ÂĴÂĶ":7812,"%Âĺ":7813,"ÂĴė":7814,"ÃĻÃľ":7815,"?*Ā":7816,",~":7817,"ÃķK":7818,"cÃĭ":7819,"FÃİ":7820,"Oo":7821,"ÃŃÃĨ":7822,"Et":7823,"Â·#":7824,"ÂīÃ·":7825,"ÂĮÂ¨":7826,"Ğ*":7827,"Âı>":7828,":Âĳ":7829,"Â·ġ":7830,"oÃº":7831,"Ĕ(":7832,"ĝ;":7833,"Ġz":7834,"ÃĬÃ®":7835,"ea":7836,"ĕ?":7837,"ĞÂĶā":7838,":Âİ":7839,"ĂĖ":7840,"jP":7841,"@`":7842,"ÃŃÃİ":7843,"Â£Â§":7844,"ăÂ¦":7845,"Â¤Ā":7846,"Ã¥B":7847,"SÃµ":7848,"Â«;":7849,"Ã¹w":7850,"Âķ]":7851,"+?":7852,"ÃªC":7853,"HÃ²":7854,"ÃŃC":7855,"Ã¶x":7856,"%ÂĨ":7857,"+ÂĨ":7858,"ÂįĞ":7859,"ÂķÂĹ":7860,"Ã³ÃĽ":7861,"50":7862,"jv":7863,"Â©~":7864,"yÃĨ":7865,"RÃĿ":7866,"yÃ¢":7867,"ĝÂī":7868,"ÃĶÃ®":7869,"ÃĬÃ»":7870,"ÃĮd":7871,"HÃ´":7872,"ÃªF":7873,"(Â¢ÂĢ?":7874,"ÂļÂĺ":7875,"Â¤_":7876,"Â«Â»":7877,"[ÂŁ":7878,"QÃĨ":7879,"Ã¥ÃĨ":7880,"ZW":7881,"}Â±":7882,"ÂĦĂ":7883,"*Âį":7884,"ÃįB":7885,"Ã§v":7886,">Â¤":7887,"`?":7888,"Ã¹Ã®":7889,"Ep":7890,"ÃĮN":7891,"mÃĪ":7892,"ÃģÃ¨":7893,"Ã¬Ã»":7894,"bp":7895,"Â£ĕ":7896,"sÃ¸":7897,"ÃĪÃķ":7898,"ÂªW":7899,"gÃ«":7900,"Â¡Âį":7901,"ÂĽÂĹ":7902,"Â¯ĝ":7903,"ÂĳÂĻ":7904,"Ĕď":7905,"Ã³Ã½":7906,"Ã§J":7907,"el":7908,"SD":7909,"ÂĢÂ¤":7910,"ÃŀÃĨ":7911,"Ć\\":7912,"ă|":7913,"Â£ÂĶ":7914,"ĆÂ´":7915,"('":7916,"ÃĪA":7917,"ÃĦÃ£":7918,"MÃľ":7919,"ÂİĎ":7920,"ÂĹĒ":7921,"ÂĽ#":7922,"ÂģÂĨ":7923,"Â±ę":7924,"Oq":7925,"*Â©":7926,"ÂŃĖ":7927,"ÃļW":7928,"Ã¡Ãª":7929,"MÃĻ":7930,"Ã»Ã¸":7931,"ÃĲc":7932,"UÃĪ":7933,"ÃŁy":7934,":?":7935,"ÃĵH":7936,"ÂĳĘ":7937,"fÃĽ":7938,"Âļď":7939,"jÃ£":7940,":Âĥ":7941,"ğ^":7942,"Lh":7943,"Ã¡Âº":7944,"Â¸Âı":7945,"gÃ®":7946,"RÂª":7947,")ÂĤ":7948,"Â¼Â²":7949,"PN":7950,"mÃī":7951,"Â¦Ę":7952,"Ã²Ãī":7953,"go":7954,"ÃĺÃ¾":7955,"ÃĺÃĸ":7956,"Ã±ÃĪ":7957,"Ã£Ãİ":7958,"Ã©i":7959,"Âĸ(":7960,"Ã±Ã¼":7961,"Â¥_":7962,"Ã£I":7963,"RÃ¬":7964,"Â©đ":7965,"*ÂĨ":7966,"Ć~":7967,"Ei":7968,"gÃ°":7969,"ă\"":7970,"ė,":7971,"+ġ":7972,"Â¥<":7973,"Â©ÂĪ":7974,"Xu":7975,">ÃĹ":7976,"Â§-":7977,".$":7978,"zs":7979,"&Â¡":7980,"ky":7981,"\\Ă":7982,"ÂķÂ¤":7983,"Â¬ÂŁ":7984,"Â·`":7985,"ÂĹđ":7986,"ÂĬÂĩ":7987,"ÃĽI":7988,"ÃĺÃł":7989,"rÃĮ":7990,"Âİ>":7991,"Â°ć":7992,"SÃŃ":7993,"fi":7994,"Ã»d":7995,"Ã¹Ã¼":7996,"Ãĺc":7997,"Âī\"":7998,"Â·Â§":7999,"eÃĩ":8000,"ĔĐ":8001,"ÃĤÃĪ":8002,"Ě(":8003,"Â©Âĵ":8004,"Â»ē":8005,"ÃĹÂ¯":8006,"ěÂĤ":8007,"Ĝ|":8008,"ÃĶq":8009,"wÂª":8010,"Ġą":8011,"ě#":8012,"Â·ć":8013,"ĔÂı":8014,")@":8015,"SÃľ":8016,"Â¦ÂŃ":8017,"Â¥@":8018,"!ÂĢ":8019,"Â«Â¨":8020,"ÂĭÂı":8021,"ĠÂĨ":8022,"ÃĢb":8023,"ÂĶÂĴ":8024,"Ã£q":8025,"Ē;":8026,"ÃªÃĦ":8027,"ÂģÂĪ":8028,"VB":8029,"En":8030,"Âľ/":8031,"Ãŀb":8032,"ğÂŁ":8033,"ÂĬĕ":8034,"jÃŃ":8035,"ÂĩÂ¨":8036,"lv":8037,"tÃ§":8038,"<}":8039,"ÂľÂ®":8040,"JÃĽ":8041,"ą%":8042,"Ãŀc":8043,"XÃĵ":8044,"RW":8045,"Â±Â¸":8046,"Cw":8047,"ÃĤÃ®":8048,"<Â¿":8049,"ÂĿÂĥ":8050,"EÃ¤":8051,"+`":8052,"ÃĺÃĪ":8053,"Kd":8054,"ÃĿÃĪ":8055,"ÃĬÃĩ":8056,"iÃĭ":8057,"Ã³d":8058,"Ã£ÃĮ":8059,"ff":8060,"ÃĢd":8061,"Kw":8062,"ÃĺÃī":8063,"Ã¯Âº":8064,"+ę":8065,"Ã½ÃŁÃĸ":8066,"uÃį":8067,"Âĩć":8068,"Â£Ć":8069,"Ã¹Ãĩ":8070,"ÂįÂį":8071,"[Âģ":8072,"HU":8073,"KÃ§":8074,"ÃıQ":8075,"Âĩ*":8076,"nP":8077,"Ã¸Ã²":8078,"*ÂĤ":8079,"ĚÂ°":8080,"Â»ÂĲ":8081,"ÃĺÃľ":8082,"ÃĬÃĮ":8083,"SÃĢ":8084,"XÃ¥":8085,"ğ?":8086,"ĕĎ":8087,"zÃ³":8088,"ÃŃÃŃ":8089,"Â¤ē":8090,"Â«&":8091,"Ã¹Âª":8092,"JÃ¥":8093,"Â»ď":8094,"Ĕđ":8095,"[ÂĴ":8096,"DÃĳ":8097,"ě$":8098,"Â¾3":8099,"?Âĭ":8100,"cU":8101,"Â¬ÂĮ":8102,"ÃİÃ¦":8103,"ĈÂ®":8104,"Âīė":8105,"JA":8106,"ZP":8107,"jÃĥ":8108,"Ĉ~":8109,")Ĝ":8110,"mÃ¼":8111,"lb":8112,"Ã£O":8113,"ÂĸÂĴÂĢ":8114,"Ĕ~":8115,"ÂĭÂ¸":8116,"ty":8117,"Ĉ'":8118,"Â¨~":8119,"SB":8120,"]Â±":8121,"ZÃľ":8122,"\\Â¯":8123,"Ã¬Ãĥ":8124,"hÃĥ":8125,"āÂ¡":8126,"ÂĥÂ´":8127,"ÂĹĄ":8128,"Â»~":8129,"Âĵă":8130,"Rq":8131,"hÃķ":8132,"ĘÂı":8133,"Â£}":8134,"Â»Âĺ":8135,"Â©ÂĮ":8136,"*Â¿":8137,"ąÂĢ":8138,"Â°ĝ":8139,"^=":8140,"Â¥ă":8141,"Đ{":8142,"ĠV":8143,"ÃĺÃĢ":8144,"ÃĳÃ¤":8145,"ą#":8146,"Âģę":8147,"ÂĻć":8148,"Â£ÂŃ":8149,"Ã½ÃĳÃ´":8150,"ÂĲÂĴ":8151,"!Â¶":8152,"kt":8153,"Gs":8154,")%":8155,"ÃĮÃķ":8156,"^[":8157,"Â¨%":8158,"ÃıÃ±":8159,"jQ":8160,"ÂĶĒ":8161,"ÂĨÂĿ":8162,"ÃŀI":8163,"+Â¡":8164,"Â¤Â¢ÂĢĖÂĬ":8165,"{}":8166,"Â¨`":8167,"NÃĢ":8168,"ĈÂ¦":8169,"2Â¾":8170,"ĜÂ·":8171,"?Âī":8172,"\\.":8173,"|Â·":8174,"Ã±Ã¹":8175,"ÃĪÃĭ":8176,"cb":8177,"Â¬Â¤":8178,"oÃĤ":8179,"ÃıÃ½":8180,"mÃ¦":8181,"ÂĽÂī":8182,"VW":8183,"Ã§ÃĶ":8184,"Â°ę":8185,"Â¢ÂŃ":8186,"#Â¿":8187,"\"Â§":8188,"2Â²":8189,"ĎÂĦ":8190,"JU":8191,"ėÂĸ":8192,"JÃħ":8193,"JÃį":8194,"ÂºÃĶ":8195,"ĚÂı":8196,"eW":8197,"Ãļq":8198,"ÃĺÃ´":8199,"Ã©KE":8200,"ÃİÃħ":8201,"FÃ²":8202,"GÃ¯":8203,"#đ":8204,"ğ-":8205,"ÃĲÃ£":8206,"ÂĲĕ":8207,"\"ÂŃ":8208,"*ÂŁ":8209,"Ã©Ã²":8210,"Â¥ÂĮ":8211,"ÂļÂĬĀ":8212,"ip":8213,"@ÂĤÂĬ(":8214,")ġ":8215,"ĘĒ":8216,"@Âĭ":8217,"yI":8218,"kq":8219,"Ãªs":8220,"cL":8221,"\\Âĳ":8222,"Ăę":8223,"āÂ°":8224,"aÃī":8225,"$ÂĨ":8226,"cÃ¹":8227,"ÃŁÃ»":8228,"Â«.":8229,"ÂīĐ":8230,"Ã¬P":8231,"Â¨ÂĮ":8232,"ąÂ±":8233,"ăÂķ":8234,"Â»Âĵ":8235,"(ġ":8236,"ÃŃÃĥ":8237,"\"ÂĦ":8238,"ėĄ":8239,"Ã¦E":8240,"Ãľd":8241,"ąġ":8242,"fY":8243,"ÂĸÂ£":8244,"Ã§Ã©":8245,"Â»ĝ":8246,"ns":8247,"5Â³":8248,"76":8249,"CK":8250,"$?":8251,"ĚÂĤ":8252,"Ã£H":8253,"Ã£ÃĽ":8254,"&ć":8255,"pW":8256,"ÃľD":8257,"Ã±Q":8258,"ĠÃī":8259,"ÃĮy":8260,"ÂļÂ§":8261,"'ÃĹ":8262,"hÃĲ":8263,"Â®=":8264,"ÃĨÃĸ":8265,"+#":8266,"<Â¸":8267,"tÃ¶":8268,"Âĸ_":8269,"ĠÃ½":8270,"id":8271,"Ãĺv":8272,"Ĕğ":8273,"Âİ~":8274,"|ÂĮ":8275,"aT":8276,"aÃµ":8277,"ĕÂĵ":8278,"ÂģÂī":8279,"ÃĴn":8280,"%Â¿":8281,"aÃ¼":8282,"qÃ¸":8283,")ă":8284,"ĕĀ":8285,"FÃ¨":8286,"RÃħ":8287,"Â¡ÂŃ":8288,"`ÂĬ":8289,"mÃĳ":8290,"Âµk":8291,"bÃĦ":8292,"Â³0":8293,"Â¡Âĺ":8294,"ÂŁ^":8295,"ĚÂĮ":8296,":Âŀ":8297,"pÃģ":8298,"Ã¤Ãĸ":8299,"`Â±":8300,"ÂªÃļ":8301,"+Â±":8302,"Ã¬V":8303,",Ĉ":8304,"IU":8305,"ÂĲÂĲ":8306,"Â¨Â¿":8307,"Ă*":8308,"Ğġ":8309,"!Ā":8310,"ÂĶÂŀ":8311,"HÃķ":8312,"Ć[":8313,"ÃªN":8314,"Â¡ÂĤ":8315,"jy":8316,"Â§Âĺ":8317,"ÃĬO":8318,"ÃĮw":8319,"hL":8320,"aP":8321,"YC":8322,"ěď":8323,"Ăć":8324,"=ąĀ":8325,"ÃĢÃ®":8326,"Âµn":8327,"ÂĪ?":8328,"Â´Â±":8329,"SÃı":8330,"(Ĝ":8331,"Â·ÂĴ":8332,"ĚĄ":8333,"Â§\\":8334,"ÂªÃĳ":8335,"Â²Â²":8336,"Ux":8337,"Â©ď":8338,"tÃĵ":8339,"Ã³g":8340,"Ã±V":8341,"aÃ´":8342,"ÃĽÃ¥":8343,"ĝÂ£":8344,"Â¸Âĵ":8345,"Â¡$":8346,"Ã¬q":8347,"ÃĽÃ¯":8348,",ÂŁ":8349,"-Â¤":8350,"Ã»C":8351,"yÃ¾":8352,"ÂĶÂľ":8353,";Âĥ":8354,"Â«Âŀ":8355,",Â£":8356,"ÂģÂķ":8357,"ds":8358,"mÃ¢":8359,"cQ":8360,"ÂĲÂ©":8361,"ĠÃŃ":8362,"Ã£Ãľ":8363,"eI":8364,"jb":8365,"ĆÂĮ":8366,"!\\":8367,"ÃĨÃĲ":8368,"rw":8369,"Ã½Ã¯ÃĴ":8370,"ĂÂĨ":8371,"Â²4":8372,"^ď":8373,"Â°Â¨":8374,"Ã¹Ã¾":8375,"jÃĤ":8376,"Â´Â¶":8377,"ÃĬÃ²":8378,"KÃ¤":8379,"BÃŃ":8380,"ÃĢU":8381,"ÂĶ\\":8382,"Ã¨G":8383,"ĎÂ£":8384,"ÃĮz":8385,"ÂµJ":8386,"ÂĸÂĬ(Ā":8387,"ÃĻÃĪ":8388,"ĝ{":8389,"HP":8390,"Ã¹Ãı":8391,"Â¥Ą":8392,"Âİ[":8393,"Ã¡S":8394,"WÃĲ":8395,"^Âĩ":8396,"iÃī":8397,"ÂĭÂĮ":8398,"ĝÂ¤":8399,"`Âĳ":8400,";ē":8401,"Ã³T":8402,"ăē":8403,"`Ğ":8404,"ÂªÃ£":8405,"Zx":8406,"NÃµ":8407,"ÂĶÂ¶":8408,"Ã¹Ãł":8409,"Â»ÂĽ":8410,"āÂĹ":8411,"ZY":8412,",ÂĽ":8413,"Â°ğ":8414,"Ãļp":8415,"ÂµÂº":8416,"iÃĴ":8417,"ÃĶÃł":8418,"Â¸\\":8419,"XÃĪ":8420,"Âĺđ":8421,"Al":8422,"ÃĹ<":8423,"ěÂ¯":8424,"ÂĲÂĤ":8425,"Â©Đ":8426,"UT":8427,"]Âĥ":8428,"%Â¶":8429,"Âĸ#":8430,"Â¢ÂĬ)ÂĢ":8431,"ÂĭÂĪ":8432,"Â½5":8433,"ÂľÂ¨":8434,"Ã¯B":8435,"Ã®G":8436,"oÃĻ":8437,"xÃ¾":8438,"ÃĮÃ»":8439,"ÂįÂ±":8440,"?ÂŃĀ":8441,"Ē(":8442,"Â¤ė":8443,"Ã«Ãĩ":8444,"Ã¹M":8445,"Â¦Â±":8446,"HÃ¥":8447,"ÂĨğ":8448,"ÂļĘ":8449,"iD":8450,"ĝĀ":8451,"Â´ÂĪ":8452,"nh":8453,"\"/":8454,"ÃįC":8455,"Ã´Ã©":8456,"cw":8457,"Â¿!":8458,"Ã¦Ã¶":8459,"Â©Âĳ":8460,"ÃĬp":8461,"Ã¨Ãĩ":8462,"ÂĥÂĢ":8463,"ęĆ":8464,"Â¤.":8465,"Â¡Âı":8466,"ÃĥÃ²":8467,"fV":8468,"$Âĩ":8469,"=Ć":8470,"$.":8471,"ÃĹ'":8472,"ÃĮG":8473,"]ÂĤ":8474,"Ã¯ÃŃ":8475,"ĒÂĴ":8476,"ÂĻĈ":8477,"ė<":8478,"ÂĺÂ¥":8479,"jW":8480,"ġ/":8481,"Ě\\":8482,"ÂĹÂŁ":8483,")Ė":8484,"ÃĹÂ§":8485,"yÃĳ":8486,"Ġě":8487,"Â¸đ":8488,"ÂĨ*":8489,"UÃĭ":8490,"Ã£Ãĭ":8491,"Ã®c":8492,"ÃĦR":8493,"Â¦Â¢":8494,"Lr":8495,"VÃ¢":8496,"Ġ.":8497,"ÂľÂ¯":8498,"{Ĝ":8499,"nÃĶ":8500,"Â¼1":8501,"Ã¬Ã§":8502,"Ġć":8503,"ÃĢR":8504,"fÃī":8505,"ĆÂı":8506,"ÃĽÃ¦":8507,"ÃŀY":8508,"ÂĿÂ±":8509,"Â·Âĺ":8510,"Ã±O":8511,"Ã¬Ã«":8512,"ā]":8513,"Âļ[":8514,"Â«/":8515,"#Â©":8516,"Â®Ę":8517,"RRÃĲ":8518,"ÃĪB":8519,"Âµi":8520,"oÃ§":8521,"ÃĢÃŃ":8522,"XÃŃ":8523,"Â·=":8524,"ąÂģ":8525,"Ze":8526,"jl":8527,"JÃİ":8528,"Â¢Â¯":8529,"nÃŁ":8530,"ÃĽF":8531,"Â¦\\":8532,"ÃķM":8533,"Â¡?":8534,"Ã¥b":8535,"Â¥+":8536,"ÃĽw":8537,"Â¡Ę":8538,"@ÂĬ":8539,"Â¸<":8540,"Ã±K":8541,"!ć":8542,"Ď(":8543,"Ã½ÃĶ":8544,"PF":8545,"Ğ:":8546,"ÂĵÂĲ":8547,"ÂĨĔ":8548,"ÃĻÃī":8549,"AÃľ":8550,"ÃĨÃŁ":8551,"LC":8552,"Âĳė":8553,"đÂĪ":8554,"$Â¬":8555,"Ã¼Âµ":8556,"[Â¯":8557,"ĠÂ©":8558,"ÂªÃĬ":8559,"Io":8560,"Ã£ÃĲ":8561,"Ã±Ã§":8562,"jp":8563,"Ã¶Ã¶":8564,"&ÂŃ":8565,".#":8566,"~ğ":8567,"vÃĩ":8568,"XÃĬ":8569,"AH":8570,"ÂįÂĮ":8571,"&>":8572,"AO":8573,"Â½Â¹":8574,"Wb":8575,"ĚÂĲ":8576,"Â¨]":8577,"Â¤Âĭ":8578,"eY":8579,"Tq":8580,"ĀĔÂĶÂ´":8581,"JÃĲ":8582,"&Â´":8583,"ęÂ¢":8584,"ÃĿG":8585,"Ã±Ã£":8586,"SÃŀ":8587,"ÂªÃ§":8588,"ki":8589,"ZH":8590,"$ÂĽ":8591,"jc":8592,"jr":8593,"Ĕē":8594,"<Â¯":8595,"Ã²ÃĦ":8596,"jw":8597,"[ÂĤ":8598,"!Â±":8599,"Â¶Âĵ":8600,"?Âı":8601,"'Ğ":8602,"VÃŀ":8603,"Ã±Ã¬":8604,"Ã£ÃŁ":8605,"&Â¢":8606,"Ã£Ã«":8607,"Â¡Â·":8608,"\"@":8609,"Â¤ÂĦ":8610,"BG":8611,"ÃĿÃģ":8612,"gÃĮ":8613,"Â¢ÂĢ*":8614,"Âķ@":8615,"ÂĻÂ·":8616,"Ã¥Z":8617,"ĕÂį":8618,"aH":8619,"rW":8620,"Â«ÂĨ":8621,"Âĳď":8622,"{ÂĮ":8623,"Aq":8624,"!Âĺ":8625,"Ã´U":8626,"ÂĲĂ":8627,"yw":8628,"ÃħL":8629,"*ē":8630,"ÃĪÃĶ":8631,"ėć":8632,"Â«,":8633,"ą]":8634,"ÂĳÂ®":8635,"ab":8636,"ÃİÃŁ":8637,"ÂļÂĿ":8638,"vÃĪ":8639,"Đā":8640,"yÃĢ":8641,"nn":8642,"Â¸Ď":8643,"đÂĬ":8644,"-Ã·":8645,"CÃĸ":8646,"Â´Â®":8647,"dÃĽ":8648,"ė=":8649,"Ã¹m":8650,"ÃķU":8651,"Â¥Ğ":8652,"ÃĨU":8653,"Âľ.":8654,"ÂĮÂ¶":8655,"đÂ°":8656,"ĚÂį":8657,"ÃĴF":8658,"aU":8659,"ě=":8660,"Â¸Ē":8661,"Â¤Âķ":8662,"Ã¼Ã¸":8663,"aO":8664,"sA":8665,"CÃµ":8666,"Â¦<":8667,"ÃĿO":8668,"ā(":8669,"ĔÂĸ":8670,"pM":8671,"jÃµ":8672,"Âµv":8673,"dW":8674,"ÃĿH":8675,"*Âĵ":8676,"[Â°":8677,"Ãľf":8678,"ÃĴc":8679,"ÂµT":8680,"lÃĳ":8681,"ÃĺÃ®":8682,"đÂķ":8683,"ÂĲÂ§":8684,"aR":8685,"ĜÂ®":8686,"ğÂķĀ":8687,"Ã§E":8688,"ÃĮS":8689,";Âľ":8690,"eÃ¹":8691,"LÃĶ":8692,"wu":8693,"ÃĿÃ³":8694,"}ÂĴ":8695,"Â©]":8696,"`Âĥ":8697,"ÂĭÂ°":8698,"ÃıÃ®":8699,"ÃıÃ¯":8700,"Ã½ÃµÃ¿":8701,"MÃ¶":8702,"Â¢Â°":8703,"ąÂ°":8704,"IK":8705,"\\Â¬":8706,"ÃºÃ¶":8707,"ĕ(":8708,"\\(":8709,"xÃ©":8710,"Â¥]":8711,",Ď":8712,"ĄÂĨ":8713,"lU":8714,"Ĝ/":8715,"ÃķV":8716,"XÃĩ":8717,"Ãĭs":8718,"Wk":8719,"ÂģÂ´":8720,"Â²7":8721,"ÃłV":8722,"xÃ«":8723,"ĔÂ·":8724,"#Â¦":8725,"14":8726,"[Â¶":8727,"Ė@":8728,"ÃİÃĥ":8729,"~ÂĿ":8730,"nÃ¤":8731,"Â¡ÂĢ":8732,"36":8733,"ĠÃľ":8734,"to":8735,"ep":8736,"ÂĸÂ¢":8737,"ÃįÃ¨":8738,"$Â®":8739,"Â´Â¬":8740,"kV":8741,"Â«!":8742,"ÃĹÂ¿":8743,"aÃļ":8744,"Ãªr":8745,"ib":8746,"Ã±Ã½":8747,"xÃĽ":8748,"ăĚ":8749,"iU":8750,"ÂµN":8751,"ÂĤÂ¬":8752,"ÂĻÂı":8753,"Ãģb":8754,"MÃ²":8755,"Â§ě":8756,"JP":8757,"hÃĬ":8758,"Ğ@":8759,"Â¥%":8760,"=ÂĪ":8761,"ÃĮH":8762,"ÂĽė":8763,"jÃĽ":8764,"ÃľÃ¢":8765,"Â¡Â¶":8766,"ĎÂ¸":8767,"ÂµC":8768,"1Â³":8769,"Â§Ĉ":8770,"Â«ę":8771,"Ã±Ã¥":8772,"Ã¸Ã¢":8773,"ā`":8774,"DÃ»":8775,"ĠÃļ":8776,"Ġ!":8777,"Ã£Ã¨":8778,"ÃķX":8779,"ÂĲą":8780,"Ã¤Ã½":8781,"ÃĪp":8782,"iA":8783,"Dg":8784,"wm":8785,"Ã¥Ãĺ":8786,"[ÂĮ":8787,"ÂªY":8788,"TÃĸ":8789,"WÃ¼":8790,"aV":8791,"tÃĩ":8792,"Ã±ÃĨ":8793,"ÃŀO":8794,"RN":8795,"cr":8796,"ĆÂ¦":8797,"ÃĲÃ§":8798,"Ã£P":8799,"ÃĬF":8800,"JÃ¨":8801,"ÃĦS":8802,"#ÂĨ":8803,"oÃ½":8804,"ÂŃĝ":8805,"aÃĽ":8806,"ÃıO":8807,"[ÂĻ":8808,"Â¥*":8809,"Ã¥r":8810,"ĚÂ¯":8811,"Ã£ÃĨ":8812,"Ġ%":8813,"ÃłÃĸ":8814,"ĜÂ¡":8815,"iÃĸ":8816,"ÂģĘ":8817,"MÃĢ":8818,"dÃ¹":8819,"aÂº":8820,"Âĸ;":8821,"ÃŃÃ§":8822,"ÃīÃ²":8823,"^?":8824,"cÃĪ":8825,"ÂįÂĪ":8826,")-":8827,"ć_":8828,"ÃıU":8829,"nÃ¹":8830,"ÂªX":8831,"ÃŃÃĺ":8832,"Ãķv":8833,"\\{":8834,"Ã±U":8835,"Â¢ÂĨ":8836,"Ã¤e":8837,"=ě":8838,"Â£Â¯":8839,"sÃ¯":8840,"Â¨|":8841,"ĂÂ¸":8842,"&Â«":8843,"Ě>":8844,"ĕÂ¤":8845,")Âī":8846,"cÃį":8847,"MÃ»":8848,"ÃĳK":8849,"ĠÃĪ":8850,"āď":8851,"*Âı":8852,"Ã¾Ã¹Ã¿":8853,"GV":8854,"ęġ":8855,"Ã³Ã¼":8856,"Ã³ÃĶ":8857,"/Â¨":8858,"ÃĦÃ§":8859,"ėĒ":8860,"ÂªF":8861,"Mh":8862,"Gb":8863,"Â©ÂĶ":8864,"BÃĥ":8865,"ÃĮX":8866,"ÃĿE":8867,"ÃĤI":8868,"ÂĪÂ£":8869,"Ã¦I":8870,"ÃĺÃģ":8871,"ę_":8872,"ÃķÃĬ":8873,"Â¥ć":8874,"Ãķy":8875,"!ÂĬ":8876,"\\ÂĢ":8877,"ÂķÂ£":8878,"\\|":8879,"Ã®I":8880,"Ă{":8881,"Ã³ÃĻ":8882,")~":8883,"ĠÃĽ":8884,"lf":8885,"ĘÂ¢":8886,"Â®@":8887,"wÂµ":8888,"ęÂı":8889,"ÂģÂĸ":8890,"Ġ4":8891,"MÃĭ":8892,"ąÂĽ":8893,"ā,":8894,"jÃ§":8895,"Ã¬W":8896,"eU":8897,"ĜÂ¶":8898,"Â¡ÂĴ":8899,"HN":8900,"Bc":8901,"iÃ¾":8902,"ÃĲg":8903,"*Â«":8904,"Ć$":8905,"ÃªÃħ":8906,"-#":8907,"Ã£Q":8908,"Ėĝ":8909,"<Âĺ":8910,"`Âı":8911,"ĄÂĭ":8912,"^Âĥ":8913,"Ã¹Ãħ":8914,"ÃĳF":8915,"ĈĀ":8916,"nN":8917,"Ã±Ãı":8918,"ÂįÂľ":8919,"Â»Ď":8920,"YU":8921,"(@":8922,"nA":8923,"ÃľÃĸ":8924,"Â¾1":8925,"kv":8926,"ÂįÂģ":8927,"Â´ÂĲ":8928,"ÂķÂİ":8929,"Â»ÂĬ":8930,"Ãīc":8931,"Â¿?":8932,"Â¡ğ":8933,"ÂļĂ":8934,"Â¤Ğ":8935,"Ã°G":8936,"MU":8937,"ÃĶSw":8938,"tÃı":8939,"Â¶Â¶":8940,"Â¡ę":8941,"Â§+":8942,"ĘÂĶ":8943,"CJ":8944,"aÃĢ":8945,"ÃºÃ©":8946,"Âĺē":8947,"aÃĵ":8948,"IÃħ":8949,"$Ã·":8950,"fÃª":8951,"ěĝ":8952,"Ě)":8953,"@ġ":8954,"Ã¡X":8955,"ÃİÃ¥":8956,"xÃĲ":8957,"Ã±Ãŀ":8958,"uÃ§":8959,"RU":8960,"le":8961,"Ã²Ã¢":8962,"ÂĻā":8963,"Â±<":8964,"Ã²ÃĢ":8965,"Â§Â¬":8966,"ĔĜ":8967,"!?":8968,"Ã£U":8969,"Â»Âĳ":8970,"Â¥Â¤Â¥":8971,"WÃ¦":8972,"ÃĭÃµ":8973,"ÂĬą":8974,"ĂĒ":8975,"aÃĺ":8976,"ÃĶI":8977,"ÃŁp":8978,"ćÂģ":8979,":Ĝ":8980,"Â¨Âĳ":8981,"Â¦Ė":8982,"ZÃĴ":8983,"ÃĹĘ":8984,"ÃľÃ¦":8985,"nÃ¥":8986,"Â¥{":8987,"ÂĪÂ¤":8988,"fe":8989,"kc":8990,".Ā":8991,"Ãĩr":8992,",Âĳ":8993,"mP":8994,"Ġ7":8995,"ă;":8996,"ÃĨÃģ":8997,"ÂĵĜ":8998,"ÂīÂ£":8999,"ÂľÂĸ":9000,"Ã®Ã¶":9001,"ÃĮx":9002,"ÂĿÂģ":9003,"ÂĿ@ąĔ":9004,"lp":9005,"nÃı":9006,"`Ć":9007,"Le":9008,"+ÂĻ":9009,"ÃĺÃŃ":9010,"ĐĆ":9011,")Â¢":9012,"ÃĶÃ°":9013,"$_":9014,"ÂįÂİ":9015,"Ã²ÃĬ":9016,"De":9017,"ÂķÂ¶":9018,"mÃļ":9019,"Â§ą":9020,"ÂľÂ©":9021,")Â¡":9022,"!Ą":9023,"ÂĲÂŁ":9024,"JE":9025,"Â±Â«":9026,"hÃ§":9027,"ā-":9028,"qÃ¶":9029,"gr":9030,"^ÂŁ":9031,"ÂĶÂĤ":9032,"2Â³":9033,"ÃģÃ¤":9034,"(Â©":9035,"ėÂĵ":9036,"CQ":9037,"dÃ¾":9038,"ĠÂĪ":9039,"Ã´Ã«":9040,"\\Âģ":9041,"āÂ©":9042,"+[":9043,"ÂĽě":9044,"ÃĺÃ¹":9045,"ĕÂĨ":9046,"aÃª":9047,"Âĩ'":9048,"HÃ©":9049,"ÂªÃĵ":9050,"Ã¬v":9051,"]ÂĢ":9052,"ÃĤÃł":9053,"ÃĦT":9054,"fI":9055,"ÃįA":9056,")\"":9057,"|Âĥ":9058,"kR":9059,"?ÂŁ":9060,"Ã¹Ã½":9061,"ÃĪÃĵ":9062,"ÃĨÃħ":9063,"Â§Âĥ":9064,"Â·Ĕ":9065,"ÂįÂĤ":9066,"ÃŀF":9067,"Â¸Ĕ":9068,"Âĺę":9069,"Â¤Â¬":9070,"ÃĨÃĥ":9071,"ÃĴÃŃ":9072,"Â´Âĭ":9073,"Â»ć":9074,"+ą":9075,"Ã·Â±":9076,"*#":9077,"ÂĦĜ":9078,"Ã¬p":9079,"Ã®E":9080,"Âµe":9081,"Â¥/":9082,"}Â£":9083,"Ã®ÃĲ":9084,"Ã¬s":9085,"ÂĽÂİ":9086,"@Â£":9087,"ĐÂ±":9088,"Ãīo":9089,"ăā":9090,"Â¿Â¸":9091,"06":9092,".ě":9093,"Â¤Â®":9094,"Â¨Ĕ":9095,"WV":9096,"IÃ½":9097,"KÃ½":9098,"ÃľÃµ":9099,"Âĸġ":9100,"53":9101,"Co":9102,"ĘÂĳ":9103,"lq":9104,"nT":9105,"yÃģ":9106,"ÃĹÂı":9107,"ÂŀĆ":9108,"zz":9109,"DÃĽ":9110,"Â´Âģ":9111,"Ãħr":9112,"]Â»":9113,"ÂĻÂī":9114,"ÃŀÃŀ":9115,"iÃ£":9116,"Ġ6":9117,"ÃĮV":9118,"Â¸ÂĪ":9119,"Ã®O":9120,"ÃİÃģ":9121,"ÃªZ":9122,"xÃĳ":9123,"ėÂŁ":9124,"nX":9125,")Ğ":9126,"Lw":9127,":Âģ":9128,"ÃĻÃĢ":9129,"Ĉğ":9130,"Â¤$":9131,"Â¤#":9132,"NÃĸ":9133,"{Âĵ":9134,"ĠÂ°":9135,"Â¦Â¥":9136,"gv":9137,"ÃįÃĶ":9138,"*Â¡":9139,"[Âİ":9140,"nÃĦ":9141,"NÃĥ":9142,"hc":9143,"ÃĨB":9144,"ÂĽ?":9145,"\"Âī":9146,"Ã¬E":9147,"Ã®P":9148,"MÃ¦":9149,"{Âİ":9150,"NÃ²":9151,"jÃ¤":9152,"Ě|":9153,"Â±ÂĴ":9154,"QÃ´":9155,"ÃİT":9156,"[Â·":9157,"ĆÂ®":9158,"ÂªÃĥ":9159,"Âĺğ":9160,"}Â§":9161,"ĈÂĮ":9162,"ÂĺĖ":9163,"{Ď":9164,"Â¬_":9165,"CU":9166,"Â¨Âŀ":9167,"]Â¶":9168,"ÃªS":9169,"ÃŁw":9170,"ÂĽ~":9171,"}Âİ":9172,"Âĩ$":9173,"CÃ»":9174,"HÃ¾":9175,"Ãĵw":9176,"Ã«X":9177,"Ã½Ã³Ã¿":9178,"fÃ¹":9179,"JÃ²":9180,"&Âĸ":9181,"ĈÂ¿":9182,"Cv":9183,"Ğ?":9184,"[Âķ":9185,"ÂªÃ¤":9186,"ĠÃ¼":9187,"rK":9188,"YÃĺ":9189,"Ã£Ã¢":9190,"ÃĽO":9191,"DÃĴ":9192,"Ã·Ē":9193,"NÂµ":9194,"ÃĿh":9195,"gÃ±":9196,"Â·,":9197,"Dl":9198,"ÃĬÃŃ":9199,"Â´Â¸":9200,"Lm":9201,"ÃĿÃ¼":9202,"iÃĩ":9203,"Â¦Â«":9204,"eÃĢ":9205,"Ã»t":9206,"ÂĹ,":9207,"ÃĺV":9208,"nÂµ":9209,"vÃī":9210,"+ÂĿ":9211,"ÃļA":9212,"ÂĭÂŁ":9213,"HQ":9214,"Xm":9215,"Ib":9216,"Ã½D":9217,"Ã®Ãľ":9218,"Os":9219,"(Â¢ÂĬĀ(Â¢ÂĬĀ(Â¢ÂĬĀ(Â¢ÂĬĀ(Â¢ÂĬĀ(Â¢ÂĬĀ(Â¢ÂĬĀ(Â¢ÂĬĀ(Â¢ÂĬĀ(Â¢ÂĬĀ(Â¢ÂĬĀ(Â¢ÂĬĀ(Â¢ÂĬĀ(Â¢ÂĬĀ(Â¢ÂĬĀ(Â¢ÂĬĀ(Â¢ÂĬĀ(Â¢ÂĬĀ(Â¢ÂĬĀ(Â¢ÂĬĀ(Â¢ÂĬĀ(Â¢ÂĬĀ(Â¢ÂĬĀ(Â¢ÂĬĀ(Â¢ÂĬĀ(Â¢ÂĬĀ(Â¢ÂĬĀ(Â¢ÂĬĀ(Â¢ÂĬĀ(Â¢ÂĬĀ(Â¢ÂĬĀ(Â¢ÂĬĀ(Â¢ÂĬĀ(Â¢ÂĬĀ(Â¢ÂĬĀ(Â¢ÂĬĀ(Â¢ÂĬĀ(Â¢ÂĬĀ(Â¢ÂĬĀ(Â¢ÂĬĀ(Â¢ÂĬĀ(Â¢ÂĬĀ(Â¢ÂĬĀ(Â¢ÂĬĀ(Â¢ÂĬĀ(Â¢ÂĬĀ(Â¢ÂĬĀ(Â¢ÂĬĀ(Â¢ÂĬĀ(Â¢ÂĬĀ(Â¢ÂĬĀ(Â¢ÂĬĀ(Â¢ÂĬĀ(Â¢ÂĬĀ(Â¢ÂĬĀ(Â¢ÂĬĀ(Â¢ÂĬĀ(Â¢ÂĬĀ(Â¢ÂĬĀ(Â¢ÂĬĀ(Â¢ÂĬĀ(Â¢ÂĬĀ(Â¢ÂĬĀ(Â¢ÂĬĀ":9220,"Ą(":9221,"ěÂ©":9222,"ÂĽÂŁ":9223,"Â®Â¿":9224,"Â¤ć":9225,"ÂĴ&":9226,"ÂŃ'":9227,"Ã¯Ãĵ":9228,"Ã»u":9229,"ÃĻÃİ":9230,"FÃĨ":9231,"ĎÂĢ":9232,"=ÂĨ":9233,"[Âĥ":9234,"ÃĻÃģ":9235,"Â¶ć":9236,"ÃĺW":9237,"ob":9238,"CP":9239,"ÃĬT":9240,"ÂĺÂĮ":9241,"Â°ď":9242,"ÃĬÃħ":9243,"iÃ¨":9244,"nx":9245,"Ã·ĝ":9246,"ÃıÃĦ":9247,"/Ã·Âĩ":9248,"Âļ-":9249,"ÂĬÂ¸":9250,"ÃŀÃ¢":9251,"]ÂŃ":9252,"[Â±":9253,")`":9254,"ěÂ¡":9255,":ā":9256,"*!":9257,"Ãĺw":9258,"ÂºÃĵ":9259,"Lb":9260,"ÂĿğ":9261,"Ãĭb":9262,"Ăė":9263,"ÃĪv":9264,"Ėğ":9265,"ÂĿÂĤ":9266,"Ã¯ÃĽ":9267,"*\\":9268,"Âĸ`":9269,"Â§/":9270,"Kb":9271,"[Â©":9272,"āÂ£":9273,"Cd":9274,"FÃ©":9275,"ÂĲĘ":9276,"ÃĶÃĦ":9277,"Em":9278,"ÃļB":9279,"GÃ°":9280,"Hf":9281,"oÃ¼":9282,"ÂĶÂ®":9283,"Ã®Ãĵ":9284,"Â«Ę":9285,"=Ď":9286,"ą/":9287,"Lq":9288,"ĠÃĢ":9289,"ÃĽÃľ":9290,"ÂįÂ¶":9291,"$,":9292,"ÂĵĞ":9293,"iÃ±":9294,"ĒĐ":9295,"ĕÂ©":9296,"Ã»N":9297,"xÃ¹":9298,"ÂįÂĨ":9299,"ÃªÃį":9300,"Ãĺf":9301,"ĕÂİ":9302,"$*":9303,"Â§ÂĻ":9304,"&Â¦":9305,"ĕĆ":9306,"hÃĨ":9307,"Â¢ÂĬĀ(Â¢ÂĬĀ(Â¢ÂĬĀ(Â¢ÂĬĀ":9308,"Ãĥq":9309,"ÂªÃ±":9310,"aF":9311,"Ob":9312,"??":9313,"pÃ£":9314,"ÃĿÃĤ":9315,"ěÂķ":9316,"Ã¾Ã¤":9317,"ÂĳÂĽ":9318,"iI":9319,"!ğ":9320,"ÂĹĞ":9321,"Â±Â·":9322,"aQ":9323,"cB":9324,"kg":9325,"Âı~":9326,"yÃ¼":9327,"jÃİ":9328,"nr":9329,"ev":9330,"LÃ±":9331,"ÃŁU":9332,"Â³3":9333,"ÂĿÂĦ":9334,"ĔÂ°":9335,"Â¥^":9336,"Ã½b":9337,"ÂªÃ¦":9338,"ÂªÃ¬":9339,"ÂĲÂŀ":9340,"Âı/":9341,"?Â±":9342,"oÂµ":9343,"Nw":9344,"<Â¤":9345,"ÃĮÃĮ":9346,"XÃĢ":9347,"Ã¤ÃŃ":9348,"ÂĮ/":9349,"ÂĮ)":9350,"#+":9351,"Ã²Ãį":9352,"Â³6":9353,"Â¸Â·":9354,"Ã¨A":9355,"aW":9356,"ÂĽÂģ":9357,"ÃħP":9358,"gÃĻ":9359,"*ÂĶ":9360,"-ġ":9361,"Â´ÂĻ":9362,"FV":9363,"Â¬Â®":9364,"ÃŀÃĿ":9365,";Â¶":9366,"Â¸Âī":9367,"Ąā":9368,"kh":9369,"aM":9370,"ė`":9371,"ÂĸÂĬ(":9372,"\\Â©":9373,"ć`":9374,"QÃ¤":9375,"}=":9376,"ĔÂ¡":9377,"ÃĽq":9378,"ĖĂ":9379,"ÃªÃĥ":9380,"]Âİ":9381,"Â»ÂĤ":9382,"}Â®":9383,"Âļā":9384,"aÃİ":9385,"Â¦ę":9386,"Ē?":9387,"[ÂĢ":9388,"-ÂĴ":9389,"+ÂĪ":9390,"Âı$":9391,"Ã§W":9392,"Ã®b":9393,"ÃµÃ½":9394,"}Â«":9395,"Ã´Ã¯":9396,"FÃ¹":9397,"EÃĤ":9398,"ÂķÂĭ":9399,"Ãĵd":9400,"ÃĿÃĺ":9401,"Ãºw":9402,"Â¥Â¬":9403,"LB":9404,"ĞÂŀ":9405,"JÃŃ":9406,":Ď":9407,"eO":9408,"ÂµR":9409,"Â¢ğ":9410,"ÃĹÂĳ":9411,"tÃĳ":9412,"ÃĽy":9413,";ÂĮ":9414,")Ē":9415,"=ā":9416,"wb":9417,"Ãļv":9418,"ÂĴę":9419,"ec":9420,"iÃĥ":9421,"Au":9422,"FÃī":9423,"ĕÂ§":9424,"ÂĹÃ·":9425,"33":9426,"ÂĬÂĺ":9427,"ÃĴÂº":9428,"ÂķÂĤ":9429,"aX":9430,"Â¥Ĉ":9431,"-Âı":9432,"Â£Ã·":9433,"nW":9434,"ĕĖ":9435,"=Â¸":9436,"ėĎ":9437,"ĄÂ¨":9438,"Â¦ě":9439,"Â±ĝ":9440,"ÂĨ(":9441,"Ã¥v":9442,"ZQ":9443,"ġē":9444,"Â±Â¶":9445,"Ã¢Ã½":9446,"Pq":9447,"TÃŃ":9448,"SÃ¯":9449,"$Â¨":9450,"mÃį":9451,"Â¤*":9452,"Ã¾ÃĪ":9453,"ZÃĬ":9454,"ÂĲÂĥ":9455,"ÂĴ%":9456,"ÂķÂĽ":9457,"[Âĵ":9458,"oÃ¡":9459,"ÃĿÃ²":9460,"Ã¥c":9461,"TÃĵ":9462,"ąÂĬ":9463,"Â§Âĵ":9464,"ăď":9465,"JX":9466,"Ã¸Ã¦":9467,"ÃĮg":9468,"dÃķ":9469,"rE":9470,"Ã³Ã©":9471,"ÃĮv":9472,"ĠÂ¨":9473,"ÃĭÂµ":9474,"ĄĀ":9475,"UÂª":9476,"{ē":9477,"BB":9478,"\\ā":9479,"<Ã·":9480,"Â«`":9481,"12":9482,"lÃ´":9483,"ÂĶĞ":9484,"Ã¥Ãİ":9485,"Ãħh":9486,"Ã¶Ã«":9487,"|?":9488,"ÂĻ>":9489,"ÃŀD":9490,"Â¥ġ":9491,"\\Âĸ":9492,"ĜĖ":9493,"ĈÃ·":9494,"FC":9495,"RÃĨ":9496,"Â¬@":9497,"ZK":9498,"ă*":9499,"Ãºv":9500,"ÃŁi":9501,"<ÂĪ":9502,"ÃļÃĿ":9503,"ąÂ·":9504,"Â´ğ":9505,"Â»ě":9506,"ÂľĖ":9507,"[?":9508,":ÂĬ(":9509,"ĠÂī":9510,"Â©Â¸":9511,"-ÂŁ":9512,"ĠÂļ":9513,"Ą/":9514,"ÂİÂŀ":9515,"kx":9516,"ÃĮÃĻ":9517,"EÃ§":9518,"ĎÂĿ":9519,"ÃľÃľ":9520,"ÃŁÃ¶":9521,"ÃĮs":9522,"{đ":9523,"ĚÂĵ":9524,"Ã¨B":9525,"Â¬ÂĦ":9526,"ĚÂķ":9527,"UÃĢ":9528,"ÂĤ~":9529,"Â¡ĝ":9530,"ÃĦÃ±":9531,".Â¿":9532,"Hh":9533,"SÃĭ":9534,"Px":9535,"Ã²z":9536,"Âĳę":9537,"nF":9538,"ÃĦw":9539,"ÃĨÃķ":9540,"[Â¸":9541,"Ã¥Ã£":9542,"Ã¼ÃĴ":9543,"Ã¤j":9544,"ÂģÂį":9545,"^ÂĿ":9546,"eÃĪ":9547,"QÃĭ":9548,"TI":9549,"ÂĢ>":9550,"Âĩ=":9551,"ÃįÃ³":9552,"Ã¨y":9553,"Ã¦B":9554,"Â³2":9555,"KU":9556,".\"":9557,"}Âı":9558,"Â»#":9559,"HÃĸ":9560,"rX":9561,"ÂķÂĥ":9562,"qA":9563,"+Ę":9564,"Zy":9565,"ÂĴÂ¤":9566,"Â®ā":9567,"ub":9568,"Ãĥm":9569,"ÃĴÃ¢":9570,"IKE":9571,"Fd":9572,"{Âľ":9573,"Ã°h":9574,"ÂĨÂĲ":9575,"%Âģ":9576,"ÂķÂĲ":9577,"ĀÂŀÂĭ":9578,"ÃĹć":9579,"Â§Ć":9580,"Â°Â¤":9581,"ĄÂ·":9582,"@ÂĮ":9583,"'Âĥ":9584,"HY":9585,"Ã¦Âµ":9586,"Â¨Âı":9587,"Ġ)":9588,"ÃħN":9589,"FÃĺ":9590,"Â°Â©":9591,"ĔÂĪ":9592,"\\ÂĬ":9593,"-Âģ":9594,"ĚĆ":9595,"Â±Ĝ":9596,"'Â¦":9597,"Ã´ÃĨ":9598,"Â»?":9599,"Jt":9600,"ÃīÃľ":9601,"ĂÂ·":9602,"ZG":9603,"+Âĺ":9604,"ÃŃÃĪ":9605,"ÃŃÃ¤":9606,":Ğ":9607,"]Â·":9608,"Â§Âģ":9609,"ÂļÂ£":9610,"Â§Â¦":9611,"dÃ¼":9612,"ğÂı":9613,"ÂľĆ":9614,"ÃħÃ¾":9615,"Â»ÂĴ":9616,"ÃĶÃ»":9617,"Af":9618,"Â¥ÂĤ":9619,"lÃ²":9620,"Ã¹e":9621,"ÂĻ<":9622,"ÃĿÃĵ":9623,"ÃĿÃĭ":9624,"ÃłÃ®":9625,"[ĝ":9626,"ĎÂŁ":9627,"DÃ²":9628,"Đ@":9629,"ÃĢÃĵ":9630,"pÃİ":9631,"ě;":9632,"Ã¥ÃĪ":9633,"kn":9634,"Ff":9635,"ă~":9636,"ÂµO":9637,"ğÂ¯":9638,"Â±Âĵ":9639,"Ja":9640,"Â±,":9641,"ÂŃĒ":9642,"Â°{":9643,"Db":9644,"ĔÂ¤":9645,"Ã¹z":9646,"ėĀ":9647,"ĂĀ":9648,"ÃĨÃĢ":9649,"Â£@":9650,")ÂŁ":9651,"iq":9652,"oS":9653,"Ã«Ãķ":9654,"<ÂĢ":9655,"LU":9656,"ÂļÂĩ":9657,"cÃĩ":9658,":~":9659,"HÃ»":9660,"āÂį":9661,"eÃ³":9662,"Ġ/":9663,"ÃļÃĺ":9664,"ÂĻÂĶ":9665,"Â¨Âį":9666,"VÃ²":9667,"Ãıs":9668,"ZÃĸ":9669,"ąĄ":9670,"ěÂľ":9671,"Ã¯Ã½":9672,"ÂĮÂ©":9673,"Â«Âģ":9674,"Ã±P":9675,"ÃĽv":9676,"ÂĻÂĪ":9677,"RÃĸ":9678,"Âĳ]":9679,";đ":9680,"Ã¡r":9681,"ÂĻ,":9682,"FÃĪ":9683,"ÂµP":9684,"{Âģ":9685,"ēÂĥ":9686,"XÃĳ":9687,"Ã£ÃĤ":9688,"ě~":9689,"Ā:ÂĬ(":9690,"&Ĉ":9691,"}Âĸ":9692,"ÃĲu":9693,"?ğ":9694,"Âĺ`":9695,"Ãĥt":9696,"SÃĺ":9697,"ĘÂĴ":9698,"ĝÂĢ":9699,"Ā(Â¢ÂĬĀ(Â¢ÂĬĀ(Â¢ÂĬĀ":9700,"Â§[":9701,"ÂĻ-":9702,"dÃ¶":9703,"ÃĥÃĴ":9704,"ÂĹĜ":9705,"1Â¾":9706,"ÃĮA":9707,"Â¤!":9708,"Ã£W":9709,"ć,":9710,">Â¢":9711,"Â´Ē":9712,"ÂĮĆ":9713,"Â¬ÂĴ":9714,"ě@":9715,"ÃļÃĩ":9716,"ÃłÃĳ":9717,"ġÂ¿":9718,"as":9719,"\\Ć":9720,"Â¦#":9721,"ÃŃÃ©":9722,"ĄÂĦ":9723,"ÃĭÃ¹":9724,"\"Âĥ":9725,"Ã£n":9726,"Ã¼ÃĶ":9727,"Âķă":9728,"ďÂ¸":9729,"+ÂĹ":9730,"Â»Âĥ":9731,"%Âĩ":9732,"GÃº":9733,"Ã¼Ã¹":9734,"IÃª":9735,"Ã¬R":9736,"=Â¨Ă":9737,"IÃĪ":9738,"Vi":9739,"ÃĬÃģ":9740,"Zj":9741,"Ã¬r":9742,"Âºj":9743,"pw":9744,"Â§Ğ":9745,"\"Ė":9746,"ÂªÃĩ":9747,"ÃĨÃĿ":9748,"ÃįÃ²":9749,"Â±Â®":9750,"ÃĦQ":9751,"cÃŁ":9752,"nÃĪ":9753,"ĝÂģ":9754,"VÃ¦":9755,"Â«Ā":9756,"Ã¡Ã¾":9757,"Ã·ÃĹ":9758,"*Âĥ":9759,"<Â¥":9760,"ÂļĐ":9761,"UÃı":9762,"ÂļĖ":9763,"Ã¦Ã´":9764,"ÃļÃĢ":9765,"Â¬ę":9766,"Â·Âĵ":9767,"Ã¬Ãĵ":9768,"ĔÂī":9769,"Df":9770,"ÃŀÃĩ":9771,"ÃĽs":9772,"Â¢ÂĬ(ĀÂ¢ÂĬ(Ă":9773,"Â«ā":9774,"Â¦Â¦":9775,"Â»Ė":9776,"Ã¶i":9777,"ÂĢÂ£":9778,"*_":9779,"ll":9780,"ÂºÃ£":9781,"nM":9782,"Â¤Â¸":9783,"ÃĸÃ¢":9784,"ÂļÂ´":9785,"ďÂ§":9786,"te":9787,"Ã³Ã¬":9788,"ăÂĨ":9789,"ĚÂ·":9790,"ĠÃĩ":9791,"XÃĤ":9792,"Â±Â±":9793,"&/":9794,"Ã³Z":9795,"ÃļÃĻ":9796,"ÂĻĎ":9797,"đÂĺ":9798,"]Âı":9799,"nÃĤ":9800,"24":9801,"yb":9802,";`":9803,"|ÂŃ":9804,"Â³7":9805,"RRÃĳ":9806,"UÃĩ":9807,"Jx":9808,"ÂĮĖ":9809,"!#":9810,"ÃĪN":9811,"Ã¬Ãĩ":9812,"EO":9813,"Ã¹A":9814,"%@":9815,"Â¡Â¬":9816,"Â®Â£":9817,"Â»Â¿":9818,"\\ÂĨ":9819,"ÃĽÃı":9820,"ă(":9821,"Â©ė":9822,"MÃ¥":9823,"Âĭğ":9824,"ĈÂŃ":9825,"{Âĥ":9826,"ÂĴĐ":9827,"ÃĦÃ²":9828,"ÂĿÂŃ":9829,"ÂĲė":9830,"Ãįg":9831,"Ã¦j":9832,"+ě":9833,"Ġ3":9834,"ĘÂĵ":9835,"ÂĶÂĳ":9836,"ÃĢÃª":9837,"Â¯Ã·Âĩ":9838,"fR":9839,"cÃ©":9840,"\"ÂĪ":9841,"ÂĿÂī":9842,"ÂĤ>":9843,"ÃĦl":9844,"mÂª":9845,"hÃ¥":9846,"dÃ¢":9847,"BF":9848,"'ĕ":9849,"ĚĖ":9850,"ÃįÃ¦":9851,"Ā}ġ":9852,"ÃłÃ½":9853,"ÃĵN":9854,"āĈ":9855,"ÂºS":9856,"uÃ´":9857,"sÃľ":9858,"ÂĤĀ":9859,"ĠÃĭ":9860,"ġÂįĀ":9861,"eR":9862,"ÃĢT":9863,"XÃĭ":9864,"QFG":9865,"ÃĽÃĭ":9866,"ąÂį":9867,"ÃĬW":9868,"Â«Âĥ":9869,"wp":9870,"Ãµf":9871,"ćÂĺ":9872,"Ã±Ã±":9873,"}Âĩ":9874,"ÂĭĀ":9875,"Bd":9876,"Ęđ":9877,"ÂŁ(":9878,"ĄÂ°":9879,"Â¶Âĸ":9880,"ğ,":9881,"MW":9882,"ěÂĵ":9883,"cN":9884,".%":9885,"Ã°y":9886,"[Ĝ":9887,"xQ":9888,"-ÂĢ":9889,":đ":9890,"ę`":9891,"Âµg":9892,"ÃŀG":9893,"Ă+":9894,"Â¦,":9895,"Â³9":9896,"ęÂĪ":9897,"rT":9898,"ÂĽÂļ":9899,"ÃŃÃ¼":9900,"Mo":9901,"Lv":9902,"ÂĦÂģ":9903,"iÃ«":9904,"ÃĮÃģ":9905,"ÃĿÃİ":9906,"bÃ§":9907,"\\ă":9908,"tÃĴ":9909,"ÃĨÃĻ":9910,"Â¥Âĳ":9911,"Ã¥D":9912,"JÃĸ":9913,"ĄĖ":9914,"Ã¾Ã®":9915,"Â¶Âİ":9916,"mÃŁ":9917,";Â¸":9918,"EÃĺ":9919,"ÂªÃľ":9920,"Ã¬c":9921,"Â´Âĵ":9922,"07":9923,"Ã£G":9924,"rv":9925,"ĄÃ·":9926,"<Â©":9927,"By":9928,"Â¤Â¢ÂĢ#":9929,"nd":9930,"uÃµ":9931,"ÂĬā":9932,"ĔÂķ":9933,"Ã¶Ã¼":9934,"ÃĬÃĴ":9935,"Ã¬Ã²":9936,"Â¦Â®":9937,"Â«_":9938,"Âı%":9939,"\"}":9940,"ÂĻÂİ":9941,"ÂĲÂ¶":9942,"ÃŃÃĵ":9943,"aY":9944,"ÂªÃģ":9945,"|Âĺ":9946,"RÃ£":9947,"Â«>":9948,"eA":9949,"lw":9950,"ėā":9951,")Ď":9952,"EZ":9953,"jÃĢ":9954,"]Âĺ":9955,"Â¥Âģ":9956,"^@":9957,"Â»Âĸ":9958,"cH":9959,"IY":9960,"Ã¬G":9961,"RÃ§":9962,"ĆĎ":9963,"ÂµÃ´":9964,"qÃ®":9965,"ĈĜ":9966,"xÃľ":9967,"Ã¹H":9968,"*Đ":9969,"ÃĽp":9970,"ĕÂ¯":9971,"Ã¾ÃĻ":9972,"iQ":9973,";ą":9974,"Â¤(":9975,"rÃ£":9976,"UF":9977,"Ã«Ã¯":9978,"ă+":9979,"bA":9980,"ÂĮÂ¡":9981,"PX":9982,"&ď":9983,"Ă[":9984,"Jy":9985,"Â¢?":9986,"ÂªÃ½":9987,"*ĕ":9988,"ĚÂĳ":9989,"39":9990,"Ã¡c":9991,"ÂĺÂĦ":9992,"Â§(":9993,"NÃĲ":9994,"Ã®Ãı":9995,"Â»ą":9996,"Bz":9997,"Ã²Ãĥ":9998,"Â«Â©":9999,"ÃŁs":10000,"Â¸Ã·":10001,";Â·":10002,"Â¤Â±":10003,";ă":10004,"ÂµL":10005,"Pp":10006,"yK":10007,"Ãĵm":10008,"ĈÂ¨":10009,":Âķ":10010,"Â©ÂĢ":10011,"$Âĺ":10012,"Â£Âģ":10013,"Ãłi":10014,")]":10015,"Vn":10016,"ÂŁÂ¥Ā":10017,"EL":10018,"jÃĪ":10019,"ĂÂ¿":10020,"-Âĵ":10021,"ÂĶē":10022,"ġÂĩ":10023,"fÃģ":10024,"/Âļ":10025,"BÃĳ":10026,"MD":10027,"Â§ÂĮ":10028,"37":10029,"ęĈ":10030,"ÂĨ`":10031,"lÃµ":10032,"ÂĨ'":10033,"Â¦Â°":10034,"Ã½Ã¹":10035,"ďÂķ":10036,"-ÂĤ":10037,"Kx":10038,"Ã±ÃĽ":10039,"ÃŁÃ¸":10040,"Â»ā":10041,">?":10042,"Ã©Ã«":10043,"IÃ¢":10044,"ÃħÂº":10045,"ÂĦÂı":10046,"iÃķ":10047,"CÃ§":10048,"ĚÂĶ":10049,"Â±Âģ":10050,".Â¡":10051,"nU":10052,"JÃĭ":10053,"Ã¶Ã§":10054,"Ã¶Ã£":10055,"Âīć":10056,"ěÂ¥":10057,"#Ď":10058,"ÃĿÃĦ":10059,"Ã¼Ãĳ":10060,"ğ*":10061,"nÃĺ":10062,"ZÃĳ":10063,"ÃĩQ":10064,"es":10065,"ÂĴĖ":10066,"Âµm":10067,"ÃĮL":10068,"Ã¶y":10069,"FÃ§":10070,"ÃĶÃŃ":10071,"ZÃį":10072,"ÂŁ~":10073,"uÃģ":10074,"vi":10075,"KIE":10076,":}":10077,"TÃº":10078,"gw":10079,"5Â¾":10080,"zÃº":10081,"Â§Â¢ÂĢ":10082,"đÃ·":10083,"XÃ¦":10084,"ĝÂĨ":10085,"Â±ÂĲ":10086,"04":10087,"GÃ±":10088,"ÂŁġ":10089,"Ã¼ÃĨ":10090,"Ã¹v":10091,"ÂīĜ":10092,"ĂĜ":10093,"Ą|":10094,"Â©Âį":10095,"Â¤&":10096,"HW":10097,"Â·Âİ":10098,"sÃ¬":10099,"Â°Ā":10100,"JÃĨ":10101,"ÂĻĕ":10102,"jÃĨ":10103,"ÂĴ+":10104,"MO":10105,"ěĀ":10106,"Ã£Ãį":10107,"xU":10108,"SÂµ":10109,"[[":10110,"JÃĩ":10111,"Â»ÃĹ":10112,"ě'":10113,"Â¤Âľ":10114,"ÃĴÃľ":10115,"ZÃĵ":10116,"ÂĴą":10117,"ÃµÃĳ":10118,"ÂĶĎ":10119,"ÂĺÂ®":10120,"ÂĹ*":10121,"Â¢ÂĢĝ":10122,"ÂĮÂĸ":10123,"Ã¯j":10124,"ÃĪI":10125,"Ã¼Ãĭ":10126,"VD":10127,"tW":10128,"ġğ":10129,"}Ā":10130,"ÃĶÃ¤":10131,"Rg":10132,"Â£/":10133,"ÃĮj":10134,"ÃĻÃ¤":10135,"^ÂĤ":10136,"CF":10137,"cl":10138,"ÃºÃª":10139,")Â¨":10140,"Â¯$":10141,"<Â¡":10142,"Ā|ÂĬ":10143,"iM":10144,"ĠQ":10145,"ĂĔ":10146,"ÃĸE":10147,"Â»Ğ":10148,"Ã±Ãī":10149,"Âī%":10150,"ÂıÂ¡":10151,"\\Ě":10152,"ÂĴ$":10153,"Ã©ÃĽ":10154,"#Ė":10155,"ÃłQ":10156,"ÂŃđ":10157,"ÃłÃ»":10158,"ă@":10159,"ÃĥÃµ":10160,"ė*":10161,"RX":10162,"Âµd":10163,"ÂįÂĽ":10164,"RÃĴRÃĲ":10165,"ÂįĔ":10166,"Â©Âģ":10167,"ÂİĔ":10168,"ZÂº":10169,"ÂŃĀ-Ĕ":10170,"ć!":10171,"ÂĴÂĬ(":10172,"Ã©ÃŃ":10173,"Â´Âĸ":10174,"\\Ė":10175,"Ġy":10176,"*Ē":10177,"ÃĮY":10178,"ÂĦÂĳ":10179,"Â¥Đ":10180,"Ã¢E":10181,"Ã½ÃµÃ¼Ã¨":10182,"Â·Â¸":10183,"nq":10184,"@ą-%":10185,"Âłč":10186,"Ą.":10187,"Âĵ<":10188,"Â§Âŀ":10189,"ÃĪX":10190,"Â´(":10191,"Ar":10192,"Â¤Âļ":10193,"aL":10194,"Ã«Ã«":10195,"Im":10196,"ÂªD":10197,"Âķ[":10198,"Â¶@":10199,"Â¹2":10200,"}Âļ":10201,"Vd":10202,"Â§Ā":10203,"Us":10204,"Ã½ÃĳÃ¹Q":10205,")^":10206,"pP":10207,"Ã¥C":10208,"ÂĻĐ":10209,"ÂģÂĶ":10210,"ę^":10211,"ĠÃĬ":10212,"jÃī":10213,"Ãĭd":10214,"iÃ¤":10215,"cS":10216,"ėĂ":10217,"~Âĺ":10218,"Ã¨x":10219,"Â¥Âĭ":10220,"Â¬Â±":10221,"Âŀ\\":10222,"fB":10223,"pv":10224,"Â²Â¼":10225,"?Â¸Â¿Âķ":10226,"?Â¥Ā":10227,"Ãħs":10228,"`Âľ":10229,"Â·ÂŁ":10230,"Â·Ā":10231,"ÂŀĎ":10232,"ÂĹě":10233,"wr":10234,"Ã¯Ãĩ":10235,"ÂªÃł":10236,"Â¯ğ":10237,"Ã®ÃĢ":10238,"qÃ¬":10239,"ls":10240,"ÂĲğ":10241,"lÃĶ":10242,"ÃľÃĬ":10243,"RRÃĴP":10244,"Ĉ|":10245,"ďĝ":10246,"bx":10247,"iÃĪ":10248,"ÃĻv":10249,"Â¶_":10250,":ÂĨ":10251,"ĔÂ¦":10252,"Â¯#":10253,"Pj":10254,"đÂ¨":10255,"ÃĦÃł":10256,"gÃ¹":10257,"ye":10258,"Â¨Â¸":10259,"aÃŀ":10260,"uÃ£":10261,"ÃĹ#":10262,"ML":10263,"fÃ£":10264,"Âĩ<":10265,"Â»Âķ":10266,"$/":10267,"ÃŃÃ¶":10268,"Â½Â¼":10269,"'Â®":10270,"ĔÂĨĔ":10271,"ÃļÃĽ":10272,"ÃľÃŀ":10273,"bY":10274,"ġ.":10275,"ĘĎ":10276,"Ē>":10277,"QÃĺ":10278,"Ã´Ãģ":10279,"Ã§S":10280,"ÃıÃ¤":10281,"ÃĨY":10282,"Ã«Ãĳ":10283,"Â¬ÂĢ":10284,"Â£Ď":10285,"Â¡#":10286,"ÃľÃĽ":10287,"Ãľn":10288,"Ã¢I":10289,"Â£Âĺ":10290,"CS":10291,"+ÂĶ":10292,"ĐÂ´":10293,"ÃįR":10294,"Â»Âį":10295,"vÃ»":10296,"TÃª":10297,"ÂīĈ":10298,"ěĆ":10299,"Ã§q":10300,"Â©[":10301,"ÂºÃĲ":10302,"Â·Âı":10303,"Ã²Ãķ":10304,"bÃĽ":10305,"Ą>":10306,"ÃĴS":10307,"XÃĿ":10308,"bE":10309,"ÂĻ=":10310,"Â·Â¶":10311,"ÂĦÂĲ":10312,"Ã±Ã¦":10313,"ĔÂ¨":10314,"Ãħg":10315,"Ğ{":10316,")Âĸ":10317,"ġ_":10318,"Âı.":10319,"Ã³F":10320,"ÂĦÂĵ":10321,";@":10322,"ÂĨĀ":10323,"iB":10324,"ÃŀÃ¦":10325,"Ãħf":10326,"CÃ¤":10327,"Za":10328,"Â«ÂĢ":10329,"ĀÂįĀ":10330,"Â¼Â³":10331,"KÂµ":10332,"Ã®Ãī":10333,"Â©Â¶":10334,"ÂĬĐ":10335,"ÂįÂĶ":10336,"sÃ»":10337,"Â»Ē":10338,"eq":10339,"AJ":10340,"ÂĺÂĲ":10341,"XÃģ":10342,"Ą[":10343,"kJ":10344,"Â·ď":10345,"cÃĺ":10346,"Ã´Ãª":10347,"Ğć":10348,"Ãĭv":10349,"Ã¾Ãĩ":10350,"Â¦ÂĮ":10351,"*đ":10352,"āė":10353,"ÂĦĒ":10354,"Ã®R":10355,"Â»`":10356,"ă/":10357,"Ã¬g":10358,"yÃĪ":10359,"Ãļw":10360,"tÃī":10361,"Â¬Âĥ":10362,"<Đ":10363,"Â¬Â§":10364,"ÂĨď":10365,"|_":10366,"ĄÂ©":10367,"ĞÂĶÂ´":10368,"ÂªÃķ":10369,"Â«?":10370,"ÂŀÂĬĀ":10371,"Â°=":10372,"ÃĬÃ¬":10373,"nH":10374,"ÃĿÃ¬":10375,"Ã¾c":10376,"Ā<ÃĹ":10377,"Ãļz":10378,"nÃİ":10379,"Â±Âĳ":10380,"@:":10381,"};":10382,"ÃĶÃª":10383,"Â¥Âĸ":10384,"Â¦Â¡":10385,"Ĕā^":10386,"ÃľÃł":10387,"Â¬Âĳ":10388,"Iv":10389,"ÃĬN":10390,"hÃ¢":10391,"Ã¦D":10392,"Ãļx":10393,"Â¦$":10394,"ÂĿÂĪ":10395,"Ul":10396,"sÃº":10397,"Ã£r":10398,"ďÂ©":10399,"ēę":10400,"đÂĸ":10401,"'ÂĽ":10402,"Ud":10403,"Â¥ÂĢ":10404,"Yd":10405,"Ā|ġ":10406,"fl":10407,"Sq":10408,"ZÃĲ":10409,"Ė`":10410,"ĕÂ¿":10411,"Â°Ď":10412,"ÃĶe":10413,"Âļ&":10414,"ZÃİ":10415,"ÂļÂ¸":10416,"-Âĥ":10417,"IN":10418,"Ě?":10419,"ęÂİ":10420,"ēÂĤ":10421,"Â¢(":10422,"Ãģs":10423,"ÂĢ$Â¢Â£":10424,"ÃľÃĢ":10425,"ÃĻÃ¦":10426,"HÃ¡":10427,"RÃĮ":10428,"ÂªÃĤ":10429,"*>":10430,"ÂļÂ¶":10431,"ne":10432,"ÃĦm":10433,"ÂĹ>":10434,"gÃĵ":10435,")Âĭ":10436,"1Â²":10437,"HA":10438,"!'":10439,"ě_":10440,"ÃŁÃ¡":10441,"Ã³ÃĢ":10442,"ÃļC":10443,"Â»$":10444,";Đ":10445,"ęÂĤ":10446,"Â¿_":10447,"BA":10448,"Â¨ÂĽ":10449,"YJ":10450,"Ėā":10451,"Xe":10452,"Â¨Ğ":10453,"jÂº":10454,"Ã²Ã¶":10455,"Sc":10456,"ăą":10457,"IÃį":10458,"ÂķÂĳ":10459,"Âķ,":10460,"ÂįÂĻ":10461,"ÂĺÂĤ":10462,"ÂĨĜ":10463,"Â´Âī":10464,"Âªv":10465,"Ã¾Ã¸Ã¿":10466,"-Âĳ":10467,"ÂĶĈ":10468,"Ã©Ã³":10469,"ĕÂľ":10470,"Â±Âŀ":10471,"\"(":10472,"ÃıV":10473,"/ÂĽ":10474,"|Â¯":10475,"ÃĿo":10476,"ěÂĲ":10477,"!ÂĻ":10478,"/ġ":10479,"jT":10480,"jÃĲ":10481,"Ę\\":10482,"ÂĬÂĿ":10483,"cÃ°":10484,"Ã»G":10485,"ÂĸÂĮ":10486,"ÂĭÂİ":10487,"[$":10488,"-.":10489,"ÃĵÃŃ":10490,"Â»Đ":10491,"Â§ÂĴ":10492,"wÃ±":10493,"IÃ³":10494,"aG":10495,"mÃħ":10496,"Âĵ$":10497,"bi":10498,"ÂļÂģ":10499,"Lu":10500,"Js":10501,"ĔāĜ":10502,"ÃķW":10503,"ÂıÂ¸":10504,"ÂŁÂĳ":10505,"Â°$":10506,"Ćĝ":10507,"[Â¡":10508,"ZÃŀ":10509,"xÃĶ":10510,"Â¿#":10511,"Â§Â¶":10512,"Ã¥s":10513,"ÂĿĞ":10514,"|Â¥":10515,"Ġ<":10516,"ÃĪd":10517,"Ã¬O":10518,"ÂªÃī":10519,"0Â¼":10520,"\"Ē":10521,"ÃĿF":10522,"BÃĮ":10523,"ā_":10524,"ÂŃÂľ":10525,"ÂĬĔ":10526,"Ãĭl":10527,":Â±":10528,"Âį@":10529,"]Âģ":10530,"Ė(":10531,"Hw":10532,"yÃ¤":10533,"ÃŁÃĤ":10534,"Ao":10535,"Ã¾Ã¶":10536,"TÃī":10537,"tÃ»":10538,"Â´Ď":10539,"kN":10540,"hQ":10541,"vG":10542,"ÃĸÂº":10543,"ÃľÃĥ":10544,"JÃĵ":10545,"ďÂ·":10546,"Â¿ÂĪ":10547,"Ã§ÃĮ":10548,"}ÂĿ":10549,"ÃĽN":10550,"ÂĶ?":10551,"ÃŀÃĥ":10552,"Â§ā":10553,"XÃ»":10554,"ÃľÃ¼":10555,"ěÂĮ":10556,"Ă&":10557,")Ã·":10558,"Zq":10559,"eÃİ":10560,"Ã¨O":10561,"ÂĽĜ":10562,"ÃľÃ¤":10563,"ÃĶÃĻ":10564,"UÃ¤":10565,"ÃĪO":10566,"Ăĝ":10567,"LÃķ":10568,"Âĺ\\":10569,"ąć":10570,"Â°Â¬":10571,"ÂĬÂľ":10572,"/ÂŃ":10573,"ÂĴ<":10574,"hb":10575,"*%":10576,";Ē":10577,"ÂªÃĲ":10578,"ďę":10579,"hÃĭ":10580,"ąÂĹ":10581,"kf":10582,"ÃĪw":10583,"Ãľm":10584,"ĘÂ¬":10585,"ÂĵĚ":10586,"ÃĺÃ¼":10587,"Ãģn":10588,"ÂĢĄ":10589,"cÃİ":10590,"Ã¾X":10591,"ÃĻÃ¼":10592,"ÃĵÃ°":10593,"Up":10594,"Ã½Ã«":10595,"\"ġ":10596,"6Â²":10597,"Â§Â¤":10598,"ÃĴb":10599,"ÂµÃĶ":10600,"Â»Â¯":10601,"āÂ¦":10602,"Â¡ÂĹ":10603,"ÃģT":10604,"tÃ«":10605,"QÃĮ":10606,"_Âķ":10607,"ÃĻÃ§":10608,"ÂªÃ¥":10609,"Rl":10610,"?ē":10611,"10":10612,",Âģ":10613,"ăĆ":10614,"eÃ»":10615,"As":10616,"ÂªÃ¢":10617,"+ė":10618,";ė":10619,"ĞÂŃ":10620,"Â´Ĉ":10621,"Ã¹ÃĳÃ¶":10622,"Wo":10623,"Ãıq":10624,"ÂĿÂĻ":10625,"#ÂĢ":10626,"Ã¸H":10627,"cÃĢ":10628,"Ă$":10629,"ÃķH":10630,"?\\":10631,"+Â¨":10632,"*Ĕ":10633,"ĄÂ®":10634,"ÃĨÃĮ":10635,"cE":10636,"Ãĵn":10637,"ÃŃÃĲ":10638,"ÂĤÂ£":10639,"ÃĪÃ¯":10640,"ď<":10641,"UÃ¨":10642,"pÃ§":10643,"Ã©Ãģ":10644,"Â«\\":10645,"Â¶ÂĹ":10646,"Ãĥu":10647,"Âį!":10648,"ÂĴĕ":10649,"ÂĽ{":10650,"kK":10651,"/Âľ":10652,"WÃ¥":10653,"Â¶ğ":10654,"Ã©Ã¯":10655,"Ã¬Ã®":10656,"ÂĭĒ":10657,"Â»đ":10658,"ÃĪÃ¥":10659,"ÂĨ%":10660,"tÃ¹":10661,"RÃį":10662,"ÃĶÃ³":10663,"Â¥\"":10664,"ÃĶo":10665,"Ã¡a":10666,"#\"":10667,"Sn":10668,"SÃĮ":10669,"Â¨ÂĻ":10670,"ÃĳY":10671,"BÃĺ":10672,"fÃĩ":10673,"JT":10674,"vF":10675,"Âĸć":10676,"Ğ}":10677,"Â©ÂĲ":10678,"gk":10679,"ÃļD":10680,"ÂĦÂŁ":10681,"=>":10682,"ĚÂļ":10683,";ÂĤ":10684,"AÃŀ":10685,"Ã¨H":10686,"MV":10687,"ÃįP":10688,"ĎĔ":10689,"iÃĿ":10690,"ÃĥÃ¼":10691,"XÃİ":10692,"BÃ¬":10693,"JÃ¦":10694,"Ãªl":10695,"ÂºT":10696,"ĠÃģ":10697,",Â®":10698,"/Âķ":10699,"ąÂĻ":10700,"Ã¾Ãĸ":10701,"IÂµ":10702,"ÂĬÂ´":10703,"Ā*Ā":10704,"Â¿ÃĹ":10705,"ÂĬ:":10706,"Zf":10707,"ÃĺÃŀ":10708,"ÂĺÂĢ":10709,"yÃ¹":10710,"Ww":10711,"Â¨Â·":10712,"ġĐ":10713,"=Â¤":10714,"Ã®Ã®":10715,")&":10716,"Ãĥw":10717,"|Âĩ":10718,"ÂĽ[":10719,"ā*":10720,"OÃŃ":10721,"Â¬Âĩ":10722,"Â¸>":10723,"Ã¡s":10724,"ÃĢÃĲ":10725,"+Ã·":10726,"-ÂĲ":10727,"ēÂĳ":10728,"Ġ\\":10729,"Â¤Â¢ÂĢė":10730,"ĝĎ":10731,"=Âī":10732,"ÂĶÂĶ":10733,"Â§Âı":10734,"ÂªÃĨ":10735,"MG":10736,"ĘÂĤ":10737,"ÂªÃĿ":10738,"ÂĿĔ":10739,"*<":10740,"ÃĵÃª":10741,"ap":10742,"BÃ±":10743,"ÂªÃ³":10744,"ÂĬÃĹ":10745,"`ÂĲ":10746,"Â¥Âĩ":10747,"āÂ¿":10748,"`Âŀ":10749,"#Ã·":10750,"ÃľN":10751,"Â¥ÂĲ":10752,"UÃĨ":10753,"Â±Â¡":10754,"PÃĭ":10755,"MÃ³":10756,"%(":10757,"đÂ´":10758,"ĝÂ«":10759,"Âĵ?":10760,"ĆÂ¯":10761,"Ã®F":10762,"ÃķÃĭ":10763,"ww":10764,"Âªy":10765,";Âĳ":10766,"|Âı":10767,"ġÂ®":10768,"Ãłm":10769,"Â£Â°":10770,"Dq":10771,"+Âī":10772,"ÃĬy":10773,"Lf":10774,"ėÂĳ":10775,"VÃĨ":10776,"Â§ÂĪ":10777,"ąÂ»":10778,"Ã®s":10779,"ā!":10780,"<ă":10781,"TÃ°":10782,"cu":10783,"Ã¸b":10784,"DP":10785,"ÃĽr":10786,"ÃĺÃį":10787,"ÃĮm":10788,"jq":10789,"ÂĶÂı":10790,"ÂŃÂı":10791,"ćě":10792,"Âĸ>":10793,"+Âį":10794,"Uq":10795,"ÃŃÃ²":10796,"iÃ©":10797,"gq":10798,"cÃ±":10799,"ÂĭÂ±":10800,"dÃĿ":10801,"#Ă":10802,"$Âķ":10803,"oÃĪ":10804,"Âĸă":10805,"bÃĢ":10806,")ÂĻ":10807,"ZÃĨ":10808,"Â£Â¶":10809,")Â¶":10810,"Â©Âı":10811,"^ć":10812,"ĘÂ®":10813,"SÃ¬":10814,"YN":10815,"jt":10816,"ÂĽÂ¶":10817,"[ÂĲ":10818,"hP":10819,"iÃŀ":10820,"Ã¦G":10821,"Ã¶ÃĪ":10822,"ÃĮÃ²":10823,"Âĥğ":10824,"ĔÂ«":10825,"4Â½":10826,"ÂªK":10827,"Dm":10828,"ÃįQ":10829,"ÂļÂ¤":10830,"nR":10831,"oÃĸ":10832,"ÃĮÃĸ":10833,"^Â¿":10834,"ÃĮe":10835,"SÂº":10836,"ĕÂ°":10837,"Ã¥y":10838,"ÃĽK":10839,"Ã¥e":10840,"ÂĢÂ°":10841,"Â¨Ĝ":10842,"Hv":10843,"Ãĥz":10844,"VÃĩ":10845,"ÃĿN":10846,"DÃĬ":10847,"Â¦Ā":10848,"Â¹Â³":10849,"ÃĦp":10850,"~ÂĻ":10851,"Â§ÂĨ":10852,"Ã§Y":10853,"`ÂĪ":10854,"ÃĮÃĭ":10855,"%ÂĲ":10856,"Ã®Ã¤":10857,"ÃĶÃ²":10858,"ÃįT":10859,"Wq":10860,"|ÂĴ":10861,"ÃªX":10862,"Â¤ď":10863,"Â¡Ā":10864,"Â¨_":10865,"MF":10866,"lQ":10867,"ÂĺĜ":10868,"ē!":10869,"ÃıÃļ":10870,"]Â®":10871,"\",":10872,"Ã¼G":10873,"Â©Â·":10874,"ÂªÃĭ":10875,"ąÂĬ*":10876,"dÃī":10877,"hU":10878,"ÂªÃĢ":10879,"ÃĽÃ´":10880,"ā;":10881,"sÃĺ":10882,"ÃĦf":10883,"ĠÃĨ":10884,"ÂĭĘ":10885,"CÃ´":10886,"ZÃķ":10887,"ć+":10888,"ęÂĶ":10889,"op":10890,"Â¬Â£":10891,"Âľą":10892,"aÃĬ":10893,"zp":10894,"IH":10895,"[Âĳ":10896,"Ã»Ã«Ã¿":10897,"Ā:Ā":10898,"vÃ¾":10899,"?Âĸ":10900,"JÂµ":10901,"wÃ¾":10902,"/#":10903,"ÃµÃĲ":10904,"JY":10905,"ÂªB":10906,"ÃŃn":10907,"Ã´Ãº":10908,"Â¦Â»":10909,"ÃĽÃ¹":10910,"ÂĹ=":10911,"(Â¥Â¤":10912,"ÂĨ\\":10913,"ÃĦU":10914,"73":10915,"uÃ¢":10916,"Â¢ÂĬ(ĀÂ¢ÂĬ(ĀÂ¢ÂĬ(ā":10917,"ĔÂ¯":10918,"-Â£":10919,"ĒÂ°":10920,"ĠÃª":10921,"ÃĳÂº":10922,"ġÂķĀ":10923,"Âĸ,":10924,"<?":10925,"vÃĴ":10926,"Ã¼Ãı":10927,"ÂĮÂ¿":10928,"@@":10929,"ÂŃ\\":10930,"ÂĺÂ¶":10931,"Â¦{":10932,"ÂĬĖ":10933,"ĜÂĪ":10934,"Â´Âľ":10935,"&_":10936,"ÃľÃ½":10937,"ğÂĲ":10938,"ā.":10939,":Â°":10940,"Â¡=":10941,"Ãķj":10942,"ÂĦđ":10943,"Ąė":10944,"ÂīĀ":10945,"Â¡ć":10946,"Â¥Ć":10947,"ġė":10948,"EÂº":10949,"ĈÂ©":10950,"ď=":10951,"uÃ¶":10952,"%%":10953,"Qq":10954,"ÃŃÃĭ":10955,"Â»Âļ":10956,"oa":10957,"Â¨Âĵ":10958,"&ġ":10959,"xÃĿ":10960,"}}":10961,"oÃĨ":10962,"Ek":10963,"ÂĿÂı":10964,"ÃĮn":10965,"HÃĲ":10966,"Ã¹p":10967,"ÃĦs":10968,";Ė":10969,"hY":10970,"Ğ_":10971,"JG":10972,"ÃĮÃį":10973,"ĒĘ":10974,"Sp":10975,"ěē":10976,"ÂŁ@":10977,"RÃ¤":10978,"ÃĶÃĨ":10979,"ÂĬÂ¶":10980,"mÃĤ":10981,"ÂīÂ·":10982,"(āÂ»":10983,"Ã·Ĝ":10984,"Ã¬I":10985,"-Â¬":10986,"Âį[":10987,"ÃķB":10988,"Â«Ĉ":10989,"ÂĢÂĮ":10990,"Ãłn":10991,"Ã½J":10992,"ÂļÂĥ":10993,"Ã¢F":10994,"Â¤}":10995,"Ã»ÃĬ":10996,"ÃĲw":10997,"Â±ÂĤ":10998,"ÂĻÂ¶":10999,"ÂĻÂģ":11000,"Â«ÂĹ":11001,"Â¨Â£#":11002,"+_":11003,"TÃ±":11004,"fÃ³":11005,"Â«^":11006,"Â´đ":11007,"ÃĪF":11008,"Ĕ|":11009,"Â¦ÂĤ":11010,"XÃĥ":11011,"#\\":11012,"Wn":11013,"ÃĦÃ¤":11014,"]ÂĨ":11015,"ÃĿÃ«":11016,"Â¯Â§":11017,"ĠÃı":11018,"ÂµA":11019,"ÂĽÂ·":11020,")Â§":11021,"ÃīÃļ":11022,"ja":11023,";Â¿":11024,"ÂĺÂĵ":11025,"āÂ¶":11026,"ďĜ":11027,"Â¢ÂĸÂĬĀ":11028,"ÃľÃĨ":11029,"ÂĶÂ´Ā":11030,"rÃį":11031,"`ē":11032,"Â¯_":11033,"Ã¶Ãı":11034,"iÃį":11035,"Ě,":11036,"Âįę":11037,"ÃŃÃ¦":11038,"Mk":11039,"ÃĹÂĮ":11040,"gÃµ":11041,"SC":11042,"Â±ć":11043,"JN":11044,"Â±'":11045,"ÃĴG":11046,"ÂĻ@":11047,"1Â½":11048,"ĔÂ£":11049,"IX":11050,"iÃĲ":11051,"Âļ=":11052,"ÃŀÃĻ":11053,"AÃĸ":11054,"VL":11055,"Âģđ":11056,"+Ā":11057,"Â¢ÂĬ(Ę":11058,"UÃ¯":11059,"cm":11060,"*ĝ":11061,"Â«{":11062,"OÃĪ":11063,"+ă":11064,"iP":11065,"xÃ½":11066,"ÂĿÂ·":11067,"ÃĬÃĻ":11068,"DQ":11069,"Ă\"":11070,"Ã·ē":11071,"^(":11072,"aÃĨ":11073,"xÃĥ":11074,"Ā=ė":11075,"Ãīb":11076,"!<":11077,"iÃı":11078,"fÃı":11079,"ÂĳÂ¿":11080,"Ã§ÃŁ":11081,"Ã²ÃĿ":11082,"ÂĨ_":11083,"gl":11084,"SÃ´":11085,"=Ę":11086,"ÂĦÂİ":11087,"Ăĕ":11088,"ÂĭĜ":11089,"jÃĩ":11090,"&Ć":11091,"FÃ¤":11092,"+Â¶":11093,"ÃĶÃļ":11094,"$@":11095,"Ã»Ã²":11096,"JÃ¢":11097,"ÃĦv":11098,"ÃĢÃº":11099,"ĄĆ":11100,"ÂļÃĹ":11101,"MB":11102,"ąĜ":11103,"ÃįÃª":11104,"Ã»Ã®":11105,"{/":11106,"tÃĽ":11107,"ÃĬw":11108,"Ğ=":11109,"sB":11110,"ęĎ":11111,"ÂļÂ©":11112,"Â§\"":11113,"kH":11114,"ÂªÃ°":11115,"ZÃĺ":11116,"ĠÃĤ":11117,"ÂįÂĳ":11118,"ÃĿÃ¨":11119,"{Âī":11120,"{ā":11121,"oÃ¢":11122,"'%":11123,"jG":11124,"iÃ¹":11125,"ġÂŀ":11126,"ÂĽÂĺ":11127,"AÃ®":11128,"ÂµQ":11129,"Ãĥv":11130,"qB":11131,"ÂĭÂľ":11132,"ol":11133,"*.":11134,"Iw":11135,"ÃĢÃĽ":11136,"Â£ĔĀ":11137,"Mg":11138,"ÃĪÃ¡":11139,";Âķ":11140,"(Â¢ÂĲąĔ":11141,"+Â©":11142,"Â¸Âŀ":11143,"ÃŃÃ³":11144,"dB":11145,"Ē~":11146,"ÂĹĝ":11147,"ÂĽÃ·":11148,"Â¯=":11149,"nÃĻ":11150,"ĠĆ":11151,"%Âĳ":11152,"Â³8":11153,"Ă#":11154,"16":11155,"jÃļ":11156,"ĚÂľ":11157,"JÃĤ":11158,"ÃĳÃ§":11159,"ÃĬc":11160,"Â±Â´":11161,"ÂªN":11162,"AÃ¬":11163,"%Â´":11164,"*Âĳ":11165,"Â¸Â¶":11166,"ÃŀB":11167,"Â©Â°":11168,"ÂĴě":11169,"[Âľ":11170,"Â§Âľ":11171,"XÃĸ":11172,"ą,":11173,"ÂįÂ°":11174,"GÃ´":11175,"Ğ\\":11176,"ėĜ":11177,"ę,":11178,"ÃĲÃµ":11179,"KY":11180,"ÂļÂ¥":11181,"sÃ¹":11182,"ÃĪÃļ":11183,"LÃį":11184,"bÃľ":11185,"ÂģĒ":11186,"Ã¥Ã³":11187,"Â±@":11188,"ă-":11189,"Mf":11190,"Â©(Ā":11191,"Âµa":11192,"jÃ®":11193,"Â·Â¿":11194,"ėě":11195,"Â¨ÂĦ":11196,"Ĉ\\":11197,"Ã©Ãī":11198,"jÃģ":11199,"Â¡ÂĲ":11200,"VÃī":11201,"=ÂĢ":11202,"Ã¥a":11203,"ÃĺÃħ":11204,"ÃİÃ¿":11205,"Ā<Âĵ":11206,"Â¨Â»":11207,"Ã¥Ãģ":11208,"ġ?":11209,"hd":11210,"ÂģÂĩ":11211,"xÃĵ":11212,"ēĜ":11213,"Ap":11214,"Â«#":11215,"Â¯ĕ":11216,"{Ğ":11217,":`":11218,"1Â¼":11219,"|Â»":11220,"ÂĮ.":11221,"Â«ă":11222,"RÃª":11223,"Âį>":11224,"ĖÂĲ":11225,"ÃĤÃ¦":11226,"ġ,":11227,"Ã¯C":11228,"XÃ¼":11229,"iÃ³":11230,"Ãĭz":11231,"Âļ(Ă":11232,"eF":11233,"ÂŃĄ":11234,"Â¾Â½":11235,"cf":11236,"<ÂĤ":11237,"Ã·đ":11238,"Ã¶E":11239,"ďĘ":11240,"HI":11241,"ÃŁÃĥ":11242,"Â§ÂĲ":11243,"ÃĬÃ±":11244,"hÃ¹":11245,"bÃĻ":11246,"Ãĺm":11247,"Âªo":11248,"Ã¡q":11249,"ÃĲM":11250,"Â¡Â¢":11251,"Â¬`":11252,"iL":11253,"bÃĿ":11254,"ę@":11255,"Ã¬w":11256,"*]":11257,"ks":11258,"JÃ±":11259,"Ã»Ãī":11260,"-ÂĨ":11261,"rB":11262,"ďÂ´":11263,"ÂĹ;":11264,"Â¶(":11265,"=ąĘĞÂĤ":11266,"ÃĢf":11267,"Ka":11268,"Wl":11269,"ĎÂĻ":11270,"ÃįÃĩ":11271,"ÂĺÂĴ":11272,"ÂĬ(Â¦":11273,"Â·Đ":11274,"ĚÂĦ":11275,"ey":11276,"Â¡~":11277,"17":11278,"ÂĶÂ°":11279,"YP":11280,"bÃ£":11281,"Ãŀd":11282,"ÂĬÂ¢":11283,"WP":11284,"Â¨(":11285,"bÃº":11286,"UÃ£":11287,"ÃŀH":11288,"Av":11289,"ÂĶÂİ":11290,"Ē.":11291,"eÃª":11292,"ēÃ·":11293,"Â§đ":11294,"--":11295,"ÂĶÂ±":11296,"ÃĢa":11297,"Â§Â®":11298,"Ã¾C":11299,"`>":11300,"tl":11301,"Ã©Ã¼":11302,"=Â¨ā":11303,"Ĉă":11304,"Â¬Â¥":11305,"ÃİÃĿ":11306,"ć*":11307,"ĘĂ":11308,"ÂĦĐ":11309,"Ė'":11310,"VÃ£":11311,"Â´~":11312,"Âķ!":11313,";ÂĲ":11314,"ġÂľ":11315,"|ğ":11316,"ęÂŃ":11317,"Ã¯Âµ":11318,"Ã»e":11319,"Â¡Â°":11320,"ÂĤ[":11321,"xÃĺ":11322,"dÃ®":11323,"ÃĹÂĵ":11324,"ÃĬÃĳ":11325,"mÃł":11326,"TM":11327,"cc":11328,"āą":11329,"JÃģ":11330,"rÃ¬":11331,"āĕ":11332,"Ã¥p":11333,"Hp":11334,"(Â¢Â¨":11335,"QÃĳ":11336,"Â¡Âĳ":11337,"Ãªp":11338,"YK":11339,"ei":11340,"lÃĽ":11341,"TÃ¾":11342,"ĚÂ®":11343,"ÂĹĀ":11344,"ĝÂ¬":11345,"ÃĮÃħ":11346,"ę&":11347,"Zn":11348,"Ã¹QÃ¶":11349,"Iq":11350,"ÂįÂŀ":11351,"ÂĺĘ":11352,"Ã²Ã°":11353,"!ě":11354,"ÃµÃĢ":11355,"ÃµP":11356,"Ã½ZÃ½":11357,"zr":11358,"āÂķ":11359,"Ė<":11360,"ĔĔ":11361,"ÃľÃ±":11362,"{Â·":11363,"ÂĿÂĳ":11364,"Â¸ĕ":11365,"Â¢[":11366,"Nv":11367,"Â¿ÂĹ":11368,"ĚÂĢ":11369,"Â¦Â¸":11370,"Âİė":11371,"Ġ+":11372,"ÂĭÂĩ":11373,"Ã«ÃĽ":11374,"dÃĩ":11375,"][":11376,"Ã²ÃŃ":11377,"'Ã·ÃĹ":11378,"\\Ā":11379,"wq":11380,"Ã¹n":11381,"Ã«ÃŁ":11382,"HÃĶ":11383,"cÃģ":11384,"5Â½":11385,"Â»Âŀ":11386,"Â«Âļ":11387,"YG":11388,"$Â¸":11389,"Â¬ÂĻ":11390,"Â´_":11391,"Ē=":11392,"Ã£S":11393,"Âĸ&":11394,"ÂĮÂĨ":11395,"Â¶ÂĪ":11396,"Ė%":11397,"{ÂĪ":11398,"Â¤Â¥Â¢ÂĢ":11399,"$ÂĻ":11400,"',":11401,"ą+":11402,"ď|":11403,"Âĺĕ":11404,"ĠE":11405,"Ė=":11406,"-Ę":11407,"ÃµZ":11408,"Or":11409,"ÃŁv":11410,"ÃķN":11411,"Br":11412,"ÂĺĀ":11413,"Ãŀj":11414,"Âı(":11415,"ÃŀX":11416,"!Ĝ":11417,"ÃĮÃĺ":11418,"oÃ³":11419,"Â±Â£":11420,"<Â¦":11421,"ĒÂ¸":11422,":ē":11423,"Ã·#":11424,"lÃ±":11425,"Âĵė":11426,"ÃĨP":11427,"TÃľ":11428,"Âĳ#":11429,"Âı?":11430,"@Âį":11431,"Ã®ÃĴ":11432,"ğÂĩ":11433,"gÃ¸":11434,"}Â»":11435,"jÃ½":11436,"Ip":11437,"uÃļ":11438,"Ă%":11439,"Ã®ÃĪ":11440,"|Â«":11441,"ÃįN":11442,"Ã¯Ãı":11443,"!=":11444,"..":11445,"ÃŃq":11446,"2Â½":11447,"Ã¼Ãķ":11448,"ÂĴ\"":11449,"Â³Â³":11450,"Âļ\"":11451,"Âīĝ":11452,"cs":11453,"(Â»":11454,"ĚÂŁ":11455,"ÃļZ":11456,"Ã³n":11457,"Â¯Ĝ":11458,"ÂŀĀ":11459,"ÃĢp":11460,"ÃŁÃĻ":11461,"ġ:<":11462,"AY":11463,"vÃı":11464,"Â¬Â«":11465,"Â°Â¦":11466,"Ly":11467,"ÃįÃĵ":11468,"?,":11469,"Â£Âĥ":11470,"Ãīp":11471,"Ã»Ãı":11472,"Ă>":11473,"UÂµ":11474,"iC":11475,"Â§_":11476,"VÃĶ":11477,"Â¹1":11478,"ğ|":11479,"Ã®Ã´":11480,"Â£.":11481,"ÃĢÃĴ":11482,"FÃĤ":11483,"ĀÂŀÂ©":11484,"Ã°x":11485,"Âķė":11486,"mÃŃ":11487,"ÃħR":11488,"ÃŁÂº":11489,"*Âģ":11490,"]ÂĻ":11491,"Â±Ą":11492,"ÂªG":11493,"Âĸĝ":11494,"Â±ÂĢ":11495,"Ĕ/":11496,"ÃŀÃĦ":11497,"ġÂĲ":11498,"Âĵć":11499,"Â§Ã·ė":11500,"$)":11501,"ÃĥÃ³":11502,"jÃĭ":11503,"oN":11504,"tÃ¾":11505,"Ãĺu":11506,"?Â¶":11507,"mÃ¶":11508,"Ęē":11509,"cÃª":11510,"~Âľ":11511,"Â²5":11512,"ÃĪz":11513,"Ã¥w":11514,"rÃĭ":11515,"`@":11516,"ÃĮÃ§":11517,"Âĺ(":11518,"Â¤Ĉ":11519,"Âľ:":11520,"ęď":11521,"Ã½R":11522,"}ě":11523,"xÃĻ":11524,"Ã¸Ã£":11525,"PÃĻ":11526,"|Â¡":11527,"Ã¹ÃĽ":11528,"fh":11529,"AÃĽ":11530,"ta":11531,"ÃµÃİ":11532,"%ÂĽ":11533,"}ÂŁ":11534,"#@":11535,"ĚÂĹ":11536,"Ã²W":11537,"ÃĶG":11538,"ÃŃÃ¯":11539,"Ã¨r":11540,"ÃĮb":11541,"iZ":11542,"vÃģ":11543,"ĀÃĹÂ£":11544,"Ã¶M":11545,"ĞÂį":11546,"ÂĶÂĵ":11547,"ÃĲÃ´":11548,"ĞĈ":11549,"Â¢ÂĢĖÂĬ":11550,"0Â¾":11551,"Ã¡Ãĩ":11552,"XÃĦ":11553,"ÂĬ^":11554,"RY":11555,"ÃĤÃĨ":11556,"Ã¹F":11557,";ÂĻ":11558,"}Â¤":11559,"ÂĺÂİ":11560,"ĞÂ¢ÂĮÂı":11561,"vÃĵ":11562,"vÃĲ":11563,"eG":11564,"Âı*":11565,"mÃ²":11566,"Ã¼Ã§":11567,"`)":11568,"ěÂĻ":11569,"UÃĻ":11570,"ÂįÂĦ":11571,"'Â¶":11572,"ÂĶđ":11573,"ÃĶp":11574,"TÃļ":11575,"Ãīh":11576,"Â·\\":11577,"Ls":11578,"Âĳ.":11579,"ÃºÃ¤":11580,"Â»Ā":11581,"BÃħ":11582,"Â¨Â¶":11583,"#ÃĹ":11584,"Jg":11585,"ĀÂŀÂī":11586,"Â§Âķ":11587,"ēğ":11588,"ÂŃ@":11589,"Ã¬y":11590,"Â¡\\":11591,"ÂºÃ§":11592,"Â¨Đ":11593,"Ã½d":11594,"RÃģ":11595,"ÃĤÃŃ":11596,"ĄÂĻ":11597,"lÃ¢":11598,"Â±Ā":11599,"Â¯ę":11600,"eQ":11601,"4Â¼":11602,"ĄÂĩ":11603,">Âŀ":11604,"ÂŁÂĲ":11605,"Uh":11606,"BÃĻ":11607,"ÂįÂĿ":11608,"Ã¡w":11609,"Â¦ğ":11610,"VC":11611,"Âĥ,":11612,"!!":11613,"ÃķO":11614,"Â¯Âĸ":11615,"\"Âĭ":11616,"ĝĆ":11617,"Âīğ":11618,"Â¯<":11619,"Â·Âľ":11620,"ÃĲt":11621,"$\\":11622,"UQ":11623,"UH":11624,"Â¥ÂĹ":11625,"Sb":11626,"Sy":11627,"nÃī":11628,"Ã¥Ã¾":11629,"}ÂĨ":11630,"iT":11631,"Bh":11632,"gÃĬ":11633,"Â¿{":11634,"]ÂĮ":11635,"?ă":11636,"}{":11637,"%ę":11638,"ÃľÃ®":11639,"ĚÂĬ":11640,"ÂĺÂĺ":11641,"ÃĹĒ":11642,"Â¢ÂĬ)ÂĪ":11643,"MÃĬ":11644,"ĕā":11645,"Â¹7":11646,"VI":11647,"Ã²p":11648,"iÃİ":11649,"ĠÃĥ":11650,"ÂļÂ¢":11651,"Â¬:":11652,"3Â³":11653,"ĔÃ·":11654,"Âĥę":11655,"Â°Ĝ":11656,"Âī<":11657,"ĖĀ":11658,"SÃ¹":11659,"Âı'":11660,"BO":11661,"ÂıÂ©":11662,"Â¥Âķ":11663,"ÃĪe":11664,"rÃħ":11665,"Âĳğ":11666,"Â¥Ā-Ĕ":11667,"[<":11668,"xÃł":11669,"ĕÂŃ":11670,"Ã½ÃĬ":11671,"(ā(Â¥Â¢ÂĢĒÂĬ":11672,"nz":11673,"ĝ>":11674,"ÃĦj":11675,"kw":11676,"YÃĽ":11677,"ĐÂĮ":11678,"đĘ":11679,").":11680,"Ec":11681,"ÂĪĀ":11682,"ąÂ¿":11683,"vÃ¨":11684,"ÃıF":11685,"4Â³":11686,"Â¤Âĩ":11687,"EÃĥ":11688,"xÃŃ":11689,"ġÂ©":11690,"Ãķh":11691,"Â´Â»":11692,"AÃ¢":11693,"ĠÃİ":11694,"ÃŁq":11695,"Âī>":11696,"?đ":11697,"ÃĪH":11698,"Â¦+":11699,"Ã¥q":11700,"$Ą":11701,"SÃ¶":11702,"`Ę":11703,"ćÂ¶":11704,"DT":11705,"^ÂĻ":11706,"ÃĵÃĵ":11707,"ąÂ¶":11708,"LÃł":11709,";Ć":11710,"Ãįf":11711,"=Âģ":11712,"ÂĸĄ":11713,"Â·ÂĹ":11714,"Ã¡ÃĴ":11715,"ĠÂ»":11716,"Ã¥ÃĢ":11717,"AÃ»":11718,"ÃĿÃĻ":11719,"Qy":11720,"QKI":11721,"ÂŁÂ´":11722,"Â¯Ę":11723,"Âį#":11724,"['":11725,"Ă,":11726,"!ÂĽ":11727,"Ã¨s":11728,"Â±Â¥":11729,"Â¼Â¼":11730,"ÃŀT":11731,"ÂĿÂ¶":11732,"ćÂ¥Ę":11733,"vÃ¹":11734,"QHaE":11735,"/ę":11736,"Â¨Ě":11737,"Â¨Âĭ":11738,"ÃµÃģ":11739,"ÃĲz":11740,"WR":11741,"_.":11742,"Âµs":11743,"Ki":11744,"ēÂ´":11745,"ÃĿÃĬ":11746,"Ã¬Ãī":11747,"jf":11748,"ĄÂ¿":11749,"Zo":11750,"ÃŀÃĤ":11751,"Ã©Ã¸":11752,"AÃł":11753,"lÃ¶":11754,"Â¨đ":11755,"ÂĦ*":11756,"Ed":11757,"Â·ě":11758,"Â¤\"":11759,"`ÂŁ":11760,"`ÂĴ":11761,"Ã§ÃĿ":11762,"IÃ®":11763,"VÃ³":11764,"ÂªM":11765,"Kf":11766,"gÃ´":11767,"Â§%":11768,"Ã²Ãħ":11769,"ÃĨC":11770,":)":11771,"Ãĵs":11772,"cÃĬ":11773,"UÃª":11774,"XÃ±":11775,"ÃĨÃĦ":11776,"Â©Â»":11777,"Ss":11778,"Âĩă":11779,"ĆÂĦ":11780,"KÃ»":11781,"ÃłF":11782,"Ãķr":11783,"{Âĳ":11784,"ćÂĴ":11785,"ÃļN":11786,"ÃĢÃľ":11787,"Â¡ÂĽ":11788,"Ã²Ãİ":11789,"Yz":11790,"āÂĿ":11791,"jÃľ":11792,"cÃŃ":11793,"ęÂ¬":11794,"*Â¢":11795,"[#":11796,"Va":11797,"Â¡Âĸ":11798,"?Âģ":11799,"$ą":11800,"ÂĥĘ":11801,"<ÂĲ":11802,"wÃ´":11803,"Âį&":11804,"UÃ¼":11805,"Ã²Ã¾":11806,"DR":11807,"en":11808,"_ÂĻ":11809,"ÂĥĜ":11810,"ĚÂī":11811,"SÃĬ":11812,"ÂĽÃĹ":11813,"Ã·'":11814,"Â³5":11815,"(Â¢ÂģąĔ":11816,"-ÂŃ":11817,"Â¦ē":11818,"Ã¸ÃŃ":11819,"PE":11820,"jÃĶ":11821,"Â£(":11822,"Â¦>":11823,"Ã¶Ãī":11824,"ÃŀÃ£":11825,"Â±#":11826,"]Â«":11827,"\\\\":11828,"ÂĿÂ´":11829,"ÃĦÃĽ":11830,"ÃŀL":11831,"KT":11832,"(Â¢ÂĢ+":11833,"YÃī":11834,"ZX":11835,"}Â¥":11836,"Â¿Âĳ":11837,"ġÂ¶":11838,"UE":11839,"cO":11840,"ġÂĭ":11841,"Âŀā":11842,"ăÂ»":11843,"bC":11844,"7Â¹":11845,"ěÂĳ":11846,"qÃ»":11847,"iÃ»":11848,"(āÂŀ":11849,"HM":11850,"Ã¥Ã»":11851,"ÃłÃ¼":11852,"/$":11853,"ÃµÃĪ":11854,"Ã¾Ã»Ã¿":11855,"đÂĶ":11856,"Ă~":11857,"ya":11858,"Ã¹Ã»":11859,"Ãģp":11860,"Ã®Ãİ":11861,"^Â¤":11862,"Ã½Ãī":11863,"Â¨Ĉ":11864,"Ã°O":11865,"Â¥Âĵ":11866,"ÃĬC":11867,"PM":11868,"ÂĭÂĤ":11869,"Ė,":11870,"Â¬Ď":11871,"ÃĲv":11872,"Â©ē":11873,"ÂĺÂı":11874,"ÂľÂ¿":11875,"Ã¬ÃĻ":11876,"Ã´R":11877,"PÃĺ":11878,"Â§Ě":11879,"fF":11880,"Đ?":11881,"Bw":11882,"ÂŀÂ«":11883,"ÂªÃĻ":11884,"ZÃ¦":11885,"ęÂĨ":11886,"ÃıÃľ":11887,"Sm":11888,"Ã²Ãĭ":11889,"ÂķÂĬ":11890,"ĠÃĸ":11891,"Wr":11892,"ďğ":11893,"ÃĤÃ¥":11894,"ÂģĎ":11895,"Ã¼Ã¦":11896,"^Â§":11897,"#)":11898,"^ÂĨ":11899,"xÃ®":11900,"fÃĢ":11901,"#ÂĪ":11902,"IÃ¬":11903,"Xv":11904,"$Â°":11905,"ÂĴÂ¸":11906,",Âİ":11907,"ĀÂ¢ÂĬ":11908,"Â¤-":11909,"!Â°":11910,"ÂĩĜ":11911,"Â©Ă":11912,"Â¦ė":11913,"Â¬]":11914,"ÂģÂĭ":11915,"MÃĤ":11916,"\\Âķ":11917,"MÃħ":11918,"[{":11919,"ĎÂĨ":11920,"Ã¾ÃĽ":11921,"ÂĻĀ":11922,"<Ē":11923,"or":11924,"ÃªU":11925,"ÃŀÃĺ":11926,"ÂĴÂĺ":11927,"oÃ»Ã¨":11928,"Dw":11929,"ÂŀÂĬ":11930,"mc":11931,"*Ĝ":11932,"ÃĲH":11933,"Âĳ\"":11934,"jÃĵ":11935,"/Â´":11936,"ÂŁ)":11937,"Ā=ē":11938,"Ã®Ãģ":11939,"Â¡Â®":11940,"dY":11941,"ĞÂĤÂĮď":11942,"ÂĵĄ":11943,"Ãłh":11944,"MÃĮ":11945,"]ÂĬ":11946,"tÃĸ":11947,"ÂĻÃ·":11948,"ěÂĭ":11949,"ÃĦÃĬ":11950,"ÂĸĀ":11951,"ĐÂĢ":11952,"Ã½c":11953,"NÃĮ":11954,"kz":11955,"ĆÂ·":11956,"ĔÂĶĀ":11957,"ÂĽÂĥ":11958,"Ďė":11959,"Ã¸Âª":11960,"Ll":11961,"ÂįĘ":11962,"ÃľJ":11963,";Ā":11964,"ÃĪn":11965,"ġÂ¥Ā":11966,"TÃĴ":11967,"Ã¨q":11968,"ÂĤÂĿ":11969,"VÃģ":11970,"ĠÂº":11971,"`ă":11972,"Â¦Âĥ":11973,"LÂª":11974,"vÃĽ":11975,"ÃĢÃ»":11976,"ğÂķě":11977,"ÃĹă":11978,"Ã¡B":11979,"|}":11980,"Ã¨z":11981,"ď#":11982,"Ēė":11983,"ÂĽÂ¿":11984,"Ã¹Ã³":11985,"MÃ¤":11986,"Ã¼Ã¢":11987,"ÂŁ.":11988,"/Â¥":11989,"FÃĭ":11990,"^Â£":11991,"ÃķG":11992,"ĕÂĲ":11993,"ěÂ§":11994,"PÃģ":11995,"ÂĹÂı":11996,";Â»":11997,"Ěą":11998,"DW":11999,"II":12000,"ęÂ·":12001,"&Âĭ":12002,"Ã³Ã°":12003,"ÂĪÂ±":12004,"Ã³Ã±":12005,"Âµq":12006,"Ą)":12007,"ÂīÂĶ":12008,",Ā":12009,"nÃĵ":12010,"Xb":12011,"ÂĽÂĢ":12012,"Ãµj":12013,"Op":12014,"yC":12015,"ÃĸÃ¦":12016,"ÂĳÂĭ":12017,"ÂģĐ":12018,"ĕÂ¶":12019,"%Âķ":12020,"Mu":12021,"*\"":12022,"Â¨@":12023,"Ąĝ":12024,"ÃİÃĻ":12025,"+'":12026,"Â¤Ĕ":12027,"ÃĢÃ½":12028,"ÂºÃķ":12029,"ÂĸÂ¬":12030,"__":12031,"CG":12032,"Â¦/":12033,"ąÂ¢ÂĬ(Ā":12034,"ÃĦb":12035,"Ã¼Ã£":12036,"xS":12037,"Ã©Ã©":12038,"dÃ±":12039,"ÃīÃł":12040,"ÂĻ&":12041,"ĀĀĀ":12042,"ĂÂį":12043,"dzÃĲ":12044,"$ÂĹ":12045,"Â±Âķ":12046,"38":12047,"ÃŁÃ¦":12048,"Ą&":12049,"gf":12050,"Â»@":12051,"<Â§":12052,"im":12053,"YÃľ":12054,"+Â¢":12055,"ÃĦh":12056,"ie":12057,"Yr":12058,"JÃī":12059,"bÃĥ":12060,"dÃ°":12061,"ć~":12062,"ÂĴ/":12063,"Ã·Ę":12064,"ĕÂĮ":12065,"_/":12066,"vÃ¯":12067,"oÃ¸":12068,"ĠD":12069,"Â¸Â¸":12070,"FÃ±":12071,"ÃĺÂª":12072,"ğÂĿĀ":12073,"Ć#":12074,"ÃĴE":12075,"ÂĶ(":12076,"ĂÂĦ":12077,"AÃ¯":12078,"\\Âļ":12079,"`Đ":12080,"Bq":12081,"IÃĿ":12082,"ęā":12083,"Ã²Ãģ":12084,"ÃŃa":12085,"ÂĺÂĭ":12086,";Ğ":12087,"ÃĪa":12088,";Ĉ":12089,"iÃ§":12090,"Ã²N":12091,"`Âĵ":12092,"ÃīÃĿ":12093,":ÂĤ":12094,"Â»'":12095,"tÃ¼":12096,"Ã¥Ãļ":12097,"ÂĪ$":12098,"ĕ/":12099,"RL":12100,"vc":12101,"VÃİ":12102,"tÃ©":12103,"13":12104,"jÃ¬":12105,"ÂĨă":12106,"`*":12107,"Â·ē":12108,"Âĵ~":12109,"ÃĨÃ¯":12110,"ÂĽÂĽ":12111,"Â¡ġ":12112,"BÃª":12113,"[Â¦":12114,"ÂĴğ":12115,"ÃįÂº":12116,"WÃĭ":12117,"Â£*":12118,"ÂĻ~":12119,"ÂĢÂĤ":12120,"ÃĩO":12121,"ÂļÂ¨":12122,"Âģ#":12123,"Â§Âī":12124,"Ã¨ÃĻ":12125,"Ã¹K":12126,"VÃł":12127,"fE":12128,"eE":12129,"ĕÃĹ":12130,"Ãŀo":12131,"ę-":12132,"ÂİÂ¬":12133,"Â½Â¾":12134,"WÃĴ":12135,"ĝÂ°":12136,"Âļć":12137,"SÃ¸":12138,"rÃŁ":12139,"đÃĹ":12140,"Wa":12141,"Ã§Z":12142,"ÂĻă":12143,"Đ~":12144,"(ě":12145,"ĄÂī":12146,"TÃ¢":12147,"BÃľ":12148,"}ĀĔ":12149,"%ÂĹ":12150,"ÃĳA":12151,"Â£+":12152,"]Â°":12153,"ÃĺÃĺ":12154,"ÂĴ\\":12155,"}Â¸":12156,"ÃĨÃª":12157,"Ã¬Ã¤":12158,".Â¤":12159,"ď'":12160,"Â¦Â©":12161,"ÃĳO":12162,"ÂĦÂľ":12163,"dzÃĳ":12164,"Âķ_":12165,"Ml":12166,"Sr":12167,"Ã²q":12168,"ēÂĲ":12169,"ÂĶ.":12170,"Ã¥Ã¹":12171,"yÃª":12172,"Ã°Ãĥ":12173,"Ãķm":12174,"Ã±Ãģ":12175,"Â®Ā":12176,"ÃİÃĢ":12177,"ĖÂŁ":12178,"RJ":12179,"DÃĩ":12180,"pÃª":12181,"ĎÂ¿":12182,"VÃ¤":12183,"ÃĹđ":12184,"'ÂĿ":12185,"Gu":12186,"ěÂĬ":12187,"OÃ¤":12188,"ąĞ":12189,"ÂĴ,":12190,"EJ":12191,"ÃĶz":12192,"ÃĶÃĪ":12193,"Ã£Ãĺ":12194,"3Â¼":12195,"nf":12196,"ĝ(ā":12197,"ÂŁÂŃĀ":12198,"Wc":12199,"ÂķÂĮ":12200,"^Âľ":12201,"Â¥Â¢ÂĬĀ":12202,"Â»<":12203,"Â±Â°":12204,"PK":12205,"ÂģĔ":12206,"āÂĸ":12207,"Ć`":12208,"Â¦-":12209,"!Ĕ":12210,"|Â©":12211,"Ã²Ã¦":12212,"Ã¥d":12213,"Ã¾M":12214,"ÃĽm":12215,"tÃĪ":12216,"%ĔÂ´":12217,"MÂµ":12218,"ÂĭÂ´":12219,"jR":12220,"Ã§Ã¤":12221,"ĕ;":12222,"ĎÂĺ":12223,"ÃĽÃĬ":12224,"Ġ;":12225,"_Â¯":12226,"pÃħ":12227,"ÃĽÂº":12228,"ÃĦH":12229,"ÃĶÃ¬":12230,"Âĭ{":12231,"ÃĳÃĩ":12232,"Ã°Ãĩ":12233,"hV":12234,"Ã®k":12235,"Â¥Â»":12236,"\\/":12237,"ÂĻÂĽ":12238,")[":12239,"wÃ£":12240,"ğÂ§":12241,"ÃĥÃ´":12242,"ď~":12243,"ÂĲÂİ":12244,"đę":12245,"BÃ¦":12246,"Â¨Â¢ÂĢ":12247,"pÃĮ":12248,"ÂĶĚ":12249,"ÂĸÂ«":12250,"ÂĦĞ":12251,"AÃŃ":12252,"ĕ+":12253,"ÃŀC":12254,"SF":12255,"]@":12256,"Â·*":12257,"ÃĿÂº":12258,"tQE":12259,"Ãŀf":12260,"ÂŁ@ąĔ":12261,"UG":12262,"ÃĬX":12263,"Âĭġ":12264,"ÂĸÂ¨":12265,"ÃĬq":12266,"lÃ³":12267,"ÂĴÂ§":12268,"IÃ«":12269,"ÃĬs":12270,"gÃª":12271,"ĎÂ¥":12272,"DY":12273,"Â¡ÂĮ":12274,"Âį\"":12275,"@ĖÂ¨":12276,"^Âĺ":12277,"Â¡Â±":12278,"āÂ¨":12279,"?ĚĀ":12280,"oq":12281,"Ãŀa":12282,"uÃ¼":12283,"tÃĢ":12284,"Ĉ`":12285,"ÃºÃ³":12286,"ÃĽn":12287,"jÃ¦":12288,"ĘÂģ":12289,"ÃĬÃĭ":12290,"Ã®Ã¢":12291,"Â°Â«":12292,"&Â§":12293,"ÃĳJ":12294,"ė-":12295,"ĝÂ§":12296,"Ã·ÂĪ":12297,"Âļ$":12298,"|Âľ":12299,"Â£Ė":12300,"ÃĦÂª":12301,"jÃĻ":12302,"SÃİ":12303,"ÃŁÃ§":12304,"Â®Â®":12305,"(Â¢ÂĬĀ)":12306,"ď?":12307,"Â¿'":12308,"CW":12309,"ď,":12310,"<ÂĦ":12311,"ÂĢÂĥ":12312,"Ug":12313,"eÃĨ":12314,"ÂĶÂ¬":12315,"ÂĶĂ":12316,"ÃŁÃ¹":12317,"uf":12318,"ÃħQ":12319,"ÃŀÃľ":12320,"kY":12321,"Ĝ.":12322,"ÂĸÂĻ":12323,"Â¡Âķ":12324,"XW":12325,"Â·>":12326,"ÃĽÃ°":12327,"&Âİ":12328,"ÃĹÂİ":12329,"Dn":12330,"Â´.":12331,"Ã»Ãľ":12332,"Â±=":12333,"vÃĢ":12334,"QÃŃ":12335,"dÃ½":12336,"Â©@":12337,"ZR":12338,"ďÂ»":12339,"ÃĬÃĺ":12340,"VÂª":12341,"ÂĿÂĮ":12342,"';":12343,"*ą":12344,"Ãĭw":12345,"ēĔ":12346,"ÃļE":12347,"Ã°z":12348,"lÃĩ":12349,"ZÃħ":12350,"'ě":12351,"KÂº":12352,"ĕÂ¢":12353,"ÃµO":12354,"Â·(":12355,"đÂ»":12356,"CÃĪ":12357,"ÃĬÃĪ":12358,"Lt":12359,"ÃĶÃĺ":12360,"\"`":12361,"Â¡Â»":12362,"ÂĶÂĥ":12363,"=~":12364,"Ėă":12365,"lÃ¾":12366,"Â¤Â£":12367,"ZÃĿ":12368,"mÃĴ":12369,"ÂıĘ":12370,"ÂĽÂ¨":12371,"ÃĦÃ»":12372,"ć@":12373,"ĆÂĨ":12374,"ÃĶÂª":12375,"ÃĤF":12376,"ÃĸÃĳ":12377,"&[":12378,"UÃŃ":12379,"yj":12380,"&ÂĪ":12381,"Â®ÂĤ":12382,"ÂĿď":12383,"Ã´Ã¹":12384,"ÂļĈ":12385,"%ÂĢ":12386,"Â¥ē":12387,"ÃĦe":12388,"XÃı":12389,"Â±Âĸ":12390,"\"\\":12391,"ÃĢQ":12392,"]Âį":12393,"LÃ¤":12394,"]Âĳ":12395,"gs":12396,"ĕġ":12397,"Ã¬K":12398,"ğÃ·ė":12399,"HB":12400,",Â§":12401,"ÃªÃĿ":12402,"Ė#":12403,"ÂĻÂĩ":12404,"IÃ²":12405,"Â¢/":12406,"ÃºÃħ":12407,"Xa":12408,"\"Âĩ":12409,"ÃİY":12410,"Âļę":12411,"Â¦đ":12412,"ėÂĲ":12413,"Ã´Ã¨":12414,"{Â¯":12415,"MQ":12416,"ÂĺÂľ":12417,"Âļą":12418,"AW":12419,"Ã£Ãº":12420,":Â©":12421,"OÃ»Ãª":12422,"rÃĨ":12423,"ÃĢÃ¯":12424,"Ã¡v":12425,"Ã¼ÃĮ":12426,"ĐÂĴ":12427,"Â·.":12428,"AKE":12429,"ÂĻ[":12430,"Ā>ÂĬ(":12431,"ÂŃē":12432,"ÂĽÂĵ":12433,"+Â¯":12434,"TQE":12435,"Ã²x":12436,"ÃľB":12437,"Â°#":12438,"FÃŃ":12439,"Jf":12440,"ĆÂĭ":12441,"ĘÂį":12442,"ÃłÃŃ":12443,"JÃı":12444,"sD":12445,"ÃĵD":12446,"yÃ¨":12447,"āÂ«":12448,"Â·ÂĪ":12449,";ÂĴ":12450,"ZN":12451,"Mt":12452,"Ã¤a":12453,"RV":12454,"zÃ½":12455,"ć|":12456,"Â£ÂĤ":12457,"ēÃĹ":12458,"Â±Â¢":12459,"Âķ.":12460,"Ã¡p":12461,"ğÂŃĀ":12462,"Âłĉ":12463,"Â¡ă":12464,"oc":12465,"Ã¬ÃĢ":12466,"ÂĶÂ©":12467,"HQE":12468,"ÃĭÃĵ":12469,"Ã²Ãĳ":12470,"ÂŀĘ":12471,"Ã©ÃĢ":12472,"ÃĭÃĩ":12473,")ÂĬ":12474,"Ã¥Ã§":12475,"ÃĴw":12476,"ÃĻn":12477,"FÃį":12478,"Â¥Ă":12479,"Ãĥs":12480,"*~":12481,"ÃģÃ¯":12482,"jn":12483,"Â±}":12484,"IÃł":12485,"ÃĪG":12486,"&ÂĨ":12487,"[Âĭ":12488,"bN":12489,"Âıę":12490,";Âĸ":12491,"hÃĸ":12492,"VY":12493,"ăġ":12494,"ĄÂ¯":12495,"Ã¼ÃŁ":12496,"ĀÂ¢ÂĬ(ā":12497,"ÃĶÃ¥":12498,"do":12499,"`=":12500,"ÂŁÂŁ":12501,"%!":12502,"UÃ³":12503,"Â¢ÂĦ":12504,"ÃīÃŃ":12505,"?Â¯":12506,"\\Ã·":12507,"ÃĽÃİ":12508,"ē@":12509,"(>":12510,"ÂīĎ":12511,"ÂĽĝ":12512,"ĠÂ³":12513,"Ã²ÃĮ":12514,"Ã®Ã¹":12515,"ĚÂ«":12516,"Ã¤ÃĨ":12517,"ğ+":12518,"ÂĿÂ®":12519,"Ē/":12520,"ĆÂ©":12521,"47":12522,"FK":12523,"ÂªÃº":12524,"Ã¦ÃĿ":12525,"ma":12526,"ÂĶÂ¿":12527,"Âģ$":12528,"ėÂĴ":12529,"Â¦Ď":12530,"Â°}":12531,"HE":12532,"Bx":12533,"Â±Ã·":12534,"Â¸Âĸ":12535,"AÃ½":12536,"Ã¢Âµ":12537,"ÂĪĘ":12538,"*$":12539,"Ã½Y":12540,"Xt":12541,"gÃį":12542,"\\)":12543,"ÂĤÂľ":12544,"Hl":12545,"WÃ¾":12546,"ĜÂĨ":12547,"vÃª":12548,"MÃģ":12549,"ÃĴD":12550,"dÃĪ":12551,"ÂīÂı":12552,"(Âį":12553,"gP":12554,"ĜÂĸ":12555,"Ãĥo":12556,"ĕÂĬ":12557,"HÃ³":12558,"ĞÂ´ā":12559,"jo":12560,"ĕ:":12561,"ęÂĹ":12562,"*-":12563,"ÃĦÃķ":12564,"NÃŁ":12565,"`;":12566,"ćġ":12567,"WÃļ":12568,"Â·Âį":12569,"Â¢ÂĴÂĬĀ":12570,"64":12571,"ÃľÃĻ":12572,"ÃŀP":12573,"Âĭ\"":12574,"Âīā":12575,"ÂĲÂı":12576,",>":12577,"il":12578,"ÃĦn":12579,",Â»":12580,"ÃĭÃĪ":12581,"ÃĸÃħ":12582,"ÂĽÂ©":12583,"(āÂ´":12584,"Â¾Â¹":12585,"iÃħ":12586,"ÃīÃ»":12587,"IÃ©":12588,"fO":12589,"ÂĥÂ»":12590,"ÃĥÃ¹":12591,"Ã¶ÃŃ":12592,"ĚÂĪ":12593,"ÂŃÂŁ":12594,"Ã«ÃŃ":12595,"Ã®Ãĺ":12596,"@Â¨":12597,"Ã§s":12598,"eu":12599,"ĒĒ":12600,"ĠÂ²":12601,"BÃģ":12602,"Ćě":12603,"ÂĮĝ":12604,"ÂĮÂ¬":12605,"Hi":12606,"zm":12607,"ÂĴ.":12608,"ĂÂ»":12609,"kI":12610,"Ã²s":12611,"jÃł":12612,"dL":12613,"ÂªÃµ":12614,"js":12615,"ÃĹ;":12616,"ĠÂ§":12617,"Ã´Ãİ":12618,"Ãŀs":12619,"wv":12620,"Â¤ÂĹ":12621,"Â¡[":12622,"tc":12623,"Â¥Â¢ÂĢ\"":12624,"RQE":12625,"ÃľÃħ":12626,"Ã¥Ã¤":12627,"ďÂľ":12628,"Ã»E":12629,"ÃĦI":12630,"Â¤Âĺ":12631,"ÂķÂĿ":12632,"ÃĿA":12633,"kD":12634,"ÂĭÂĵ":12635,"ÂĴÂ¬":12636,"Â«Âį":12637,"ÃĥÃ®":12638,"GÃ¡":12639,"Â¥Ď":12640,"ĄÂĺ":12641,"Ãįl":12642,"Ã¶Ã»":12643,"Ãĵv":12644,"@ą%":12645,")_":12646,"~ć":12647,"Kh":12648,"ĒĖ":12649,"Ã¤G":12650,"@Âĳ":12651,"Ġo":12652,")đ":12653,"VÃŁ":12654,"Ã¦C":12655,"ÂĦĀ":12656,"@Âĥ":12657,"(Âİ":12658,"\\[":12659,"Ã«Ãī":12660,"Ã¶ÃĽ":12661,"Ãģl":12662,"ė;":12663,"ÃĩÃĲ":12664,"{Âŀ":12665,"Đ=":12666,"&Âī":12667,"Â§ÂĤ":12668,"Â®$":12669,"ÂģĄ":12670,"ÃĹÂ·":12671,"Ć,":12672,"Â¸ÂĶ":12673,"Ã¨Ãĺ":12674,"ÃľÃĪ":12675,"ĕÂŀ":12676,"ÃĹÂľ":12677,"|Â¦":12678,"Ã¯Ã£":12679,"5Â²":12680,"ÃĳÃĪ":12681,"#ġ":12682,"){":12683,"ğÃ·ÃĹ":12684,"Â¯Â·":12685,"xT":12686,"NU":12687,"ęÂ¶":12688,"FÃ³":12689,"<Âĸ":12690,"ZS":12691,"cI":12692,"Ke":12693,"fÃİ":12694,"fÃĻ":12695,"pÃŁ":12696,"Ā&(":12697,"ÂĦÂĤ":12698,"Ą;":12699,"āÂĻ":12700,"ÂºÃĴ":12701,"Cl":12702,"}ÂĬ":12703,"ÃīÃ®":12704,"ÂĿÂ©":12705,"ÂªÃĪ":12706,"%Ę":12707,"Ġ-":12708,"Ã»m":12709,"Ãīq":12710,"Â«ą":12711,"aÃĴ":12712,"pÃį":12713,"bz":12714,"Â¨ě":12715,"ÂŃÂİ":12716,"ÃľÃ³":12717,"Ã°A":12718,"!ă":12719,"oo":12720,"Ã£Ãķ":12721,"JÃª":12722,"ÂĳÂ¢":12723,"Â®Â¥":12724,"jg":12725,"ÂģÂĹ":12726,"WQ":12727,"/-":12728,"Ã¸Ãı":12729,"ÂĺÂĥ":12730,"[Â§":12731,"Ã©ÃĲ":12732,"Ã²Ã±":12733,"Âµl":12734,"jÃ¨":12735,"bq":12736,"%`":12737,"aÃ¦":12738,"Â±ÂĨ":12739,"ÂĲÂ»":12740,"SX":12741,"Â¤<":12742,"Ã¶Ãĩ":12743,"TÃĽ":12744,"|ÂĢ":12745,"\"Ę":12746,"Ã®U":12747,",Â¸":12748,"Â£Đ":12749,"ÂįÂĹ":12750,"Ã¾E":12751,"ÃŃÃĻ":12752,"Â°`":12753,"Ć'":12754,"ÂĮĕ":12755,"Â©_":12756,"nÃª":12757,"Ã®Ãł":12758,"Âĩ`":12759,"Ĕ*":12760,"Ã³Ã¢":12761,"ÃĢÃ¬":12762,"Kl":12763,"ÃĳV":12764,"#ď":12765,"/Ę":12766,"Ac":12767,"ĖĎ":12768,"YB":12769,"ÂķÃ·":12770,"ÃİÃĽ":12771,"nv":12772,"ÃĺÃĿ":12773,"Ãĺr":12774,"#&":12775,"ÃĦG":12776,"Â¨Âī":12777,"Â§ÂŁ":12778,"ÂĮ?":12779,"Ĕ]":12780,"Â¡'":12781,",Âĺ":12782,"Ã½q":12783,"ÂĤÂı":12784,"Lp":12785,"ÃŁÃĮ":12786,"Kk":12787,"ÂĲ`":12788,"Â¬Âĺ":12789,"ÃĺÃĬ":12790,"Â¤ÂĻ":12791,"ÂĿÂİ":12792,"ZÃĶ":12793,"|ÂĪ":12794,"TÃ¦":12795,"dF":12796,"Ě*":12797,"Â¢ÂĢ)":12798,"fX":12799,">~":12800,"Â±.":12801,"Ã»Ã§Ã¿":12802,"ēĘ":12803,"Âīď":12804,"na":12805,"ėÂ¿":12806,"Â¢ÂĬ(ĀÂ¢ÂĬ(ĀÂ¢ÂĬ(ĀÂ¢ÂĬ(ā":12807,"[ÂĶ":12808,"Â±Âĥ":12809,"bs":12810,"ĔĖ":12811,"Ãįi":12812,"SÃĨ":12813,"ÃīÃĽ":12814,"Zg":12815,"ĔÂ©":12816,"ÂĽ@":12817,"Mi":12818,"ÃªÃķ":12819,"ÃĺÃĻ":12820,"Â®Âĥ":12821,"ÃīÃ½":12822,"ÂĳĖ":12823,"ÃĤÃ±":12824,"ą`":12825,"eÃĬ":12826,"ÂįÂĴ":12827,"ÂŃÂ·":12828,"ÃµR":12829,"Â»ă":12830,"Âį$":12831,"/ÂŁ":12832,"ÃĮÃ¬":12833,"Ãĵc":12834,"Â¶Â¿":12835,"Âºk":12836,"jÃŀ":12837,"Â°Ē":12838,"CÂµ":12839,"|ÂĦ":12840,"xc":12841,"ÃĮK":12842,"xÃĴ":12843,"Ãĸu":12844,"ÃĥÂµ":12845,"wÃ§":12846,"ÂĻÂ¦":12847,"[Â¿":12848,"Â´Ğ":12849,"Ã®y":12850,"UR":12851,"ÂĳĐ":12852,"ąÂĮ":12853,"đ\\":12854,"BÃį":12855,"ZÃĽ":12856,"ęÂĢ":12857,"wÃħ":12858,"UA":12859,"ÃĦÃĶ":12860,"Ã»v":12861,"ÃĥÃĶ":12862,"ĠÃĿ":12863,"{`":12864,"ÂĺĈ":12865,"Ã¶Ã©":12866,"!ÂĤ":12867,"Ďě":12868,"ÃĹ$":12869,"=ė":12870,"ÂıÂľ":12871,"ÃĭÃ½Ã¡":12872,"Ã³Ãĺ":12873,"Ą-":12874,"LH":12875,"Ã²Ã²":12876,"dÃ¦":12877,"ÃĩÃ«":12878,"Âķ\"":12879,"Ã°H":12880,"ÂĬĀÂ¯":12881,"ÃĮB":12882,"ĝÂ·":12883,"nÃĸ":12884,"ÃĬÃ¥":12885,"YF":12886,"wt":12887,"wf":12888,"Yb":12889,"ÃģÃľ":12890,"Ē*":12891,"Â®Â¬":12892,"wÃ¦":12893,"ĂĞ":12894,"Ã¸f":12895,"]ÂĦ":12896,"pÃ¤":12897,"CZ":12898,"ÂŃ}":12899,"&~":12900,"Ĉ.":12901,"ÃŀE":12902,"ę[":12903,"ÃĢr":12904,"ęÂĩ":12905,"jÃ¢":12906,"nÃĴ":12907,"ĀĔÂ´ÂĶ":12908,"ĚÂ¶":12909,"!Â»":12910,"Ã¬Ã³":12911,"/ÂĴ":12912,"Ã¡Ãı":12913,"<Âĩ":12914,"lV":12915,"đÂī":12916,"Â¥Âļ":12917,"Â®ą":12918,"OÃ»Ã¦":12919,"PÃ£":12920,"mÃĶ":12921,"ĄÂķ":12922,"+ā":12923,"Â©Âŀ":12924,"NÃĿ":12925,"ĝā":12926,"ÂĸÂ¡":12927,"ÃĮÃ±":12928,"?ÂĢ":12929,"Ã¶u":12930,"UO":12931,"ĠÃ¥":12932,"ÂĨÂĢ":12933,"ÂĤÂĬ":12934,"#Âī":12935,"TÃ¼":12936,"+\\":12937,"Â±Âį":12938,"Ą,":12939,"ÂºR":12940,"Â®Â¤":12941,"46":12942,"ÃĭÃ¼":12943,"Â¥ā":12944,"WÃ½":12945,"UÃ¹":12946,"Ć%":12947,"Ãīm":12948,"Đ`":12949,"Ġĕ":12950,"ÂĻĞ":12951,"Â¬Â¯":12952,"*Âī":12953,"ÂĨ>":12954,"ć-":12955,"ÂªÂµ":12956,"ÃķÃļ":12957,"ĠH":12958,"Ã±Ã»":12959,"Ã³ÃŁ":12960,"Â§Ď":12961,"Â«Âī":12962,"Â¥}":12963,"ÃįÃ¥":12964,"LÃŃ":12965,"^ÂĢ":12966,"BÃ¥":12967,"+,":12968,"ÂĿ?":12969,"^{":12970,"PÃħ":12971,"GO":12972,"VÂµ":12973,"iÃ¬":12974,"^ÂĦ":12975,"gÃŁ":12976,"iÃĶP":12977,"Â¥Â¢":12978,"ęÂģ":12979,"Ã´o":12980,"Jo":12981,"Â®(":12982,"Âŀ>":12983,"Wf":12984,"Ãģc":12985,"ÃĸÃ¥":12986,"Â¹6":12987,"Ã±ÃĢ":12988,"ÂĻÂ¢":12989,"ÂĬÂ¦":12990,"ÂįÂķ":12991,"ÃĹĄ":12992,"hf":12993,"ĐĘ":12994,"ÃįS":12995,"^Â¸":12996,"ÃĤÃ¢":12997,"Ãĭy":12998,"ÂĺÂ¬":12999,"Â·Â¨":13000,"Ã§ÃĬ":13001,"*Ă":13002,"Vk":13003,"sz":13004,"Ã¶e":13005,"Ã°r":13006,"Â°'":13007,"ĔÂŃ":13008,"#ÂĶ":13009,"ąā":13010,"ÃħS":13011,"Âĵ`":13012,"ÃĦk":13013,"Ã§Ãľ":13014,"UÃİ":13015,"Ā(Â¢ÂĬĀ(Â¢ÂĬĀ(Â¢ÂĬĀ(Â¢ÂĬĀ":13016,"ğÂģ":13017,"ĘÂ´":13018,"Ã³ÃĿ":13019,"Â¨Ė":13020,"ÃºÃĨ":13021,"Ã®n":13022,")ÂĦ":13023,"ąĈ":13024,"Â§;":13025,"Ã¨ÃĢ":13026,"Ã¤E":13027,"UÃķ":13028,"We":13029,"Ã³Ã£":13030,"Ã±T":13031,"ÃĵÃĲ":13032,"FÃı":13033,"XÃŁ":13034,"Ġ>":13035,"JD":13036,"#ā":13037,"VM":13038,"ÂĻÂĤ":13039,"ÂĹġ":13040,"ÂĭÂĸ":13041,"mÃŀ":13042,"ā%Ĕ":13043,"|Â®":13044,"ZÃī":13045,"xÃļ":13046,"ÂŁÂ¸":13047,"aS":13048,"ÂĶ~":13049,"ÃĴl":13050,"ÃĺÃĥ":13051,"bÃ»":13052,"ZÃĤ":13053,"91":13054,"bD":13055,")Â«":13056,"ĒĂ":13057,"Â¡Â¡":13058,"ÂĻ.":13059,"Â½Â²":13060,"KF":13061,"Ã¤Ã¹":13062,"ÃĵÃĽ":13063,"ÃľÃŃ":13064,"ąÂ¨":13065,"Ãĺn":13066,"Â¼0":13067,"ğÂ©":13068,"Ã®ÃŁ":13069,"(Âĳ":13070,"Â§>":13071,"vÃĿ":13072,"Ã·$":13073,"Â¦]":13074,"Âµc":13075,"Ãĭf":13076,"ZÃĦ":13077,"gj":13078,"Â´Â¨":13079,"OO":13080,"ÃĮÃª":13081,"Â¢,":13082,"ÃīÃ¯":13083,")ĕ":13084,"%?":13085,"ÃĽÃĲ":13086,"ÃĶÃĬ":13087,"ÂĽĔ":13088,"ÃĤG":13089,"Â¬Â¡":13090,"Â¶Ĉ":13091,"ÃķT":13092,"Ãĭa":13093,"ÃĽÃŃ":13094,"Â¬ě":13095,"ĘÂĸ":13096,"Ã¦c":13097,"ďÂ¿":13098,"ÂĲĞ":13099,"/.":13100,"ÂĺÂ°":13101,"ĘÂľ":13102,"Ã³E":13103,"%}":13104,"ğÂī":13105,"Â¤~":13106,"ĒÂ±":13107,"zÃł":13108,"VÃ§":13109,"Ą*":13110,"ą}":13111,"Ã¡Ã¼":13112,"ĘÂĢ":13113,"Ã¥ÃĿ":13114,"ÃĺÃļ":13115,"rÃ¤":13116,"Ã©ÃĪ":13117,"mo":13118,"ÂĵÂĸ":13119,"Â¤ÂĽ":13120,"ÃµI":13121,"Ę\"":13122,",ÂŃ":13123,"AÂµ":13124,":Â·":13125,"ĒÂ¡":13126,"Âĺ.":13127,"@ÂĢ":13128,"/ÂĿ":13129,"ÂĲÂĨ":13130,"MJ":13131,"Ãįk":13132,"[ÂĹ":13133,"VÃ®":13134,"^;":13135,"@Â®":13136,"ÂĬė":13137,"ÂĸÂ¿":13138,"Â¥)":13139,"ÃĿP":13140,"Â¨Âģ":13141,"iK":13142,"Đ(":13143,"xb":13144,"Ã¡y":13145,"ÂĭÂĴ":13146,"eo":13147,"%ğ":13148,"BN":13149,"ÃįÂµ":13150,"FÃ¶":13151,"ĈÂĦ":13152,"ĠÂĶ":13153,"Âı!":13154,"|Âĳ":13155,"Â©Âķ":13156,"Ã»K":13157,"ąÂŁ":13158,"VQ":13159,"Ã§ÃĻ":13160,"$Ė":13161,"Â£;":13162,"Âı=":13163,"ġġ":13164,"Â±Âī":13165,"Â¬ā":13166,"Â¨*":13167,"$ÂĿ":13168,"fÃĨ":13169,"hÃĤ":13170,"iÃļ":13171,"Â§Ė":13172,"Â«-":13173,"fÃ¨":13174,"ĈĞ":13175,"Ro":13176,"CÃĶ":13177,"Ã¾Ãĺ":13178,"Â´ÂĹ":13179,"Vt":13180,"ÃľÂª":13181,"Â»{":13182,"ÂĽć":13183,"nÃŃ":13184,"Â±!":13185,"wl":13186,"ĘÂŃ":13187,"Đ>":13188,"Ã½Ã½":13189,"gÃĿ":13190,"\"_":13191,"Â£ÂĨ":13192,"uÃĪ":13193,"Ã³Ã¦":13194,"ÃĸÃ²":13195,"ĝÂİ":13196,"Âĥ?":13197,"Bs":13198,"ÃĽÃ»":13199,"ÂĴÂĲ":13200,"fÃ¢":13201,"Hr":13202,"XÃĴ":13203,"Ã½G":13204,"DI":13205,"YÃ²":13206,"Â±[":13207,"Ã´ÃŃ":13208,"Ã¤Ãī":13209,"Â¢ÂĬ(ĀÂ¢ÂĬ(ĀÂ¢ÂĬ(Ă":13210,"ZÃ¢":13211,"Â¼2":13212,"ÂĻÂĨ":13213,"ĆÂĤ":13214,"Â¿(":13215,"Â¯Â¯":13216,"ÃĺÃĦ":13217,"(Â¢ÂĺąĔ":13218,"OÃ¬":13219,"43":13220,"ÃľÃ¶":13221,"Â¿ÂĿĞ":13222,"ě<":13223,"ws":13224,")Â°":13225,"Ãĥd":13226,"Ĕ.":13227,"Â¡Ĝ":13228,"Zs":13229,"Â§.":13230,"TÃĲ":13231,"ÃĬÂº":13232,"QÃ®":13233,"ĐÂ¸":13234,"Mm":13235,"ġÂĹ":13236,"Qd":13237,"vÃŀ":13238,"ĝÂĺ":13239,"ÃģÃŃ":13240,"CÃĲ":13241,"ZÃı":13242,"Âĸ\\":13243,"pÃĪ":13244,"nY":13245,"ÂļÂľ":13246,"Âĳ}":13247,"Ě_":13248,"ÃĹÂŀ":13249,"&Ď":13250,"Â¼3":13251,"ĝÂĭ":13252,"ZÃĻ":13253,"Â¤Â¢":13254,"ÃĥÃ½":13255,"ĚÂ©":13256,"ÃĶa":13257,"Ã¼Ãī":13258,"ÂŃ_":13259,"Ã¹Y":13260,"ÂķÂ°":13261,"<ÃĹ":13262,"Ē{":13263,"ÃĵÃ¤":13264,"Ã«Ã³":13265,"ġÂĿĀ":13266,"TÃĳ":13267,"Ã¾ÃĨ":13268,"Â´ē":13269,"Ã·ą":13270,"Ã±Ã¡":13271,"ÂķÂ¿":13272,"&Â¶":13273,"ĝĘ":13274,"VÃĽ":13275,"uc":13276,"Ãµo":13277,"Ã¬H":13278,"Â±~":13279,"Ã²d":13280,"Ã»Âª":13281,"ÃĵK":13282,"Â¤;":13283,"(Ď":13284,"ÃĴg":13285,"}Â¶":13286,"Âı#":13287,"@~":13288,"ÃĿJ":13289,"jS":13290,"ÃĲÂª":13291,"rJ":13292,"kX":13293,"%Âĭ":13294,"Â¨ÂĪ":13295,"/!":13296,"ÃķE":13297,"Â¾8":13298,"Ã¬ÃŃ":13299,"xÃĬ":13300,"Ą'":13301,"ÃĪÃĸ":13302,"ĆÂĪ":13303,"vE":13304,"ÂĿÂ°":13305,"ÃªÃĢ":13306,"ÂŁÂ¨":13307,"rÃŀ":13308,"ÃĮC":13309,"<Â®":13310,"Ã©ÃŁ":13311,"TÃ¡":13312,"ÃĵÃį":13313,"Â¥ÂĽ":13314,"ÃĻc":13315,"ĘÂ¶":13316,"ÃİÃĦ":13317,"Â¿.":13318,"ÂįÃĹ":13319,"ē#":13320,"Ġ=":13321,"ÃīÃº":13322,"ÂĳĎ":13323,"Âĵě":13324,"Âĺā":13325,"pÃĭ":13326,"ÃļÃĬ":13327,"ÃĽÃŁ":13328,"$Â¯":13329,"ă[":13330,"di":13331,"Ã»Ãħ":13332,"Âı&":13333,"ÃĩÃĪ":13334,"ÃīÂµ":13335,"ÂĿ>":13336,"<Â¬":13337,"Ie":13338,"ÂĴÂĮ":13339,"Â«Âĭ":13340,"ę\"":13341,"Â§!":13342,"ÃĮF":13343,"pU":13344,"ÂĶď":13345,"Ã¬ÃŁ":13346,"ÃļX":13347,"MÃ§":13348,"aÃį":13349,"āĎ":13350,"Ă!":13351,"DX":13352,"?>":13353,"qÂº":13354,"ĕÂ¸":13355,"ĚÂģ":13356,"Ã±Ã¨":13357,",ğ":13358,"-Â¶":13359,"<(":13360,"HF":13361,"aÂµ":13362,"ÂĥÂķ":13363,"Qw":13364,"ÂĦÂŀ":13365,"Ē\\":13366,"GÃľ":13367,"cg":13368,"ĞĆ":13369,"ÂĿ)":13370,"ZÃª":13371,"DÃĢ":13372,"kk":13373,"ĠÃ©":13374,"ÂĻđ":13375,"ÂĶ|":13376,"PÃį":13377,"lÃķ":13378,"Ăą":13379,"7Â½":13380,"Â£)":13381,"LÃĽ":13382,"]>":13383,"-ę":13384,"48":13385,"ā{":13386,"ÃĴÃĶ":13387,"NY":13388,"dE":13389,"me":13390,"PÃ§":13391,"Â³Â¼":13392,"Âļ/":13393,"ÃĵB":13394,"ÃĪÃ²":13395,"uÃ¾":13396,"Ã¨ÃĽ":13397,"Ę_":13398,"ÂĺÂ§":13399,"Wj":13400,"Ã¹Ã²":13401,"nj":13402,"ÂįÂĲ":13403,"ÂĻ\\":13404,"Ã·Ğ":13405,"ÂªA":13406,"^Ĉ":13407,"tb":13408,"vÃİ":13409,"āē":13410,"la":13411,"ÃĵÃ£":13412,"CT":13413,"ÃĲE":13414,"wÃĻ":13415,"Ã¯b":13416,"QÃ¨":13417,"ĒÂĮ":13418,"RÃĭ":13419,"ĒĜ":13420,"ÃļÃħ":13421,"ÃĸÃ¤":13422,"ÂĻē":13423,"Â¥Â£":13424,"%Âĵ":13425,"zn":13426,"*Âĩ":13427,"Ã£K":13428,"ÂĴĂ":13429,",đ":13430,"VÃı":13431,";Âĭ":13432,"ĕÂ«":13433,"xÃ¨":13434,"QÃĥ":13435,"Ã®p":13436,"Â¯\\":13437,"ĚÂĩ":13438,"ÃĩÃĦ":13439,"Ã¹ÃĳÃ¦":13440,"Ã¡ÃĬ":13441,"Â¦&":13442,"ÂĥÂ¥":13443,"sÃĭ":13444,"cÃ§":13445,"Â¨Âĺ":13446,"ÃĽÃį":13447,"oÃĭ":13448,"ÃħÃµ":13449,"ĚĐ":13450,"dy":13451,"Ir":13452,"Âŀ_":13453,"ÂĻÂ°":13454,"+Âļ":13455,"ÃĿÃ£":13456,"Â¬Âģ":13457,"Âĳ>":13458,",:":13459,"?|":13460,"ěă":13461,"mm":13462,"ĠF":13463,"Â¤Â©":13464,"NÃĨ":13465,"~|":13466,"ĈĈ":13467,"TÂº":13468,"ÃļV":13469,"ÂµÃĦ":13470,",Â¡":13471,"]ÂĽ":13472,"ğÂĪ":13473,"fÂª":13474,"vÃ°":13475,"Â¸ÂĬ":13476,"Ã¾Ãĥ":13477,"ÃĵY":13478,"cÃĮ":13479,"ąÂĲ":13480,"ÂıÂĸ":13481,"ÂĺÃĹ":13482,"AÃĲ":13483,"āđ":13484,"ÂĤÂŁ":13485,"Â¨&":13486,"ĚÂŃ":13487,"lÃ°":13488,"ÂĿÂ«":13489,"ÃĵÃ»":13490,"Ã©ÃĨ":13491,"Â¸Â®":13492,")ė":13493,"HG":13494,"HC":13495,"uÃī":13496,"Â±ÂĶ":13497,"6Â³":13498,"iÃĦ":13499,"Ã´Ã¾":13500,"Ėġ":13501,"hX":13502,"ĈÂ¬":13503,"tÃģ":13504,"Ĉġ":13505,"Ã®X":13506,"Ā(Â¢":13507,"\".":13508,"ÂİÂĬ":13509,"ÂĨġ":13510,"Ã¼ÃĲ":13511,"ÃĢe":13512,"sC":13513,"ÂĻÂ§":13514,"ăÂ´":13515,"ÂĩĀ":13516,"ZÃº":13517,"ÂıÂ¨":13518,"ÃİÃ¯":13519,"`đ":13520,"Ã®f":13521,"ćĆ":13522,":*":13523,"Â»Ą":13524,"ÃĬÃĿ":13525,"Ě]":13526,"ÂªÃ¯":13527,"qÃ§":13528,"ÃĺÃ»":13529,"pÃ´":13530,"&}":13531,"Ã¹C":13532,"Â²Â¾":13533,"ÃĩÃŁ":13534,"ėĞ":13535,"TY":13536,"'s":13537,"Ēğ":13538,"MÃĿ":13539,"ÂĻĆ":13540,"NÃ¨":13541,"Is":13542,"Ã®Ãµ":13543,"ÂĿĀ":13544,"\"Ĝ":13545,"WÃľ":13546,"uV":13547,"KK":13548,"ÃĸÃł":13549,"Đ;":13550,"ÂķÂ®":13551,"Â©+":13552,"ÃĬv":13553,"WÃ¨":13554,"Â¿Â´":13555,",;":13556,"Â¸ď":13557,"IR":13558,"Â¥Â¥":13559,"ÂŃĂ":13560,"Ã¥f":13561,"NÃĦ":13562,"ĘÂ¡":13563,"@Ğ":13564,"Â±ÂĪ":13565,"Â¢Ė":13566,"Ā|ÂŁ":13567,"Ã½U":13568,"ĐÂĶ":13569,"ÂĢ%Â¢Â¢":13570,"ÂĻÂĹ":13571,"ÃıÂº":13572,"Â¦'":13573,"Ã¡ÃĶ":13574,"ÂĲ|":13575,"Âī'":13576,"Ã¤l":13577,"ÃĥÃļ":13578,"uR":13579,"Â·Âļ":13580,"ÃĴÃ½":13581,"HÃŀ":13582,"VÃ©":13583,"ĎÂľ":13584,"Ēą":13585,"Ěġ":13586,"Â°*":13587,"=Ĕā":13588,"ĚĈ":13589,"Ãıp":13590,"ďĄ":13591,"Ã¯Ã«":13592,"RÃĴQ":13593,"?-":13594,"ĠÂĿ":13595,"ÃĻÃħ":13596,"Â±Â¬":13597,"Âĺ$":13598,"ÃķF":13599,"AT":13600,"YO":13601,"ÂĺÂģ":13602,"ąÂ£":13603,"ĕĂ":13604,"Ã¹Ãī":13605,"Ãķz":13606,"Ã¬ÃĶ":13607,"lÃ¦":13608,"ÃĬÃĨ":13609,"ÃįÃĦ":13610,"DÃĦ":13611,"uÃĢ":13612,"Â«Â¯":13613,"ÂĿĜ":13614,"ÃŃp":13615,"ÂĺĔ":13616,"Âĭę":13617,"/Âĵ":13618,"@!":13619,"āÂŃ":13620,"Ã§Ãº":13621,"ÂĸĈ":13622,"ÃµS":13623,"LÃĸ":13624,".{":13625,"tÃ¨":13626,"NÃ»":13627,"VÃĪ":13628,"dÃĸ":13629,"yÃŃ":13630,"Âªm":13631,"Ãĺg":13632,"Ġė":13633,"Â¢~":13634,"ÂĽ}":13635,"xÃª":13636,"Âığ":13637,"ÂĽÂĤ":13638,"Ã¥Ã´":13639,"ÂĨÂ¬":13640,"Â¥Â¿":13641,"JS":13642,"ÂĢÂĴ":13643,"ÂĨÂĵ":13644,"ď$":13645,"ÃĻb":13646,"@-":13647,"Ãıi":13648,"ÂĨ!":13649,"Âī-":13650,"Ã§Ãį":13651,"Âŀ`":13652,"UÃ²":13653,"yÃ±":13654,"*ÂĹ":13655,"(Â®":13656,"eB":13657,"\"Đ":13658,"Ã¼ÃĤ":13659,"ÃµkÃ´":13660,"zÃ¤":13661,"ąÂĳ":13662,"cÃĨ":13663,"ĚÂ¬":13664,"Â±Ĕ":13665,"OÃĵ":13666,"ÃªT":13667,"Ã¯Ã¯":13668,"Ć|":13669,"ÂĬĎ":13670,"Ã³Ãľ":13671,"CÃļ":13672,"VS":13673,"ÂºÃ®":13674,"=ÂĶ":13675,"ÂĻÂĢ":13676,"\"ć":13677,"Da":13678,"PT":13679,"ÂīÂİ":13680,"La":13681,"gÃī":13682,"ÂĿÂ¨":13683,"[;":13684,"Â¶>":13685,"Ĉě":13686,"GÃı":13687,"Dv":13688,"ÃĮÃľ":13689,"zÃ»":13690,"Ã¼Ãĵ":13691,"iÃ¥":13692,"Â«]":13693,"?^":13694,"ĚÂĭ":13695,"Ã¡Z":13696,"ÃĴQE":13697,"[Âĩ":13698,"xR":13699,"Ã©ÃĶ":13700,"Ã¬Ãĺ":13701,"If":13702,"ÃĳÃĬ":13703,"Â§ÂĹ":13704,"ÃķÃĽ":13705,"ÂĽ,":13706,"hÃµ":13707,"PÃ¤":13708,"UÃĥ":13709,"AÃº":13710,"Â°ă":13711,"VÃŃ":13712,"ě(":13713,"ÂŃÂĭ":13714,"ÃĳÃ¾":13715,"GÃİ":13716,"ÂĻÂĭ":13717,"ÃĮM":13718,"Ãªd":13719,"Ę!":13720,"Â¸Âķ":13721,"Âĳ!":13722,"Ã®T":13723,"NÃ¤":13724,"eÃĭ":13725,"FÃµ":13726,"ÃĳÃ¯":13727,"ÂĦÂĥ":13728,"ÃĴÃĨ":13729,"pJ":13730,"ĈÂĪ":13731,"YÃ£":13732,"Ã¬ÃĬ":13733,"Âļđ":13734,"ÃĢv":13735,"āÂĭ":13736,"Âĺă":13737,"Ãĺd":13738,"Ã¼ÃĽ":13739,"Âŀ~":13740,"Ã¢B":13741,"ÃģÃł":13742,"ÃĴÃ£":13743,"ÃķÃī":13744,"ÃĿy":13745,"Â£ÂĿ":13746,"\"Ć":13747,"rÃł":13748,"bb":13749,"wo":13750,"Ġ@":13751,"ĠI":13752,"RÃ¶":13753,"ÃĤÃ²":13754,"ĀÂļÂĬ":13755,"ěĄ":13756,"ĕ}":13757,"ÃĹġ":13758,"SÃ¾Ãº":13759,"ĠB":13760,"ÃĵÃ¾Ã¹":13761,"Ã¸Ãĩ":13762,"PÃī":13763,"Â¥Â´":13764,"ÃĳÃĨ":13765,"VÃ´":13766,"`ę":13767,"`ÂĢ":13768,"bh":13769,"Ã®q":13770,"Â¬Â¸":13771,"eT":13772,"mÃª":13773,"Ã±S":13774,"HÃ¯":13775,"Ĉ^":13776,"Â¯'":13777,"(,":13778,"Ęā":13779,"ÂĻÂķ":13780,"Ã¬T":13781,"nE":13782,"ā-ĕ":13783,"VÃµ":13784,"ÃĵJ":13785,"ÃľW":13786,"Ã¡C":13787,"đÂ®":13788,"LE":13789,"[Â¢":13790,"aÃĸ":13791,"Ã³Y":13792,"ÃŀÃĽ":13793,"bc":13794,"yQÃ¿":13795,"ÃİÃĮ":13796,"Ā}ğ":13797,"Â·ĕ":13798,"ÃŀA":13799,"ÂĨě":13800,"DU":13801,"Ã®W":13802,")Â¯":13803,"ÂĺÂĳ":13804,"Ãķw":13805,"ÃģÃļ":13806,"+Ĕ":13807,"nÂª":13808,"[ć":13809,"aÃħ":13810,"ÃĢl":13811,"[ă":13812,"Â«ÂĪ":13813,"ą^":13814,"nÃ¯":13815,"ÃĻÂª":13816,"ÂĻĄ":13817,"ÂįÂĬ":13818,"LÃµ":13819,"ÂĶă":13820,"Â¸*":13821,"Â®ÂĬ":13822,"sÂº":13823,"ÂĽÂ»":13824,"WÃŃ":13825,"Id":13826,"Âı<":13827,"ZÃĮ":13828,"(Â¢ÂĬ@Ĕ":13829,"ăÂ¨Â¢ÂĬĀ":13830,"uÃİ":13831,"Â®Â¡":13832,"ÃĦy":13833,"Ēĕ":13834,"ÂĲÂ«":13835,":|":13836,"tg":13837,"ÃĨÃ¤":13838,"ÃĭÃ§":13839,"Ã£ÃĿ":13840,"ÂĿÂĨ":13841,"FÃ«":13842,"ÃĢq":13843,"Vr":13844,"jÃª":13845,"ÂĹÂĮ":13846,"oÃŃ":13847,"ÂįÂ¥":13848,"ÃĪf":13849,"Ã½y":13850,"ĄđÂĲ":13851,"ZT":13852,"}ÂĤ":13853,":Â¯":13854,"]ĕ":13855,"ÃĩÃİ":13856,"(ÂŃ":13857,"ÂĸĜ":13858,"ÃĪq":13859,"Âĵ!":13860,"Ã³Ãº":13861,",_":13862,"[=":13863,"Âļ^":13864,"Ē&":13865,"ÃĶÃ¡":13866,"Â¬;":13867,"ÃıÃĻ":13868,"#/":13869,"ąď":13870,"eN":13871,"ÃĬU":13872,"Ğ(":13873,"Ã¬x":13874,"eÃĥ":13875,"Ã»ÃĩÃ³":13876,"ÃľA":13877,"DÃ±":13878,"Â·-":13879,"ÃĭÃ´":13880,"Ã¯ÃĨ":13881,"eÃ²":13882,"DÃģ":13883,"Â·Â¡":13884,"āĐ":13885,"VÂº":13886,"Â§)":13887,"Â¨/":13888,"CY":13889,"ÃĩÃ¸":13890,"ÂĲÂ¡":13891,"]\\":13892,"oP":13893,"ĀÂŀÂį":13894,"Â±ă":13895,"Ã¾Ã§":13896,"ĠÂ®":13897,"Ã£Ã¹":13898,"Ã¬Ã°":13899,"CÃį":13900,"yv":13901,"ė%":13902,"ÂĽÂľ":13903,"Â¿ÂķĀ":13904,"ÂįÂĵ":13905,"Â¸Đ":13906,"VÃ¹":13907,"bÃĺ":13908,"ÂķÂĵ":13909,"Â¬~":13910,"ÃĭÃı":13911,"Â£Â¿":13912,"VÃĸ":13913,"ĔÂļ":13914,"*ÂĪ":13915,"ÃĿÃŃ":13916,"GÃ®":13917,"@}":13918,"EÃī":13919,"(ÂĴ":13920,"Â¨Â°":13921,"[Â¥":13922,"Ãļi":13923,"ÂµÂµ":13924,"ÂĹ-":13925,"mÃ¡":13926,"Âªs":13927,"Ã«ÃĪ":13928,"uo":13929,"đĜ":13930,"IÃŃ":13931,"ÂģÂ°":13932,"Â·ÂĶ":13933,"Ę,":13934,"ÃĻÃ¹":13935,"Ã¬X":13936,"ą)":13937,"QC":13938,"ěÂĸ":13939,"Jj":13940,"ě`":13941,"ÃŀÃŁ":13942,"ÃªB":13943,"NK":13944,"|ď":13945,"Ã¬A":13946,"Â¢ÂĬ(ĀÂ¢ÂĬ":13947,"Âīē":13948,"IÂº":13949,"RÂº":13950,"ĘÂŁ":13951,"Â¢ÂĬ(ĀÂ¢ÂĬ(ĀÂ¢ÂĬ(ĀÂ¢ÂĬ(ĀÂ¢ÂĬ(ĀÂ¢ÂĬ(ĀÂ¢ÂĬ(ĀÂ¢ÂĬ(ĀÂ¢ÂĬ(ĀÂ¢ÂĬ(ĀÂ¢ÂĬ(ĀÂ¢ÂĬ(ĀÂ¢ÂĬ(ĀÂ¢ÂĬ(ĀÂ¢ÂĬ(ĀÂ¢ÂĬ(ĀÂ¢ÂĬ(ĀÂ¢ÂĬ(ĀÂ¢ÂĬ(ĀÂ¢ÂĬ(ĀÂ¢ÂĬ(ĀÂ¢ÂĬ(ĀÂ¢ÂĬ(ĀÂ¢ÂĬ(ĀÂ¢ÂĬ(ĀÂ¢ÂĬ(ĀÂ¢ÂĬ(ĀÂ¢ÂĬ(ĀÂ¢ÂĬ(ĀÂ¢ÂĬ(ĀÂ¢ÂĬ(ĀÂ¢ÂĬ(Ā":13952,"Ĉā":13953,"ĄÂ¤":13954,"[Ė":13955,"ÂĲÂ¿":13956,"FÃ¾":13957,"ÃĭÃī":13958,"HÃ±":13959,"ÂĮ>":13960,"lÃĸ":13961,"Ws":13962,"fÃł":13963,"ÃĿÃŁ":13964,"+Â«":13965,"uÃĨ":13966,"Ã·Âī":13967,"Â¸Âľ":13968,"ÂĽ%":13969,"Ã¦ÃĨ":13970,"uS":13971,"ÃĵÂª":13972,"Ã»ÃĥÃ²":13973,"Gm":13974,"Ea":13975,":Âĸ":13976,"Fk":13977,"ÂŃÂĳ":13978,"Ã½Ã±Ã¿":13979,"ÂĲ.":13980,"hC":13981,"iÃł":13982,"Ãħt":13983,"ÃŀÃ§":13984,"Â¶ÂĿ":13985,"Â¯^":13986,"ÂŃė":13987,"Ã«Ãģ":13988,"Ã£s":13989,"ěÂ¦":13990,"ÃŃc":13991,"JK":13992,"ÂĮĈ":13993,"ÂĲ]":13994,"ys":13995,"ęÂķ":13996,"ÃĶÃĩ":13997,"ÂĪă":13998,"ĕ{":13999,"oÃı":14000,"ÃĪY":14001,"UÃ§":14002,"ĝ(Ă":14003,"Ãĳq":14004,"BÃ°":14005,"ÃĴÃ¤":14006,"ÃŀÃ¼":14007,"FÃ¯":14008,"Ã¶Ã¨":14009,"XÃ¡":14010,"-Â°":14011,"Â¡ÂĬ":14012,"ÂĹÂĳ":14013,"rÃģ":14014,"Ã¬z":14015,"*,":14016,"MZ":14017,"yP":14018,"mÃĲ":14019,"ĠÃ¡":14020,"Ã»Ãµ":14021,"\"Ĉ":14022,"Âĥ$":14023,"Âªq":14024,"ÂĺÂ·":14025,"ĆÂĬ":14026,"[Ā":14027,"=Âİ":14028,"ÂĽÂĮ":14029,"ÃĴÃł":14030,"ÃĦÃĦ":14031,"RÃ¥":14032,"Â¤+":14033,"ÂķÂ¥":14034,"Â´Đ":14035,"ÂīÂ¢":14036,"*ă":14037,"`Ē":14038,"NJ":14039,"Ę.":14040,"Ę~":14041,"[Âŀ":14042,"\"Ď":14043,"ÃŁÃĽ":14044,"ÃĶÃĽ":14045,"EÃģ":14046,"{'":14047,"ÃľK":14048,"he":14049,"ÂĻÂĻ":14050,"bÃ®":14051,"yf":14052,"/Ğ":14053,"ĔĆ":14054,"ěĐ":14055,"ÃĴo":14056,"Ã§Ã§":14057,"ÂŃÂĴ":14058,"Ã¨I":14059,"ġā":14060,"Ã«Ã²":14061,"),":14062,"ÃĵÃ¯":14063,"aÃ¹":14064,"yp":14065,"ÃĢÃĿ":14066,"Ã¬Ã¢":14067,"ÂĪğ":14068,"Ã¬Ãķ":14069,"US":14070,"Â¹Â²":14071,"!Â¤":14072,"ÃĲÃ¾":14073,".ą":14074,"ěÃ·":14075,"iW":14076,"đÂ©":14077,"{?":14078,"Ã¼Ã¨Ã»":14079,"Ãĵq":14080,"ÂķĎ":14081,"Â¨ĕ":14082,"ÂĵÂ°":14083,"(*":14084,"ÃĵÃ½":14085,"LV":14086,"92":14087,"ÂķÂį":14088,"Ĕ,":14089,"hÃĦ":14090,"ÃĬx":14091,"ÂĬ(Â¤":14092,"[Ą":14093,"Ãŀl":14094,"`Ã·":14095,"Ã¨Ã²":14096,"XÂº":14097,"|ÃĹ":14098,"\"ď":14099,"ex":14100,"Ã¥ÃĬ":14101,"iÃ®":14102,"ēÂĬ":14103,"`Â£":14104,"ÃĶÃĤ":14105,"ÃŀÃħ":14106,"/'":14107,"gÃ©":14108,"ÃŃl":14109,"?Â§":14110,"ēÂ°":14111,"ÃĢm":14112,"km":14113,"Â¡ĕ":14114,"CÃ¹":14115,"ę~":14116,"Â¨ď":14117,"Ãķx":14118,"ÃķP":14119,"Ev":14120,"Ćğ":14121,"ęÂĺ":14122,"ÃļK":14123,"Ã·ÂĨ":14124,"ÂŃĐ":14125,"ÃĦÃĩ":14126,"ÃĺQ":14127,"!ĝ":14128,"Ã»A":14129,"DÂª":14130,"Â»Ě":14131,"ÂľÂĨ":14132,"NÃĻ":14133,"Ã¬b":14134,"Ã¶j":14135,"-Â¢":14136,"tÃĶ":14137,"ÃĳIK":14138,"Â·;":14139,"&;":14140,"Ã´y":14141,",ÂĤ":14142,"-ÂĦ":14143,"DÃľ":14144,"ÂŁÂ©":14145,"Ã±Ã°":14146,"ÂıÂĲ":14147,"Âµo":14148,"ÃĵÃĶ":14149,"(ÂĮ":14150,"Âįă":14151,"Â¡{":14152,"Ćė":14153,"Â´Â°":14154,"Re":14155,"ęÂĭ":14156,"ZÃ¨":14157,"/ğ":14158,"Âļ#":14159,"ÃĨK":14160,"IT":14161,"LÃ¾":14162,"\\Ĉ":14163,"Ãīr":14164,"]Ė":14165,"49":14166,"JÃ¡":14167,"ęÂĵ":14168,"Ă<":14169,"ÂĳĜ":14170,"Â¿Â§":14171,"ÂīĚ":14172,"ÃĲÃ¶":14173,"(Â¢Â¤":14174,"ÂĢÂĢ":14175,"(Ĉ":14176,"Ã®x":14177,"OÃ¸":14178,"ěĔ":14179,"Ã©Ãİ":14180,"Ã·=":14181,"nw":14182,"Ã§T":14183,"Â¯Â¸":14184,"|Âŀ":14185,"ÂĻÂĵ":14186,"ad":14187,"ÃĭÃĸ":14188,"ēÂ·":14189,"UÃº":14190,"$ć":14191,"bÃ¤":14192,"(Â«":14193,"ÃĪÃŁ":14194,"ĂÂĭ":14195,"Â»=":14196,"Pw":14197,"+<":14198,"ÃĬÃį":14199,"ÃĦÃ¶":14200,"$;":14201,"SA":14202,"_Â¸":14203,"ÂĬđ":14204,"Â¦Ē":14205,"ÃĬd":14206,"Â£Âį":14207,"ÃĬB":14208,"Â±Ē":14209,"ÂĤė":14210,"ÃĤH":14211,"Âī!":14212,"Âī.":14213,"iÃ°":14214,"JÃº":14215,"Ã£Y":14216,"Âī&":14217,"eÃ¤":14218,"-ĔĀÂĽ":14219,"/>":14220,"Ã·ă":14221,"ÂŃÂĪ":14222,"JÂº":14223,"ÂŁ?":14224,"Â¦Âĩ":14225,"Â·Ď":14226,"Ã£F":14227,"Â£!":14228,"ěĎ":14229,"ÂĴÂľ":14230,"Ã£Ã§":14231,"Ms":14232,"^>":14233,"ġă":14234,"Â§Â´":14235,"ÃĵE":14236,"Ĕā%":14237,"iÃŃ":14238,"Ã®Ã¦":14239,"So":14240,"Ã¼Ãģ":14241,"ÃŁÃ¥":14242,"ÃĿB":14243,"tÃķ":14244,"ÂĦ\\":14245,"Pc":14246,"Âķ&":14247,"ÂīÂģ":14248,"ÂĽď":14249,"Ã´a":14250,"PY":14251,"Ã½x":14252,"ÃĬÃª":14253,"kd":14254,"@%":14255,"ÃĴd":14256,"ęĐ":14257,"ÃĹĞ":14258,"Â¡Ĉ":14259,"Ã¹o":14260,"FR":14261,"ÃĭÂº":14262,"UÃį":14263,"Â¨ą":14264,"ÃĢÃļ":14265,"Â·Ė":14266,"Ă.":14267,"Â¤^":14268,"ÃĺÃº":14269,"ÂĶÂģ":14270,"Vj":14271,"if":14272,"ÃĹÂĥ":14273,"Â¢Ę":14274,"Ã¹Ãİ":14275,"Â©ÂĤ":14276,"Â¾9":14277,"hI":14278,"ÂĴĒ":14279,"ÃĮÃĪ":14280,"iR":14281,"$!":14282,";#":14283,"`Â¶":14284,"un":14285,"ġÂ¨":14286,"ÃĩÃ©":14287,"LÃ¦":14288,"MT":14289,"ZÃĪ":14290,"Ã·Âİ":14291,"Âį%":14292,"Â§Âĭ":14293,"ÃĥÃŀ":14294,"lH":14295,"Â¾Â¼":14296,"ÂĺÂŀ":14297,"Â£ē":14298,"Âĳ&":14299,"ÃĬÃľ":14300,"ÃĳÂª":14301,"Â¶Âľ":14302,"CÃħ":14303,"Ã¬Y":14304,"QÃŁ":14305,"ÂķÂŃ":14306,"ÃĮÃŁ":14307,"Ã¯n":14308,"ĐĔ":14309,"Â±ď":14310,"|ÂĻ":14311,"Ã¼U":14312,"|Âİ":14313,"0Â½":14314,"@]":14315,"Ã¡x":14316,"ĠÂĦ":14317,"TB":14318,"$'":14319,"aÃ¶":14320,"ÂķÂĦ":14321,"ÃŀÃĢ":14322,"MN":14323,"Â®ě":14324,"ÃķA":14325,"-ğ":14326,"yL":14327,"ėÂĹ":14328,"ÂĲÂģ":14329,"Â®#":14330,"Â´ĀÂ´":14331,"mÃ¨":14332,"Ãĵb":14333,"Â¶}":14334,"+ÂĽ":14335,"ÃĸÃĴ":14336,"ÂĸĔ":14337,"Ăă":14338,"\\ą":14339,"*ÂĽ":14340,"Ã¾d":14341,"đÂĿ":14342,"ĚÂĿ":14343,"ÃĻÃį":14344,"eS":14345,"Â¶{":14346,"Ã¼T":14347,"HV":14348,"Dh":14349,"ÂĪÂĮ":14350,"Âĥ'":14351,"Ã¦b":14352,"ÃŃÃŁ":14353,"fG":14354,"ÂŃÂļ":14355,"ġÂī":14356,"Ã·Ď":14357,"+^":14358,"vb":14359,"(Ă?":14360,"Â·Â°":14361,"Ã½Âº":14362,"ÃıÃ©":14363,"Â´?":14364,"Ã°q":14365,"ÃĽÃħ":14366,"ÃĮÃĿ":14367,"Hm":14368,"ÂĶĔ":14369,"LÃ¶":14370,"Ã»Ã±":14371,"Â¹Â¾":14372,"ĚÂ¨":14373,"ÂĴ!":14374,"Ã¼ÂªJ":14375,"Ã¦f":14376,"WE":14377,"[Ē":14378,"gU":14379,"ÃĥÃ§":14380,"ę!":14381,"$Ĉ":14382,"Âªp":14383,"ā(Â¥":14384,"ęÂ¿":14385,"ÃĹ>":14386,"ęÂĳ":14387,"BX":14388,"Ã¡Ãģ":14389,"ÂªÃĺ":14390,"ÃĻÃ¾":14391,"ġÂŃĀ":14392,"ġÂįğ":14393,"Â¤/":14394,"Ã©Ã¶":14395,"Â´Â¯":14396,"IÃĺ":14397,"FS":14398,"ÂŁğ":14399,"ēă":14400,"WÃĺ":14401,"Â®ÂĨ":14402,"\"<":14403,"ÃĦt":14404,"eÃ£":14405,"ÂĶÂĦ":14406,"MA":14407,"ĠÃ«":14408,"dX":14409,"gc":14410,"Â¡Ą":14411,"yÃļ":14412,"ĠĈ":14413,"Iu":14414,"Â¸_":14415,"DL":14416,"ÃĨÃİ":14417,"Ă\\":14418,"ÃŃÃ®":14419,"ÂĭĞ":14420,"ġÂ±":14421,"ÃĿÃĶ":14422,"ÂĭÂ»":14423,"đÂį":14424,"]ÂĹ":14425,"ÂĪĜ":14426,"Ěė":14427,"ÃŁn":14428,"UÃµ":14429,"ÂŃÂĥ":14430,"ęÂ°":14431,"Â¡`":14432,"ęÂĲ":14433,"Ã¦Ãļ":14434,"Ã°Ãħ":14435,"ğ'":14436,"ÂĳÂį":14437,"MÂº":14438,"ÂķÂ¢":14439,"Ã³Ã¥":14440,"cC":14441,"ğÂ¥Ā":14442,"ĘÂĨ":14443,"ÃĢZ":14444,"ÂĩĔ":14445,"Me":14446,"av":14447,"`(":14448,"~]":14449,"ÂŃĕ":14450,"ÂĶÂ£":14451,"Â¡Âĵ":14452,"ćą":14453,"đ[":14454,"ÂŁ'":14455,"Ã»c":14456,"UÃ«":14457,"zC":14458,"Â´|":14459,"Âĺĝ":14460,"Â·Â±":14461,"Â¬-":14462,"ÂĺĆ":14463,"ÃµÃĵ":14464,":Â¨":14465,"Â®ė":14466,"ÃĢÃĶ":14467,"Ã¤F":14468,"ÃĢw":14469,"ěÂ¤":14470,"ÂĤÂĴ":14471,"Â¶Ď":14472,"fc":14473,"ZÃĭ":14474,"nV":14475,"HÃº":14476,";Âį":14477,"Ãģv":14478,"$Ę":14479,"ÃĿW":14480,"ÃĪÃº":14481,"ÃĦK":14482,"Â§Â«":14483,"<ÂĨ":14484,"ÃĿÃ½":14485,"Â¢ď":14486,"Â´ď":14487,"Ã³Ãª":14488,"ÃºRÃĴ":14489,"Ã¦Ãī":14490,"ÃµÃĨ":14491,"ÃģÃĽ":14492,"yÃĽ":14493,"Pv":14494,"tY":14495,"Ã¦Ãľ":14496,"ÃĤÃĩ":14497,"Â¶;":14498,"ÂĪÃĹ":14499,"&ā":14500,"tr":14501,"Âĥă":14502,"!_":14503,"IV":14504,"ÃĻW":14505,"ÂŁ{":14506,"RÃī":14507,"TL":14508,"Â¯Ğ":14509,"Bv":14510,"Â¶=":14511,"@Â¸":14512,"ĆÂ¨":14513,"Ã¥x":14514,"Fl":14515,"ÂĤÂĮ":14516,"ÃĮa":14517,"Âģć":14518,"Pd":14519,"RÃŀ":14520,"ĐĐ":14521,"ÂīĆ":14522,"Ã«FO":14523,"Â¬ÂĿ":14524,"ÃĩE":14525,"Â±`":14526,"bÃŀ":14527,"ÂĢĒÂĬ":14528,"ÂŀÂĭ":14529,"Ã¥Âª":14530,"yÃĭ":14531,"\">":14532,"ÂŃÂį":14533,"Ğ;":14534,"Ã¼ÃĪ":14535,"+Ĉ":14536,"Ã¬ÃĦ":14537,"Ã¨T":14538,"0Â²":14539,"Aa":14540,"ē,":14541,"ÂĴ]":14542,"ÂīÂĪ":14543,"PÃł":14544,"HÃŁ":14545,"Ğ~":14546,"nQ":14547,"Ã¹E":14548,"Fm":14549,"yY":14550,"ÃĵÃĭ":14551,"Âĸ!":14552,"Fa":14553,"tÃļ":14554,"Ãķs":14555,"ÃĻw":14556,"ÃĤÃĴ":14557,"ēÂļ":14558,"pÃł":14559,"Â·ÂĬ":14560,"ÂĴ#":14561,"Â¢Ē":14562,"ur":14563,"Âĺ#":14564,"PÃĮ":14565,"ÂľÂķ":14566,"ÃľE":14567,"?ď":14568,"VÃ¾":14569,"Â´-":14570,"ÂĲă":14571,"đ$":14572,"{ă":14573,"ÂŃÂ£":14574,"\")":14575,"[Âį":14576,"Ã£k":14577,"ÃıÃİ":14578,"ÃŃÃ¨":14579,"ÂªC":14580,"Âĭć":14581,"VÃ¬":14582,"bw":14583,"Ã²M":14584,"qC":14585,"ÃĵO":14586,"JÃ»":14587,"Â§^":14588,"Tk":14589,"Â·ÂĻ":14590,"Âĸ-":14591,"Â°<":14592,".ă":14593,"Âĸ)":14594,"ÃĿÃ¦":14595,"ÃľÃī":14596,"Â¤ÂĿ":14597,"SÃ¤":14598,"hÃ®":14599,"nB":14600,"Âŀė":14601,"Â¿Âı":14602,"nÃĬ":14603,"Ã©Ã¨":14604,"'&":14605,"?ÂĨ":14606,"YÃ¶":14607,"VÃĢ":14608,"bT":14609,"Â¡ā":14610,"ÂĦď":14611,"ÃĤÂº":14612,"YÃº":14613,"GÃĪ":14614,"(Â¢ÂĬĄĔ":14615,"ÃıB":14616,"ÂĺÂ¨":14617,"_)":14618,"ÃĽD":14619,"ÃĦL":14620,"Â¡>":14621,"Â¿Âī":14622,"Ã»M":14623,"ÃĩR":14624,"vO":14625,"ÃĮÃİ":14626,"ÃķÃĪ":14627,"RÃļ":14628,"ÂªÃ¹":14629,"fÃ¼":14630,"ÂĪ#":14631,"ÃĲr":14632,"hÃ¨":14633,"ěÂĴ":14634,"SÃ£":14635,"Â·Âŀ":14636,"pÃĨ":14637,"ę]":14638,"Â®.":14639,"ÃĭÃĨ":14640,"ÃĸÃ±":14641,"!,":14642,"ěā":14643,"Â¯Â¨":14644,"Â¬>":14645,"&Ā":14646,"VÃ¡":14647,"Ã´Ã½":14648,"JÃĻ":14649,"aÃ»":14650,"ÃĢt":14651,"ÂĻ_":14652,"ÂģĈ":14653,"ÃķQ":14654,"Â¢ÂĬ(ĀÂ¢ÂĬ(ĀÂ¢ÂĬ(ĀÂ¢ÂĬ(Ă":14655,"ÂĺÂ©":14656,"Â¶ÂĢ":14657,"Ę|":14658,"Ć]":14659,"Âķđ":14660,"ÂĭĔ":14661,"9Â¾":14662,"IÃĽ":14663,"oÃį":14664,"HO":14665,"ĝ[":14666,"Â¿Â¿":14667,"NÃĽ":14668,"ÃŁk":14669,"ÂĶÂ¸":14670,"BÃ¶":14671,"yh":14672,"dÃĨ":14673,"mf":14674,"ÂĶ[":14675,"ÃĦÃ®":14676,"ÃĳÃı":14677,"%Â¤":14678,"DÃ³":14679,"ÃĮh":14680,"Xf":14681,"xÃ¾t":14682,"Â¶Â±":14683,"(_":14684,"\"ą":14685,"zÃ®":14686,"WÂº":14687,"ÃľÃį":14688,"ěÂį":14689,"Yp":14690,"ğÂ¡":14691,"Xs":14692,"ěÂ®":14693,"ÂıÂĵ":14694,"6Â¹":14695,"PÃĨ":14696,"Xr":14697,"ÂĭÂĨ":14698,"ÃŀÃł":14699,"(Â¢ÂĬĀ(Â¢":14700,"Â§Ē":14701,"ÃĸÃª":14702,"ÃķÃĨ":14703,"ÃĭÃĴ":14704,"Ą=":14705,"ÃĶM":14706,"ēĞ":14707,"ÂĺĞ":14708,"ąÂ¬":14709,"`Âģ":14710,"Â¸ÂŁ":14711,"Âİ+":14712,"Â«Â¿":14713,"ÃĢÃ²":14714,"ėġ":14715,"ÂĺÂ£ĔÂ´":14716,"ÂķĈ":14717,"dÃģ":14718,"-Ğ":14719,"Â°Ą":14720,"FQ":14721,"uP":14722,"ąÂ¥":14723,"^\\":14724,"ĆÂİ":14725,"ÂĶÂį":14726,"ÂĮÂį":14727,"Â¡ė":14728,"Nk":14729,"VÃ¶":14730,"ÂĮĘ":14731,"(ĀÂ¢ÂĬ(ĀÂ¢ÂĬ(ĀÂ¢ÂĬ(ĀÂ¢ÂĬ(ĀÂ¢ÂĬ(ĀÂ¢ÂĬ(ĀÂ¢ÂĬ(ĀÂ¢ÂĬ(Ā":14732,"ÂªL":14733,"Ćĕ":14734,"yÃ¯":14735,"TÃ¥":14736,"@Ã·":14737,"Â©{":14738,"ÃĻI":14739,"TH":14740,"ĎÂ¦":14741,"ÂĦÂį":14742,"Â¿)":14743,"Ã¥Ã¼":14744,"Â¿Âĩ":14745,"Ã¹a":14746,"JR":14747,"Ã£ÃŃ":14748,"āĒ":14749,"Âīă":14750,"Â°(":14751,"ÂĮÂ»":14752,"Âĺ~":14753,"ĚÂ´":14754,"ĂĂ":14755,"ÂĤÂ¸":14756,"bÃł":14757,"ÂĸÂ¤":14758,"ÃĴÃ§":14759,"ęė":14760,"ÂĹ(":14761,"EÃĿ":14762,"_Â¨":14763,"vÃº":14764,"ÃĺÃ³":14765,"Â§ÃĹ":14766,"ÂŃ^":14767,"ÃĦu":14768,"ÃªK":14769,"DÃĭ":14770,"wa":14771,"ĈÂį":14772,"Ã¹ÃĢ":14773,"ą*":14774,"ÂĲÂĳ":14775,"ĚÂĥ":14776,"ÃªÃĨ":14777,"ÂıÂ¥Ā":14778,"ÂĿě":14779,"mÃ«":14780,"ÂĢÂİ":14781,"Ã¹Ãģ":14782,"Â©ÂĦ":14783,"ÃĳÃī":14784,"Â³Â²":14785,"Ã¾Ãħ":14786,"wÃº":14787,"WÃ¬":14788,"mX":14789,"ÃĦz":14790,",ÂĻ":14791,"ÂŀÂ¬":14792,"Âı`":14793,"ÃĲI":14794,"Ã°s":14795,"đ]":14796,"Ã£J":14797,"@Ė(":14798,"Ã»I":14799,"rÃ®":14800,"ĜÂĦ":14801,"Ãĩh":14802,"Ã¯Ã³":14803,"25":14804,"ÂŀÂ´ā":14805,"VÃ¥":14806,"*`":14807,"ÂĲÂĩ":14808,"Â¡<":14809,"Ã¡d":14810,"ÂĪ\\":14811,"Ds":14812,"Â³Â¾":14813,"DÃĥ":14814,"jÃ´":14815,"Ã¦e":14816,"ÃįÃĥ":14817,"ĠÂ¯":14818,"ÂļĚ":14819,"ÃĪÃĤ":14820,"'`":14821,"Âķġ":14822,"ÃĪC":14823,"ÃīÃ¬":14824,"ÂªÃ¾":14825,"Â¥ď":14826,"Â¢ÂĢ(":14827,"AG":14828,"ÂĶÂĸ":14829,"DH":14830,"ÃĭP":14831,"Ã²ÃĤ":14832,"ÂĢÂľ":14833,"Â¨Ē":14834,"ÃģN":14835,"tq":14836,"ÂĪ~":14837,"Ã½O":14838,"ÂĥĀ":14839,"Ã·Â®":14840,"&Ę":14841,"bÃĬ":14842,"ÃķÃ¾":14843,"ĄÂĹ":14844,"Â¼Â¾":14845,"&<":14846,"Â¼9":14847,"ÃĶÃ¾t":14848,"ē$":14849,"Ã¼Ãŀ":14850,"iG":14851,"ęÂĽ":14852,"Â¸;":14853,"Âĺć":14854,"sFi":14855,"Ã»l":14856,"ÃľÃº":14857,"vÃ¥":14858,"&Â©":14859,"ÂµÃĥ":14860,"Ãªw":14861,"Â¡đ":14862,"Xz":14863,"ÃŁÃı":14864,"ÃĮf":14865,"+$":14866,"Ã§Ã¹":14867,"ÂŃÂŃ":14868,"ÂīÂľ":14869,"Ã°F":14870,"ĠÃ¯":14871,"ÃµÃ¯":14872,"MC":14873,"tÃĨ":14874,"ÂĽ\"":14875,"yÃ½":14876,"ġÂĵ":14877,"ÃĦW":14878,"Ã»ÃĽ":14879,"ÂĨą":14880,"Ã½Ã²h":14881,"BÃ¡":14882,"}ÃĹ":14883,"Ã³Ã¨":14884,"HR":14885,"ÃįÃĴ":14886,"Â»/":14887,"&ÂĤ":14888,"āÂ¢":14889,"ÃĻÃĭ":14890,"Ã®Ãĥ":14891,"[ÂĦ":14892,"Ă|":14893,"ÃĿq":14894,"ÃĮÃ¤":14895,"dÃĺ":14896,"ÂĨÂı":14897,"ÂĻ/":14898,"Ã¼v":14899,"Dy":14900,"ÂĥÂ©":14901,"Ã·ę":14902,"ÂŁĜ":14903,"Â¥Â¤=":14904,"ĈÂ¢":14905,"Â¤|":14906,"Ã¦l":14907,"ÃĻG":14908,"ĐÂĲ":14909,"+ĝ":14910,"ÂĨÂĶ":14911,"ÃıÃĪ":14912,"Â´,":14913,"ÃĮJ":14914,"ĈÂģ":14915,"OÃµmÃ´":14916,"ÂŃÂĵ":14917,"rÃŃ":14918,"ĈÂ«":14919,"ĄÂ¬":14920,"ěÂ£":14921,"Ã¬Ãł":14922,"ĐÂ¶":14923,"Ãīf":14924,"Ą\"":14925,"Â¨ÂĲ":14926,"ÂªE":14927,"āĚ":14928,"Â»Â§":14929,"ÂĶÂĺ":14930,"Ãİk":14931,"ca":14932,"ÂĽĞ":14933,"Ãįo":14934,"mQ":14935,"Âļė":14936,"Ãħp":14937,"ÂĥĞ":14938,"ÂŃÃĹ":14939,"Â¼7":14940,"ÃĭÃĶ":14941,"bv":14942,"gÃ¶":14943,"ÂĮÂĦ":14944,"hÃĴ":14945,"._":14946,"{ÂĤ":14947,"Â¨Ď":14948,"$ĝ":14949,"ga":14950,"ē(":14951,"Ãįs":14952,"Â§Â£":14953,"/ĝ":14954,"Ã²A":14955,"Ãĺq":14956,"ÂºU":14957,"Â¯Âĺ":14958,"VÃ¼":14959,"Ã®ÃĻ":14960,"ia":14961,"Ã½ÃĦ":14962,"ÃĮÃ£":14963,"mÃ³":14964,"*Âĺ":14965,"wz":14966,"Â·|":14967,"ğÂ¨":14968,"<ÂĽ":14969,"ÃĬÃ¡":14970,"ÃĺÃ¡":14971,"?Â¿":14972,"HL":14973,"oÃ´":14974,"ăÂĿ":14975,"ÃĳW":14976,"cÃħ":14977,"Ĉ@":14978,"BT":14979,"dÃŀ":14980,"yG":14981,"Â©Ď":14982,"ÂªÃ´":14983,"$#":14984,"ÃĵÃ¢":14985,"}Â¨ā":14986,"Ã¬N":14987,"Ãĸe":14988,"[Ĕ":14989,"ÂªÃŀ":14990,".Â¥":14991,"QIE":14992,"Ã·ÂĢ":14993,"ÃĭL":14994,"Ã¸I":14995,"&ğ":14996,"!}":14997,"ÂĨÂļ":14998,"ÂĮÂĩ":14999,"Ãħq":15000,"Â¸Âģ":15001,"ÂĭÂĥ":15002,"ěĒ":15003,"cD":15004,"ÃľL":15005,"Ã°Ãį":15006,"Ã®S":15007,"81":15008,":Ā":15009,"&Â¯":15010,":Đ":15011,"Â¨Ć":15012,"ÃİÃª":15013,";ć":15014,"`Âį":15015,"Â¤Â¿":15016,"Ã£T":15017,")ÂĹ":15018,"ÂŃÂŀ":15019,"ÂĦ~":15020,"ÃĵÃĪ":15021,"ĝ+":15022,"WW":15023,"tÃª":15024,"ÃĦJ":15025,"Ã®e":15026,"xÃº":15027,"Ã®l":15028,"Â¬Ć":15029,"/Âŀ":15030,"ĄÂ¢ÂĹ":15031,"Âķą":15032,"ÃĳÃļ":15033,"fC":15034,"Â¸,":15035,"Ãģa":15036,"ĄÂ»":15037,"Â«'":15038,"MÃŀ":15039,"Âģē":15040,"ÃĬJ":15041,"hÃª":15042,"Ã±Ãº":15043,"ÃĦD":15044,"Ã¤k":15045,"<Â»":15046,"[ÂĽ":15047,"Ğ^":15048,"(Â¢ÂĢ#":15049,"ÃĤA":15050,"Â«ÃĹ":15051,"nC":15052,"Â¢;":15053,"Âºc":15054,"Ă-":15055,"ÂŁ$":15056,"*'":15057,"ě!":15058,"ÂĬ%":15059,"ÂįÂ¯":15060,"Âķā":15061,"Ã½X":15062,"ÃľÃĿ":15063,"ÃıR":15064,"Ãĵp":15065,"Ã¨ÃĶ":15066,"ĘÂŀ":15067,"ÂŃÂĤ":15068,"Ã§j":15069,"ÃĦa":15070,"fy":15071,"ÃļY":15072,"Â¡Ď":15073,"&\\":15074,"wP":15075,"ÃįÃĢ":15076,"Ãīs":15077,"ÃĿÃ¥":15078,"Ã·{":15079,"Âºg":15080,"Ã·Âģ":15081,"OF":15082,"bK":15083,"fÃĸ":15084,"iÂµ":15085,"*|":15086,"TF":15087,"Ã®N":15088,"đÂĹ":15089,"ÂĥÂĸ":15090,"ÃŁÃĭ":15091,"ÃĿÃ¶":15092,"ÂĳÂĦ":15093,"Â¸|":15094,"Ã«Ã¼":15095,"Ã»Ãģ":15096,"Ã¡Ã³":15097,"`ĝ":15098,"ĐÂ©":15099,"uÃ¹":15100,"vq":15101,"Ě.":15102,"Ã¸Ã§":15103,"Â´/":15104,"Â¬=":15105,"Âı:":15106,"(Ă/":15107,"ua":15108,"ÂĢ[":15109,"ÃĹ,":15110,"ÃĮÃī":15111,"SÃ¢":15112,"Ã¬m":15113,"ě>":15114,"ÃĻÃ³":15115,"zÃŃ":15116,"Âªd":15117,"Âĺ=":15118,"ÂĿć":15119,"Â®Ė":15120,"ÃįÃģ":15121,"ÂĬę":15122,"ÂĲę":15123,"ÂĦÂ¶":15124,"ÃĲs":15125,"ÃŀR":15126,"Ćă":15127,"Â§ÂĶ":15128,"Ã±Ãİ":15129,"Â¤Ã·":15130,"@,":15131,"Am":15132,"ēĒ":15133,"Ãħc":15134,"Âģ\\":15135,"fÃĪ":15136,"ĔÂĹ":15137,"Ã¦Ã£":15138,"Â¡Âļ":15139,"pÃĴ":15140,"ėÂĮ":15141,"ÃĲi":15142,"ÂķÂŁ":15143,"ÂĦÂ±":15144,"ÃŃÃ¥":15145,"Â»ĕ":15146,"Âĵ,":15147,"ÂŃÂĬ":15148,"ÂĽ!":15149,"ĄÂ£":15150,"ÃŁA":15151,"Â©Â¯":15152,"Ã®ÃĬ":15153,"ĝÂ¶":15154,"Ėć":15155,"ÂªÃı":15156,"~#":15157,"Âı+":15158,"Ã±G":15159,"ÂĿ:":15160,"ĂÂĩ":15161,"Ą$":15162,"Â¢@":15163,"ÃİÃĩ":15164,"ÃĽo":15165,"Â®Ĕ":15166,"}Âįę":15167,"Âłċ":15168,"fÃĥ":15169,"(%":15170,"BJ":15171,"(Â¢ÂĢĒ":15172,"Ã®Ãļ":15173,"ĐĜ":15174,"ĆÂĥ":15175,"ÂĴÂķ":15176,"Â©Âİ":15177,"xÃ¯":15178,"vs":15179,"Â¦%":15180,"Vo":15181,"Âĵ;":15182,"ÃĹ-":15183,"Ã«Ãª":15184,"ĖÂĳ":15185,"ÃįÃı":15186,"ÂĻÂ¸":15187,"UÃ´":15188,"!]":15189,"ÃħÃĶ":15190,"Âīđ":15191,"?Â°":15192,"(ā)":15193,"ÂĴĜ":15194,"cÃ¤":15195,"Ã«Ã©":15196,"ÃŃD":15197,"Ãķn":15198,"ÃĢs":15199,"ÃĨÃ¶":15200,"ed":15201,"ÂŃă":15202,"ÂĻĞÂ´":15203,"SÃĥ":15204,"Ã°I":15205,"ĐÂ¨":15206,"MÃĶ":15207,"Â¬Â¨":15208,"ÂĮÂķ":15209,"Â¡%":15210,"BÃ¢":15211,"\"[":15212,"-ÂĶ":15213,"ko":15214,"Ã»Ã©":15215,"aA":15216,"uE":15217,"<Â£":15218,"ÃĽÃµ":15219,"ÃĴÃĩ":15220,"rÃ¹":15221,"Ã¡ÃĪ":15222,"āġ":15223,"WÃ¹":15224,"Ã¬d":15225,"ÂºÃĨ":15226,"Ĕ?":15227,"`Â·":15228,"nl":15229,"ÃĻÃ¥":15230,"ÃĦÃ³":15231,"ÂŃÂĲ":15232,"Ã¬S":15233,"Ã²Ãµ":15234,"ÂĿÂĽ":15235,"Â¼8":15236,"Â£ÂļĀ":15237,"ĚĒ":15238,"MÃ´":15239,"Âģď":15240,"Â¢ÂĬĀ)":15241,"LÃ´":15242,"Fn":15243,"Â¸ē":15244,"ÂŃÂ¤":15245,"CÃľ":15246,"ÂĪÂĲ":15247,"ÃĤÃ¨":15248,"ve":15249,"ÃĽÃĢ":15250,"ÃĲÃ¾T":15251,"<Â¢":15252,"Đ)":15253,"Âĺ)":15254,"Ãķc":15255,"Â¢ÂĬĀ(Â¢ÂĬĀ(Â¢ÂĬĀ(Â¢ÂĬĀ(Â¢ÂĬĀ":15256,"ĐÂ¬":15257,"Ã®Y":15258,"@ą%-%":15259,"Ã®Âµ":15260,"_Â¡":15261,"ÂŃÂ¨":15262,"Ãĺp":15263,"3Â²":15264,"BK":15265,"ka":15266,"Ãŀy":15267,"Vw":15268,"Ã£Ãī":15269,"-Âĩ":15270,"Ut":15271,"ė>":15272,"ÂĤĔ":15273,"Ãħi":15274,"Â¿ÂĲ":15275,"ĕÂ»":15276,"Ă'":15277,"ÃĥÃ±":15278,"#]":15279,"Ã¦Âº":15280,"NÃ³":15281,"\"Ā":15282,"jÃ¶":15283,"ÃŀS":15284,"ÂĶą":15285,"Ãŀi":15286,"ÃĵÃĮ":15287,"Ã§Âº":15288,"ÃŃÃĶ":15289,"ÃĽÃĮ":15290,"ÂŃĆ":15291,"Ã»Z":15292,"ÃķZ":15293,"ÂīĄ":15294,"\"ÂĬ":15295,"ė_":15296,"Â«Â«":15297,"Ã¸W":15298,":+":15299,"ę;":15300,"Â§ē":15301,"Âŀ+":15302,"Ė_":15303,"PÃ¹":15304,"ÃĸÃ¶":15305,"ÂŃď":15306,"@Â¦":15307,"Ãļb":15308,"ÂĿÂ¥":15309,"Ã»Ã½":15310,"ÂĤÂĲ":15311,"ÂĦĔ":15312,"đ&":15313,"Ã¼Ãľ":15314,"ÃĸÃ¡":15315,"(Ć":15316,"Ą+":15317,"dÃı":15318,"Â¡,":15319,"%-ĀĔ":15320,"ÃīQ":15321,"Ãķq":15322,"Â·Â©":15323,"ÂīÂ¶":15324,"ĐÂ£":15325,">ğ":15326,"GÃĵ":15327,"Â¡Ē":15328,"EÃĩ":15329,"=ÂĽ":15330,"bÃį":15331,"-ÂĪ":15332,"eÃĤ":15333,"Â¾2":15334,"{ÂĢ":15335,"ÂĦĎ":15336,"ďć":15337,"DÃĻ":15338,"WÃĶ":15339,"tÃľ":15340,"Âĸ/":15341,"Dj":15342,"Ã¶H":15343,"ÂĿÂį":15344,"ěĈ":15345,"Ã¸Ãİ":15346,"!Ď":15347,"Ã¾Ã°Ã¼":15348,"yO":15349,"ÂĩÂ¿":15350,"gÃı":15351,"Ęď":15352,"ÃĲh":15353,"dÃİ":15354,"Ã®H":15355,"ÃķÃĺ":15356,"ÂĨÂŁ":15357,"ĘÂĥ":15358,"ÂķĆ":15359,"Ã®ÃĤ":15360,"CÃĩ":15361,"BÃĪ":15362,"!%":15363,"Ã½ÃķÃ¼":15364,"Ã²Ã¥":15365,"āĖ":15366,"ĞĎ":15367,"ÂªÃ¡":15368,"Âľĕ":15369,"ÂŃÂĢ":15370,"ÂĩĞ":15371,"ÂĳĔ":15372,"xV":15373,"{Â¿":15374,"rc":15375,"ÃĸF":15376,"ÂģĖ":15377,"Â±]":15378,"!Âļ":15379,"wÃ½":15380,"Ã¸Ã©":15381,"Â¡-":15382,"yÃł":15383,"rÃĪ":15384,"fÂµ":15385,"DÃĺ":15386,"ÃĮÃĤ":15387,"NÃį":15388,"YÃİ":15389,"Â¸}":15390,"ÃĽW":15391,"CÃĵ":15392,"NÃļ":15393,"Â·Â®":15394,";_":15395,"ÃĲF":15396,"Â¸~":15397,"Â°>":15398,"Ĉ%":15399,"Â©ÂĹ":15400,"Ã¶l":15401,"Â»Âĭ":15402,"Â±ĕ":15403,"ÂĻĚ":15404,"ÂĽÂĭ":15405,"Â·^":15406,"ÂĻĖ":15407,"Ã¬U":15408,"BÃĨ":15409,"YZ":15410,"ÂĵÂĨ":15411,"fL":15412,"ÂģĜ":15413,"ÂıÂŃĀ":15414,"ĐÂľ":15415,"ÃĵÃĺ":15416,"=Â¬":15417,"AÃĶ":15418,"ė(":15419,"$]":15420,"$ę":15421,"ćÂĹ":15422,"Â®Âĩ":15423,"Bb":15424,"Ãľj":15425,"hi":15426,"ÂĦÂĪ":15427,"rÃĴ":15428,"Âīĕ":15429,"hT":15430,"Â¶ÂĬ":15431,"Âķ*":15432,"&ÂĬ":15433,"Ę*":15434,"LÃ¢":15435,"ÃĽJ":15436,"Đğ":15437,"ÃĩÃĻ":15438,"]Â´":15439,"Ãįm":15440,"ÃªV":15441,"Â±Ğ":15442,"QÃ¬":15443,"Ã®V":15444,"Âı\"":15445,"Â¤)":15446,"Âµz":15447,"ĈĆ":15448,"ÂªÃŁ":15449,"Wm":15450,"Ã¾ÃŁ":15451,"ÃĵZ":15452,"ÃĲÃĨ":15453,"Ãķe":15454,"Âĸě":15455,"=Â¢":15456,"ēÂ»":15457,"LÃĮ":15458,"Dp":15459,"xn":15460,"ÂīÂĲ":15461,"Ã¼C":15462,"ÂĨ,":15463,"Â·@":15464,"Â°ÂĴ":15465,"SÃŁ":15466,"ÃĶÃ¨":15467,"Â¤\\":15468,"Ã¦n":15469,"ĝ~":15470,"ÃĻV":15471,"ā|":15472,"EÃ³":15473,"Ãĵo":15474,"ąė":15475,"Ãīa":15476,"kC":15477,"ÂĤ+":15478,"ÂĻÂľ":15479,"ĘĆ":15480,":ă":15481,"ĔÂ¥":15482,"ę.":15483,"ÃĲÃ½":15484,"fv":15485,"EÃĬ":15486,"hÃŃ":15487,"AÃĬ":15488,"Âĥ#":15489,"ÂĪÂĢ":15490,"ÃĤÃµ":15491,"ÂĿ$":15492,"Ã·Âĺ":15493,"cY":15494,"wÃı":15495,"Â¼Â½":15496,"bU":15497,"ğÂļ":15498,"Ã·>":15499,"bP":15500,"Â©ÂŁ":15501,"Âĵ&":15502,"fQ":15503,"tÃ½":15504,"ÂĴÂŁ":15505,"JÃ¶":15506,"ĘÂ°":15507,"aK":15508,"ėÂĺ":15509,"bÃļ":15510,"ÃĦÃĢ":15511,"Ãĺz":15512,"Â¿ÂĿĀ":15513,"ėÂı":15514,"\"$":15515,"ęÂ¡":15516,"(ď":15517,"ÂĩÂ§":15518,"ly":15519,"ĕ)":15520,"Â±>":15521,"ÃīP":15522,"ÂĻÂĥ":15523,"Ã²Ã¹":15524,"ÃłG":15525,"ÃĮk":15526,"Ãīe":15527,"JÃĺ":15528,"EÃ¹":15529,"ÂĨ&":15530,"Ã¢O":15531,"Ã´l":15532,"ÂĢÂ¨":15533,"!;":15534,"Â¿Â¯":15535,"{(":15536,"Ĉ;":15537,"Â±Â£>":15538,".-":15539,"ġÂ·":15540,"ÂĮ:":15541,"ÃĪJ":15542,"Â«<":15543,"ÂĮ*":15544,"ÂĶ)":15545,"Â£Â®":15546,"ÂĦÂĸ":15547,"dG":15548,"Ą@":15549,"Ã£Ãĳ":15550,"Â£%":15551,"Âķ;":15552,"CÃı":15553,"ÃĿK":15554,"Â¶Ć":15555,"UM":15556,"ÃįÃľ":15557,"XÃ¹":15558,"ĈÂĸ":15559,"dÃĢ":15560,"Âĳĕ":15561,"ÃħÃľ":15562,"ÃĴÃĦ":15563,"ÃĥÃ»":15564,"HS":15565,"CÃ¨":15566,"Âļ:":15567,"ÃĩP":15568,"LG":15569,"Âı;":15570,"ÃĻÃĺ":15571,"ÃµK":15572,"Ã¥Ã²":15573,"ĄÂ¦":15574,"NÃĺ":15575,"EÂµ":15576,"ÂªV":15577,"cÃ¬":15578,"Ã©Ã¦":15579,",Â¥":15580,"dA":15581,"Â¤Â°":15582,"Â£|":15583,"XT":15584,"ÂĮę":15585,"Ã§Ãĺ":15586,"ÂŃÂĿ":15587,"SÂª":15588,"đ(":15589,"ĔĚ":15590,"#%":15591,"Â¤ę":15592,"Ã¤ÃĪ":15593,"$Â»":15594,"Â±Â»":15595,"Ã¯Ãĺ":15596,"ÂĪÂİ":15597,"ÃĭÃ»":15598,"vr":15599,"Ã¥z":15600,"Ã¯ÃĻ":15601,"YÃ¢":15602,"Ã«Ã¦":15603,"ąÂķ":15604,">@":15605,"!ġ":15606,"ĕÂ¬":15607,"pC":15608,"ÂĹ+":15609,"QÃ»":15610,"Ā|ğ":15611,"Â¶Ā":15612,"FÂª":15613,"Â«ĝ":15614,"/&":15615,"Ãıy":15616,"Âĵ{":15617,"]ć":15618,"~~":15619,"ÃĨÃ±":15620,"ÃĨÃµ":15621,"ÃĩB":15622,"ÂĽă":15623,"Ć_":15624,"\"*":15625,"^ÂĬ":15626,"Ãŀr":15627,"Ę}":15628,"Â¸.":15629,"we":15630,"ÃĨÃŃ":15631,"ÂĥĔ":15632,"ÃªÂµ":15633,"LÃĬ":15634,"Â©Âľ":15635,"[Â®":15636,"Đ*":15637,"ÃĴÃ¬":15638,"Ã´Ãł":15639,"ÂĹÂĲ":15640,"ē)":15641,"vW":15642,"Ã¶Ãĭ":15643,"ÃİÃĺ":15644,"ÂĽ<":15645,"Â«%":15646,"Âºy":15647,"ÃĲy":15648,"lz":15649,"ÃİK":15650,"ĀĔÂ´":15651,"ÂĢÂ¬":15652,"Ã£E":15653,"Ã·<":15654,"Ã©Ã½":15655,"Âİ(Ă":15656,"Ãħk":15657,"TÃ¹":15658,"ÂļĔ":15659,"ĠY":15660,"ėÂľ":15661,"ÃľÃĮ":15662,"ÃıP":15663,"fÃ»":15664,"mÃ»":15665,"CÃŃ":15666,"Â¨\"":15667,"ÂįÂ®":15668,"Ã¯Ãī":15669,"Ã¾Ã©Ã¼":15670,"AÃĵ":15671,"lÃ»":15672,"ÃĽÃĶ":15673,"bÃģ":15674,"Ã¢G":15675,"^Â¬":15676,"|Âĵ":15677,"Âİě":15678,"Ia":15679,"Ā}ÂŁ":15680,"pÃ¹":15681,"Âī~":15682,"Â°;":15683,"PP":15684,"82":15685,"ÂĽ/":15686,"ÃıÃŁ":15687,"96":15688,"hn":15689,"Ã®Ãĳ":15690,"sn":15691,"ÂĶÂ·":15692,"Â¥Â¤Â¢ÂĢ":15693,"Âĳě":15694,"ē'":15695,"Ã·}":15696,"Â¯,":15697,"Ã¼Ã¨Ã³":15698,"ÂīÂĮ":15699,")+":15700,"_*":15701,"Â¶ā":15702,"Ã°N":15703,"Mj":15704,"pk":15705,"td":15706,"ÃĦÃ¾":15707,"MÃª":15708,"YÂª":15709,"Â£Â¡":15710,"Â§~":15711,"ďÂŁ":15712,"lÃ¹":15713,"ÂŃÂģ":15714,"/=":15715,"Sk":15716,"Ã²r":15717,"Ġ\"":15718,"ĔĀÃĹ":15719,"vÃŁ":15720,"LL":15721,"Ã¯Ã¡":15722,"ÃĶÃĭ":15723,"Â¡ÂĻ":15724,"ÃĮÃ³":15725,"ÃĽÃģ":15726,"Âį.":15727,"ďÂ¥Ā":15728,"ÃĵÃħ":15729,"tÃİ":15730,"ÃĹÂģ":15731,"Â´Ĝ":15732,"ÂŃā":15733,"Ã±E":15734,"hÃŁ":15735,"bÃĴ":15736,"ÃĦV":15737,";ĕ":15738,"ÃµÃŃ":15739,"ğÂ¿":15740,"Ã¶ÃĨ":15741,"97":15742,"Â¸ÂĨ":15743,"ÃŃr":15744,"ÂĲÂ¯":15745,"ĚÂ¢":15746,"ÂĴ`":15747,"Â¶ÂĨ":15748,"Ã®A":15749,"sp":15750,"}Ĉ":15751,"Ã²Ã´":15752,"Ã¶Ãĳ":15753,"WC":15754,"iu":15755,">ď":15756,"ĄÂļ":15757,"ÃıÃ¢":15758,"ÃıÃ¸":15759,"ÃĹ_":15760,",ă":15761,"QÃª":15762,"ÂŀÂ´Ā":15763,"%.":15764,"iÃĮ":15765,"ÃĤÃº":15766,"MÃĨ":15767,"Qm":15768,"Ãįn":15769,"Â·ā":15770,"TK":15771,"dÃĬ":15772,"DÃĪ":15773,"Â±ÂĿ":15774,"Â¶ÂĦ":15775,"YÃĶ":15776,"ĚÂ¸":15777,"zO":15778,"[Âļ":15779,"Ã·Ã·":15780,"Ã¯Ãº":15781,"|Âĸ":15782,"ĆĜ":15783,"RÂµ":15784,"Â¨Âĥ":15785,"yÃĴ":15786,"ÂĳĞ":15787,"Ãµn":15788,"uÃ«":15789,"ćÂķ":15790,"EÃ¼":15791,"Ã¥n":15792,"UC":15793,"ÂĮÂ¸":15794,"DÃĮ":15795,"ÃĸÃĿ":15796,"ÃģÃĬ":15797,"!*":15798,"Ã¯ÃĿ":15799,"ąÂ´":15800,"Â»Â¨":15801,"ÃİÂº":15802,"yS":15803,"ĒÂ¬":15804,"`ÂĤ":15805,"ÃĨÃĬ":15806,"ĘÂķ":15807,"Mq":15808,"MÃ¹":15809,"ėÂŀ":15810,"Ã¦H":15811,"{ÂĨ":15812,"ÃļÃ¢":15813,"ÃĤÃĽ":15814,"Vg":15815,"ÃĨc":15816,"Ã®v":15817,"]Â¥":15818,"ġÂ°":15819,"!Ĉ":15820,"Ãįt":15821,"ćÂĤ":15822,"Âī=":15823,"IA":15824,"Ã¨N":15825,"ÃģÃ¬":15826,"ÂĦ?":15827,"IÃº":15828,"ę*":15829,"ÂĺÂĸ":15830,"ÂĶĖ":15831,"MÃ¬":15832,"Ã¦a":15833,"Ãįe":15834,"ēÂĨ":15835,"iÃ¡":15836,"ÃľÃĭ":15837,"bd":15838,"ÂĴ_":15839,"Â¶Ã·":15840,"ÃľÃ¹":15841,"ÃĪs":15842,"Ãĳd":15843,"ăÂį":15844,"ÂĮą":15845,"Ã®hÃĩ":15846,"mB":15847,"ÃĸD":15848,"ĚÂ¿":15849,"ÃĨÃĺ":15850,"mÃ¬":15851,"}ÂĽ":15852,"ġĎ":15853,"EN":15854,"ğ!":15855,"Â£Â±":15856,"Â·ą":15857,"]Â¡":15858,"Ã¦Ã»":15859,"Â§ÂĽ":15860,"Ĉ-":15861,"ÂĪÂľ":15862,"JÃļ":15863,"YÃĻ":15864,"Âµu":15865,"fT":15866,"ėÂ©":15867,"Âļ;":15868,"Â¯Â¡":15869,"Â«ÂĽ":15870,"Ā-ĔÂĻ":15871,"ZÃ§":15872,"ÃĪl":15873,"MÂª":15874,"ÂĴÂ±":15875,"Ãħa":15876,"Ã¯ÃĲ":15877,"ÂĦÂ®":15878,"Â·Âķ":15879,"ÃĿFÃª":15880,"75":15881,"$Â¿":15882,"+ÃĹ":15883,"Â©ÂĨ":15884,"ēÂĸ":15885,"Lz":15886,"ÃĢÃ³":15887,"iÃ´P":15888,"Ã¨Ã£":15889,"ÃĲÃĦ":15890,"ÂĢÂĲ":15891,"ÃĢJ":15892,"Ã¦V":15893,"Ãır":15894,"ÂĪÂģ":15895,"Â¥Â¢ÂĢēă":15896,"Ã²Ãº":15897,"Ãŀq":15898,"Ęą":15899,"ÃªÃĻ":15900,"Â¯\"":15901,"Ã¬hÃı":15902,"ÂĿÂŁ":15903,"!ā":15904,"Ė>":15905,"Ė-":15906,"Ã²Ã½":15907,"ÂĩÂĳ":15908,"Â¦`":15909,"(ā(Â¥":15910,"Ã½l":15911,"Ã£Ã¶":15912,"Â¦~":15913,"ÃļT":15914,"ÃĻÃĸ":15915,"Â°Ĕ":15916,"Wt":15917,"Ã²E":15918,"LÃ®":15919,"ÂĪÂĴ":15920,"ÃĽÃĦ":15921,":Ē":15922,"Â£ě":15923,"Ã½ÃĵÃ¼":15924,"Ã¥Ãĭ":15925,"[ě":15926,"Â¬Âİ":15927,"ÂŀÂĶĀ":15928,"ÂĺÂĬ":15929,"ÂĿÂľ":15930,"Ã´Ãĸ":15931,"ÂįĚ":15932,"</":15933,"ÃķÃį":15934,"ÃµQ":15935,"ÃĨk":15936,"ÂļĒ":15937,"Â£ā":15938,"Âĩ,":15939,"bÃĮ":15940,"ÂĿ*":15941,"ÂĢÂ«":15942,"ÂĢĒÂĬ\\":15943,"Â®Â§":15944,"%ÂĴ":15945,"ĄÂ¸":15946,"ÂģÂ¤":15947,")Âķ":15948,"'*":15949,"ĖÂĵ":15950,"ÃĻÃ®":15951,"vp":15952,"ÂŁÂľ":15953,"Ĕā=":15954,"Â¨ÂĶ":15955,"@.":15956,"qn":15957,"ÃĤÃ¡":15958,"ėė":15959,"`.":15960,"ÃĲÃĩ":15961,"ĀĕĜ":15962,"`Â§":15963,"ÃĤÃĬ":15964,"Â¶ÃĹ":15965,"ÂĬě":15966,"Ã·Ā":15967,"Ġi":15968,"ÃıDÃ¿":15969,"Ã³A":15970,"iÂª":15971,"MÃŁ":15972,"LÃ¬":15973,"ÂŁ*":15974,"(;":15975,"ÃªÃĬ":15976,"NÃģ":15977,"ĈÂ¸":15978,"Ã½Ã¾":15979,"xa":15980,"ÃĺÃ¬":15981,"`|":15982,"ÃŃÃ¢":15983,"BE":15984,"Âİ_":15985,"Â§Â¢":15986,"ÂĦ_":15987,"Âķď":15988,"(Â¢ÂĬĀ(Â¢ÂĬĀ(Â¢ÂĬĀ(Â¢ÂĬĀ(Â¢ÂĬĀ(Â¢ÂĬĀ(Â¢ÂĬĀ(Â¢ÂĬĀ(Â¢ÂĬĀ(Â¢ÂĬĀ":15989,"ÃĨÃļ":15990,"Âµt":15991,"Ã³Ã¹":15992,"Ãķd":15993,"Â´ÃĹ":15994,"Qf":15995,"Â»Â©":15996,"ÂĭÂĲ":15997,"Ã¦Ãİ":15998,"ę|":15999,"/Â§":16000,"VG":16001,"Âį:":16002,"Ã´Ãļ":16003,"TÃĪ":16004,"Ã«Ãİ":16005,"JÃĿ":16006,"UÃ¥":16007,"EÃ¨":16008,"Âļğ":16009,"Ę^":16010,"ÂºÂº":16011,"NÃĪ":16012,"ĠÂĻ":16013,"VÃħ":16014,"Ã«ÃĢ":16015,"#-":16016,"yD":16017,"Ã®C":16018,"]Â¨":16019,"ÃµC":16020,"Ġ_":16021,"ÂīÂĹ":16022,"PÃĳ":16023,"Â±ÂĬ":16024,"Bm":16025,"em":16026,"Â©Âĩ":16027,"ÂŃÂ¬":16028,"+ć":16029,"QÃ¸":16030,"ÃŁc":16031,",Ĕ":16032,"Ã³u":16033,"oÃĥ":16034,"YÃĪ":16035,"ÂĮ[":16036,"iO":16037,"ql":16038,";Âŀ":16039,"TÃĺ":16040,"Ãŀz":16041,"Â¦Đ":16042,"xÃĸ":16043,"ÃĿZ":16044,"Âī[":16045,"05":16046,"ÂĲÂĸ":16047,"UÃ¦":16048,"ÃŃX":16049,"ĞÂ¬":16050,"Ãĳv":16051,"hÃĮ":16052,"fÃ§":16053,"Â¸ÂĤ":16054,")Âĥ":16055,"ÂĢÂŁ":16056,",.":16057,"ÃºÂµÃº":16058,"ď-":16059,"Ã¤Ãľ":16060,"Ã¬Ã¹":16061,"ÂĲÂĵ":16062,"=Â£":16063,"Â»ÂĻ":16064,"+~":16065,"#ÂĹ":16066,"%ć":16067,"ÂĶÂ¨":16068,"ÃĩÃĽ":16069,"3Â½":16070,"Â¾0":16071,";\\":16072,"ďÂ±":16073,"ĐÂ«":16074,"ÃģÃº":16075,"ÃŁÃĨ":16076,"VH":16077,"Ã³ÃĦ":16078,"Ā=ě":16079,"ÃįÃ¹":16080,"DÃİ":16081,"Â¤Â¡":16082,"(Âĸ":16083,"oR":16084,"!Ē":16085,"ÃĤc":16086,"fa":16087,"ÃıÃ«":16088,"pÃŀ":16089,"uu":16090,"Â´Â«":16091,"ÂĶÂ¯":16092,"ğġ":16093,"Ã»w":16094,"zW":16095,"@Â«":16096,"$^":16097,"jN":16098,"ÂĽĒ":16099,">|":16100,"ÂºF":16101,"+Â®":16102,"ÃģÃ®":16103,"ÃĿÃļ":16104,"ÂīÂĺ":16105,"(^":16106,"Â°Â¥":16107,"ÂĶÂĬ":16108,"Â°ĕ":16109,"ÃįÃī":16110,"@ÂĴ":16111,"ÃĶÃ½":16112,"Â¢ÂĬ(ĀÂ¢ÂĬ(ĀÂ¢ÂĬ(ĀÂ¢ÂĬ(ĀÂ¢ÂĬ(ā":16113,"Â·%":16114,"Ã±Ã¶":16115,"Â°]":16116,"UÃħ":16117,"ęÂĬ":16118,"AÂª":16119,"ÃĳÃŀ":16120,"xÃĭ":16121,"Ã½Ã´h":16122,"#Ĉ":16123,"ąÂĤ":16124,"sÃ¶":16125,"VÃĴ":16126,"/,":16127,"(Â¢ÂĬ`Ĕ":16128,"<|":16129,"mÃĸ":16130,"vÃĥ":16131,"bÃħ":16132,"Ą!":16133,"mÃ©":16134,"Ĕ)":16135,"PÃ®":16136,"ÂĻÂŁ":16137,"ÃĤÃ°":16138,"yX":16139,"ěÂŀ":16140,"Â¨Âĩ":16141,"fA":16142,"dh":16143,"ÂĳĈ":16144,"ÃķÃı":16145,"Ã»H":16146,"vI":16147,"Âı@":16148,"Ã§Ãİ":16149,"ÂĲÂĦ":16150,"bW":16151,"Yn":16152,"ÂĵĀ":16153,"Â¢.":16154,"ÂĪĎ":16155,"Ãįj":16156,"ĚÂ»":16157,"<ÂĹ":16158,">Â«":16159,"ÂĪć":16160,"Uz":16161,"ÂģÂĿ":16162,"Â°ÂĮ":16163,"DÃ¤":16164,"Âľ?":16165,"@Â©":16166,"ul":16167,"ÂĢÂŀ":16168,"Ã¹QÃ¥":16169,"UN":16170,"VT":16171,"ÃĶÃ¯":16172,"DG":16173,"tÃ¾T":16174,"ďÂļ":16175,"EÃı":16176,"eÃĻ":16177,"Â¡Âĭ":16178,"Ã©Ã®":16179,"ÃĭR":16180,"ē&":16181,"Ã¦R":16182,"ÂĥÂĨ":16183,"wR":16184,"qÃĬ":16185,"qÃ¤":16186,"[Â¤":16187,"UÃ¢":16188,"Ã¡z":16189,"ÂĩÂ·":16190,"ÃľÃ°":16191,"<ÂĻ":16192,"ěĕ":16193,"Ã¬n":16194,"ÂĽĄ":16195,"Â¬\\":16196,"EÃĦ":16197,"ĐÂĳ":16198,"ÂĬ(Ă":16199,"ĆÂ¶":16200,"ÃŀÃ¤":16201,"ÂĢÂ©":16202,"cÃľÃĳ":16203,"xÃ»":16204,"ÃĽA":16205,"ÂįĖ":16206,"fÃµ":16207,"Ãĺs":16208,"qÃº":16209,"ÃĽB":16210,"ăÂĹ":16211,"Âĥ(":16212,"#~":16213,"ÃıTÃ¿":16214,"ÂªÃİ":16215,"Âĩ;":16216,"<Âķ":16217,"Ã±ÃŁ":16218,"wÃľ":16219,"XI":16220,"{Â§":16221,"ÃĲd":16222,"ÃĦÃµ":16223,"ė.":16224,"Ãªv":16225,"Â£ą":16226,"ÂĪ[":16227,"Ãŀp":16228,"VÃĻ":16229,"ěÂŃ":16230,"EÃĨ":16231,"ÂįĜ":16232,"|Â¢":16233,"OÃļ":16234,"ĐÂŁ":16235,"kG":16236,"WÃª":16237,"`Â»":16238,"ÂĪę":16239,"Â¿Âĸ":16240,"\"]":16241,"VÃ«":16242,"Ã£ÃĻ":16243,"ėÂ§":16244,"fM":16245,"eÃ¾":16246,"Â¿ÂŁ":16247,"VK":16248,"ÂĽÂ¯":16249,"DA":16250,"Â·~":16251,"ÃĿT":16252,"ÂĦ.":16253,"QLAE":16254,"VÃį":16255,"Â¶ÂĤ":16256,"ÃģÃ½":16257,"-Âķ":16258,"ÂĮÂ§":16259,"(āÂ¸":16260,"ĐÂ¤":16261,"ÂĴÂģ":16262,"Ã¦o":16263,"ÂĺÂĹ":16264,"ÂĿġ":16265,"Â«ÂĬ":16266,"{Âĸ":16267,"Â®Â¢":16268,"ÂĦ(":16269,"DÃī":16270,"gR":16271,"ÃķJ":16272,"Ã¸Ã¨":16273,"tÃ¤":16274,"!đ":16275,"BÃ´":16276,"wÃĺ":16277,"ÃĵF":16278,"Â·Ĉ":16279,"Âĵĝ":16280,"ÃļÃł":16281,"Â¡_":16282,"?}":16283,"Â¨Â±":16284,"Ã½S":16285,"ÃĬÂµ":16286,"&$":16287,"ÂĶÂĻ":16288,"ÃĿÃ¤":16289,"Ã¦P":16290,"ÃĶX":16291,"Âªi":16292,"ÃªY":16293,"EÃĲ":16294,"LÃĦ":16295,"Ĕā_":16296,"ÃĤÃĮ":16297,"Ã§Ã¡":16298,"Ã®r":16299,"dC":16300,"-Âī":16301,"ăė":16302,"Hs":16303,"pS":16304,"ÃĴi":16305,"ÃĽj":16306,"eÃ§":16307,"}[":16308,"ć%":16309,"Â¶Âŀ":16310,"ÂıÂĳ":16311,"pÃ¥":16312,"Â¶Â°":16313,"UÃ¬":16314,"-@":16315,"ĕÂĢ":16316,"ęđ":16317,"Â¬Âī":16318,"ÃİÃ²":16319,"Ã¼Ãĸ":16320,"Ã¦Ã§":16321,"ÃĺÃ½":16322,"Ã¼Ã³OÃ»":16323,"Ãħl":16324,"VÃĤ":16325,"ÂĨÂĺ":16326,"ÃĲq":16327,"ÂĦ|":16328,"TÃ¯":16329,"#|":16330,"dI":16331,"ÃĵÃī":16332,"ZÃĩ":16333,"ÃĥÃ¯":16334,"ÂĪÂ¨":16335,"wÃĭ":16336,".Ĝ":16337,"VX":16338,"wÃī":16339,"{ÂĴ":16340,"ĔĘ":16341,"ĠÂĹ":16342,"Â¡ě":16343,"fW":16344,"/Â¸":16345,"ÃļÃ¡":16346,"ÃĳÃ®":16347,"tÃ¯":16348,"ĕÂļ":16349,"Ã¦Ã¢":16350,"Âĺ]":16351,"ÃĿc":16352,"BÃĭ":16353,"Â±(":16354,"hÃł":16355,"zl":16356,"ÂĭÂī":16357,"fÃĭ":16358,"ĒÂĲ":16359,"Ãħe":16360,"ÃĨÃ²":16361,"ÃĻX":16362,"ÃĮo":16363,"CÃī":16364,"ÃĺÃ¥":16365,"^~":16366,"BW":16367,"hR":16368,"Ã¡Ã¯":16369,"Hy":16370,"ĐÂĤ":16371,"Â¶[":16372,"Â·Âģ":16373,"LI":16374,"ÃŁÃĦ":16375,"`Ă":16376,"pÃı":16377,"Â«ÂĿ":16378,"ÂĪ>":16379,"ÂĻÂĲ":16380,"ÃŁÃĵ":16381,"bÂº":16382,"ĖĄ":16383,"zÂµ":16384,"zRÃĳ":16385,"ĠA":16386,"_Â§":16387,"ÂĶÂĽ":16388,"ÃĺÃĭ":16389,"Â´Âķ":16390,"YÃ³":16391,"nS":16392,"ĚÂ¤":16393,"ÃŃÂµ":16394,"Âŀğ":16395,"Âĳ,":16396,"PJ":16397,"Â©Âī":16398,"sÃŃG":16399,"Ã¬Ãį":16400,"ÃĻÃ²":16401,"cÂº":16402,"}Â¨Ă":16403,"VA":16404,"LÃ°":16405,">ÂĶÂ´":16406,"ÂĳĒ":16407,"ÃĬÃ´":16408,"Â®Âĭ":16409,"Â¼6":16410,"ąÂ¦":16411,"Ã½Ã¸":16412,"dÃĭ":16413,"ĐĂ":16414,"~ď":16415,"ÃŃÃĤ":16416,"ÃĮD":16417,"TE":16418,"Âĸ+":16419,"Âį]":16420,"nÃ»":16421,"YQ":16422,"ĠÂ¤":16423,"ÃµÃĶ":16424,"ÃªÃĶ":16425,"Ã«Âµ":16426,"Ą#":16427,"ąÂ¢":16428,"Ã¡Ãī":16429,"ăÂĩ":16430,"ĄÂĿ":16431,"ÂİÂĶĀ":16432,"ÃŀK":16433,"Â¯>":16434,"ĖÂĹ":16435,"Ã³m":16436,"Â·!":16437,"vy":16438,"kE":16439,"Ã¾Ãļ":16440,"XP":16441,"ÃģG":16442,"Ã¢D":16443,"*ÂĬ":16444,"aÃŁ":16445,"Ã¬ÃĪ":16446,"+=":16447,"ĐÂ®":16448,"Ã¶Q":16449,"Ğ>":16450,"ÃĳÃħ":16451,"ÃĹĀ":16452,"(Â¿":16453,"Âİ%":16454,"ÂĬĀÂŃ":16455,"ÃĮÃł":16456,"wÃĩ":16457,"ÃĽi":16458,"ÂĤÂĵ":16459,"<Ă":16460,"ąĀ-Ĕ":16461,"Ys":16462,"hl":16463,"ÂªÃ©":16464,"Âŀ%":16465,"Â»!":16466,"Ã¤I":16467,"gÃĺÃĳ":16468,"ÃĻÃĿ":16469,"{Ē":16470,"Â¨ÂŁ":16471,"ÃĬÃº":16472,"wÃĪ":16473,"ÃĳÃĸ":16474,"jÃı":16475,"Ã¶q":16476,"Vp":16477,"Lo":16478,"ÂķÂ§":16479,"mR":16480,"ÂĴÂ«":16481,"Â¶~":16482,"ÃŀW":16483,"/Ĝ":16484,"kQ":16485,"ÂĽÂĶ":16486,"ÃīÃ¾Ã©":16487,"Ãĸl":16488,"Ã¢A":16489,"yÃ²":16490,"zÃ°":16491,"}ÂĻ":16492,"CÃģ":16493,"ĂÂĬ*":16494,"Â¢$":16495,"ÃĲÃ®":16496,"fÃ©":16497,"LÃħ":16498,"nÃ¨":16499,"bÃ¹":16500,"Â±Âĩ":16501,"TÃĨ":16502,"Â¨;":16503,"ÃĵÃľ":16504,"ÃĹÃĹ":16505,"Âĺ|":16506,"mÃ¯":16507,"Âºu":16508,"ÂĭÂķ":16509,"Â¸ā":16510,"ėÂİ":16511,"YÃĨ":16512,"Âĵ>":16513,"bÃª":16514,"Ĉą":16515,"Â¾Â¾":16516,"mÂµ":16517,"os":16518,"đğ":16519,"ÃĽÃ«":16520,"/Â¡":16521,"-ÂĬ":16522,"Â¨ÂĹ":16523,"uG":16524,"KR":16525,"%Âľ":16526,"vv":16527,"ąÂ¢Âĵ#":16528,"ÃĻH":16529,"ďă":16530,"ÂĽ=":16531,"Ã´Ã»":16532,"ÂĦĆ":16533,"Ã·Ė":16534,"CKH":16535,"'ÂĤ":16536,"|Âģ":16537,"~Â¢":16538,"PÃĴ":16539,"KÃ¹":16540,"Ã¬ÃĨ":16541,"]ÂĴ":16542,"Â¤ÂĶ":16543,"Ã«KE":16544,"Â¥Â©":16545,"Ã»Ãº":16546,"[Ĉ":16547,"Ã¶Ã²":16548,"BÃĿ":16549,"DC":16550,"ÃıÃĤ":16551,"/Â©":16552,"Ã¦k":16553,"ck":16554,"YÃĤ":16555,"Ã·@":16556,"ÃĸÃ£":16557,"NÃª":16558,"ÂĩÂ¯":16559,"Ã®Ãħ":16560,"ÂĪÂŁ":16561,"`$":16562,"ÃĦX":16563,"ÂľÂĿ":16564,"ÃĲÃ¤":16565,"eÃ¼":16566,"ÂıÂ¿":16567,"nÃĮ":16568,"ÂĩÂ¸":16569,"iH":16570,"ÃĬÃ¦":16571,"ÂŃÂĦ":16572,":Âĺ":16573,"Â¨Âİ":16574,"GÃī":16575,"ÃĳÃĽ":16576,")ē":16577,"ÂİÂ´ā":16578,"ÂĮġÃ·":16579,"ÂŃ~ÂĤ":16580,"Â®ÂŁ":16581,"Ã¯g":16582,"fS":16583,"Âģě":16584,"ÃĦÃį":16585,"-Â¥":16586,"ĝÂĶ":16587,"ÂıĜ":16588,"Ã¯Ã©":16589,"hÃ©":16590,"DÃª":16591,"fÂº":16592,"Â§ÂĢ":16593,"IÃ»":16594,"ÃĬÃ³":16595,"Â¥Â¢ÂĢēĔ":16596,"Ã¬ÃĤ":16597,"Â»Ĕ":16598,"ĝÂĮ":16599,"ÃĳX":16600,"#ē":16601,"ğ;":16602,"Âŀ]":16603,"Ãły":16604,"ÃłH":16605,"dj":16606,"Ã§Ãī":16607,"PÃĪ":16608,"Â¤>":16609,"&*":16610,"Â¢ÂĢğ":16611,"~@":16612,"UÃĤ":16613,"(ÂĲ":16614,"ÃģÃĿ":16615,"AZ":16616,"]ą":16617,"-ĔĀÂľ":16618,"ÂĿÂĿ":16619,"~[":16620,"ĆÂī":16621,"Âģĕ":16622,"đ.":16623,"ĚÂĻ":16624,"ā-Ĕ":16625,",Ĝ":16626,"ÃŃo":16627,"ĒÂ¶":16628,"ÃĦÃ°":16629,"ÂĨ+":16630,"ÃĲW":16631,"Âĸ\"":16632,"Ã®z":16633,"(Ăğ":16634,"IC":16635,"ÃŁl":16636,"Âĭ$":16637,"Ã¥l":16638,"Ã¯ÃĤ":16639,"BY":16640,"ÃįÃ¤":16641,"wÃĬ":16642,"BC":16643,"DÃħ":16644,"Ãĳy":16645,"fÃ²":16646,"Ć-":16647,"Â´$":16648,"ÃĿÃĿ":16649,"\\ĕ":16650,"ġÂı":16651,"Â´ÂŃ":16652,"vg":16653,"eM":16654,"ÂŁ+":16655,"Dx":16656,"Ãķa":16657,"ÃĺY":16658,"Â®_":16659,")Âĩ":16660,"~\"":16661,"Â¢ÂĸÂĢ":16662,"ÃĻC":16663,"Â¦_":16664,"ÂĹ.":16665,"Ã¬F":16666,"ÃĹÃ·":16667,"Ã«ÃĨ":16668,"Ã¢Y":16669,"ÂĹÂ¿":16670,"ė+":16671,"ÂĳÂ¥":16672,"ÃĲÃĪ":16673,"ÃĬL":16674,"pÃī":16675,"ĂÂĴÂĸÂĬĀ":16676,"bR":16677,"ĈÂĲ":16678,"Ã®Ãĸ":16679,"Â¢{":16680,"ÃĭÃĽ":16681,"Â¨!":16682,"ē.":16683,"ÃĭÃ¤":16684,"ÃİB":16685,"Dk":16686,"ÃĲRÃĳ":16687,"ÃļJ":16688,"Â°Ė":16689,"Ã³w":16690,"ĂÂĪ":16691,"ÂĴÂ®":16692,"ÃĢV":16693,"Â¹3":16694,"ÃıY":16695,"Ąę":16696,"ÂīÂĢ":16697,"ÂŃ{":16698,"oL":16699,"ĠG":16700,"Ã´ÃĽ":16701,"Âĩ\\":16702,"NÃĩ":16703,"?<":16704,"zÃ²":16705,"OV":16706,"Ã¦L":16707,"Ã¥Ã¶":16708,"ďÂŃĀ":16709,"ąĆ":16710,"ĜÂį":16711,"ÂŀÂŃ":16712,"Â«Â®":16713,"Âģ\"":16714,"ÂĹÂĵ":16715,"ÂĴÂ¿":16716,"Â¬Âı":16717,"HÃĵ":16718,"ÃŃv":16719,"sÃ®":16720,"ÃĲÃĢ":16721,"ÃľÃ²":16722,"ÂĲÂĬ":16723,"(Ğ":16724,"ĘÂĬ":16725,"ÃĳÃĴ":16726,"Âģĝ":16727,"Ã§r":16728,"ÂĭÂĺ":16729,"uÃ©":16730,"ÃļÃ£":16731,"Ã¨ÃĬ":16732,"cj":16733,"ÂĹ_":16734,"Âĳđ":16735,"eÃº":16736,"Ã§k":16737,"Âģğ":16738,"ĈÂ¶":16739,"ÃĩÂº":16740,"ĒÂ®":16741,"nÃ©":16742,":Ã·":16743,"tÃĻ":16744,"Ã¾ÃªÃ¾T":16745,"Ĉď":16746,"Â§ė":16747,"Ēđ":16748,"$Â©":16749,"Â±;":16750,"Ã»QÃıÂµ":16751,"Ã·Â¸":16752,"ĀĚ>":16753,"Ã¯Ã¢":16754,"Pe":16755,"ÃĦC":16756,"ĈĎ":16757,"ÂĮÂ£":16758,")Đ":16759,"Â±Â¯":16760,"WÃĮ":16761,"ÂĭÂ¨":16762,"aÃ¥":16763,"Ã®d":16764,"ÃºÃ½":16765,"ÂĪÂĵ":16766,"Âĭ(":16767,"ÃĨÂµ":16768,"XU":16769,"Â¢`":16770,"Ãĺt":16771,"&Â·":16772,"Â¬Â¶":16773,"~ÂĢ":16774,"ÃĶL":16775,"MÃĴ":16776,"fu":16777,"Â»Ć":16778,"ÃĦÃĪ":16779,"Ã¢Âº":16780,"Ā=Â£":16781,"=Â°":16782,"ÂĿĘ":16783,"Qr":16784,"ÂīÂĨ":16785,"ÃģÃ»":16786,"Ã·Đ":16787,"ėÂļ":16788,"ÃĦÃİ":16789,"gÃ§":16790,"ÂĦ}":16791,"aB":16792,"ÃĥÃ¤":16793,"Ã¾ÃĿ":16794,"ÃľC":16795,"Â®ÂĽ":16796,"fr":16797,"ćÂĶ":16798,"[Â´":16799,"ĚÂ¡":16800,"!Â¥":16801,"ÃķR":16802,"%ÂĬ":16803,"ÃĻO":16804,"Â§|":16805,"AÃĿ":16806,"ÃĨd":16807,"Âĺ>":16808,"-Âĸ":16809,"bÃĳ":16810,"ÂĪĐ":16811,"ÂīÂī":16812,"nÃ¼":16813,"ÃĲÃ±":16814,"āĆ":16815,"Â¬.":16816,"Â¤]":16817,"ÂĴē":16818,"ÂĳĆ":16819,"ÃĽFÃļ":16820,"Âļ'":16821,"ÂİÂ´Ā":16822,"ğ>":16823,"WÂµ":16824,"qr":16825,"ĘĖ":16826,"-Âį":16827,"ďĞ":16828,"ĒÂĸ":16829,"Ã»g":16830,"Â»;":16831,"ÂĦĝ":16832,"cK":16833,"*ÂĻ":16834,"Ĝą":16835,"pB":16836,"vÃ©":16837,"Ă]":16838,"ÃĬÃ¢":16839,"fÃŁ":16840,"~}":16841,"ĠÃ¬":16842,"<_":16843,"Â±ÂĹ":16844,"Ã®B":16845,"[\\":16846,"Ē+":16847,"vh":16848,"JÃ°":16849,"pÃ¨":16850,"Ã¼Ã¨Ãľ":16851,"ÃĵÃ«":16852,"Âĩ>":16853,"Ã´Ã¬":16854,"-Â®":16855,"fÃ¦":16856,"ÂĢ\\":16857,"Ae":16858,"NÂª":16859,"ÃĴÃĽ":16860,"Â£Â¦":16861,"ęÂĮ":16862,"Ãłj":16863,"ĝÂĬ":16864,"Ã²S":16865,"ĒÂ©":16866,"ÂĶÃ·":16867,"ÃķÃĶ":16868,"đ,":16869,"\";":16870,"ÂıĔ":16871,"Ti":16872,"Â¬Âĸ":16873,"ÃĲG":16874,"ÂµÃĭ":16875,"Â¾6":16876,"ÂĦ$":16877,"ĜĆ":16878,"JÃľ":16879,"Ã®a":16880,"NB":16881,"Â¢%":16882,"ÂĢ|":16883,"ÃĩÃª":16884,"Â·/":16885,"!>":16886,"ÃĦÃ¢":16887,"ÃĳÃĮ":16888,"Ĉ*":16889,"ÂģĚ":16890,"ÃķÃģ":16891,"hZ":16892,"Â¥ÂĻ":16893,"Â£ÂĹ":16894,"ĈÂİ":16895,"ÃĶÃŁ":16896,"Â¡.":16897,"Â¢_":16898,"ęÂ¸":16899,"ÂīÂ°":16900,"ĀÂįğ":16901,"ÂĺÂ¦":16902,"Ã¾l":16903,"Â·Ă":16904,"MR":16905,"YÃĭ":16906,"ÂīÂĤ":16907,"ÃĶÃĥ":16908,"ÂĭĎ":16909,"Ã»Ã¤Ã¿":16910,"#ÂĿ":16911,"ÂĸÂĬĀÂĭ":16912,"}Ć":16913,"NÃ§":16914,"ÂĺÂ«":16915,"ÂīÂķ":16916,"ÂŀÂĮ":16917,">ÂĬ(":16918,"~)":16919,"ÂµÃ¶":16920,"Âģė":16921,"ÂŃÂĨ":16922,"ÂĦÂĨ":16923,"ÃĩÃ¨":16924,"ÃĤK":16925,"ěĞ":16926,"dÂº":16927,"Ã»r":16928,"dÃŃ":16929,"Ã½v":16930,"ÂıÃĹ":16931,"Ã¹ÃĪ":16932,"ÃħÃ¥":16933,"'ÂĢ":16934,"ÂĺÂĽ":16935,"RÃĪ":16936,"Âµw":16937,"Â±*":16938,"hB":16939,"ÃħÃī":16940,"`Â°":16941,"Ã¯Ã®":16942,"lI":16943,"bM":16944,"Ã´Ãľ":16945,"/Â¯":16946,"ÃĨQ":16947,"ew":16948,"Â»Â»":16949,"Di":16950,"(ÂĬ":16951,"ÂĦā":16952,"@^":16953,"Â¨ÂĿ":16954,"Â§Âį":16955,"ÃĮi":16956,"Â±&":16957,"Vy":16958,"ÂĪÂ¶":16959,"hA":16960,"ÂĵÂķ":16961,"?+":16962,"ĐÂİ":16963,"ĝÂĥ":16964,"Âļĕ":16965,"Â¡Âĥ":16966,"Ã¡Ã²":16967,"ėÂ¯":16968,"ĀÂ¸Â¿Âķ":16969,"ĀÂŀÂĥ":16970,"RZ":16971,"ÃĦÃģ":16972,"ÃĴÃª":16973,"YÃĢ":16974,"Ã¦Ã¹":16975,"Ã¡Ãĺ":16976,"ÂĬĀÂ±":16977,"EÃĭ":16978,"nm":16979,"Â·Â¦":16980,"Â«ÂĻ":16981,"Â»\\":16982,"_Â¶":16983,"Ã¶Ãİ":16984,"Vs":16985,"ÂĤÂ®":16986,"ÂĲĚ":16987,"PÃĲ":16988,"Ã´ÃĻ":16989,"fÃĤ":16990,"jÃĺ":16991,"PÃµ":16992,"Ã©ÃºP":16993,"vÃĤ":16994,"Â¤@":16995,"ÂĳÂŃ":16996,"FÃĳÃ¨":16997,"ă]":16998,"Â¥ĕ":16999,"Ã¯Ãİ":17000,"ÃķÃ»":17001,"ÃĭÃģ":17002,"XÃŀ":17003,"Ã¡ÃĽ":17004,"ÂŀÂĶā":17005,"ÃļL":17006,"Ę;":17007,"DÃł":17008,"Â¥Âĥ":17009,"Ã®ÃŃ":17010,"\"&":17011,"pÃ½":17012,"ÃĸÃ´":17013,"ÂºÃŃ":17014,"ÂĦ'":17015,"Hq":17016,"PÃ½":17017,"ÃĨÃ§":17018,"ÃıI":17019,"Â«@":17020,"yx":17021,"đÂĩ":17022,"ÂĢ&Â¢Â¡":17023,"ÃĭÃĲ":17024,"nÃ²":17025,"Â°Â¶":17026,")Â£":17027,"Ã©w":17028,"[,":17029,"cW":17030,"Â¬*":17031,"TÂª":17032,"ġĚĀ":17033,"/ÂĲ":17034,"Ć^":17035,"om":17036,"ÂīÂĵ":17037,"Ā=?":17038,"%$":17039,"nÃ¾":17040,"ÂķÂ¸":17041,"DK":17042,"ÃļÃŁ":17043,"Â¹Â¼":17044,"ÂīÂ¥":17045,"tÃº":17046,"ąÂĵ":17047,"Ã¹QÃ½":17048,"Ã¹ÃĨ":17049,"DS":17050,"Ã¦g":17051,"ďÂĲ":17052,"ĒÂ§":17053,"ėĐ":17054,"Â´Ă":17055,"(ē":17056,"Âµp":17057,"ÂĶÂĩ":17058,"(Â¢ÂĬĀ(Â¢ÂĬĀ(Â¢ÂĬĀ(Â¢ÂĬĀ(Â¢ÂĬĀ(Â¢ÂĬĀ(Â¢ÂĬĀ(Â¢ÂĬĀ(Â¢ÂĬĀ":17059,"rC":17060,"ď>":17061,"ÂµÃĽ":17062,"\\Â¤":17063,"ÂĦÂĬ":17064,"EÃĽ":17065,"ue":17066,"Â¢ÂĪ":17067,"ÃİÃ§":17068,"ÂĤÂŃ":17069,"ăÂ£":17070,"ÃįÃĸ":17071,"ÂĦę":17072,"ÂĶÂ«":17073,"yy":17074,":ÂĽ":17075,"ĠÂ¼":17076,"CÃŀ":17077,"[ÂŃ":17078,"ÃĶÃľ":17079,"Â°Ć":17080,"Â±\"":17081,"-$":17082,"ac":17083,")Â©":17084,"TÃĿ":17085,"Ej":17086,"Ã¬Ãģ":17087,"Ã¥Ãº":17088,"ÂĴÂĥ":17089,"Ã¬f":17090,"ÃĴC":17091,"Ã¾xÃĩÃ¿":17092,"ÂĴÂĿ":17093,"Â»Â®":17094,"ÂĳÂ¨":17095,"ÂĢÂ´":17096,"Ãľx":17097,"qÃĳ":17098,"vH":17099,"%_":17100,"Â«Â¡":17101,"ÂĨ\"":17102,"}Â¬":17103,"ÂĤÂ©":17104,"`ą":17105,"wÃ¢":17106,"wÃŀ":17107,"ĠÃĺ":17108,"ÃŃk":17109,"Âºt":17110,"Ã´m":17111,"ÃľÃĤ":17112,"ÂĹÂ¨":17113,"QÃĤ":17114,"ÃįÃĤ":17115,"ĒÂľ":17116,"ÂĴ'":17117,"Ã¦Ãı":17118,"ÃıhÃ¿":17119,"ÃĢz":17120,"YÃ¤":17121,"Wd":17122,"Ã¼ÃĬ":17123,"ąÂ¢ÂĬ(ā":17124,"ÃĦÃ¾ÃºÃ¾t":17125,"Ã¢ÃĿ":17126,"Â»>":17127,"ÃķÃĩ":17128,",ą":17129,"ÂĴÂ°":17130,"ÂķĐ":17131,"yU":17132,"*Â¦":17133,"Ã¦Ãł":17134,"ÂĨÂĬ":17135,"ÂķĚ":17136,"ÃĽÃĤ":17137,"Sl":17138,"Â´ġÃ·":17139,"Ã°ÃĦ":17140,"Ã¯ÃĪ":17141,"ÂªÃ«":17142,"\\Â¿":17143,"ÃĲÃĬ":17144,"Ã¶r":17145,"ÃļÂµ":17146,"ÃĻÃĵ":17147,"YÃķ":17148,"ÃļÃĨ":17149,"/Â·":17150,"PÃĶ":17151,"SÃĤ":17152,"Â®Âİ":17153,"-ě":17154,"EÃĪ":17155,"Â¡]":17156,"Ã¶Ã±":17157,",Â¨":17158,"?Ĝ":17159,"ĈÂĳ":17160,"Âĵ.":17161,"ÂĨÂ¤":17162,"ÂĹ%":17163,"ĜÂĩ":17164,"Â¶Âģ":17165,"hw":17166,"Â¸(":17167,"{Đ":17168,"Ã®Ã³":17169,"eC":17170,"ÂªÃ»":17171,"&ě":17172,"ÃĺÃ²":17173,"ÂĪĝ":17174,"ĒÂĥ":17175,"7Â²":17176,"Ğā":17177,"Âļ!":17178,"Ã±Ã¸":17179,"ÂĴÂĬĀÂı":17180,"Gv":17181,"Ãĩi":17182,"ÂĺÂ¢":17183,"ÂĸĖ":17184,"aÃ¨":17185,"Â¶.":17186,"ÃįÃĲ":17187,"ÃĮÃ¹":17188,"Ā\\ÃĹ":17189,"ÂĲ\"":17190,"ÃĴO":17191,"@Âİ":17192,"ÃľZ":17193,"Ã¶X":17194,"Ā(Â¢ÂĬĀ(Â¢ÂĬĀ(Â¢ÂĬĀ(Â¢ÂĬĀ(Â¢ÂĬĀ":17195,"Ã£Z":17196,"Ã¥ÃĤ":17197,"Â«Ą":17198,"UÃł":17199,"oB":17200,"Â¤Ę":17201,"Ãĭe":17202,"+{":17203,"ÃĸÃĸ":17204,"Â©Â¨Ā":17205,"Ã¼g":17206,"Ēă":17207,"DD":17208,"ąÂľ":17209,"Â°:":17210,"Ã¯Ã¬":17211,"Â¬$":17212,"ÃħÃĦ":17213,"ĀÂ«_":17214,"%ă":17215,";/":17216,"Ã»Ã¨Ã¿":17217,"ÃĢÃĬ":17218,"ÃļÃĪ":17219,"Ã®g":17220,"Âªn":17221,"ÂºH":17222,"ÂŁ#":17223,"lÃĬ":17224,"(Â°\\":17225,"ÂĢÂĵ":17226,"ÂķÂ±":17227,"ÂĽē":17228,"ÂĶ>":17229,"ÃĭQ":17230,"Âĭ~":17231,"mr":17232,"\\Âį":17233,"ÂµÃľ":17234,"Â¡}":17235,"AA":17236,"Âī,":17237,"Ãķg":17238,"Ãķu":17239,"+Â£":17240,"YÃĬ":17241,"PB":17242,"VÃĳ":17243,"ÃĨÃ´":17244,"YÃĩ":17245,"ÂıÂĿ":17246,"Â¿ÂŃĀ":17247,"%ě":17248,"wÃĽ":17249,"ÃĴK":17250,";Ę":17251,"Â¬ć":17252,"ĄĘ":17253,"Ã¶Ã¤":17254,"ÃİC":17255,"Ã»Ã¯Ã¿":17256,"->":17257,"ÂĶ=":17258,"ÃįÃĽ":17259,"WA":17260,"hÃ¼":17261,"Ã©Ãĳ":17262,"ÂĽÂĸ":17263,"Ãļd":17264,"Â¸ÂĻ":17265,"ÂĶ,":17266,"Ğą":17267,
[...]
