{
  "version": "1.0",
  "truncation": null,
  "padding": null,
  "added_tokens": [
    {
      "id": 0,
      "content": "<BOI_VID>",
      "single_word": false,
      "lstrip": false,
      "rstrip": false,
      "normalized": false,
      "special": true
    },
    {
      "id": 1,
      "content": "<EOI_VID>",
      "single_word": false,
      "lstrip": false,
      "rstrip": false,
      "normalized": false,
      "special": true
    },
    {
      "id": 2,
      "content": "<UNK>",
      "single_word": false,
      "lstrip": false,
      "rstrip": false,
      "normalized": false,
      "special": true
    }
  ],
  "normalizer": null,
  "pre_tokenizer": {
    "type": "ByteLevel",
    "add_prefix_space": false,
    "trim_offsets": true,
    "use_regex": true
  },
  "post_processor": null,
  "decoder": {
    "type": "ByteLevel",
    "add_prefix_space": true,
    "trim_offsets": true,
    "use_regex": true
  },
  "model": {
    "type": "BPE",
    "dropout": null,
    "unk_token": null,
    "continuing_subword_prefix": null,
    "end_of_word_suffix": null,
    "fuse_unk": false,
    "byte_fallback": false,
    "ignore_merges": false,
    "vocab": {
      "<BOI_VID>": 0,
      "<EOI_VID>": 1,
      "<UNK>": 2,
      "!": 3,
      "\"": 4,
      "#": 5,
      "$": 6,
      "%": 7,
      "&": 8,
      "'": 9,
      "(": 10,
      ")": 11,
      "*": 12,
      "+": 13,
      ",": 14,
      "-": 15,
      ".": 16,
      "/": 17,
      "0": 18,
      "1": 19,
      "2": 20,
      "3": 21,
      "4": 22,
      "5": 23,
      "6": 24,
      "7": 25,
      "8": 26,
      "9": 27,
      ":": 28,
      ";": 29,
      "<": 30,
      "=": 31,
      ">": 32,
      "?": 33,
      "@": 34,
      "A": 35,
      "B": 36,
      "C": 37,
      "D": 38,
      "E": 39,
      "F": 40,
      "G": 41,
      "H": 42,
      "I": 43,
      "J": 44,
      "K": 45,
      "L": 46,
      "M": 47,
      "N": 48,
      "O": 49,
      "P": 50,
      "Q": 51,
      "R": 52,
      "S": 53,
      "T": 54,
      "U": 55,
      "V": 56,
      "W": 57,
      "X": 58,
      "Y": 59,
      "Z": 60,
      "[": 61,
      "\\": 62,
      "]": 63,
      "^": 64,
      "_": 65,
      "`": 66,
      "a": 67,
      "b": 68,
      "c": 69,
      "d": 70,
      "e": 71,
      "f": 72,
      "g": 73,
      "h": 74,
      "i": 75,
      "j": 76,
      "k": 77,
      "l": 78,
      "m": 79,
      "n": 80,
      "o": 81,
      "p": 82,
      "q": 83,
      "r": 84,
      "s": 85,
      "t": 86,
      "u": 87,
      "v": 88,
      "w": 89,
      "x": 90,
      "y": 91,
      "z": 92,
      "{": 93,
      "|": 94,
      "}": 95,
      "~": 96,
      "¡": 97,
      "¢": 98,
      "£": 99,
      "¤": 100,
      "¥": 101,
      "¦": 102,
      "§": 103,
      "¨": 104,
      "©": 105,
      "ª": 106,
      "«": 107,
      "¬": 108,
      "®": 109,
      "¯": 110,
      "°": 111,
      "±": 112,
      "²": 113,
      "³": 114,
      "´": 115,
      "µ": 116,
      "¶": 117,
      "·": 118,
      "¸": 119,
      "¹": 120,
      "º": 121,
      "»": 122,
      "¼": 123,
      "½": 124,
      "¾": 125,
      "¿": 126,
      "Â": 127,
      "Ã": 128,
      "Ā": 129,
      "ā": 130,
      "Ă": 131,
      "ă": 132,
      "Ą": 133,
      "ą": 134,
      "Ć": 135,
      "ć": 136,
      "Ĉ": 137,
      "ĉ": 138,
      "Ċ": 139,
      "ċ": 140,
      "Č": 141,
      "č": 142,
      "Ď": 143,
      "ď": 144,
      "Đ": 145,
      "đ": 146,
      "Ē": 147,
      "ē": 148,
      "Ĕ": 149,
      "ĕ": 150,
      "Ė": 151,
      "ė": 152,
      "Ę": 153,
      "ę": 154,
      "Ě": 155,
      "ě": 156,
      "Ĝ": 157,
      "ĝ": 158,
      "Ğ": 159,
      "ğ": 160,
      "Ġ": 161,
      "ġ": 162,
      "Ģ": 163,
      "ģ": 164,
      "Ĥ": 165,
      "ĥ": 166,
      "Ħ": 167,
      "ħ": 168,
      "Ĩ": 169,
      "ĩ": 170,
      "Ī": 171,
      "ī": 172,
      "Ĭ": 173,
      "ĭ": 174,
      "Į": 175,
      "į": 176,
      "İ": 177,
      "ı": 178,
      "Ĳ": 179,
      "ĳ": 180,
      "Ĵ": 181,
      "ĵ": 182,
      "Ķ": 183,
      "ķ": 184,
      "ĸ": 185,
      "Ĺ": 186,
      "ĺ": 187,
      "Ļ": 188,
      "ļ": 189,
      "Ľ": 190,
      "ľ": 191,
      "Ŀ": 192,
      "ŀ": 193,
      "Ł": 194,
      "ł": 195,
      "Ń": 196,
      "Ã¿": 197,
      "ÃĢ": 198,
      "Ãī": 199,
      "ÂĶ": 200,
      "Âļ": 201,
      "ÂĽ": 202,
      "ÂĴ": 203,
      "Â²": 204,
      "ÂĪ": 205,
      "ÃĴ": 206,
      "Ãģ": 207,
      "Ã²": 208,
      "Ã«": 209,
      "Â°": 210,
      "ÃĪ": 211,
      "Âµ": 212,
      "ÂĢ": 213,
      "Ã¾": 214,
      "Â¬": 215,
      "Ãħ": 216,
      "ÃĽ": 217,
      "Âģ": 218,
      "ÃĬ": 219,
      "Ãļ": 220,
      "Ã¸": 221,
      "Ã½": 222,
      "Â¿": 223,
      "Ã¼": 224,
      "ÂĦ": 225,
      "ÃŁ": 226,
      "Ã¯": 227,
      "Ã»": 228,
      "ÂĤ": 229,
      "Ã¹": 230,
      "Ã¡": 231,
      "Ãł": 232,
      "Ã·": 233,
      "Ã°": 234,
      "Ãº": 235,
      "ÂŁ": 236,
      "Ã±": 237,
      "Ãı": 238,
      "Ã³": 239,
      "Ã¶": 240,
      "ÃĹ": 241,
      "Ã§": 242,
      "Ãµ": 243,
      "Ãĵ": 244,
      "ÃĶ": 245,
      "Ã´": 246,
      "ÃĿ": 247,
      "Â¯": 248,
      "ÃĲ": 249,
      "Â¡": 250,
      "Ãķ": 251,
      "Âı": 252,
      "Ãĸ": 253,
      "ÃĻ": 254,
      "Â½": 255,
      "Ãĺ": 256,
      "Â·": 257,
      "Ã¥": 258,
      "Ã©": 259,
      "ÃŃ": 260,
      "Âł": 261,
      "Ãĭ": 262,
      "Ã®": 263,
      "Ã¨": 264,
      "Â¾": 265,
      "Ãĩ": 266,
      "Ãŀ": 267,
      "Â»": 268,
      "Ãĳ": 269,
      "ÃĮ": 270,
      "Ã£": 271,
      "Âĩ": 272,
      "Â§": 273,
      "Ã¬": 274,
      "Ãľ": 275,
      "Âŀ": 276,
      "Â´": 277,
      "Ã¦": 278,
      "Â±": 279,
      "Â¹": 280,
      "Ãį": 281,
      "ÂĻ": 282,
      "ÂĿ": 283,
      "ÂĹ": 284,
      "Ãª": 285,
      "Ã¢": 286,
      "ÂŃ": 287,
      "Ãİ": 288,
      "Âª": 289,
      "Â¼": 290,
      "Âĥ": 291,
      "Â¶": 292,
      "Â«": 293,
      "Â©": 294,
      "Ãĥ": 295,
      "ÂĲ": 296,
      "Â³": 297,
      "Âº": 298,
      "Âĳ": 299,
      "Âĵ": 300,
      "Â¸": 301,
      "Â¥": 302,
      "Ã¤": 303,
      "Â¦": 304,
      "Â¨": 305,
      "Â®": 306,
      "Âĭ": 307,
      "Âĺ": 308,
      "Âĸ": 309,
      "Âİ": 310,
      "Âį": 311,
      "ÃĤ": 312,
      "Âķ": 313,
      "Â£": 314,
      "Âľ": 315,
      "Âī": 316,
      "ÃĨ": 317,
      "ÃĦ": 318,
      "Â¤": 319,
      "ÂĨ": 320,
      "ÂĮ": 321,
      "Âħ": 322,
      "Â¢": 323,
      "ÂĬ": 324,
      "ĀĀ": 325,
      "Āā": 326,
      "ĀĀĀā": 327,
      "ÃĢÃ¿": 328,
      "CÃī": 329,
      "xCÃī": 330,
      "āā": 331,
      "@ĀĀ": 332,
      "rxCÃī": 333,
      "ÃĴxCÃī": 334,
      "ĀĂ": 335,
      "ăĀ": 336,
      "Ăā": 337,
      "Ã«Ãģ": 338,
      "gd": 339,
      "ďă": 340,
      "ÂļÂĴ": 341,
      "Âļ;": 342,
      "aÃ¿": 343,
      "dÃĬ": 344,
      "Ã¿Âµ": 345,
      "Āć": 346,
      "ÂĽĒ": 347,
      "ÂĽÂĴ": 348,
      "Â°ĀĀ": 349,
      "hÃ«Ãģ": 350,
      "Â°ĀĀā": 351,
      "ÂĴĀĀĀā": 352,
      "@ĀĀăĀ": 353,
      "@ĀĀďă": 354,
      "@ĀĀăĀ@ĀĀďă": 355,
      "āāā": 356,
      "Âļ;ğ": 357,
      "āāā@ĀĀăĀ@ĀĀďă": 358,
      "dÃĬaÃ¿": 359,
      "Ã²xCÃī": 360,
      "ÂĪĀć": 361,
      "RxCÃī": 362,
      "ÂģĀĀĀā": 363,
      "ÂĢĀĀĀā": 364,
      "ÂĦ?": 365,
      "ÂĤď": 366,
      "ÂĪÂĦ?": 367,
      "ÂĪÂĤď": 368,
      "Ã¸B": 369,
      "@ĀĀĀā": 370,
      "Ã¿Ã¾": 371,
      "Ã¿Ã½": 372,
      "Ã¿Ã¿": 373,
      "Ã¾o": 374,
      "Ã²t": 375,
      "Â´Âģ": 376,
      "ĂÂĵ": 377,
      "`ĀĀĀā": 378,
      "ğă": 379,
      "om": 380,
      "Āă": 381,
      "Ih": 382,
      "ĀĆ": 383,
      "ĀĄ": 384,
      "Ã¿F": 385,
      "Rx": 386,
      "ÃĭÃ¯": 387,
      "!ĀĀĀā": 388,
      "{Âŀ": 389,
      "Â¡ĀĀĀā": 390,
      "Āą": 391,
      "āĆ": 392,
      "ÃĶP": 393,
      "ÂĢĀ": 394,
      "Ã¿Ã¥": 395,
      "Ã¿Ã¼": 396,
      "ÂĢď": 397,
      "ĂÂĴ": 398,
      "ăā": 399,
      "Ã¿ÃĤ": 400,
      "Ã¿I": 401,
      "Ã¿Ã»": 402,
      "ĀĎ": 403,
      "Ã¿Ã¡": 404,
      "ğā": 405,
      "Ã¿Ã¹": 406,
      "ÂĢ?": 407,
      "Ã¿Ã°": 408,
      "Ã¿Ãº": 409,
      "đā": 410,
      "ÂĪĀ": 411,
      "Āď": 412,
      "Ã¿Ã¸": 413,
      "ĀĈ": 414,
      "Ġď": 415,
      "@?": 416,
      "Ã¿ÃĮ": 417,
      "Ã¿ÃŁ": 418,
      "Ã¿ÃĶ": 419,
      "Ã¿Ã§": 420,
      "$ć": 421,
      "Ā?": 422,
      "Ã¿Ãģ": 423,
      "Ã¿Ãł": 424,
      "Ã¾k": 425,
      "Ã¿Ã²": 426,
      "Ĉ<": 427,
      "Ã¿Ã¶": 428,
      "Ã¿Ãµ": 429,
      "Ã¿Âº": 430,
      "re": 431,
      "Ã¿Ã¦": 432,
      "Ã¿Ã±": 433,
      "Ã¿Ã©": 434,
      "Ã¿Ãĵ": 435,
      "ÂĿć": 436,
      "Āĕ": 437,
      "Ã¿Ã³": 438,
      "Ã¿Ãı": 439,
      "Ã¿Ã´": 440,
      "ĀĔ": 441,
      "Ã¿Ã¤": 442,
      "Āđ": 443,
      "ÃĺA": 444,
      "Ã¿G": 445,
      "Ã¿Ã¨": 446,
      "ĀĖ": 447,
      "Ã¿Ãħ": 448,
      "Ã¾i": 449,
      "ĀĒ": 450,
      "Ã¿Ã¢": 451,
      "ra": 452,
      "Ã¾f": 453,
      "Ã¿Ãª": 454,
      "Ãłx": 455,
      "in": 456,
      "ĀĐ": 457,
      "Ã¿ÃĦ": 458,
      "Ã¿Ãĥ": 459,
      "Āě": 460,
      "Āĝ": 461,
      "Ġc": 462,
      "ĀĚ": 463,
      "Ã¿ÃĨ": 464,
      "Āğ": 465,
      "ÂĢā": 466,
      "Ã¾Âµ": 467,
      "Ã¿Ãŀ": 468,
      "Ã¿Ãĭ": 469,
      "Ã¿Ã¯": 470,
      "Āė": 471,
      "Ã¾c": 472,
      "Ăđ": 473,
      "ăă": 474,
      "ĀĞ": 475,
      "Ã¿Ã®": 476,
      "ÂŃą": 477,
      "Ãĸj": 478,
      "Ã¿Ãį": 479,
      "@ď": 480,
      "ěć": 481,
      "Ã¿Ãķ": 482,
      "Āē": 483,
      "Đ?": 484,
      "Ã¿ÃŃ": 485,
      "ÃĹć": 486,
      "ĀĜ": 487,
      "Ã¿Ã£": 488,
      "Ã¿Ã«": 489,
      "Đă": 490,
      "Ăē": 491,
      "Ā\"": 492,
      "Ã¿ÃĢ": 493,
      "Ã¿ÃĪ": 494,
      "Ã¿Ãĸ": 495,
      "me": 496,
      "Ã¿Ãĩ": 497,
      "Ā<": 498,
      "Āę": 499,
      "ĈĈ": 500,
      "Ā=": 501,
      "Ã¿Ã¬": 502,
      "ÃŁÃ¼": 503,
      "ĀĘ": 504,
      "Ã¿ÃĲ": 505,
      "ÃŁÃ½": 506,
      "Ā'": 507,
      "ĀÃĹ": 508,
      "Ġ-": 509,
      "ġÃ·": 510,
      "Ã¿ÃĿ": 511,
      "Ã¿Ãİ": 512,
      "Ā-": 513,
      "ÃıÃĿ": 514,
      "Ā!": 515,
      "Ã¿ÃĽ": 516,
      "ÃĺÃŃ": 517,
      "Ã¿Ãĳ": 518,
      "ă,": 519,
      "@ā": 520,
      "ĆÂĸ": 521,
      "Ąą": 522,
      "ÃŁÃ¾": 523,
      "Ā.": 524,
      "Ā%": 525,
      "Ã¿Ãļ": 526,
      "ÃŁÃ»": 527,
      "ÂĲ?": 528,
      "Ăć": 529,
      "Ā,": 530,
      "Ã¿Ãī": 531,
      "ÃĮZ": 532,
      "Ã¿Ãľ": 533,
      "Ā#": 534,
      "64": 535,
      "Ã²O": 536,
      "2Â¹": 537,
      "Ã¿ÃĻ": 538,
      "Ā^": 539,
      "Ā(": 540,
      "ĀÂİ": 541,
      "Ã¿Ãĺ": 542,
      "ĂÂĶ": 543,
      "Ā*": 544,
      "Â¿Ã·": 545,
      "Ă!": 546,
      "ăę": 547,
      "ÃĲÃ¨": 548,
      "ad": 549,
      "2Â¾": 550,
      "@ġ": 551,
      "ĂÃ·": 552,
      "ć}": 553,
      "Â¤?": 554,
      "ā<": 555,
      "ÂĢÂĢ": 556,
      "Ã¿H": 557,
      "Ā\\": 558,
      "Â¿Âĭ": 559,
      "kÃĬ": 560,
      "Ã¿ÃĬ": 561,
      "Ã¸H": 562,
      "ĂÂ¬": 563,
      "Ā)": 564,
      "Ā&": 565,
      "ĂĄ": 566,
      "00": 567,
      "ă/": 568,
      "Ã¿ÃĴ": 569,
      "2Â½": 570,
      "ĀÂĻ": 571,
      "ÃĹÂ¡": 572,
      "on": 573,
      "ć+": 574,
      "ÃŁÃ°": 575,
      "Ã¾Ãĩ": 576,
      "Ġs": 577,
      "ćÂ¥": 578,
      "ÂĲď": 579,
      "ĀÂ«": 580,
      "Ā_": 581,
      "Ā/": 582,
      "ÃŁÃģ": 583,
      "de": 584,
      "ĂÂī": 585,
      "@}": 586,
      "Ā>": 587,
      "ăĎ": 588,
      "OÃ½": 589,
      "Ã¯Ã¼": 590,
      "ÃıÃ½": 591,
      "Ā+": 592,
      "Ā:": 593,
      "Â¶Â©": 594,
      "ĂÂĸ": 595,
      "oÃģ": 596,
      "oÃ»": 597,
      "WÃ¼": 598,
      "ā;": 599,
      "wÃ½": 600,
      "2Â¼": 601,
      "ćĖ": 602,
      "qp": 603,
      "ÃŁÃ¹": 604,
      "ÃŁÃ³": 605,
      "Ã²M": 606,
      "Ă#": 607,
      "ÃįÃģ": 608,
      "Kf": 609,
      "ĀÂį": 610,
      "ÃŁÃ¡": 611,
      "ÃįÃĢ": 612,
      "oÃ¼": 613,
      "ÃıÃ»": 614,
      "oÃ¹": 615,
      "ĀÂĳ": 616,
      "Ā$": 617,
      "Â¿ÂŁ": 618,
      "Ăĕ": 619,
      "ĀÂĬ": 620,
      "Â¯ġ": 621,
      "ÃıÃŀ": 622,
      "OÃ¼": 623,
      "Ãķv": 624,
      "ăĝ": 625,
      "Ćġ": 626,
      "ă+": 627,
      "Ã¯Ã½": 628,
      "Â°?": 629,
      "ut": 630,
      "`ď": 631,
      "ĀÂķ": 632,
      "Ã¿Âª": 633,
      "ăĒ": 634,
      "ÃıÃ±": 635,
      "mS": 636,
      "Ą?": 637,
      "ā^": 638,
      "Ã¾Ã½": 639,
      "ĄĐ": 640,
      "Ãıy": 641,
      "ĂÂĪ": 642,
      "ÃŁÃ¸": 643,
      "Ã¾ÃĪ": 644,
      "ĂÂĻ": 645,
      "13": 646,
      "ĀÂĸ": 647,
      "ÃŁÃº": 648,
      "Ã¿p": 649,
      "Â¯Âĸ": 650,
      "WÃ¶": 651,
      "Ġ'": 652,
      "Â°ÂĲ": 653,
      "ĄÂ·": 654,
      "Ã¿q": 655,
      "Ġt": 656,
      "ÃŁÃł": 657,
      "@ą": 658,
      "ĂĘ": 659,
      "Ã¾ÃĢ": 660,
      "ed": 661,
      "Â¦ġ": 662,
      "ÃıÃº": 663,
      "lÃģ": 664,
      "ht": 665,
      "Ā~": 666,
      "Ĉ!": 667,
      "ÃŁÃµ": 668,
      "ĀÃ·": 669,
      "Ã¯Ã¹": 670,
      "ÃĹ?": 671,
      "sÃĢ": 672,
      "st": 673,
      "|ď": 674,
      "Ã¿T": 675,
      "ćġ": 676,
      "hÃĺ": 677,
      "ÃıÃ³": 678,
      "ÂĥÂ¿": 679,
      "wÃ»": 680,
      "Ă*": 681,
      "ĀÂī": 682,
      "Ã¾R": 683,
      "ĂÂ¡": 684,
      "Ã¿y": 685,
      "24": 686,
      "Ā;": 687,
      "Ã¿n": 688,
      "ĂÂĳ": 689,
      "Ã¾Ã¼": 690,
      "op": 691,
      "ÂĽÂŁ": 692,
      "Ąđ": 693,
      "ĖÂŁ": 694,
      "iS": 695,
      "ĂÂŀ": 696,
      "ĀÂ¢": 697,
      "ĀÂĴ": 698,
      "ac": 699,
      "Ã¯Ã°": 700,
      "ğġ": 701,
      "ĀÂĢ": 702,
      "oÃº": 703,
      "Ã¾Âº": 704,
      "ÃĽÃģ": 705,
      "ÃŁÃ±": 706,
      "gÃ½": 707,
      "ăē": 708,
      "ÃĽT": 709,
      "ÃŁÃ´": 710,
      "Ãĵp": 711,
      "Ã¶ÃĢ": 712,
      "Ā@": 713,
      "ÃŁÃĢ": 714,
      "Ã¯Ã»": 715,
      "ĂĔ": 716,
      "Ã«Ã¼": 717,
      "Āġ": 718,
      "Â¶ġ": 719,
      "Ã§Ã½": 720,
      "Zp": 721,
      "ĀÂŁ": 722,
      "Ã¾Ãļ": 723,
      "ěġ": 724,
      "wÃŃ": 725,
      "Â»ġ": 726,
      "_ġ": 727,
      "ÃĿÃģ": 728,
      "Ą%": 729,
      "ĂÂĩ": 730,
      "ÃĦA": 731,
      "Ă@": 732,
      "ÃĥÃ½": 733,
      "ÃķÃ£": 734,
      "Ã§Ã¼": 735,
      "Ã«Ã½": 736,
      "Ã¿v": 737,
      "āÂ¿": 738,
      "WÃ½": 739,
      "ĀÂĿ": 740,
      "_Ã·": 741,
      "Ă$": 742,
      "\"?": 743,
      "ÃĶÃ½": 744,
      "Ã¾y": 745,
      "gÃģ": 746,
      "ĂÂ¯": 747,
      "ÃıÃ¼": 748,
      "ub": 749,
      "{ġ": 750,
      "ĂÂĤ": 751,
      "āÃ·": 752,
      "ĠQ": 753,
      "oÃ¡": 754,
      "ÃŁÃĩ": 755,
      "ÃŁÃª": 756,
      "|ġ": 757,
      "oÃ½": 758,
      "`?": 759,
      "Ġb": 760,
      "at": 761,
      "Ã¯ÃŃ": 762,
      "ÃıÃ²": 763,
      "ÂĹġ": 764,
      "Â·?": 765,
      "Ã¾Ã¹": 766,
      "ÂĹ?": 767,
      "CÃ¹": 768,
      "ÃŁÃ¤": 769,
      "ĂĐ": 770,
      "ğ~": 771,
      "Ã¾Ã»": 772,
      "|=": 773,
      "ĂÂ±": 774,
      "Ã¾Ã±": 775,
      "ÂĻÂ«": 776,
      "zÃ½": 777,
      "ÃŁÃĤ": 778,
      "ÂĢą": 779,
      "Ã¦Ãº": 780,
      "āÂİ": 781,
      "Ã§Ã±": 782,
      "Ã«Ãº": 783,
      ",ġ": 784,
      "WA": 785,
      "Ăą": 786,
      "ÃıÃ°": 787,
      "Â°!": 788,
      "ĀÂ¯": 789,
      "WÃµ": 790,
      "OÃº": 791,
      "ăė": 792,
      "ÂĽġ": 793,
      "WÃ»": 794,
      "ÃįH": 795,
      "Kc": 796,
      "ÂĪġ": 797,
      "ÃĿÃ½": 798,
      "Ky": 799,
      "ÃĵÃ½": 800,
      "Ã¬Ãģ": 801,
      "Ã¸Âµ": 802,
      "RÃ»": 803,
      "sy": 804,
      "ā:": 805,
      "Ăę": 806,
      "Ã¾Ã£": 807,
      "ÃĥÃģ": 808,
      "Â¸ġ": 809,
      "ÂĮġ": 810,
      "Ġp": 811,
      "My": 812,
      "Ġġ": 813,
      "ÂŃÂ«": 814,
      "Ã¾ÃĻ": 815,
      "YÃĢ": 816,
      "YÃ¼": 817,
      "Ă)": 818,
      "Ã¾Ã¥": 819,
      "ÃıÃµ": 820,
      "Â¸?": 821,
      "Ã¿e": 822,
      "ÃıÃ¡": 823,
      "EÃ´": 824,
      "Ãıb": 825,
      "Â´Âı": 826,
      "(}": 827,
      "oG": 828,
      "oÂµ": 829,
      "oÃ³": 830,
      "wÃ¼": 831,
      "Âľġ": 832,
      "ĆÂ¥": 833,
      "ĠA": 834,
      "Ã¿U": 835,
      "ÂĢÂĨ": 836,
      "OÃ¹": 837,
      "ăđ": 838,
      "Ãıc": 839,
      "ÃŁÃ¶": 840,
      "EÃģ": 841,
      "ÃķÃŃ": 842,
      "ÃŁÃ£": 843,
      "OÃ»": 844,
      "Ã¾x": 845,
      "[ď": 846,
      "ÃıÃŃ": 847,
      "Â£?": 848,
      "ÃİÃ°": 849,
      "ÃıÃ¹": 850,
      "Ġm": 851,
      "Ã¯Ã¶": 852,
      "[ġ": 853,
      "15": 854,
      "Âľ?": 855,
      "/Ã·": 856,
      "Â©ġ": 857,
      "Âľ~": 858,
      "ă-": 859,
      "uÃ¼": 860,
      "Ą}": 861,
      "Ã®Ãģ": 862,
      "Â¤ġ": 863,
      "ÃŁÃľ": 864,
      "ip": 865,
      "Â»Âį": 866,
      "ÃĹġ": 867,
      "Ã¾Ãľ": 868,
      "Â£~": 869,
      "Ã©Ã»": 870,
      "ĀÂĶ": 871,
      "Ã¿X": 872,
      "Ã¿c": 873,
      "_Ĕ": 874,
      "&ġ": 875,
      "`ġ": 876,
      "Ġ}": 877,
      "Ĉġ": 878,
      "Â®ġ": 879,
      "ÃĳÃĢ": 880,
      "gÃ»": 881,
      "|;": 882,
      "Ã¾X": 883,
      "Â§ġ": 884,
      "ĂÂı": 885,
      "ÂĦġ": 886,
      "Ã¬ÃĢ": 887,
      "Ã¾Ãł": 888,
      "Â²Â²": 889,
      "rÃ¼": 890,
      "wÃģ": 891,
      "ÂĽ}": 892,
      "Ã¿A": 893,
      "ÃĵA": 894,
      "ÃŁv": 895,
      "Ã¿x": 896,
      "ÃŁÃļ": 897,
      "rÃģ": 898,
      "ÂŃġ": 899,
      "Â©Âı": 900,
      "OÃģ": 901,
      "Ą;": 902,
      "ÃĶÃĢ": 903,
      "KÃº": 904,
      "ĀÂŀ": 905,
      "kÃľ": 906,
      "ĠĀĀĀā": 907,
      "ÃīÃģ": 908,
      "Ã«v": 909,
      "gÃ¼": 910,
      "Âĥġ": 911,
      "ÃıÃª": 912,
      "ěÃ·": 913,
      "ÂĢġ": 914,
      "Â¿ġ": 915,
      "EÃ½": 916,
      "ĂĒ": 917,
      "Ĝ~": 918,
      "ÃĵQ": 919,
      "ÃĸÃĢ": 920,
      "zÃģ": 921,
      "{?": 922,
      "ÂŃ}": 923,
      "Ć~": 924,
      "Ã¿m": 925,
      "Ã¾ÃŃ": 926,
      "zÃµ": 927,
      "Ã¬Âª": 928,
      "ÃĩÂµ": 929,
      "Ă'": 930,
      "Ãĵc": 931,
      "JÃĬ": 932,
      "WÃº": 933,
      "lÃ¹": 934,
      "uÃ½": 935,
      "Â£Ã·": 936,
      "]ÂŁ": 937,
      "sÃ½": 938,
      "Â¿?": 939,
      "Ã¦Ã¹": 940,
      "KÃ½": 941,
      "Ã¾A": 942,
      "Ã©Ã½": 943,
      "ăġ": 944,
      "Â¬?": 945,
      "ÃĽd": 946,
      "RÃ½": 947,
      "ĂÂ·": 948,
      "Ąė": 949,
      "Ã¿j": 950,
      "ÃĶÃģ": 951,
      "rÃ»": 952,
      "ÃķX": 953,
      "[Âİ": 954,
      "Â¡?": 955,
      "aq": 956,
      "Ąē": 957,
      "\">": 958,
      "ÃĭÃĢ": 959,
      "1Â¾": 960,
      "Ã¾Ãµ": 961,
      "ÃŁÃ¨": 962,
      "Ã§ÃĢ": 963,
      "Ã¸C": 964,
      "Â»?": 965,
      "ÃŀÃ½": 966,
      "Â´Âİ": 967,
      "|?": 968,
      "ĂĚ": 969,
      "ĠÃ£": 970,
      "OÃ¡": 971,
      "ğ'": 972,
      "ÃĽS": 973,
      "Âķ?": 974,
      "Ã¯ÃĢ": 975,
      "ÃĵB": 976,
      "ÃĸÃ»": 977,
      "ĂÂĺ": 978,
      "Â»Ã·": 979,
      "ÃįÃĬ": 980,
      "Ă:": 981,
      "ĂÂĭ": 982,
      "ć~": 983,
      "oÃĤ": 984,
      "Ęġ": 985,
      "Ã¾ÃĨ": 986,
      "Ã¯Ãº": 987,
      "ÃĸG": 988,
      "KÃĲ": 989,
      "VÃ»": 990,
      "ğÃ·": 991,
      "Ġ8": 992,
      "gÃ°": 993,
      "Â´?": 994,
      "ÂĲÂŁ": 995,
      "Âĵ?": 996,
      "ÃĵÃģ": 997,
      "ĠÃ·": 998,
      "Ãĸy": 999,
      "rc": 1000,
      "wB": 1001,
      "ğĒ": 1002,
      "Â°ė": 1003,
      "OÃª": 1004,
      "ÃķU": 1005,
      "Ã®A": 1006,
      "WÃ³": 1007,
      "ÃŁÃŃ": 1008,
      "ÃıÃĢ": 1009,
      "Ã®Ãµ": 1010,
      "wS": 1011,
      "wÃ¥": 1012,
      "ÃįÃ»": 1013,
      "OÃ±": 1014,
      "Ã¯ÃĻ": 1015,
      "ĀÂı": 1016,
      "Ã¾Ãģ": 1017,
      "Â¦ÂŁ": 1018,
      "OÃĢ": 1019,
      "7Â¾": 1020,
      "IÃĢ": 1021,
      "ÂŃ?": 1022,
      "|ē": 1023,
      "`=": 1024,
      "Ã«Ãł": 1025,
      "Â©ą": 1026,
      "*ġ": 1027,
      "Â¬Âı": 1028,
      "Ã§Ã¹": 1029,
      "ÃįÃ¼": 1030,
      "ā>": 1031,
      "ÃĵÃ¼": 1032,
      "ÃıÃĬ": 1033,
      "kÃģ": 1034,
      "OÃ°": 1035,
      "ÂĽ=": 1036,
      "ÃĽj": 1037,
      "Ã¸D": 1038,
      "Â¶}": 1039,
      "oA": 1040,
      "oÃ°": 1041,
      "uH": 1042,
      "ĀÂĨ": 1043,
      "Ãĵb": 1044,
      "ÃĶÃļ": 1045,
      "RÃľ": 1046,
      "Ġ0": 1047,
      "ÃĵÃµ": 1048,
      "Âĥ?": 1049,
      "oÃĢ": 1050,
      "`ą": 1051,
      "ÂĹ>": 1052,
      "ÂĽÂ«": 1053,
      "WÃģ": 1054,
      "ÃĽÃ½": 1055,
      "Â¸=": 1056,
      "gÃº": 1057,
      "ÂľÂŀ": 1058,
      "ĠÃ¡": 1059,
      "Â§Ã·": 1060,
      "Â°ġ": 1061,
      "{}": 1062,
      "|Âĩ": 1063,
      "Ã¸G": 1064,
      "ĆÂĳ": 1065,
      "Â¸}": 1066,
      "Ġą": 1067,
      "Ã¾Ã¢": 1068,
      "gc": 1069,
      "|#": 1070,
      "ÃĮÃ¼": 1071,
      "ĆÂ¤": 1072,
      "Ã¯Ã³": 1073,
      "oc": 1074,
      "RÃł": 1075,
      "Ã¯Ãģ": 1076,
      "iÃĢ": 1077,
      "Ã¿C": 1078,
      "Ã¿f": 1079,
      "ĝġ": 1080,
      "Ã¯ÃĨ": 1081,
      "Â¦;": 1082,
      "ÃķÃ¡": 1083,
      "Â»ÂŁ": 1084,
      "Â°Âĺ": 1085,
      "Â¦?": 1086,
      "gA": 1087,
      "uÃģ": 1088,
      "ÂĽÂı": 1089,
      "Ąď": 1090,
      "ÃĺP": 1091,
      "gÃ±": 1092,
      "ÃĩÃ½": 1093,
      "wA": 1094,
      "ÃĸÃģ": 1095,
      "Â´ġ": 1096,
      "JÃ¡": 1097,
      "Â´ÂŁ": 1098,
      "VÃ¹": 1099,
      "ĈÂģ": 1100,
      "@ÂŁ": 1101,
      "FQ": 1102,
      "[^": 1103,
      "kÃ¼": 1104,
      "JÃļ": 1105,
      "WÃª": 1106,
      "zA": 1107,
      "zÂµ": 1108,
      "ÂĦÂŁ": 1109,
      "Â§?": 1110,
      "ÃħÃ½": 1111,
      "lA": 1112,
      "lZ": 1113,
      "wT": 1114,
      "ÂĮ?": 1115,
      "ÂĤ>": 1116,
      "Ã§Ãģ": 1117,
      "gÃ¡": 1118,
      "ÃĵÃ°": 1119,
      "ĀÂģ": 1120,
      "ÂŃė": 1121,
      "Â¦Âı": 1122,
      "wÃł": 1123,
      "ÃĽÃ±": 1124,
      "Â¦Âī": 1125,
      "Â¨+": 1126,
      "ÂĦď": 1127,
      "Â´'": 1128,
      "Â¨ġ": 1129,
      "wÃļ": 1130,
      "Ã¾Ãº": 1131,
      "Ã¦Ã¶": 1132,
      "ÃĥÃ¼": 1133,
      "MÃĢ": 1134,
      "WÃ£": 1135,
      "Â¯Ã·": 1136,
      "ÃĽÂª": 1137,
      "Â´ą": 1138,
      "ÃĳÃģ": 1139,
      "{#": 1140,
      "Jy": 1141,
      "Ã¾Ã°": 1142,
      "ÃŁÃĬ": 1143,
      "ÃĸA": 1144,
      "Ã¦Ã±": 1145,
      "ÃķÃ½": 1146,
      "Ġ.": 1147,
      "ÃħÃ¶": 1148,
      "Ã¿Z": 1149,
      "RÃĪ": 1150,
      "_<": 1151,
      "ÂĹÃ·": 1152,
      "uN": 1153,
      "Ã¾q": 1154,
      "ÃĿÃ°": 1155,
      "Ã¾ÃĴ": 1156,
      "ÂĿġ": 1157,
      "Â®ÂĴ": 1158,
      "ÂĲĐ": 1159,
      "ÃĽÃ»": 1160,
      "Ġ4": 1161,
      "Ã«Ã»": 1162,
      "Â¯Âĩ": 1163,
      "Â¶?": 1164,
      "ğÂĴ": 1165,
      "Ã¿D": 1166,
      "uÃ³": 1167,
      "Ĉ)": 1168,
      "Ăė": 1169,
      "Ã¾P": 1170,
      "Â©Âİ": 1171,
      "āÂģ": 1172,
      "wÃ³": 1173,
      "Ã§Ã»": 1174,
      "FT": 1175,
      "wÃ±": 1176,
      "ă^": 1177,
      "ÃĸÃ½": 1178,
      "uv": 1179,
      "ÃĵÃ¹": 1180,
      "\\ġ": 1181,
      "Ã¯Ã¨": 1182,
      "ÃķÃģ": 1183,
      "Ã¬Ã»": 1184,
      "EÃļ": 1185,
      "FÃ°": 1186,
      "wb": 1187,
      "Â®?": 1188,
      "20": 1189,
      "ÃıÃ£": 1190,
      "Â¶Â±": 1191,
      "EÃµ": 1192,
      "ÃŁÃī": 1193,
      "ăĕ": 1194,
      "ÂĢę": 1195,
      "ÃĽx": 1196,
      "YÃ½": 1197,
      "Ã¯Ã±": 1198,
      "68": 1199,
      "EÃ¼": 1200,
      "ĂÂ¢": 1201,
      "gÃ¨": 1202,
      "Ã§Ãº": 1203,
      "ğÂĭ": 1204,
      "zp": 1205,
      "Ã«Ã±": 1206,
      "ÃĵÃ»": 1207,
      "Â¥Â±": 1208,
      "YÃģ": 1209,
      "ÂĽÃ·": 1210,
      "ÃĥÃł": 1211,
      "|Ã·": 1212,
      "wp": 1213,
      "EÃŃ": 1214,
      "lb": 1215,
      "Ã¦U": 1216,
      "OÃŃ": 1217,
      "ÂĦ>": 1218,
      "ÃĺÃ¼": 1219,
      "ÃĭÃ¶": 1220,
      "Â¿Âŀ": 1221,
      "Â°ÂĬ": 1222,
      "Ã¯Ã¥": 1223,
      "wÃ°": 1224,
      "ĂÂĨ": 1225,
      "Ćą": 1226,
      "Ã¾v": 1227,
      "Ã¯Ãł": 1228,
      "an": 1229,
      "Ĉ?": 1230,
      "ĠÃ°": 1231,
      "ĠÃĻ": 1232,
      "Ã¸Ã¼": 1233,
      "ĂÂ«": 1234,
      "Ė?": 1235,
      "ÂŃÃ·": 1236,
      "Ã§U": 1237,
      "ÂĵÂĬ": 1238,
      "hÃµ": 1239,
      "Ėġ": 1240,
      "ÂĮÂŁ": 1241,
      "ÂĦ~": 1242,
      "gÃĲ": 1243,
      "ĜÂŁ": 1244,
      "Âļ:": 1245,
      "ĠÃ´": 1246,
      "ÃĭÃ»": 1247,
      "Ã¿t": 1248,
      "Kb": 1249,
      "zÃ°": 1250,
      "|~": 1251,
      "ÃıÃ¤": 1252,
      "kÃ»": 1253,
      "zÂª": 1254,
      "Ã¾L": 1255,
      "ÂºÃ¹": 1256,
      "ÂĢ>": 1257,
      "ÃįÃº": 1258,
      "/ġ": 1259,
      "oÃµ": 1260,
      "ĞÂŀ": 1261,
      "ÃĳÃ°": 1262,
      "Â¿]": 1263,
      "ÂĥÂŁ": 1264,
      "lÃ»": 1265,
      "Kt": 1266,
      "RÃģ": 1267,
      "|ą": 1268,
      "ÂĽ?": 1269,
      "ÃĽp": 1270,
      "\"Âı": 1271,
      "KÃª": 1272,
      "kÃ½": 1273,
      "{Âĭ": 1274,
      "Âļ?": 1275,
      "ÃħÃ¹": 1276,
      "zÃľ": 1277,
      "Ã«A": 1278,
      "Â¨~": 1279,
      "ĀÂ¡": 1280,
      "Ã²Ã±": 1281,
      "ÃĳÃ¼": 1282,
      "MÃ½": 1283,
      "ÃİÃº": 1284,
      "`;": 1285,
      "Âļ}": 1286,
      "Â»>": 1287,
      "Â´Âĳ": 1288,
      "ÃĶU": 1289,
      "VÃŃ": 1290,
      "Ă&": 1291,
      "[?": 1292,
      "ÃĹÃ·": 1293,
      "ÃĳÃ¹": 1294,
      "`ė": 1295,
      "Ã®ÃĬ": 1296,
      "ÂĮÂĨ": 1297,
      "{Ã·": 1298,
      "Ã«Ã£": 1299,
      "Ã¸T": 1300,
      "ÃįÃ½": 1301,
      "KÃ»": 1302,
      "\"ÂŁ": 1303,
      "Ĉ>": 1304,
      "Â¿Âĺ": 1305,
      "ĠÃł": 1306,
      "ÃıÃ´": 1307,
      "ÃĵÃĢ": 1308,
      "ÃİÃ½": 1309,
      "kA": 1310,
      "Ğġ": 1311,
      "ĠÂĩ": 1312,
      "ÃİA": 1313,
      "7Â¹": 1314,
      "MÃģ": 1315,
      "ÃĩÃº": 1316,
      "VÃ°": 1317,
      "gÃ³": 1318,
      "of": 1319,
      "ÃĵÃ¢": 1320,
      "(ġ": 1321,
      "Ĝ?": 1322,
      "ÂĦÂ±": 1323,
      "Âļġ": 1324,
      "ÃıÃł": 1325,
      "JÃ°": 1326,
      "WÃł": 1327,
      "Ã¾Q": 1328,
      "OÃļ": 1329,
      "WÃ´": 1330,
      "ĆÂĬ": 1331,
      "ÃĥÃĢ": 1332,
      "Kx": 1333,
      "Ã¿S": 1334,
      "(ą": 1335,
      "wÃº": 1336,
      "ÃĽÃ¶": 1337,
      "ÃĸÃ¡": 1338,
      "Â»]": 1339,
      "Â£ġ": 1340,
      "9Â³": 1341,
      "{'": 1342,
      "Ã®Ãľ": 1343,
      "Ã§Ã¢": 1344,
      "Â¶:": 1345,
      "MP": 1346,
      "Ã§Q": 1347,
      "FN": 1348,
      "ĆÂŁ": 1349,
      "ĖÂĻ": 1350,
      "Â¦ė": 1351,
      "Ã¸Ã¹": 1352,
      "OA": 1353,
      "lÃĢ": 1354,
      "Ã§Ã¡": 1355,
      "ÃĥA": 1356,
      "ke": 1357,
      "Âĵġ": 1358,
      "Ã¾Ã¤": 1359,
      "Â´:": 1360,
      "lÃĨ": 1361,
      "Â½Â¾": 1362,
      "Â¬Âī": 1363,
      "FH": 1364,
      "OÂµ": 1365,
      "EÃ±": 1366,
      "iÃ±": 1367,
      "Ã¾j": 1368,
      "ÃĩÃ»": 1369,
      "wÃ¢": 1370,
      "ĄĎ": 1371,
      "ÃĵÃļ": 1372,
      "wÃµ": 1373,
      "|ė": 1374,
      "ÂŃ~": 1375,
      "Ę?": 1376,
      "ÃķÃº": 1377,
      "[Ě": 1378,
      "ĈÂĩ": 1379,
      "Ã«Ã¹": 1380,
      "Â§ą": 1381,
      "Ã¿b": 1382,
      "ÂļÃ·": 1383,
      "ÃĺÃ½": 1384,
      "ĄĒ": 1385,
      "ÂĤ'": 1386,
      "ÃĶX": 1387,
      "ā+": 1388,
      "OÃ³": 1389,
      "Ã«ÃĢ": 1390,
      "Oy": 1391,
      "Â¿:": 1392,
      "Â§ÂŁ": 1393,
      "74": 1394,
      "KÃģ": 1395,
      "ĠÃģ": 1396,
      "ly": 1397,
      "wÃĲ": 1398,
      "3Â¼": 1399,
      "KÃĬ": 1400,
      "ÃĶÃ£": 1401,
      "Ã¦Ã»": 1402,
      "Â¶Âı": 1403,
      "oÃļ": 1404,
      "Ã«ÃŃ": 1405,
      "WÃī": 1406,
      "YA": 1407,
      "uÃĢ": 1408,
      "Ã¾ÃĬ": 1409,
      "ĞÂı": 1410,
      "Ã¾b": 1411,
      "ÂĹ}": 1412,
      "Â¶Âį": 1413,
      "WÃĻ": 1414,
      "Â¨ę": 1415,
      "|%": 1416,
      "Ã®Ã¼": 1417,
      "ÃĩÃ¼": 1418,
      "oL": 1419,
      "uÃ´": 1420,
      "ğÂĳ": 1421,
      "oÃ¨": 1422,
      "Ã¾D": 1423,
      "ÃĶÃ¼": 1424,
      "ÃĳÃ»": 1425,
      "KÃł": 1426,
      "ÃıÃ¨": 1427,
      "Ã®ÃĢ": 1428,
      "{Âı": 1429,
      "Ã¿d": 1430,
      "{>": 1431,
      "[Âĩ": 1432,
      "Ã¾p": 1433,
      "ÃķÃ´": 1434,
      "Ã®Ã¡": 1435,
      "ÂŃ;": 1436,
      "uÃŃ": 1437,
      "ÃŁÂª": 1438,
      "{-": 1439,
      "Ġ?": 1440,
      "[ÂŁ": 1441,
      "`Â«": 1442,
      "wÃ¹": 1443,
      "Ã¾m": 1444,
      "āÂį": 1445,
      "Ă%": 1446,
      "Ą!": 1447,
      "ă=": 1448,
      "Ã¿L": 1449,
      "Â®>": 1450,
      "ěÂŁ": 1451,
      "ÂĦÂĬ": 1452,
      "ÃĦÃģ": 1453,
      "OÂª": 1454,
      "VÃģ": 1455,
      "WÃŃ": 1456,
      "ÃıA": 1457,
      "ÃķD": 1458,
      "Â§Âĳ": 1459,
      "Â®Â±": 1460,
      "Ãĸx": 1461,
      "{ÂŁ": 1462,
      "{Âī": 1463,
      "ÃĳÃ±": 1464,
      "aÃ»": 1465,
      "Ã©ÃĢ": 1466,
      "iÃ»": 1467,
      "ÃĽÃ°": 1468,
      "ÃĿÃ¡": 1469,
      "gÃĢ": 1470,
      "ÃĩÃ¹": 1471,
      "Â¶Âĳ": 1472,
      "WÃĢ": 1473,
      "wG": 1474,
      "ÃĽÃľ": 1475,
      "Â£ė": 1476,
      "ÂĽė": 1477,
      "Â´~": 1478,
      "Ãİx": 1479,
      "gÃļ": 1480,
      "ÂĽÂĨ": 1481,
      "ÃĽÃŀ": 1482,
      "Ãıp": 1483,
      "YÃ¡": 1484,
      "[Ã·": 1485,
      "oÃŃ": 1486,
      "Â¿<": 1487,
      "Â§ÂĨ": 1488,
      "Â¦:": 1489,
      "Â¨Ã·": 1490,
      "21": 1491,
      "uA": 1492,
      "Â´;": 1493,
      "Ã¾t": 1494,
      "Ã©P": 1495,
      "ÃĸÂµ": 1496,
      "Â»Â±": 1497,
      "wÃĴ": 1498,
      "oÃ´": 1499,
      "Ğ?": 1500,
      "Ġė": 1501,
      "Ã¯Ã´": 1502,
      "ÃıÃ¥": 1503,
      "ÃĭÃº": 1504,
      "KÃ£": 1505,
      "zx": 1506,
      "ÂļÂĭ": 1507,
      "Ã¯x": 1508,
      "Â¸~": 1509,
      "VÃĨ": 1510,
      "ÂĢÂĬ": 1511,
      "ÃĮÃ¥": 1512,
      "gÃµ": 1513,
      "Ã¬Ã±": 1514,
      "KÃļ": 1515,
      "Ã¾B": 1516,
      "Ã¬Ã¼": 1517,
      "Â¨ď": 1518,
      "sÃģ": 1519,
      "ÃŁÃĻ": 1520,
      "Â¦Ã·": 1521,
      "kÃĪ": 1522,
      "Ã®Ã±": 1523,
      "ÂŃÂŁ": 1524,
      "Â¸<": 1525,
      "9Â¼": 1526,
      "Ã²Ã½": 1527,
      "ÃħÃ±": 1528,
      "ÃĽÃ¼": 1529,
      "ÃŁÃĨ": 1530,
      "|}": 1531,
      "Ã²Ã»": 1532,
      "Â´ď": 1533,
      "[Âı": 1534,
      "gÃ¹": 1535,
      "{<": 1536,
      "ÃŁn": 1537,
      "Â¸ÂŁ": 1538,
      "Âķġ": 1539,
      "ÃĦÃ¹": 1540,
      "ÂĶġ": 1541,
      "ÂĿ^": 1542,
      "Ã¾ÃĤ": 1543,
      "ÃĹÂı": 1544,
      "OG": 1545,
      "gB": 1546,
      "gÃĻ": 1547,
      "Ã¾Âª": 1548,
      "ĂÂģ": 1549,
      "ÃŁÃ¢": 1550,
      "Â¦&": 1551,
      "ÃİÃģ": 1552,
      "_ÂŁ": 1553,
      "{ď": 1554,
      "Ã¸A": 1555,
      "Ã¯A": 1556,
      "Ã¯Ã¡": 1557,
      "ÂĮ=": 1558,
      "Ã«Ã¡": 1559,
      "Ã«Ã°": 1560,
      "uÃĤ": 1561,
      "ÂĢÂŁ": 1562,
      "ÃĽÃ¹": 1563,
      "Â´Âį": 1564,
      "ÂľÂŁ": 1565,
      "Â¿Ē": 1566,
      "Ã«Ãª": 1567,
      "Ãĵx": 1568,
      "ÂĮÂı": 1569,
      "wÃ´": 1570,
      "Ć?": 1571,
      "Â´Âĸ": 1572,
      "lÃº": 1573,
      "ĠB": 1574,
      "KA": 1575,
      "gÃ¶": 1576,
      "Â¯Â±": 1577,
      "WÃ°": 1578,
      "Ã¸Ãº": 1579,
      "ÃŁy": 1580,
      "Ã§Ãļ": 1581,
      "ÃĳÃ½": 1582,
      "Â¶Âī": 1583,
      "`ÂŁ": 1584,
      "Ąġ": 1585,
      "Ã¾Ã¡": 1586,
      "ÃĥP": 1587,
      "kÃ¨": 1588,
      "uÃł": 1589,
      "Ğ~": 1590,
      "ĠĒ": 1591,
      "Â°Ã·": 1592,
      "Ã¯Ãµ": 1593,
      "Â·ġ": 1594,
      "ÂļÂį": 1595,
      "ÃĳA": 1596,
      "Â®~": 1597,
      "Kj": 1598,
      "WÃĬ": 1599,
      "sÃ°": 1600,
      "ĝ~": 1601,
      "Â¿^": 1602,
      "ÃĿÃĢ": 1603,
      "ÃĥÃ¹": 1604,
      "ÃĵÃŃ": 1605,
      "Â¯ĕ": 1606,
      "Â»Âĩ": 1607,
      "9Â¾": 1608,
      "oÃĴ": 1609,
      "ĄĔ": 1610,
      "ÂĹ~": 1611,
      "KS": 1612,
      "wy": 1613,
      "ĆÂı": 1614,
      "ĆÂį": 1615,
      "Ã²Ãµ": 1616,
      "Ã®y": 1617,
      "Ã¦x": 1618,
      "gÃ¥": 1619,
      "Â§ē": 1620,
      "Ã¬Ã¨": 1621,
      "ÂĲđ": 1622,
      "ÃĵÃ±": 1623,
      "ć-": 1624,
      "ĞÂ«": 1625,
      "Ã«q": 1626,
      "ÂĦÂĭ": 1627,
      "ÃıÃī": 1628,
      "uÃŀ": 1629,
      "Â¬ġ": 1630,
      "ÃĶt": 1631,
      "rN": 1632,
      "ÃķÃĻ": 1633,
      "Â¦>": 1634,
      "Ã¾T": 1635,
      "/Â«": 1636,
      "ĄÂ¥": 1637,
      "`Âŀ": 1638,
      "iÃ£": 1639,
      "kÃ¢": 1640,
      "uy": 1641,
      "ăď": 1642,
      "ÂĪ?": 1643,
      "Ã¯U": 1644,
      "Ã¿N": 1645,
      "Â¿Âı": 1646,
      "IÃ¼": 1647,
      "OÃĲ": 1648,
      "`~": 1649,
      "Ă?": 1650,
      "ÂºÃ½": 1651,
      "JÃ³": 1652,
      "[>": 1653,
      "zÃļ": 1654,
      "ÂĽĚ": 1655,
      "Ã¾Ã´": 1656,
      "Ã©A": 1657,
      "JA": 1658,
      "ÃĿÃ´": 1659,
      "ÃĩÃ°": 1660,
      "KÃĻ": 1661,
      "uÃĬ": 1662,
      "zÃĢ": 1663,
      "OÃµ": 1664,
      "WÃ¡": 1665,
      "|Â¢": 1666,
      "Ĉą": 1667,
      "Â¨?": 1668,
      "gÃŃ": 1669,
      "Â²Â¾": 1670,
      "ÃŁQ": 1671,
      "ÂĲÂĳ": 1672,
      "MÃ¼": 1673,
      "ě~": 1674,
      "Ã¿Q": 1675,
      "Â°Âĸ": 1676,
      "Âºv": 1677,
      "`+": 1678,
      "Fp": 1679,
      "oÃª": 1680,
      "ÃĥÃ³": 1681,
      "ÂĢ%": 1682,
      "ÃĽÃ³": 1683,
      "Â¸Âį": 1684,
      "(Â¥": 1685,
      "[)": 1686,
      "gx": 1687,
      "oÃł": 1688,
      "ÃķÃĪ": 1689,
      "Â§ė": 1690,
      "Ã¦ÃĢ": 1691,
      "Â¦'": 1692,
      "|Âį": 1693,
      "ÃĽf": 1694,
      "Ã§ÃŃ": 1695,
      "Ã¦Ã½": 1696,
      "Ã¦Ãµ": 1697,
      "ÃįÃ¤": 1698,
      "Â¶Âĺ": 1699,
      "EÃ³": 1700,
      "ĠP": 1701,
      "ÃĿÃĻ": 1702,
      "95": 1703,
      "EÃ»": 1704,
      "{ĕ": 1705,
      "ĠH": 1706,
      "ÂĽÂģ": 1707,
      "Â°^": 1708,
      "\"<": 1709,
      "lÃ¨": 1710,
      "rÃ±": 1711,
      "ÃķÃ¤": 1712,
      "_Â¤": 1713,
      "ix": 1714,
      "*?": 1715,
      "ÃĮÃ»": 1716,
      "Ã«Ã´": 1717,
      "Â¨.": 1718,
      "94": 1719,
      "IÃº": 1720,
      "KÃ¹": 1721,
      "KÃ¥": 1722,
      "sÃ´": 1723,
      "Ã¬e": 1724,
      "Â®Âĳ": 1725,
      "uÃµ": 1726,
      "ÃĽÃ¤": 1727,
      "ÂĦÂı": 1728,
      "ÂĿė": 1729,
      "lÂª": 1730,
      "ÂĮ~": 1731,
      "YÃ³": 1732,
      "ÃķÃ¶": 1733,
      "Â´Âĺ": 1734,
      "|ÂĻ": 1735,
      "ě?": 1736,
      "Â°ę": 1737,
      "ÃĭÃ¹": 1738,
      "Ã®Ã¤": 1739,
      "Â»}": 1740,
      "Ã¸ÃĢ": 1741,
      "Â§Âĸ": 1742,
      "Âĥ]": 1743,
      "Â®Âĭ": 1744,
      "ÃĸÃł": 1745,
      "ÂĲ~": 1746,
      "Â¨]": 1747,
      "YÃ±": 1748,
      "hÃŃ": 1749,
      "kB": 1750,
      "rÃ³": 1751,
      "Ã®P": 1752,
      "JÃł": 1753,
      "_Âį": 1754,
      "iÃ¼": 1755,
      "rB": 1756,
      "|Âĸ": 1757,
      "Ã§Ã¤": 1758,
      "`ÂĬ": 1759,
      "sÃª": 1760,
      "uP": 1761,
      "|Ĕ": 1762,
      "ÃķÃª": 1763,
      "ÃĸÃļ": 1764,
      "ÃĳÃµ": 1765,
      "Â¶Âĩ": 1766,
      "uc": 1767,
      "ÃŁT": 1768,
      "Â¦ÂĻ": 1769,
      "/ÂŁ": 1770,
      "MÃ¡": 1771,
      "Â¿~": 1772,
      "Ã§A": 1773,
      "ÃŁx": 1774,
      "Â»-": 1775,
      "VÃĢ": 1776,
      "ć?": 1777,
      "ÃŁc": 1778,
      "Â¶ď": 1779,
      "ÃĥÃĪ": 1780,
      "se": 1781,
      "ÃĹÂ¢": 1782,
      "ÃįÃ±": 1783,
      "ÂºQ": 1784,
      "WÃ¹": 1785,
      "ÃŁj": 1786,
      "ÃĸÃ¼": 1787,
      "Jc": 1788,
      "hÃ¼": 1789,
      "lÃ½": 1790,
      "ĝÂŁ": 1791,
      "ÃĶG": 1792,
      "ÃĶÃĤ": 1793,
      "ÂĽÂŀ": 1794,
      "Â»~": 1795,
      "wÃĢ": 1796,
      "Ğ;": 1797,
      "Â·'": 1798,
      "ÃĭÃ¨": 1799,
      "VÃ½": 1800,
      "VÃ¢": 1801,
      "Â§~": 1802,
      "Ġ)": 1803,
      "ÃĿÃĤ": 1804,
      "(ÂŁ": 1805,
      "Yc": 1806,
      "rÃ°": 1807,
      "Ã²Ã¼": 1808,
      "ÂĹÂĭ": 1809,
      "Â¶;": 1810,
      "hÃº": 1811,
      "Ã§X": 1812,
      "Â´Â«": 1813,
      "uÃ¨": 1814,
      "ăÃ·": 1815,
      "Â¬Ã·": 1816,
      "Ãĭp": 1817,
      "ÃĭÃ¡": 1818,
      "EÃľ": 1819,
      "ĠN": 1820,
      "ÃıÃĴ": 1821,
      "ĠĐ": 1822,
      "Ã¦t": 1823,
      "ğĕ": 1824,
      "Â¬ď": 1825,
      "Ã§Ã´": 1826,
      "ÃĿÃ»": 1827,
      "ÂŃÂŀ": 1828,
      "Â¦ÂĨ": 1829,
      "aÃ½": 1830,
      "ğÂĩ": 1831,
      "Â¶Â¥": 1832,
      "ÃĽÃ¢": 1833,
      "Â®Âī": 1834,
      "EÃ¢": 1835,
      "Ã«m": 1836,
      "ÃĮÃģ": 1837,
      "KÃ¨": 1838,
      "\\Âŀ": 1839,
      "gÃĴ": 1840,
      "sÃ¹": 1841,
      "wÂµ": 1842,
      "Â¦Âį": 1843,
      "CÃ³": 1844,
      "iÃģ": 1845,
      "|Âı": 1846,
      "ÃĺÃ¹": 1847,
      "aÃģ": 1848,
      "Âļ~": 1849,
      "Ã²Ã¹": 1850,
      "/?": 1851,
      "sÃ¼": 1852,
      "{ÂĬ": 1853,
      "Â°=": 1854,
      "_Âģ": 1855,
      "oÃ¶": 1856,
      "ÂĽÂĸ": 1857,
      "Ãĵt": 1858,
      "ÃĭT": 1859,
      "Â»ė": 1860,
      "Â¨Âŀ": 1861,
      "āÂĸ": 1862,
      "ğÂį": 1863,
      "gP": 1864,
      "lq": 1865,
      "up": 1866,
      "/Â¢": 1867,
      "Ăď": 1868,
      "iÃ¹": 1869,
      "zÃ»": 1870,
      "ÃĶS": 1871,
      "ÃĸÃ¹": 1872,
      "Ã²D": 1873,
      "Â°}": 1874,
      "ÃķA": 1875,
      "Âĥ:": 1876,
      "ux": 1877,
      "Ã¾Ãŀ": 1878,
      "\"ġ": 1879,
      "{+": 1880,
      "OÃ´": 1881,
      "(?": 1882,
      "ğ?": 1883,
      "Ã§Ã£": 1884,
      "ÃİÃļ": 1885,
      "ÂĲ=": 1886,
      "MS": 1887,
      "YÃº": 1888,
      "Âľ^": 1889,
      "aÃ£": 1890,
      "Ą=": 1891,
      "ÂĥÂį": 1892,
      "hA": 1893,
      "Ã«j": 1894,
      "ÃĸÃ¥": 1895,
      "YÃļ": 1896,
      "Ãĥj": 1897,
      "RÃ¹": 1898,
      "Ã«G": 1899,
      "ÃŁp": 1900,
      "ĄÃ·": 1901,
      "Ã©Ãł": 1902,
      "Ã¬Ãļ": 1903,
      "Â¦Ē": 1904,
      "9Â½": 1905,
      "IÃ»": 1906,
      "RÃ¼": 1907,
      "`ę": 1908,
      "wn": 1909,
      "ÃŁÂµ": 1910,
      "3Â³": 1911,
      "FÃģ": 1912,
      "ă!": 1913,
      "Ã¦ÃĻ": 1914,
      "[ĕ": 1915,
      "sp": 1916,
      "ăÂĺ": 1917,
      "ÃĹÂ«": 1918,
      "ÃĽÃµ": 1919,
      "ÃĶÂµ": 1920,
      "Â¦Âŀ": 1921,
      "VÃ¨": 1922,
      "Ã©n": 1923,
      "Ã«n": 1924,
      "ÃįD": 1925,
      "ÂĮÂį": 1926,
      "\\^": 1927,
      "kp": 1928,
      "ĂÂİ": 1929,
      "ÃĹÂī": 1930,
      "Ã©ÃĴ": 1931,
      "gt": 1932,
      "gÃ´": 1933,
      "oS": 1934,
      "ěÂĭ": 1935,
      "ÃĮT": 1936,
      "ÂºS": 1937,
      "Â¸!": 1938,
      "ĄĚ": 1939,
      "Â´Ĕ": 1940,
      "ÂĿ?": 1941,
      "\"&": 1942,
      "lB": 1943,
      "oÃ£": 1944,
      "āÂĭ": 1945,
      "Ĝġ": 1946,
      "ĠÂİ": 1947,
      "Ã²ÃĢ": 1948,
      "Â°ď": 1949,
      "ÃŁÃĲ": 1950,
      "Ãĸv": 1951,
      "Â®ÂĬ": 1952,
      "6Â¼": 1953,
      "Â¿Âĳ": 1954,
      "ÃįÃī": 1955,
      "ÂŃ>": 1956,
      "hÃª": 1957,
      "ĀÂĩ": 1958,
      "Âļ<": 1959,
      "Â§Â±": 1960,
      "WÃ±": 1961,
      "uÃº": 1962,
      "wÃ¡": 1963,
      "ÂļĎ": 1964,
      "Ġĕ": 1965,
      "ÂĦ^": 1966,
      "ĂÂ¥": 1967,
      "ÃħÃ°": 1968,
      "Wb": 1969,
      "ĄÂ¢": 1970,
      "ÃĹÂĩ": 1971,
      "ÃĹÂį": 1972,
      "Ã§L": 1973,
      "Â¦Âĳ": 1974,
      "$Âı": 1975,
      "WT": 1976,
      "ğÂ«": 1977,
      "ÃĽÃ¨": 1978,
      "ĠÂ±": 1979,
      "Ã¿P": 1980,
      "ÃħÃģ": 1981,
      "Â£Âĺ": 1982,
      "ÂĪÂŁ": 1983,
      "Â°Đ": 1984,
      "ÃĳU": 1985,
      "Â´Â±": 1986,
      "IS": 1987,
      "oX": 1988,
      "Ã¦Ãļ": 1989,
      "ÃĭÂµ": 1990,
      "Â¸Âŀ": 1991,
      "EA": 1992,
      "Wj": 1993,
      "aÃĢ": 1994,
      "ĞÂ¢": 1995,
      "Ã©Ã¹": 1996,
      "Â¶Ã·": 1997,
      "Âľ>": 1998,
      "Â§}": 1999,
      "ÃıÃĪ": 2000,
      "Ã®Âµ": 2001,
      "Â©>": 2002,
      "_?": 2003,
      "ÃķÃ³": 2004,
      "Ã®Ã½": 2005,
      "Â§ď": 2006,
      "Âľę": 2007,
      "ÃĸÃ¨": 2008,
      "ÃĮf": 2009,
      "ÃįÃŃ": 2010,
      "oÃ¢": 2011,
      "ÃĶÂª": 2012,
      "ÃĿj": 2013,
      "ÃĩÃµ": 2014,
      "ÃįÃ´": 2015,
      "Â¶~": 2016,
      "ÂºÃ¡": 2017,
      "OÃ¶": 2018,
      "hÃ³": 2019,
      "{Ę": 2020,
      "Ġ;": 2021,
      "Â¶'": 2022,
      "EÃ¶": 2023,
      "WN": 2024,
      "iÃ¤": 2025,
      "ÂĢ;": 2026,
      "ÃħÃ»": 2027,
      "ÃĸÃ¶": 2028,
      "ÃįÃ¹": 2029,
      "ÂĥÃ·": 2030,
      "Ã¯X": 2031,
      "ÃķÂµ": 2032,
      "ÃįU": 2033,
      "ć;": 2034,
      "Â¨ĕ": 2035,
      "YÃĻ": 2036,
      "_Ď": 2037,
      "gp": 2038,
      "ov": 2039,
      "{~": 2040,
      "ĂÂį": 2041,
      "ÃĭÃ´": 2042,
      "Â¶ÂĨ": 2043,
      "WÃľ": 2044,
      "Ė=": 2045,
      "ÂĪÂį": 2046,
      "Ef": 2047,
      "Ĝ>": 2048,
      "Âļę": 2049,
      "Â°đ": 2050,
      "Â»Ĕ": 2051,
      "EÃĢ": 2052,
      "WX": 2053,
      "Ã«S": 2054,
      "[ē": 2055,
      "ĠÂª": 2056,
      "ÃŁX": 2057,
      "Ãĸt": 2058,
      "Â»Âŀ": 2059,
      "ÂĮÂĩ": 2060,
      "@Âŀ": 2061,
      "ÃĽÃª": 2062,
      "ÂĤ?": 2063,
      "ÃĭÃ¼": 2064,
      "Â¦Ĕ": 2065,
      "(+": 2066,
      "ÂĿÃ·": 2067,
      "IÃĬ": 2068,
      "ÃĶy": 2069,
      "Â¯~": 2070,
      "ÂĥÂģ": 2071,
      "rÃ¤": 2072,
      "āÂĩ": 2073,
      "Ğ>": 2074,
      "Â°Âį": 2075,
      "Ã§Ãł": 2076,
      "EX": 2077,
      "ÃİÃ´": 2078,
      "EÃº": 2079,
      "hÃ¡": 2080,
      "uÃ»": 2081,
      "ÂĢė": 2082,
      "Ãĵq": 2083,
      "Â»ÂĨ": 2084,
      "Â©;": 2085,
      "ÂĮ:": 2086,
      "_Â±": 2087,
      "uÂª": 2088,
      "ĀÂ±": 2089,
      "Âľ<": 2090,
      "Ā}": 2091,
      "Â·Âĺ": 2092,
      "Ãĭj": 2093,
      "ÃĦÃ½": 2094,
      "KÃ¡": 2095,
      "Ox": 2096,
      "ÃķÃ¹": 2097,
      "Ã¬Ã¹": 2098,
      "Ã¦Ã¥": 2099,
      "Âľ+": 2100,
      "aÃļ": 2101,
      "aÃ¥": 2102,
      "uQ": 2103,
      "ğ}": 2104,
      "Ġn": 2105,
      "ĠÂŁ": 2106,
      "Âļė": 2107,
      "ÂĽÂ±": 2108,
      "ÃķÃĢ": 2109,
      "Â®,": 2110,
      "kÃ¥": 2111,
      "ÂĿ'": 2112,
      "Ĉ'": 2113,
      "WÂµ": 2114,
      "iX": 2115,
      "oÃ±": 2116,
      "|Â±": 2117,
      "ĖÃ·": 2118,
      "ÃĵH": 2119,
      "ÃĩÃŃ": 2120,
      "Ã¦Ã¡": 2121,
      "ÂĹĒ": 2122,
      "Â¦Âİ": 2123,
      "lG": 2124,
      "ÃŁZ": 2125,
      "Âľ}": 2126,
      "ğÂģ": 2127,
      "Ã²Ãģ": 2128,
      "Ãĵy": 2129,
      "ÂľÂĭ": 2130,
      "FS": 2131,
      "rÃ½": 2132,
      "Ã¾Ãª": 2133,
      "ÃĸÃ±": 2134,
      "ÂŃ<": 2135,
      "zb": 2136,
      "Ğ^": 2137,
      "ğÂŀ": 2138,
      "Â¯ÂŁ": 2139,
      "Â¦Â«": 2140,
      "EÃ°": 2141,
      "|'": 2142,
      "Ã²ÃŃ": 2143,
      "Â´Â¢": 2144,
      "Â¶>": 2145,
      "{;": 2146,
      "Âļ=": 2147,
      "ÃĶÃ¹": 2148,
      "ÃĺÃ¡": 2149,
      "FÃ£": 2150,
      "Ā]": 2151,
      "Ġ=": 2152,
      "ÂĢ)": 2153,
      "ÂĦ#": 2154,
      "ÃĺÃļ": 2155,
      "Â§Âı": 2156,
      "Ã¬c": 2157,
      "Â¨>": 2158,
      "ÂľÃ·": 2159,
      "0Â¾": 2160,
      "[ė": 2161,
      "wÃŀ": 2162,
      "ĜĚ": 2163,
      "ÃħÃ¡": 2164,
      "ÂĤ~": 2165,
      "ÃĵÃĲ": 2166,
      "Â»Â«": 2167,
      "Âĥ=": 2168,
      "ÂĮÂī": 2169,
      "CÃº": 2170,
      "{)": 2171,
      "Ã²ÃĻ": 2172,
      "Â°ē": 2173,
      "uT": 2174,
      "Ã²Ãł": 2175,
      "ĜÂī": 2176,
      "Ã¸P": 2177,
      "Ã¸Ã½": 2178,
      "Vx": 2179,
      "Â¸Â«": 2180,
      "JÃģ": 2181,
      "Yq": 2182,
      "zÃ¨": 2183,
      "{Âİ": 2184,
      "Ă=": 2185,
      "ÂļÂŀ": 2186,
      "Ã¯Ã¤": 2187,
      "Ã¦L": 2188,
      "\"Âī": 2189,
      "VN": 2190,
      "zj": 2191,
      "Â¶ÂŁ": 2192,
      "Â©Âĺ": 2193,
      "gG": 2194,
      "Ġ#": 2195,
      "Â°ą": 2196,
      "ÂĦ}": 2197,
      "ÃŁq": 2198,
      "ÃĺL": 2199,
      "ÃİÃĢ": 2200,
      "rd": 2201,
      "zP": 2202,
      "ÃĽÃł": 2203,
      "Âľĕ": 2204,
      "iÃ¥": 2205,
      "uÃ±": 2206,
      "Ĉ#": 2207,
      "ĞÂĻ": 2208,
      "ÂļÂŁ": 2209,
      "ÂĦÂĻ": 2210,
      "ÃĹĕ": 2211,
      "Â·Âĸ": 2212,
      "ÃĭG": 2213,
      "ÃĮÃŀ": 2214,
      "Â¦=": 2215,
      "Â®-": 2216,
      "JÃ¶": 2217,
      "Â¨<": 2218,
      "ÃĦt": 2219,
      "ĠÃ¨": 2220,
      "Ã«x": 2221,
      "we": 2222,
      "Ã¯ÃĴ": 2223,
      "ÃĿÃ¼": 2224,
      "ÃķG": 2225,
      "ÃĸÃĤ": 2226,
      "Â©ÂĨ": 2227,
      "Eq": 2228,
      "_}": 2229,
      "kÃ¡": 2230,
      "rÃĢ": 2231,
      "Ĉ;": 2232,
      "Â°Âı": 2233,
      "ÃĽÃĬ": 2234,
      "Ã¯Ãŀ": 2235,
      "Ã§Ãľ": 2236,
      "ÃĭÃļ": 2237,
      "ÂĲġ": 2238,
      "Â®ď": 2239,
      "Â£Âĩ": 2240,
      "IP": 2241,
      "Yn": 2242,
      "ÂĢ=": 2243,
      "Â»'": 2244,
      "wÃ¨": 2245,
      "ÃĿÂµ": 2246,
      "Ãĺp": 2247,
      "ÂľĎ": 2248,
      "OÃī": 2249,
      "zÃ¹": 2250,
      "ăĔ": 2251,
      "ÂļÂĩ": 2252,
      "ÂĪĎ": 2253,
      "Â°#": 2254,
      "ÂĦ=": 2255,
      "Ãĵn": 2256,
      "Vc": 2257,
      "WÃĴ": 2258,
      "Ă}": 2259,
      "Ã©Ã¼": 2260,
      "Ã®e": 2261,
      "ÂºÃº": 2262,
      "ÂĲĎ": 2263,
      "Â¦}": 2264,
      "Â¦Âĸ": 2265,
      "Â£=": 2266,
      "ÂĮÂİ": 2267,
      "JÃ±": 2268,
      "_~": 2269,
      "_Âĸ": 2270,
      "`Âı": 2271,
      "|ĕ": 2272,
      "Ã¾Ã¶": 2273,
      "ÃıÃĤ": 2274,
      "ÃĿÃª": 2275,
      "ÂĮÂ¢": 2276,
      "JÃ¢": 2277,
      "Â¡ġ": 2278,
      "Â»Âĺ": 2279,
      "Â´Âŀ": 2280,
      "Âĥĕ": 2281,
      "{ÂĨ": 2282,
      "ěĒ": 2283,
      "ÃŁA": 2284,
      "ÃĩÃ³": 2285,
      "ÃĳÃ£": 2286,
      "\\'": 2287,
      "hÃģ": 2288,
      "kÃļ": 2289,
      "ĄÂ«": 2290,
      "ÃĽL": 2291,
      "Â¸Âĳ": 2292,
      "MÃº": 2293,
      "[Âģ": 2294,
      "Ğ,": 2295,
      "Â®ÂŁ": 2296,
      "JÃĢ": 2297,
      "JÃ¼": 2298,
      "zq": 2299,
      "Â°;": 2300,
      "EÃ¹": 2301,
      "oÃľ": 2302,
      "uÃĨ": 2303,
      "ğÂ¢": 2304,
      "Â·+": 2305,
      "ÃĮÃº": 2306,
      "Â©~": 2307,
      "Cx": 2308,
      "CÃª": 2309,
      "Ã§Ã³": 2310,
      "ÃĶv": 2311,
      "ÃĦÃ¡": 2312,
      "(%": 2313,
      "gÃł": 2314,
      "{^": 2315,
      "Â¸'": 2316,
      "EÃĻ": 2317,
      "JÃľ": 2318,
      "`Ē": 2319,
      "ĠÂµ": 2320,
      "Ã¸Ã°": 2321,
      "ÂĹÂĩ": 2322,
      "sÃ»": 2323,
      "ĠÃµ": 2324,
      "Ă<": 2325,
      "Â¯Âĺ": 2326,
      "CÃĢ": 2327,
      "JÃª": 2328,
      "[ą": 2329,
      "rÃĲ": 2330,
      "zÃł": 2331,
      "Ã¾H": 2332,
      "ÃķÃ¢": 2333,
      "7Â½": 2334,
      "KÃĨ": 2335,
      "YÃ¹": 2336,
      "rÃ£": 2337,
      "Ğ=": 2338,
      "ĞÂŁ": 2339,
      "ÂĽ+": 2340,
      "Â¸Âı": 2341,
      "Ã¾Ã¨": 2342,
      "Ã©Ã¢": 2343,
      "ÃĳÃŀ": 2344,
      "Â¸ę": 2345,
      "YÃ´": 2346,
      "zÃĤ": 2347,
      "ā)": 2348,
      "ĈĚ": 2349,
      "Â¬<": 2350,
      "Â¿}": 2351,
      "Â¿Âĩ": 2352,
      "ÃŁÃĪ": 2353,
      "Ã§Ã¥": 2354,
      "ÂķÂı": 2355,
      "Ã¾S": 2356,
      "Ã¸y": 2357,
      "Â¸Ē": 2358,
      "Â¦Ě": 2359,
      "Â®Âĺ": 2360,
      "kÃ£": 2361,
      "Ã¾N": 2362,
      "Â¬}": 2363,
      "kf": 2364,
      "Âļ!": 2365,
      "ÃĥÃ±": 2366,
      "MN": 2367,
      "ÃŁÃĴ": 2368,
      "ÂĮÂ±": 2369,
      "EÃ¨": 2370,
      "KÃµ": 2371,
      "sÃµ": 2372,
      "ĄÂĳ": 2373,
      "Ã¦n": 2374,
      "6Â¾": 2375,
      "MA": 2376,
      "uÃ¢": 2377,
      "ĝÂı": 2378,
      "ÂĪÂı": 2379,
      "Ãĸp": 2380,
      "Ãĳx": 2381,
      "ÂĿÂİ": 2382,
      "Â©Ã·": 2383,
      "IÃ½": 2384,
      "Ã¾Ãī": 2385,
      "Ã¦Ã°": 2386,
      "ÃĦÃµ": 2387,
      "Ã«y": 2388,
      "ÃĽÃĻ": 2389,
      "Ã§n": 2390,
      "Â»:": 2391,
      "28": 2392,
      "`ÂĻ": 2393,
      "Ąĕ": 2394,
      "Ć>": 2395,
      "Âļ-": 2396,
      "@=": 2397,
      "Ã¸Ãµ": 2398,
      "ÃĸX": 2399,
      "Â¶Ď": 2400,
      "ÃĥÃĻ": 2401,
      "ĄÂŁ": 2402,
      "Ã¯ÃĬ": 2403,
      "Â»ę": 2404,
      "Â¸Âĩ": 2405,
      "FÃ¡": 2406,
      "ĝ}": 2407,
      "ğ+": 2408,
      "_Âĺ": 2409,
      "hÃ¹": 2410,
      "ÃĽP": 2411,
      "Â¨-": 2412,
      "Â°Âĩ": 2413,
      "ÃĶÃº": 2414,
      "EB": 2415,
      "_Âĩ": 2416,
      "wc": 2417,
      "Â°Âĳ": 2418,
      "Ã¾G": 2419,
      "ÃħÃª": 2420,
      "ÃįP": 2421,
      "ÃįX": 2422,
      "ÃĦv": 2423,
      "rÃ´": 2424,
      "ć<": 2425,
      "ğÂĸ": 2426,
      "Ãķn": 2427,
      "Ã©Ãļ": 2428,
      "Â©?": 2429,
      "aÃº": 2430,
      "zÃĲ": 2431,
      "ÃĮH": 2432,
      "Â§=": 2433,
      "ÃĹ#": 2434,
      "JÃ¨": 2435,
      "Op": 2436,
      "ÂĦ.": 2437,
      "FÃ¹": 2438,
      "JÂµ": 2439,
      "oj": 2440,
      "Ġ<": 2441,
      "ÃĶÃŃ": 2442,
      "Ã©U": 2443,
      "le": 2444,
      "Ą)": 2445,
      "Â¶=": 2446,
      "Â£Ď": 2447,
      "Ep": 2448,
      "KÃ¶": 2449,
      "YÃĬ": 2450,
      "kÃ¶": 2451,
      "Ã¸n": 2452,
      "Âĥ#": 2453,
      "Ć}": 2454,
      "ÂĽ)": 2455,
      "Ã«Q": 2456,
      "ÃĶÃ±": 2457,
      "Ã¬Ã¥": 2458,
      "ÂĥÂı": 2459,
      "EÃ¥": 2460,
      "FÃ¨": 2461,
      "MÃ»": 2462,
      "MÃ£": 2463,
      "oÃ¥": 2464,
      "ÃŁÃŀ": 2465,
      "ÃıÃľ": 2466,
      "Â»ÂĬ": 2467,
      "JÂª": 2468,
      "[Â¥": 2469,
      "ÃĽÃĨ": 2470,
      "Ã¯N": 2471,
      "Â§+": 2472,
      "Â¶Âŀ": 2473,
      "Ãĥx": 2474,
      "Ã¯Ãļ": 2475,
      "FP": 2476,
      "|]": 2477,
      "Ã¾U": 2478,
      "Ã§Ã°": 2479,
      "ÃĩÃĢ": 2480,
      "\\ÂŁ": 2481,
      "ÂĢĔ": 2482,
      "ÃĽÃī": 2483,
      "Â»^": 2484,
      "Ã¦P": 2485,
      "KÃľ": 2486,
      "zÃ¤": 2487,
      "ÂĽÂİ": 2488,
      "ÃĽÃ¡": 2489,
      "Ã©v": 2490,
      "Â¨%": 2491,
      "KÃ¢": 2492,
      "MÃ¢": 2493,
      "YÃĤ": 2494,
      "ÃĽB": 2495,
      "Â¿>": 2496,
      "Ã¬Ã¶": 2497,
      "`ĕ": 2498,
      "uÃ°": 2499,
      "|Ď": 2500,
      "ÂĥĚ": 2501,
      "Â¦~": 2502,
      "Â£Â«": 2503,
      "ÂľÂĸ": 2504,
      "RÃ¡": 2505,
      "iy": 2506,
      "wÃ¶": 2507,
      "Ã¿B": 2508,
      "ÃĦÃĢ": 2509,
      "Yj": 2510,
      "Ã¯Ãª": 2511,
      "Ã§y": 2512,
      "VÃĻ": 2513,
      "[~": 2514,
      "Â´Â¥": 2515,
      "ĞÂĨ": 2516,
      "ÂĶĕ": 2517,
      "Â¬.": 2518,
      "Â·Âı": 2519,
      "|Âģ": 2520,
      "Ćē": 2521,
      "ĆÂŀ": 2522,
      "ÃĶÃŀ": 2523,
      "ÃĿy": 2524,
      "Ã¬ÃĤ": 2525,
      "ÂŃÂ±": 2526,
      "MÃ´": 2527,
      "YÃ¢": 2528,
      "_+": 2529,
      "iÃ°": 2530,
      "|Âİ": 2531,
      "Ã²ÃĨ": 2532,
      "ÃķT": 2533,
      "Ip": 2534,
      "ĠÃ»": 2535,
      "ÃħÂµ": 2536,
      "ÃĽe": 2537,
      "ÃĹ-": 2538,
      "ÃĵÃł": 2539,
      "JÃĴ": 2540,
      "wÃ£": 2541,
      "|Âĳ": 2542,
      "ě%": 2543,
      "ğÂ±": 2544,
      "ÂĢĚ": 2545,
      "Ã¬Ãª": 2546,
      "Â£}": 2547,
      "OÃ£": 2548,
      "oÃĻ": 2549,
      "Ġ>": 2550,
      "ÂļÂĻ": 2551,
      "Ã«ÃĴ": 2552,
      "ÃĩÃ´": 2553,
      "ÂĿ=": 2554,
      "ÃĥÂª": 2555,
      "Â®}": 2556,
      "ğ>": 2557,
      "Ãķt": 2558,
      "Â¸:": 2559,
      "JÃ½": 2560,
      "Ă;": 2561,
      "Ã¾ÃĲ": 2562,
      "ÂĦ:": 2563,
      "Ã§Ãŀ": 2564,
      "ÂŃÂĩ": 2565,
      "ÃĥÃ¤": 2566,
      "aÃ¡": 2567,
      "rÃĴ": 2568,
      "ĄÂĺ": 2569,
      "Â¿ÂĴ": 2570,
      "ÃĵÃ£": 2571,
      "Ã©Ã¶": 2572,
      "ĞÂĳ": 2573,
      "Â°'": 2574,
      "ÂĦđ": 2575,
      "IÃŀ": 2576,
      "{%": 2577,
      "Ĝę": 2578,
      "Ã¬n": 2579,
      "ÂľÂĺ": 2580,
      "{=": 2581,
      "ÂļÂ¢": 2582,
      "ÂĦ+": 2583,
      "ÃĳÃº": 2584,
      "Â¸%": 2585,
      "[Â±": 2586,
      "Â¿+": 2587,
      "ÃıÃģ": 2588,
      "ÃĿB": 2589,
      "ÃĿÃ¹": 2590,
      "Ã®n": 2591,
      "ÂŃÂı": 2592,
      "Â¦Âĩ": 2593,
      "KÃ°": 2594,
      "|ę": 2595,
      "Ã®p": 2596,
      "ÃĳÃļ": 2597,
      "Ã¦Âª": 2598,
      "Â¸Ã·": 2599,
      "gv": 2600,
      "ĆÂĭ": 2601,
      "Â°Â«": 2602,
      "Ã¦G": 2603,
      "ÂŃď": 2604,
      "ÂĵÂŁ": 2605,
      "Â¦!": 2606,
      "VÃª": 2607,
      "lÃī": 2608,
      "wÃĻ": 2609,
      "Â°<": 2610,
      "Â¦Â¢": 2611,
      "Â¤ÂŁ": 2612,
      "zÃŀ": 2613,
      "ÂĪ&": 2614,
      "Ã²Ãŀ": 2615,
      "Ã«H": 2616,
      "ÂĢ]": 2617,
      "ÃĹÂ±": 2618,
      "Â¨:": 2619,
      "ÃĦÃ¼": 2620,
      "25": 2621,
      "Jn": 2622,
      "zÃ³": 2623,
      "ÃĽÃĴ": 2624,
      "ÃħP": 2625,
      "ÃĿx": 2626,
      "ÃĭD": 2627,
      "ÃĦL": 2628,
      "ÂĮ}": 2629,
      "ÂĽ,": 2630,
      "ÃĽH": 2631,
      "ÂºÃ³": 2632,
      "Â¸ė": 2633,
      "Â¨Âĳ": 2634,
      "ÃķN": 2635,
      "Â´ę": 2636,
      "ÃįÃĤ": 2637,
      "IÃ¹": 2638,
      "VA": 2639,
      "Â¨đ": 2640,
      "3Â¹": 2641,
      "JÃŀ": 2642,
      "iÃº": 2643,
      "Ą<": 2644,
      "ÃĩÃ±": 2645,
      "Â¨^": 2646,
      "YP": 2647,
      "rÃ¥": 2648,
      "ă.": 2649,
      "Ġy": 2650,
      "ÂĦ!": 2651,
      "ÃķÃ¼": 2652,
      "ÃĥT": 2653,
      "ğę": 2654,
      "ÃĸN": 2655,
      "Ã¬p": 2656,
      "Â©ē": 2657,
      "JS": 2658,
      "wÂª": 2659,
      "ĠS": 2660,
      "Ãım": 2661,
      "ÃĿÃº": 2662,
      "*>": 2663,
      "kÃ³": 2664,
      "ĠÂŀ": 2665,
      "Âļĕ": 2666,
      "Ã®N": 2667,
      "Âĥ)": 2668,
      "KÃī": 2669,
      "lÃľ": 2670,
      "Ã¸Ã¤": 2671,
      "$ġ": 2672,
      "ab": 2673,
      "Ã²p": 2674,
      "ÃĽÃĪ": 2675,
      "ÃĶÃľ": 2676,
      "Ã®Q": 2677,
      "ÃĮÃ¹": 2678,
      "Â¬Âĳ": 2679,
      "ÃŁe": 2680,
      "ÃĸÃľ": 2681,
      "[-": 2682,
      "Âĥę": 2683,
      "rG": 2684,
      "ĆÂİ": 2685,
      "Â°)": 2686,
      "ÃĹė": 2687,
      "ÃĹÂŁ": 2688,
      "ÃķÃ°": 2689,
      "Âľ-": 2690,
      "RÃĴ": 2691,
      "WP": 2692,
      "`>": 2693,
      "kÃ°": 2694,
      "Ĉ,": 2695,
      "Ã²Ã°": 2696,
      "Ã§Ãµ": 2697,
      "Â»Âĸ": 2698,
      "Âľ=": 2699,
      "rÂµ": 2700,
      "ÂĽ-": 2701,
      "ÃĵÃ¤": 2702,
      "ÃĩÃģ": 2703,
      "Wn": 2704,
      "ĜÂŀ": 2705,
      "ÃĹÂ¥": 2706,
      "ÂĹÂ«": 2707,
      "ÃĥÃª": 2708,
      "lx": 2709,
      "ÂŃÂĨ": 2710,
      "Âľ;": 2711,
      "IU": 2712,
      "ĞÂį": 2713,
      "ÃıÃļ": 2714,
      "ÃĶÃī": 2715,
      "ÃĺD": 2716,
      "Â©#": 2717,
      "iQ": 2718,
      "sv": 2719,
      "Ã®q": 2720,
      "Â®+": 2721,
      "Â£Âģ": 2722,
      "ID": 2723,
      "gL": 2724,
      "iA": 2725,
      "rH": 2726,
      "Ã«ÃĻ": 2727,
      "ÂŃ.": 2728,
      "ÃİÃ¹": 2729,
      "Â¸^": 2730,
      "KÃ´": 2731,
      "ĠÃĲ": 2732,
      "ÂĽ~": 2733,
      "ÃħÃľ": 2734,
      "Ã¸ÃĪ": 2735,
      "Â¿ÂĬ": 2736,
      "Â»,": 2737,
      "Â¸)": 2738,
      "Â®<": 2739,
      "_Â¢": 2740,
      "wx": 2741,
      "wÃľ": 2742,
      "ĈĔ": 2743,
      "ÂĦÃ·": 2744,
      "Ãĸn": 2745,
      "Ã®U": 2746,
      "(:": 2747,
      "[Âį": 2748,
      "ic": 2749,
      "ÃħÃ´": 2750,
      "ÂĤĕ": 2751,
      "ÃĵÃľ": 2752,
      "Âĥđ": 2753,
      "lÃĴ": 2754,
      "ÂºÃĢ": 2755,
      "kÃ¹": 2756,
      "zÃ¢": 2757,
      "Ã¾e": 2758,
      "ÂŃ#": 2759,
      "ÂķÂĴ": 2760,
      "[Âĭ": 2761,
      "uÃ¤": 2762,
      "Ĝ#": 2763,
      "ÃĽN": 2764,
      "Ã§S": 2765,
      "Ã¦Ãª": 2766,
      "zZ": 2767,
      "{Âģ": 2768,
      "Ã¸N": 2769,
      "ÃĳÃ³": 2770,
      "uÃ¥": 2771,
      "ÂĹĚ": 2772,
      "Â¶đ": 2773,
      "/Âĺ": 2774,
      "lt": 2775,
      "Ĉ.": 2776,
      "Ã«t": 2777,
      "Â·ė": 2778,
      "Jt": 2779,
      "Ăġ": 2780,
      "ÃıÃĲ": 2781,
      "Â¤Âį": 2782,
      "ÂĮē": 2783,
      "$?": 2784,
      "RA": 2785,
      "ĆÂ«": 2786,
      "Ġx": 2787,
      "Â¯?": 2788,
      "VÃĪ": 2789,
      "kj": 2790,
      "lÂµ": 2791,
      "ă?": 2792,
      "Ã©q": 2793,
      "Ã¬Ã½": 2794,
      "ÃįÃļ": 2795,
      "ÂĿ-": 2796,
      "Â¸Ď": 2797,
      "ÂķÂŁ": 2798,
      "(Â«": 2799,
      "IÃ°": 2800,
      "Â°ÂŁ": 2801,
      "ÃŁS": 2802,
      "Ã¯j": 2803,
      "ÃĶÃĻ": 2804,
      "Â´>": 2805,
      "ÂĲ}": 2806,
      "Â¦Â±": 2807,
      "gH": 2808,
      "un": 2809,
      "ÃĹ~": 2810,
      "Â·Â±": 2811,
      "Ã¦c": 2812,
      "JÃ»": 2813,
      "[Ď": 2814,
      "\\Âĸ": 2815,
      "_Âī": 2816,
      "|Ě": 2817,
      "ÂĽ<": 2818,
      "Â¿.": 2819,
      "ÃĹ'": 2820,
      "ÃĵS": 2821,
      "ÂĥÂ¢": 2822,
      "78": 2823,
      "FG": 2824,
      "Oe": 2825,
      "ÃŁÃ¥": 2826,
      "ÂĿĒ": 2827,
      "Â¦+": 2828,
      "lH": 2829,
      "oÃĪ": 2830,
      "|)": 2831,
      "wÃī": 2832,
      "zH": 2833,
      "zT": 2834,
      "Ã§ÃĪ": 2835,
      "Â¶^": 2836,
      "Â©ę": 2837,
      "ÂĮ'": 2838,
      "ÂĽ>": 2839,
      "[:": 2840,
      "zS": 2841,
      "zÃĪ": 2842,
      "{ÂĻ": 2843,
      "ĠÂı": 2844,
      "ÃĽv": 2845,
      "ÃĿt": 2846,
      "Â®Ã·": 2847,
      "_ÂĨ": 2848,
      "iÃ½": 2849,
      "zÃº": 2850,
      "ÃŁP": 2851,
      "ÃĭÃ£": 2852,
      "Â¸ÂĨ": 2853,
      "KÃĢ": 2854,
      "Wp": 2855,
      "YÃĪ": 2856,
      "[Âī": 2857,
      "gZ": 2858,
      "Ã©f": 2859,
      "ÂĹ%": 2860,
      "ÂĽď": 2861,
      "ÃĿÃ³": 2862,
      "ÃķL": 2863,
      "Â©Âĩ": 2864,
      "wt": 2865,
      "zÃĻ": 2866,
      "ĆÃ·": 2867,
      "ćÂĬ": 2868,
      "ÃĶÃ¤": 2869,
      "Ã©Ã°": 2870,
      "Ã¬q": 2871,
      "Â®Âģ": 2872,
      "ă}": 2873,
      "Ġe": 2874,
      "ÃĵN": 2875,
      "Ã©Ã¥": 2876,
      "Ã¬G": 2877,
      "Â£Â±": 2878,
      "Vj": 2879,
      "VÃ¼": 2880,
      "wm": 2881,
      "zU": 2882,
      "ğÂİ": 2883,
      "ÂĪ~": 2884,
      "Ã§Z": 2885,
      "Ãĭy": 2886,
      "ÂĥÂ±": 2887,
      "ÂķÂĸ": 2888,
      "\\+": 2889,
      "hy": 2890,
      "ÂĽ;": 2891,
      "ÂĦę": 2892,
      "Ã¯ÃĤ": 2893,
      "ÂĿ~": 2894,
      "ÂĹ!": 2895,
      "Â¸Âİ": 2896,
      "Â¤;": 2897,
      "VÃ´": 2898,
      "{!": 2899,
      "{ē": 2900,
      "ĂÂŁ": 2901,
      "ĠÂ¹": 2902,
      "ÂĪď": 2903,
      "ÃĵÃ¡": 2904,
      "ÃĵÃ¨": 2905,
      "ÃĮÃ½": 2906,
      "ÃįT": 2907,
      "ÂĥÂĸ": 2908,
      "oÃĲ": 2909,
      "ÂĢÂİ": 2910,
      "Ã¦q": 2911,
      "ÂĮ<": 2912,
      "OÃĨ": 2913,
      "lD": 2914,
      "ěÂİ": 2915,
      "ÃħÃ¥": 2916,
      "ÃĵÃº": 2917,
      "Ã®Ã°": 2918,
      "ÂŃÂİ": 2919,
      "ÃİÃĨ": 2920,
      "CÃģ": 2921,
      "|ÂĴ": 2922,
      "Âļą": 2923,
      "Â»ď": 2924,
      "ÃĳÃ¥": 2925,
      "ÂĿÂĺ": 2926,
      "ÂľÂ¢": 2927,
      "ĠÃº": 2928,
      "ÂĿÂı": 2929,
      "ÂĹ;": 2930,
      "Â¶Â¢": 2931,
      "Âľ#": 2932,
      "JP": 2933,
      "lÃµ": 2934,
      "ÃĶÃ»": 2935,
      "Â¦<": 2936,
      "Â¨ÂŁ": 2937,
      "{Â¥": 2938,
      "Ă.": 2939,
      "Ã²Ã¶": 2940,
      "Â§Ď": 2941,
      "ÃħÃº": 2942,
      "Ã®Ã£": 2943,
      "ÂºÃµ": 2944,
      "`Âĩ": 2945,
      "Âĥ}": 2946,
      "YÃŀ": 2947,
      "{đ": 2948,
      "{ė": 2949,
      "Ã©G": 2950,
      "Ã¬x": 2951,
      "ÂŃÂĺ": 2952,
      "ÂľÂı": 2953,
      "VÃº": 2954,
      "[.": 2955,
      "ÂĽ'": 2956,
      "Â°-": 2957,
      "Â´Ě": 2958,
      "Â¸ē": 2959,
      "JÃŃ": 2960,
      "VÃ±": 2961,
      "_Â«": 2962,
      "Ġv": 2963,
      "ĠÂĭ": 2964,
      "Â¿ē": 2965,
      "/'": 2966,
      "FÃ»": 2967,
      "_]": 2968,
      "`Đ": 2969,
      "zQ": 2970,
      "zy": 2971,
      "āÂ«": 2972,
      "Ã¯G": 2973,
      "ÃĿp": 2974,
      "ÂľÂ±": 2975,
      "VQ": 2976,
      "ox": 2977,
      "ěÂ±": 2978,
      "āÂĺ": 2979,
      "Ã©Ãµ": 2980,
      "Ã®Ã»": 2981,
      "Ãįy": 2982,
      "Â¦-": 2983,
      "oÃŀ": 2984,
      "uÃ¶": 2985,
      "|Â«": 2986,
      "ÃħÃĢ": 2987,
      "Ã¯Ãľ": 2988,
      "Â¤Â±": 2989,
      "ĞÂĩ": 2990,
      "Â¶Âĸ": 2991,
      "ÃĥÃ¡": 2992,
      "FÃ±": 2993,
      "Ğ}": 2994,
      "Â¬Âŀ": 2995,
      "Â¿ÂĨ": 2996,
      "ÃĶb": 2997,
      "ÂĹÂĻ": 2998,
      "ÂŃ:": 2999,
      "EÃ£": 3000,
      "kÃĻ": 3001,
      "ÃĶÃµ": 3002,
      "Ãĭv": 3003,
      "ÃĭÃģ": 3004,
      "ÃĳÃ¢": 3005,
      "Âĥ+": 3006,
      "IÃĲ": 3007,
      "`-": 3008,
      "Ćď": 3009,
      "Ġ~": 3010,
      "ÂĦÂĸ": 3011,
      "ÃķÃ¥": 3012,
      "uÃª": 3013,
      "ĠÂ¼": 3014,
      "ÃķÃł": 3015,
      "ÃĮL": 3016,
      "IÃ¥": 3017,
      "Wq": 3018,
      "[=": 3019,
      "kd": 3020,
      "Â¿%": 3021,
      "ÃĸQ": 3022,
      "Â·Â«": 3023,
      "Â´Âī": 3024,
      "Â¶+": 3025,
      "rÃľ": 3026,
      "Ĝĕ": 3027,
      "*Âĺ": 3028,
      "1Â³": 3029,
      "Yf": 3030,
      "aÃ¼": 3031,
      "ÃĺB": 3032,
      "Ã©Ãª": 3033,
      "he": 3034,
      "ÂĥÂī": 3035,
      "ÂĲ;": 3036,
      "KQ": 3037,
      "Âļ'": 3038,
      "Ã¾Ã³": 3039,
      "Ã¬ÃĻ": 3040,
      "ÂºÃ¤": 3041,
      "MÃ¶": 3042,
      "zÃª": 3043,
      "Ĝ}": 3044,
      "ÃķÃĤ": 3045,
      "Â®Â¢": 3046,
      "7Â³": 3047,
      "RÃµ": 3048,
      "kÃµ": 3049,
      "lÃ¼": 3050,
      "{,": 3051,
      "ĞĐ": 3052,
      "ÂĽÂĳ": 3053,
      "Ã¸j": 3054,
      "ÃĭÃ³": 3055,
      "|>": 3056,
      "ÃĵÃ´": 3057,
      "FÃ³": 3058,
      "IG": 3059,
      "lc": 3060,
      "rU": 3061,
      "ğÂŁ": 3062,
      "ÃıH": 3063,
      "Â»Ď": 3064,
      "\"ď": 3065,
      "Ġ^": 3066,
      "ÂĽ!": 3067,
      "ÂĤ=": 3068,
      "ÃķQ": 3069,
      "Â»ĕ": 3070,
      "Ã¬Ã¡": 3071,
      "gÃ¢": 3072,
      "ÃĽÃĢ": 3073,
      "Ãķy": 3074,
      "iÃļ": 3075,
      "lÃŀ": 3076,
      "sA": 3077,
      "Ã²Ãļ": 3078,
      "Ã¯Âª": 3079,
      "Ã§N": 3080,
      "Ã®c": 3081,
      "ÃĳÃł": 3082,
      "ÃįÃĲ": 3083,
      "Âľą": 3084,
      "\\Âģ": 3085,
      "_Ē": 3086,
      "Ă-": 3087,
      "Â°Â¥": 3088,
      "ÃĽQ": 3089,
      "Â¶)": 3090,
      "WS": 3091,
      "WÃ¢": 3092,
      "_ď": 3093,
      "Â¬Âį": 3094,
      "Ã®Âª": 3095,
      "ÃĦÃ¶": 3096,
      "ÂĮ#": 3097,
      "|+": 3098,
      "ĠÃ¥": 3099,
      "Â¨ÂĬ": 3100,
      "ÂľÂĻ": 3101,
      "@'": 3102,
      "@~": 3103,
      "hÃł": 3104,
      "iP": 3105,
      "wZ": 3106,
      "Â¿ė": 3107,
      "\";": 3108,
      "7Â¼": 3109,
      "lÃĪ": 3110,
      "Ą.": 3111,
      "ĠÃĢ": 3112,
      "Ã©Ãģ": 3113,
      "ÂŃĚ": 3114,
      "Â£'": 3115,
      "IÃ´": 3116,
      "ĜÃ·": 3117,
      "Âļ^": 3118,
      "ÃĽÃ´": 3119,
      "ÃĶÃ³": 3120,
      "ÂĹą": 3121,
      "ÂĮĕ": 3122,
      "{.": 3123,
      "Ė~": 3124,
      "ÃħÃŃ": 3125,
      "Em": 3126,
      "WL": 3127,
      "{Â«": 3128,
      "Ã¸Ã¥": 3129,
      "ÂĦÂ«": 3130,
      "ÃıL": 3131,
      "ÂĿÂ¥": 3132,
      "Â¸đ": 3133,
      "Â£%": 3134,
      "FÃĢ": 3135,
      "\\ÂĬ": 3136,
      "uG": 3137,
      "zÃ±": 3138,
      "Ã«f": 3139,
      "EQ": 3140,
      "Ot": 3141,
      "VB": 3142,
      "aÃ´": 3143,
      "lÃ³": 3144,
      "Ğ!": 3145,
      "Â°.": 3146,
      "Ãĺx": 3147,
      "ÃĭÃµ": 3148,
      "ĠÃľ": 3149,
      "ÂĽĎ": 3150,
      "ÃĽÃļ": 3151,
      "ÃĩÃ¡": 3152,
      "Â¦Âĺ": 3153,
      "`&": 3154,
      "|Âĭ": 3155,
      "Â¯=": 3156,
      "Â¶Âİ": 3157,
      "ÃĦÂª": 3158,
      "RÃĢ": 3159,
      "VÂª": 3160,
      "oU": 3161,
      "ĄÂı": 3162,
      "ĠT": 3163,
      "ÂļĔ": 3164,
      "Ã²A": 3165,
      "Ã¯ÃĪ": 3166,
      "ÃĮÃµ": 3167,
      "ÃİÃĴ": 3168,
      "ÃĥÃĨ": 3169,
      "EÂµ": 3170,
      "lÃ£": 3171,
      "oH": 3172,
      "zÃŃ": 3173,
      "ĀÂĭ": 3174,
      "ĠÃ¹": 3175,
      "Ã¦ÃĬ": 3176,
      "ÃįÃĻ": 3177,
      "ÃįÃľ": 3178,
      "ÂĮđ": 3179,
      "MÂµ": 3180,
      "gÂª": 3181,
      "ĠD": 3182,
      "Â¿Âģ": 3183,
      "ÃĹ}": 3184,
      "Â´}": 3185,
      "Â®&": 3186,
      "Âľď": 3187,
      "|Âī": 3188,
      "Ãĥn": 3189,
      "Ġ!": 3190,
      "ÂĪ.": 3191,
      "ÃĳÃª": 3192,
      "ÂĹÂŁ": 3193,
      "RÃ¨": 3194,
      "[Ē": 3195,
      "ĜĔ": 3196,
      "Ã«Ãľ": 3197,
      "ÃĽÃº": 3198,
      "ÃİÃ¼": 3199,
      "Ãĥv": 3200,
      "Â£ÂŁ": 3201,
      "/Âŀ": 3202,
      "ÃĶn": 3203,
      "ÂĿÂĨ": 3204,
      "Ee": 3205,
      "VL": 3206,
      "ĈĎ": 3207,
      "ĝď": 3208,
      "Ã¸Ã¶": 3209,
      "Ã§Âµ": 3210,
      "ÂĵĒ": 3211,
      "ÂĮę": 3212,
      "Ă,": 3213,
      "ĜÂĭ": 3214,
      "ğĎ": 3215,
      "ÂĦ<": 3216,
      "Â®=": 3217,
      "ÂķÂ±": 3218,
      "Â£Ē": 3219,
      "ÂľÂĴ": 3220,
      "[;": 3221,
      "Â¬Ĕ": 3222,
      "Ã¯y": 3223,
      "ÃıÃĻ": 3224,
      "Â·>": 3225,
      "ÃİÃµ": 3226,
      "Â©Âį": 3227,
      "FB": 3228,
      "rÃ¢": 3229,
      "ĜÂĻ": 3230,
      "ĞĔ": 3231,
      "Â¶ē": 3232,
      "Â®Ē": 3233,
      "ğ:": 3234,
      "ğÂĬ": 3235,
      "ÂŃ]": 3236,
      "_!": 3237,
      "ĜÂĸ": 3238,
      "ÂĢ+": 3239,
      "ÃĽU": 3240,
      "ÃĵÂª": 3241,
      "Â¡}": 3242,
      "Ã©ÃĻ": 3243,
      "Â´Ã·": 3244,
      "KÃŀ": 3245,
      "WB": 3246,
      "hv": 3247,
      "Ġf": 3248,
      "Âļđ": 3249,
      "Â°Ē": 3250,
      "Â¸Âĸ": 3251,
      "Â¨Â±": 3252,
      "uq": 3253,
      "ÃħA": 3254,
      "ÃĽy": 3255,
      "ÂķÂ«": 3256,
      "OÃł": 3257,
      "lÃ°": 3258,
      "Â¶ė": 3259,
      "FÃŃ": 3260,
      "kQ": 3261,
      "ĝ?": 3262,
      "Ã¸q": 3263,
      "Ã¸Ã±": 3264,
      "ÃıÂµ": 3265,
      "Â»Âı": 3266,
      "ÂĿĎ": 3267,
      "`ē": 3268,
      "gS": 3269,
      "wH": 3270,
      "ğą": 3271,
      "Â´)": 3272,
      "ÃĥÃ´": 3273,
      "ÂºÃģ": 3274,
      "Â¦ą": 3275,
      "ÂķÂŀ": 3276,
      "uÂµ": 3277,
      "uÃ¹": 3278,
      "ćė": 3279,
      "ÂĤÂĸ": 3280,
      "IN": 3281,
      "ÂĽ%": 3282,
      "ÃıX": 3283,
      "ÃĮÃ¢": 3284,
      "ÂĥÂİ": 3285,
      "90": 3286,
      "Cy": 3287,
      "Im": 3288,
      "KÃĤ": 3289,
      "WÃ¨": 3290,
      "{ÂĴ": 3291,
      "|Ē": 3292,
      "Ã«ÃĪ": 3293,
      "Â°Â±": 3294,
      "Ã¾Z": 3295,
      "Â¿ď": 3296,
      "ÂĦĒ": 3297,
      "ÂĹÂĸ": 3298,
      "ÃİP": 3299,
      "zX": 3300,
      "ÂĲÂĺ": 3301,
      "ĀÂĺ": 3302,
      "ăÂī": 3303,
      "Ćĕ": 3304,
      "ĞÃ·": 3305,
      "Ã¯v": 3306,
      "ÃķÃ¨": 3307,
      "Â»)": 3308,
      "ÃįÃ¡": 3309,
      "ÃİÃ¶": 3310,
      "Âľ)": 3311,
      "JÃº": 3312,
      "Ãİe": 3313,
      "EÃŀ": 3314,
      "YÃµ": 3315,
      "\\Ď": 3316,
      "lp": 3317,
      "{Ď": 3318,
      "Â²Â¹": 3319,
      "Ã²Ã³": 3320,
      "ÂĢ}": 3321,
      "Ã©j": 3322,
      "Ã®Ãª": 3323,
      "Â¶!": 3324,
      "oÃĬ": 3325,
      "sÃĪ": 3326,
      "Ğą": 3327,
      "Ã²Ãľ": 3328,
      "ÃĶÃ¡": 3329,
      "ÂŃ-": 3330,
      "/=": 3331,
      "Yv": 3332,
      "YÃ°": 3333,
      "Â´ÂĴ": 3334,
      "ÂĲ.": 3335,
      "ÂĲÂį": 3336,
      "VT": 3337,
      "WÃĪ": 3338,
      "aÃĤ": 3339,
      "rQ": 3340,
      "ĆĔ": 3341,
      "ÃħL": 3342,
      "ÃĽc": 3343,
      "ÂĹē": 3344,
      "Â®.": 3345,
      "()": 3346,
      "@Âģ": 3347,
      "FÃ´": 3348,
      "WÃ¤": 3349,
      "gD": 3350,
      "rf": 3351,
      "Ġē": 3352,
      "Â²Â½": 3353,
      "ÃĹ+": 3354,
      "ÃĸÃŃ": 3355,
      "Ãİt": 3356,
      "ÂķÂĬ": 3357,
      "ÃķÃļ": 3358,
      "Ã¬ÃĲ": 3359,
      "Â¶ę": 3360,
      "ÂĲė": 3361,
      "Â¨'": 3362,
      "ÂľÂį": 3363,
      "ES": 3364,
      "\\?": 3365,
      "|<": 3366,
      "|^": 3367,
      "Ã«Ã¶": 3368,
      "Ã¾n": 3369,
      "ÃıG": 3370,
      "ÃĶf": 3371,
      "ÃĶÃ°": 3372,
      "Â»Ě": 3373,
      "ÃĥÃ¢": 3374,
      "ÂķĚ": 3375,
      "@Â±": 3376,
      "EP": 3377,
      "ET": 3378,
      "KL": 3379,
      "sP": 3380,
      "Ġ5": 3381,
      "ÂĪÂ«": 3382,
      "ÂĤÂĭ": 3383,
      "ÃĿÃµ": 3384,
      "Ã©x": 3385,
      "ÂĿÂŀ": 3386,
      "ÂĲĔ": 3387,
      "{&": 3388,
      "ĝÂĩ": 3389,
      "ÃĹ^": 3390,
      "@Ď": 3391,
      "IH": 3392,
      "ĄÂĨ": 3393,
      "Ã«Âµ": 3394,
      "ÂĿÂĳ": 3395,
      "Âĵ~": 3396,
      "Âľ:": 3397,
      "KÃ¼": 3398,
      "VÃ³": 3399,
      "ĠÂ¾": 3400,
      "ÂĦ'": 3401,
      "Â©Âŀ": 3402,
      "@ę": 3403,
      "IB": 3404,
      "ÃĿÃ±": 3405,
      "ÃĸÃ´": 3406,
      "{Âį": 3407,
      "ÂĽÂĭ": 3408,
      "ÂĢ#": 3409,
      "Ãĵf": 3410,
      "ÃĺÃ°": 3411,
      "Ã¬Âµ": 3412,
      "ÂĲÃ·": 3413,
      "Â¦#": 3414,
      "Â®Âı": 3415,
      "MÃ±": 3416,
      "[Âĳ": 3417,
      "{Âĸ": 3418,
      "Ãĩq": 3419,
      "Â§%": 3420,
      "āÂŁ": 3421,
      "ÂļÂı": 3422,
      "Ã«Ã³": 3423,
      "Ã®G": 3424,
      "Ã®f": 3425,
      "(~": 3426,
      "Ct": 3427,
      "aS": 3428,
      "sS": 3429,
      "ğđ": 3430,
      "Â²Â¼": 3431,
      "ÂĤÂĩ": 3432,
      "ÃĶL": 3433,
      "ÃĶÃł": 3434,
      "iÃ¢": 3435,
      "rÃº": 3436,
      "ÂĽę": 3437,
      "ÂĽÂ¢": 3438,
      "ÂĹÂį": 3439,
      "ÃİU": 3440,
      "[Âĸ": 3441,
      "gn": 3442,
      "kÃĴ": 3443,
      "ğ;": 3444,
      "Ã²Ã¥": 3445,
      "ÃŁd": 3446,
      "Â·ÂŁ": 3447,
      "Â®ę": 3448,
      "ÃĦÃ£": 3449,
      "Of": 3450,
      "[!": 3451,
      "Ãħm": 3452,
      "ÃķÃĴ": 3453,
      "ÃĦU": 3454,
      "CÃ½": 3455,
      "|Âĺ": 3456,
      "ÃĽÃ¥": 3457,
      "Â¿Âī": 3458,
      "Ã§x": 3459,
      "ÃĮÃī": 3460,
      "IÃģ": 3461,
      "Ã¸Ã»": 3462,
      "Ã®D": 3463,
      "ÃĳÃ´": 3464,
      "Ã¬Ã£": 3465,
      "ÂĿÂī": 3466,
      "ÂľÂ«": 3467,
      "On": 3468,
      "Â¿Â±": 3469,
      "Ãĺy": 3470,
      "CÃ¡": 3471,
      "ÂĢÂŀ": 3472,
      "ÃħÃµ": 3473,
      "Ãın": 3474,
      "ÃİÃ¢": 3475,
      "Â¦đ": 3476,
      "/:": 3477,
      "IÃī": 3478,
      "aA": 3479,
      "zÃī": 3480,
      "|ÂŁ": 3481,
      "Ă~": 3482,
      "Ãĭf": 3483,
      "MZ": 3484,
      "ě'": 3485,
      "Ã¯Q": 3486,
      "ÂĤ<": 3487,
      "Ãıx": 3488,
      "ÃĵP": 3489,
      "ÃĩÃ¨": 3490,
      "Â§;": 3491,
      "Â£#": 3492,
      "/Âį": 3493,
      "iU": 3494,
      "im": 3495,
      "rÂª": 3496,
      "āę": 3497,
      "ÃĽÃ£": 3498,
      "ÂĹ,": 3499,
      "ÂķÃ·": 3500,
      "ÂĮÂŀ": 3501,
      "YÃ¶": 3502,
      "`Â¥": 3503,
      "hÂª": 3504,
      "rÃĪ": 3505,
      "ÂĽÂĬ": 3506,
      "Â¿Â¥": 3507,
      "ÃĿG": 3508,
      "oÃĨ": 3509,
      "|đ": 3510,
      "Ã²Ã¢": 3511,
      "Â¯Âı": 3512,
      "Ã®x": 3513,
      "Â§Âİ": 3514,
      "Ã¬Ãł": 3515,
      "Âķď": 3516,
      "VS": 3517,
      "_ē": 3518,
      "ÂĵÂ«": 3519,
      "1Â½": 3520,
      "CÃ±": 3521,
      "ğē": 3522,
      "ÂĦą": 3523,
      "ÃĹ&": 3524,
      "ÃĸÃŀ": 3525,
      "ÃĺÃĻ": 3526,
      "Ã¬S": 3527,
      "Ã¦Ãľ": 3528,
      "Âºy": 3529,
      "Â¦ę": 3530,
      "`<": 3531,
      "iÃĴ": 3532,
      "kÃ±": 3533,
      "lÃ¤": 3534,
      "ĠÃĨ": 3535,
      "Â´ė": 3536,
      "ÃĥÃļ": 3537,
      "ÂĲ)": 3538,
      "Â¨=": 3539,
      "MÃĲ": 3540,
      "lL": 3541,
      "oZ": 3542,
      "ā!": 3543,
      "Â²8": 3544,
      "Ã²n": 3545,
      "ÃįÃ¥": 3546,
      "Â¦ď": 3547,
      "rA": 3548,
      "zc": 3549,
      "Ġđ": 3550,
      "ÃĿA": 3551,
      "Ã®Ãļ": 3552,
      "Â§Â«": 3553,
      "ÂĥÂĳ": 3554,
      "KÂª": 3555,
      "Ã¯T": 3556,
      "ÃĶN": 3557,
      "Ãĸf": 3558,
      "Ã©ÃĤ": 3559,
      "Â§Â¢": 3560,
      "(;": 3561,
      "VG": 3562,
      "rp": 3563,
      "rt": 3564,
      "Ė>": 3565,
      "ÂĶ}": 3566,
      "ÂĽÂī": 3567,
      "ÃĶÃ´": 3568,
      "Â·Âİ": 3569,
      "ÂĥÂĬ": 3570,
      "EÂª": 3571,
      "ON": 3572,
      "_ė": 3573,
      "ÂĦÂģ": 3574,
      "ÂĦÂĳ": 3575,
      "ÂĤ}": 3576,
      "Â·Ď": 3577,
      "KÂµ": 3578,
      "kb": 3579,
      "lÃļ": 3580,
      "Ã²f": 3581,
      "Â¿Âĸ": 3582,
      "Â¨Ď": 3583,
      "Me": 3584,
      "\\ď": 3585,
      "iq": 3586,
      "rv": 3587,
      "Â¬#": 3588,
      "ÂĤ#": 3589,
      "ÃıÃ¢": 3590,
      "Ã©S": 3591,
      "Ã©Ã£": 3592,
      "Â»+": 3593,
      "Â¸ą": 3594,
      "Â¨Âı": 3595,
      "wÃĪ": 3596,
      "ÃİÃ¡": 3597,
      "Â¶Ě": 3598,
      "(Âİ": 3599,
      "uÃľ": 3600,
      "Ĝ&": 3601,
      "Ġ:": 3602,
      "ÃĵÃŀ": 3603,
      "Ãĭn": 3604,
      "ÂŃ+": 3605,
      "Â®'": 3606,
      "YX": 3607,
      "kÃŃ": 3608,
      "uÃ£": 3609,
      "Ã¸X": 3610,
      "Â¿Âİ": 3611,
      "ÂĦ&": 3612,
      "ÃĿÃĪ": 3613,
      "Â»Â¢": 3614,
      "Â¸>": 3615,
      "\":": 3616,
      "IA": 3617,
      "_=": 3618,
      "lÃł": 3619,
      "ğ^": 3620,
      "ÃĭÃĬ": 3621,
      "FÃĴ": 3622,
      "RÃº": 3623,
      "We": 3624,
      "ÃħÃ£": 3625,
      "Ã§H": 3626,
      "Âĥ;": 3627,
      "Â¶ÂĻ": 3628,
      "ÂĲ<": 3629,
      "ÂľÂĳ": 3630,
      "KZ": 3631,
      "Â¿Â¢": 3632,
      "ÃĹď": 3633,
      "Ã©Ã´": 3634,
      "Â§Âŀ": 3635,
      "ÂŃĕ": 3636,
      "Âĥď": 3637,
      "ÂĵÂı": 3638,
      "Â£-": 3639,
      "Ãıv": 3640,
      "ÂĲÂİ": 3641,
      "(<": 3642,
      "hx": 3643,
      "ğÂĨ": 3644,
      "ĠÂģ": 3645,
      "ÃĮÃª": 3646,
      "ÂĿÂĩ": 3647,
      "ĠÃ³": 3648,
      "Ã¸c": 3649,
      "Ã§Ã¶": 3650,
      "ÃĭÃŃ": 3651,
      "Â£^": 3652,
      "Vt": 3653,
      "hp": 3654,
      "kZ": 3655,
      "ÂĽ:": 3656,
      "ÂĦÂİ": 3657,
      "Ãĺe": 3658,
      "Ã®v": 3659,
      "_ÂĬ": 3660,
      "gÂµ": 3661,
      "sf": 3662,
      "{Âĩ": 3663,
      "Ã«Ã¢": 3664,
      "Â»Âİ": 3665,
      "Ã¦X": 3666,
      "Ã¦p": 3667,
      "ÂĵÂĭ": 3668,
      "@ĕ": 3669,
      "iÃª": 3670,
      "kG": 3671,
      "oÃ¤": 3672,
      "ÃŁH": 3673,
      "Â´%": 3674,
      "MG": 3675,
      "ĝÂģ": 3676,
      "ÃŁN": 3677,
      "ÃıÃ¶": 3678,
      "Â·Ã·": 3679,
      "Ã®t": 3680,
      "Â§#": 3681,
      "Ã¦Ãŀ": 3682,
      "\"+": 3683,
      "VX": 3684,
      "`Âĸ": 3685,
      "Â¡Âĩ": 3686,
      "Â¨Ě": 3687,
      "ÂľĚ": 3688,
      "ÃĦÃ±": 3689,
      "ÃĶA": 3690,
      "Ã¦T": 3691,
      "Â¦.": 3692,
      "Â®ÂĻ": 3693,
      "ÃĦÃ»": 3694,
      "\"ą": 3695,
      "Ãıq": 3696,
      "ÃĹ>": 3697,
      "Ã§p": 3698,
      "ÃĺÃ»": 3699,
      "ÃĦÃ³": 3700,
      "RÃĻ": 3701,
      "`Ě": 3702,
      "sÃ³": 3703,
      "ĆĒ": 3704,
      "ÃĵT": 3705,
      "ÂĹÂ±": 3706,
      "wf": 3707,
      "Ã®Z": 3708,
      "Â´Âĭ": 3709,
      "ÃįG": 3710,
      "\"-": 3711,
      "6Â³": 3712,
      "JÃ¥": 3713,
      "Wy": 3714,
      "\\>": 3715,
      "Ã²Ã¡": 3716,
      "Â°Ĕ": 3717,
      "ÃĮB": 3718,
      "Ã¬Ã´": 3719,
      "Â£Ě": 3720,
      "aÃ³": 3721,
      "{Âĳ": 3722,
      "ěÂ«": 3723,
      "ÃķH": 3724,
      "Â·ę": 3725,
      "Â´&": 3726,
      "98": 3727,
      "RP": 3728,
      "iÃ´": 3729,
      "zL": 3730,
      "{Â±": 3731,
      "ÃĿÃ£": 3732,
      "ÃķÃµ": 3733,
      "ÃİÃī": 3734,
      "*Â±": 3735,
      "[Â«": 3736,
      "ā=": 3737,
      "ĝÃ·": 3738,
      "ÃĺÃĲ": 3739,
      "Ã®Ãº": 3740,
      "Ã¬P": 3741,
      "Ã¦Ã£": 3742,
      "ÃįÃ¶": 3743,
      "(^": 3744,
      "FÃ¼": 3745,
      "KÃ±": 3746,
      "[ÂĻ": 3747,
      "Â¤ė": 3748,
      "FÃ½": 3749,
      "Jx": 3750,
      "KÃŃ": 3751,
      "MÃ°": 3752,
      "kS": 3753,
      "ÂļÂĺ": 3754,
      "ÂļÂī": 3755,
      "ÃĺÃ£": 3756,
      "ÃĭÃĪ": 3757,
      "ÃĭÃŀ": 3758,
      "ÂĵÃ·": 3759,
      "Â®Âŀ": 3760,
      "\"ę": 3761,
      "Jv": 3762,
      "iÃĨ": 3763,
      "uÃĻ": 3764,
      "ĆÂ±": 3765,
      "ÂĽÂĺ": 3766,
      "ÃĮÃļ": 3767,
      "ÃįS": 3768,
      "JG": 3769,
      "OÃĻ": 3770,
      "rÃĨ": 3771,
      "zd": 3772,
      "Ğė": 3773,
      "ÃĵÃĪ": 3774,
      "Ã¬Ãº": 3775,
      "ÂĥÂĩ": 3776,
      "Ãĭx": 3777,
      "Ãİv": 3778,
      "Ġ+": 3779,
      "ÂĶÃ·": 3780,
      "ÃĮA": 3781,
      "Â©:": 3782,
      "Â©Ď": 3783,
      "OÃ¨": 3784,
      "OÃ¢": 3785,
      "Ã¸ÃĤ": 3786,
      "Â¿ę": 3787,
      "ÂĦĚ": 3788,
      "Ãİc": 3789,
      "*ę": 3790,
      "`Ã·": 3791,
      "ÂĽ&": 3792,
      "ÃĹÂİ": 3793,
      "ÃĵG": 3794,
      "Cq": 3795,
      "Ã¯p": 3796,
      "Â»;": 3797,
      "Ãįf": 3798,
      "ÂŃÂĭ": 3799,
      "Ãİp": 3800,
      "Â¸#": 3801,
      "EG": 3802,
      "EU": 3803,
      "aÃ¤": 3804,
      "gÃª": 3805,
      "ăĘ": 3806,
      "ćÂĳ": 3807,
      "ÂĪ}": 3808,
      "ÃĽA": 3809,
      "ÃĮQ": 3810,
      "Â§<": 3811,
      "ÂĹ#": 3812,
      "sq": 3813,
      "ÂĶÂı": 3814,
      "Â°~": 3815,
      "ÃĭÃ½": 3816,
      "CÃĻ": 3817,
      "OS": 3818,
      "\\Ã·": 3819,
      "iÃ³": 3820,
      "zG": 3821,
      "Âļ+": 3822,
      "ÂĪÂĺ": 3823,
      "Ã©Ãº": 3824,
      "ÂĿ<": 3825,
      "ÂĿÂŁ": 3826,
      "Â¸ĕ": 3827,
      "Mn": 3828,
      "ğÂī": 3829,
      "Ã«Ãµ": 3830,
      "ÃķP": 3831,
      "ÃĥÃº": 3832,
      "Â£+": 3833,
      "IÃ£": 3834,
      "JN": 3835,
      "rP": 3836,
      "ÂĪÂĩ": 3837,
      "ÃħÃ¨": 3838,
      "ÃĹ:": 3839,
      "ÂŃ)": 3840,
      "Â©.": 3841,
      "ÃĦÃĪ": 3842,
      "ÃĦÂµ": 3843,
      "CÃŃ": 3844,
      "JZ": 3845,
      "Mx": 3846,
      "_.": 3847,
      "`Âī": 3848,
      "uD": 3849,
      "Âļ%": 3850,
      "Ãķx": 3851,
      "ÃĸÃª": 3852,
      "ÃĳÃ¡": 3853,
      "ÂĥÂĴ": 3854,
      "Â¸&": 3855,
      "Âķė": 3856,
      "Rc": 3857,
      "ay": 3858,
      "ÂĢ'": 3859,
      "Ã¸Âª": 3860,
      "*ÂŁ": 3861,
      "KÃ¤": 3862,
      "gÃĨ": 3863,
      "kU": 3864,
      "Ĉ~": 3865,
      "Ĉė": 3866,
      "Ã²Âª": 3867,
      "Ãħt": 3868,
      "Ã¸f": 3869,
      "ÃĹÂĨ": 3870,
      "ÂŃ&": 3871,
      "ÃİÃ³": 3872,
      "Â¨)": 3873,
      "@Ã·": 3874,
      "wÃĬ": 3875,
      "Ĝ:": 3876,
      "Â¬Â±": 3877,
      "Ã¸ÃĴ": 3878,
      "Ã¸Ã³": 3879,
      "ÃĭÃ±": 3880,
      "Âĥ>": 3881,
      "ÃĦH": 3882,
      "IÃ±": 3883,
      "YH": 3884,
      "hS": 3885,
      "od": 3886,
      "ÂĪĕ": 3887,
      "Ãıe": 3888,
      "ÃĮÃ¡": 3889,
      "Â´!": 3890,
      "ÃįÃ¢": 3891,
      "ÂĿę": 3892,
      "ÂºÃļ": 3893,
      "_ÂĻ": 3894,
      "ÂĽ.": 3895,
      "Ã«Ãŀ": 3896,
      "Â¿;": 3897,
      "ÃŁG": 3898,
      "Ãķj": 3899,
      "Â§Ě": 3900,
      "Â§Âį": 3901,
      "ÂĹ^": 3902,
      "OÃ¥": 3903,
      "hÃ¤": 3904,
      "ĝ'": 3905,
      "ÃĺÃģ": 3906,
      "Ã®ÃĤ": 3907,
      "Â§ĕ": 3908,
      "ÂĹÂĬ": 3909,
      "ÃİS": 3910,
      "ÃĥG": 3911,
      "ÂľÂī": 3912,
      "FD": 3913,
      "Ãħp": 3914,
      "ÂĹ&": 3915,
      "Â£Âį": 3916,
      "uf": 3917,
      "wD": 3918,
      "ĈÂĨ": 3919,
      "ěė": 3920,
      "ĠÂĬ": 3921,
      "ÂĢē": 3922,
      "ÂĤÂŁ": 3923,
      "ÂŃ%": 3924,
      "\"Âĳ": 3925,
      "zÃ¡": 3926,
      "KD": 3927,
      "aÃł": 3928,
      "ĆÂĩ": 3929,
      "Ã¸ÃĻ": 3930,
      "Â¿ą": 3931,
      "ÃĹÂĭ": 3932,
      "ÂĹÂĺ": 3933,
      "3Â¾": 3934,
      "`^": 3935,
      "oB": 3936,
      "rÃĤ": 3937,
      "Ã§v": 3938,
      "Âĵ=": 3939,
      "(ė": 3940,
      "2Â³": 3941,
      "Ĉ=": 3942,
      "ĈÂ±": 3943,
      "Âļ>": 3944,
      "ÃĭÃł": 3945,
      "Ãĳc": 3946,
      "Ã¦Ã¼": 3947,
      "\"Ã·": 3948,
      "Oc": 3949,
      "Ã¯d": 3950,
      "ÃįA": 3951,
      "ÂŃę": 3952,
      "YU": 3953,
      "ot": 3954,
      "ÂĢ!": 3955,
      "Ãĳv": 3956,
      "ÂŃĒ": 3957,
      "Â¸;": 3958,
      "Â¸Â¢": 3959,
      "EÃ¡": 3960,
      "ÂĢĘ": 3961,
      "Ãĺc": 3962,
      "Âľė": 3963,
      "ÂĮė": 3964,
      "FX": 3965,
      "hÃ°": 3966,
      "sÃ¢": 3967,
      "ĈĐ": 3968,
      "ÂļĚ": 3969,
      "ÃħB": 3970,
      "ÃĳÃŃ": 3971,
      "ÃİÃ£": 3972,
      "ÂķÂ¢": 3973,
      "IT": 3974,
      "YÂª": 3975,
      "lj": 3976,
      "ğ]": 3977,
      "ÂĤÂĴ": 3978,
      "ÃįÃ£": 3979,
      "ÃİÃ±": 3980,
      "Â£Âĳ": 3981,
      "JÃµ": 3982,
      "Mc": 3983,
      "OQ": 3984,
      "kc": 3985,
      "sÃĬ": 3986,
      "Ã§b": 3987,
      "ÃįÃµ": 3988,
      "ÂĿ;": 3989,
      "RÃ£": 3990,
      "lÃ´": 3991,
      "ĠX": 3992,
      "Â»ą": 3993,
      "/,": 3994,
      "iÂª": 3995,
      "ÂĢÂģ": 3996,
      "ÃĺÃº": 3997,
      "ÃĮÃĨ": 3998,
      "ÂĵÂį": 3999,
      "FÃľ": 4000,
      "ge": 4001,
      "ā]": 4002,
      "Ĉ+": 4003,
      "ğÂı": 4004,
      "ÂĢÂį": 4005,
      "ÃĹ;": 4006,
      "ÃĿÃŀ": 4007,
      "(ď": 4008,
      "It": 4009,
      "af": 4010,
      "av": 4011,
      "oy": 4012,
      "ÂĤÂİ": 4013,
      "Ã®b": 4014,
      "Â´Ď": 4015,
      "RÃļ": 4016,
      "YB": 4017,
      "hB": 4018,
      "Ą>": 4019,
      "Â¬Âĭ": 4020,
      "ÃĳÃī": 4021,
      "ÃİÃĬ": 4022,
      "Â¦Âģ": 4023,
      "Et": 4024,
      "`ÂĨ": 4025,
      "lT": 4026,
      "ĜÂı": 4027,
      "Ãĵv": 4028,
      "ÃĸÃ³": 4029,
      "ÂĥÂĨ": 4030,
      "ÂĮĎ": 4031,
      "ÂĮÂĴ": 4032,
      "FÃĤ": 4033,
      "KÃ³": 4034,
      "uB": 4035,
      "ÂĤġ": 4036,
      "Â¯Âĳ": 4037,
      "ÃĮÂª": 4038,
      "Ã¬Ã³": 4039,
      "Â´ĕ": 4040,
      "ÂĹÂī": 4041,
      "Ã§D": 4042,
      "ÃĮÃ¶": 4043,
      "(Âĳ": 4044,
      "\\!": 4045,
      "ÃĭÃĻ": 4046,
      "Â»Ē": 4047,
      "ÃĳL": 4048,
      "Â§ę": 4049,
      "Â§Âĭ": 4050,
      "ÂĿÂģ": 4051,
      "ÂĵĎ": 4052,
      "Â¤#": 4053,
      "/ē": 4054,
      "EÃĲ": 4055,
      "VÃľ": 4056,
      "YÂµ": 4057,
      "Ą&": 4058,
      "Ãĸc": 4059,
      "ÂĹÂİ": 4060,
      "Â¶ĕ": 4061,
      "ÃĥH": 4062,
      "ÂľĔ": 4063,
      "KÃĴ": 4064,
      "MÃļ": 4065,
      "YÃł": 4066,
      "ěę": 4067,
      "Ãħx": 4068,
      "ÂĤĚ": 4069,
      "Ã©Âµ": 4070,
      "Ãĩx": 4071,
      "ÃĩÃļ": 4072,
      "MÃµ": 4073,
      "`Âĳ": 4074,
      "ÃĥÃ°": 4075,
      "Ã«X": 4076,
      "ÃĮU": 4077,
      "Ãİn": 4078,
      "ÃĥÃ¶": 4079,
      "Â¨;": 4080,
      "ÃĦÃ°": 4081,
      "Jq": 4082,
      "`]": 4083,
      "kÃł": 4084,
      "ā,": 4085,
      "ÃĥÃ»": 4086,
      "IÃ³": 4087,
      "WÂª": 4088,
      "wÃ¤": 4089,
      "ĠU": 4090,
      "Ã©y": 4091,
      "Ã¦D": 4092,
      "ÂĿą": 4093,
      "Â¶#": 4094,
      "ÂĵÂĺ": 4095
    },
    "merges": [
      [
        "Ã",
        "¿"
      ],
      [
        "Ã",
        "Ģ"
      ],
      [
        "Ã",
        "ī"
      ],
      [
        "Â",
        "Ķ"
      ],
      [
        "Â",
        "ļ"
      ],
      [
        "Â",
        "Ľ"
      ],
      [
        "Â",
        "Ĵ"
      ],
      [
        "Â",
        "²"
      ],
      [
        "Â",
        "Ī"
      ],
      [
        "Ã",
        "Ĵ"
      ],
      [
        "Ã",
        "ģ"
      ],
      [
        "Ã",
        "²"
      ],
      [
        "Ã",
        "«"
      ],
      [
        "Â",
        "°"
      ],
      [
        "Ã",
        "Ī"
      ],
      [
        "Â",
        "µ"
      ],
      [
        "Â",
        "Ģ"
      ],
      [
        "Ã",
        "¾"
      ],
      [
        "Â",
        "¬"
      ],
      [
        "Ã",
        "ħ"
      ],
      [
        "Ã",
        "Ľ"
      ],
      [
        "Â",
        "ģ"
      ],
      [
        "Ã",
        "Ĭ"
      ],
      [
        "Ã",
        "ļ"
      ],
      [
        "Ã",
        "¸"
      ],
      [
        "Ã",
        "½"
      ],
      [
        "Â",
        "¿"
      ],
      [
        "Ã",
        "¼"
      ],
      [
        "Â",
        "Ħ"
      ],
      [
        "Ã",
        "Ł"
      ],
      [
        "Ã",
        "¯"
      ],
      [
        "Ã",
        "»"
      ],
      [
        "Â",
        "Ĥ"
      ],
      [
        "Ã",
        "¹"
      ],
      [
        "Ã",
        "¡"
      ],
      [
        "Ã",
        "ł"
      ],
      [
        "Ã",
        "·"
      ],
      [
        "Ã",
        "°"
      ],
      [
        "Ã",
        "º"
      ],
      [
        "Â",
        "Ł"
      ],
      [
        "Ã",
        "±"
      ],
      [
        "Ã",
        "ı"
      ],
      [
        "Ã",
        "³"
      ],
      [
        "Ã",
        "¶"
      ],
      [
        "Ã",
        "Ĺ"
      ],
      [
        "Ã",
        "§"
      ],
      [
        "Ã",
        "µ"
      ],
      [
        "Ã",
        "ĵ"
      ],
      [
        "Ã",
        "Ķ"
      ],
      [
        "Ã",
        "´"
      ],
      [
        "Ã",
        "Ŀ"
      ],
      [
        "Â",
        "¯"
      ],
      [
        "Ã",
        "Ĳ"
      ],
      [
        "Â",
        "¡"
      ],
      [
        "Ã",
        "ķ"
      ],
      [
        "Â",
        "ı"
      ],
      [
        "Ã",
        "ĸ"
      ],
      [
        "Ã",
        "Ļ"
      ],
      [
        "Â",
        "½"
      ],
      [
        "Ã",
        "ĺ"
      ],
      [
        "Â",
        "·"
      ],
      [
        "Ã",
        "¥"
      ],
      [
        "Ã",
        "©"
      ],
      [
        "Ã",
        "Ń"
      ],
      [
        "Â",
        "ł"
      ],
      [
        "Ã",
        "ĭ"
      ],
      [
        "Ã",
        "®"
      ],
      [
        "Ã",
        "¨"
      ],
      [
        "Â",
        "¾"
      ],
      [
        "Ã",
        "ĩ"
      ],
      [
        "Ã",
        "ŀ"
      ],
      [
        "Â",
        "»"
      ],
      [
        "Ã",
        "ĳ"
      ],
      [
        "Ã",
        "Į"
      ],
      [
        "Ã",
        "£"
      ],
      [
        "Â",
        "ĩ"
      ],
      [
        "Â",
        "§"
      ],
      [
        "Ã",
        "¬"
      ],
      [
        "Ã",
        "ľ"
      ],
      [
        "Â",
        "ŀ"
      ],
      [
        "Â",
        "´"
      ],
      [
        "Ã",
        "¦"
      ],
      [
        "Â",
        "±"
      ],
      [
        "Â",
        "¹"
      ],
      [
        "Ã",
        "į"
      ],
      [
        "Â",
        "Ļ"
      ],
      [
        "Â",
        "Ŀ"
      ],
      [
        "Â",
        "Ĺ"
      ],
      [
        "Ã",
        "ª"
      ],
      [
        "Ã",
        "¢"
      ],
      [
        "Â",
        "Ń"
      ],
      [
        "Ã",
        "İ"
      ],
      [
        "Â",
        "ª"
      ],
      [
        "Â",
        "¼"
      ],
      [
        "Â",
        "ĥ"
      ],
      [
        "Â",
        "¶"
      ],
      [
        "Â",
        "«"
      ],
      [
        "Â",
        "©"
      ],
      [
        "Ã",
        "ĥ"
      ],
      [
        "Â",
        "Ĳ"
      ],
      [
        "Â",
        "³"
      ],
      [
        "Â",
        "º"
      ],
      [
        "Â",
        "ĳ"
      ],
      [
        "Â",
        "ĵ"
      ],
      [
        "Â",
        "¸"
      ],
      [
        "Â",
        "¥"
      ],
      [
        "Ã",
        "¤"
      ],
      [
        "Â",
        "¦"
      ],
      [
        "Â",
        "¨"
      ],
      [
        "Â",
        "®"
      ],
      [
        "Â",
        "ĭ"
      ],
      [
        "Â",
        "ĺ"
      ],
      [
        "Â",
        "ĸ"
      ],
      [
        "Â",
        "İ"
      ],
      [
        "Â",
        "į"
      ],
      [
        "Ã",
        "Ĥ"
      ],
      [
        "Â",
        "ķ"
      ],
      [
        "Â",
        "£"
      ],
      [
        "Â",
        "ľ"
      ],
      [
        "Â",
        "ī"
      ],
      [
        "Ã",
        "Ĩ"
      ],
      [
        "Ã",
        "Ħ"
      ],
      [
        "Â",
        "¤"
      ],
      [
        "Â",
        "Ĩ"
      ],
      [
        "Â",
        "Į"
      ],
      [
        "Â",
        "ħ"
      ],
      [
        "Â",
        "¢"
      ],
      [
        "Â",
        "Ĭ"
      ],
      [
        "Ā",
        "Ā"
      ],
      [
        "Ā",
        "ā"
      ],
      [
        "ĀĀ",
        "Āā"
      ],
      [
        "ÃĢ",
        "Ã¿"
      ],
      [
        "C",
        "Ãī"
      ],
      [
        "x",
        "CÃī"
      ],
      [
        "ā",
        "ā"
      ],
      [
        "@",
        "ĀĀ"
      ],
      [
        "r",
        "xCÃī"
      ],
      [
        "ÃĴ",
        "xCÃī"
      ],
      [
        "Ā",
        "Ă"
      ],
      [
        "ă",
        "Ā"
      ],
      [
        "Ă",
        "ā"
      ],
      [
        "Ã«",
        "Ãģ"
      ],
      [
        "g",
        "d"
      ],
      [
        "ď",
        "ă"
      ],
      [
        "Âļ",
        "ÂĴ"
      ],
      [
        "Âļ",
        ";"
      ],
      [
        "a",
        "Ã¿"
      ],
      [
        "d",
        "ÃĬ"
      ],
      [
        "Ã¿",
        "Âµ"
      ],
      [
        "Ā",
        "ć"
      ],
      [
        "ÂĽ",
        "Ē"
      ],
      [
        "ÂĽ",
        "ÂĴ"
      ],
      [
        "Â°",
        "ĀĀ"
      ],
      [
        "h",
        "Ã«Ãģ"
      ],
      [
        "Â°ĀĀ",
        "ā"
      ],
      [
        "ÂĴ",
        "ĀĀĀā"
      ],
      [
        "@ĀĀ",
        "ăĀ"
      ],
      [
        "@ĀĀ",
        "ďă"
      ],
      [
        "@ĀĀăĀ",
        "@ĀĀďă"
      ],
      [
        "āā",
        "ā"
      ],
      [
        "Âļ;",
        "ğ"
      ],
      [
        "āāā",
        "@ĀĀăĀ@ĀĀďă"
      ],
      [
        "dÃĬ",
        "aÃ¿"
      ],
      [
        "Ã²",
        "xCÃī"
      ],
      [
        "ÂĪ",
        "Āć"
      ],
      [
        "R",
        "xCÃī"
      ],
      [
        "Âģ",
        "ĀĀĀā"
      ],
      [
        "ÂĢ",
        "ĀĀĀā"
      ],
      [
        "ÂĦ",
        "?"
      ],
      [
        "ÂĤ",
        "ď"
      ],
      [
        "ÂĪ",
        "ÂĦ?"
      ],
      [
        "ÂĪ",
        "ÂĤď"
      ],
      [
        "Ã¸",
        "B"
      ],
      [
        "@",
        "ĀĀĀā"
      ],
      [
        "Ã¿",
        "Ã¾"
      ],
      [
        "Ã¿",
        "Ã½"
      ],
      [
        "Ã¿",
        "Ã¿"
      ],
      [
        "Ã¾",
        "o"
      ],
      [
        "Ã²",
        "t"
      ],
      [
        "Â´",
        "Âģ"
      ],
      [
        "Ă",
        "Âĵ"
      ],
      [
        "`",
        "ĀĀĀā"
      ],
      [
        "ğ",
        "ă"
      ],
      [
        "o",
        "m"
      ],
      [
        "Ā",
        "ă"
      ],
      [
        "I",
        "h"
      ],
      [
        "Ā",
        "Ć"
      ],
      [
        "Ā",
        "Ą"
      ],
      [
        "Ã¿",
        "F"
      ],
      [
        "R",
        "x"
      ],
      [
        "Ãĭ",
        "Ã¯"
      ],
      [
        "!",
        "ĀĀĀā"
      ],
      [
        "{",
        "Âŀ"
      ],
      [
        "Â¡",
        "ĀĀĀā"
      ],
      [
        "Ā",
        "ą"
      ],
      [
        "ā",
        "Ć"
      ],
      [
        "ÃĶ",
        "P"
      ],
      [
        "ÂĢ",
        "Ā"
      ],
      [
        "Ã¿",
        "Ã¥"
      ],
      [
        "Ã¿",
        "Ã¼"
      ],
      [
        "ÂĢ",
        "ď"
      ],
      [
        "Ă",
        "ÂĴ"
      ],
      [
        "ă",
        "ā"
      ],
      [
        "Ã¿",
        "ÃĤ"
      ],
      [
        "Ã¿",
        "I"
      ],
      [
        "Ã¿",
        "Ã»"
      ],
      [
        "Ā",
        "Ď"
      ],
      [
        "Ã¿",
        "Ã¡"
      ],
      [
        "ğ",
        "ā"
      ],
      [
        "Ã¿",
        "Ã¹"
      ],
      [
        "ÂĢ",
        "?"
      ],
      [
        "Ã¿",
        "Ã°"
      ],
      [
        "Ã¿",
        "Ãº"
      ],
      [
        "đ",
        "ā"
      ],
      [
        "ÂĪ",
        "Ā"
      ],
      [
        "Ā",
        "ď"
      ],
      [
        "Ã¿",
        "Ã¸"
      ],
      [
        "Ā",
        "Ĉ"
      ],
      [
        "Ġ",
        "ď"
      ],
      [
        "@",
        "?"
      ],
      [
        "Ã¿",
        "ÃĮ"
      ],
      [
        "Ã¿",
        "ÃŁ"
      ],
      [
        "Ã¿",
        "ÃĶ"
      ],
      [
        "Ã¿",
        "Ã§"
      ],
      [
        "$",
        "ć"
      ],
      [
        "Ā",
        "?"
      ],
      [
        "Ã¿",
        "Ãģ"
      ],
      [
        "Ã¿",
        "Ãł"
      ],
      [
        "Ã¾",
        "k"
      ],
      [
        "Ã¿",
        "Ã²"
      ],
      [
        "Ĉ",
        "<"
      ],
      [
        "Ã¿",
        "Ã¶"
      ],
      [
        "Ã¿",
        "Ãµ"
      ],
      [
        "Ã¿",
        "Âº"
      ],
      [
        "r",
        "e"
      ],
      [
        "Ã¿",
        "Ã¦"
      ],
      [
        "Ã¿",
        "Ã±"
      ],
      [
        "Ã¿",
        "Ã©"
      ],
      [
        "Ã¿",
        "Ãĵ"
      ],
      [
        "ÂĿ",
        "ć"
      ],
      [
        "Ā",
        "ĕ"
      ],
      [
        "Ã¿",
        "Ã³"
      ],
      [
        "Ã¿",
        "Ãı"
      ],
      [
        "Ã¿",
        "Ã´"
      ],
      [
        "Ā",
        "Ĕ"
      ],
      [
        "Ã¿",
        "Ã¤"
      ],
      [
        "Ā",
        "đ"
      ],
      [
        "Ãĺ",
        "A"
      ],
      [
        "Ã¿",
        "G"
      ],
      [
        "Ã¿",
        "Ã¨"
      ],
      [
        "Ā",
        "Ė"
      ],
      [
        "Ã¿",
        "Ãħ"
      ],
      [
        "Ã¾",
        "i"
      ],
      [
        "Ā",
        "Ē"
      ],
      [
        "Ã¿",
        "Ã¢"
      ],
      [
        "r",
        "a"
      ],
      [
        "Ã¾",
        "f"
      ],
      [
        "Ã¿",
        "Ãª"
      ],
      [
        "Ãł",
        "x"
      ],
      [
        "i",
        "n"
      ],
      [
        "Ā",
        "Đ"
      ],
      [
        "Ã¿",
        "ÃĦ"
      ],
      [
        "Ã¿",
        "Ãĥ"
      ],
      [
        "Ā",
        "ě"
      ],
      [
        "Ā",
        "ĝ"
      ],
      [
        "Ġ",
        "c"
      ],
      [
        "Ā",
        "Ě"
      ],
      [
        "Ã¿",
        "ÃĨ"
      ],
      [
        "Ā",
        "ğ"
      ],
      [
        "ÂĢ",
        "ā"
      ],
      [
        "Ã¾",
        "Âµ"
      ],
      [
        "Ã¿",
        "Ãŀ"
      ],
      [
        "Ã¿",
        "Ãĭ"
      ],
      [
        "Ã¿",
        "Ã¯"
      ],
      [
        "Ā",
        "ė"
      ],
      [
        "Ã¾",
        "c"
      ],
      [
        "Ă",
        "đ"
      ],
      [
        "ă",
        "ă"
      ],
      [
        "Ā",
        "Ğ"
      ],
      [
        "Ã¿",
        "Ã®"
      ],
      [
        "ÂŃ",
        "ą"
      ],
      [
        "Ãĸ",
        "j"
      ],
      [
        "Ã¿",
        "Ãį"
      ],
      [
        "@",
        "ď"
      ],
      [
        "ě",
        "ć"
      ],
      [
        "Ã¿",
        "Ãķ"
      ],
      [
        "Ā",
        "ē"
      ],
      [
        "Đ",
        "?"
      ],
      [
        "Ã¿",
        "ÃŃ"
      ],
      [
        "ÃĹ",
        "ć"
      ],
      [
        "Ā",
        "Ĝ"
      ],
      [
        "Ã¿",
        "Ã£"
      ],
      [
        "Ã¿",
        "Ã«"
      ],
      [
        "Đ",
        "ă"
      ],
      [
        "Ă",
        "ē"
      ],
      [
        "Ā",
        "\""
      ],
      [
        "Ã¿",
        "ÃĢ"
      ],
      [
        "Ã¿",
        "ÃĪ"
      ],
      [
        "Ã¿",
        "Ãĸ"
      ],
      [
        "m",
        "e"
      ],
      [
        "Ã¿",
        "Ãĩ"
      ],
      [
        "Ā",
        "<"
      ],
      [
        "Ā",
        "ę"
      ],
      [
        "Ĉ",
        "Ĉ"
      ],
      [
        "Ā",
        "="
      ],
      [
        "Ã¿",
        "Ã¬"
      ],
      [
        "ÃŁ",
        "Ã¼"
      ],
      [
        "Ā",
        "Ę"
      ],
      [
        "Ã¿",
        "ÃĲ"
      ],
      [
        "ÃŁ",
        "Ã½"
      ],
      [
        "Ā",
        "'"
      ],
      [
        "Ā",
        "ÃĹ"
      ],
      [
        "Ġ",
        "-"
      ],
      [
        "ġ",
        "Ã·"
      ],
      [
        "Ã¿",
        "ÃĿ"
      ],
      [
        "Ã¿",
        "Ãİ"
      ],
      [
        "Ā",
        "-"
      ],
      [
        "Ãı",
        "ÃĿ"
      ],
      [
        "Ā",
        "!"
      ],
      [
        "Ã¿",
        "ÃĽ"
      ],
      [
        "Ãĺ",
        "ÃŃ"
      ],
      [
        "Ã¿",
        "Ãĳ"
      ],
      [
        "ă",
        ","
      ],
      [
        "@",
        "ā"
      ],
      [
        "Ć",
        "Âĸ"
      ],
      [
        "Ą",
        "ą"
      ],
      [
        "ÃŁ",
        "Ã¾"
      ],
      [
        "Ā",
        "."
      ],
      [
        "Ā",
        "%"
      ],
      [
        "Ã¿",
        "Ãļ"
      ],
      [
        "ÃŁ",
        "Ã»"
      ],
      [
        "ÂĲ",
        "?"
      ],
      [
        "Ă",
        "ć"
      ],
      [
        "Ā",
        ","
      ],
      [
        "Ã¿",
        "Ãī"
      ],
      [
        "ÃĮ",
        "Z"
      ],
      [
        "Ã¿",
        "Ãľ"
      ],
      [
        "Ā",
        "#"
      ],
      [
        "6",
        "4"
      ],
      [
        "Ã²",
        "O"
      ],
      [
        "2",
        "Â¹"
      ],
      [
        "Ã¿",
        "ÃĻ"
      ],
      [
        "Ā",
        "^"
      ],
      [
        "Ā",
        "("
      ],
      [
        "Ā",
        "Âİ"
      ],
      [
        "Ã¿",
        "Ãĺ"
      ],
      [
        "Ă",
        "ÂĶ"
      ],
      [
        "Ā",
        "*"
      ],
      [
        "Â¿",
        "Ã·"
      ],
      [
        "Ă",
        "!"
      ],
      [
        "ă",
        "ę"
      ],
      [
        "ÃĲ",
        "Ã¨"
      ],
      [
        "a",
        "d"
      ],
      [
        "2",
        "Â¾"
      ],
      [
        "@",
        "ġ"
      ],
      [
        "Ă",
        "Ã·"
      ],
      [
        "ć",
        "}"
      ],
      [
        "Â¤",
        "?"
      ],
      [
        "ā",
        "<"
      ],
      [
        "ÂĢ",
        "ÂĢ"
      ],
      [
        "Ã¿",
        "H"
      ],
      [
        "Ā",
        "\\"
      ],
      [
        "Â¿",
        "Âĭ"
      ],
      [
        "k",
        "ÃĬ"
      ],
      [
        "Ã¿",
        "ÃĬ"
      ],
      [
        "Ã¸",
        "H"
      ],
      [
        "Ă",
        "Â¬"
      ],
      [
        "Ā",
        ")"
      ],
      [
        "Ā",
        "&"
      ],
      [
        "Ă",
        "Ą"
      ],
      [
        "0",
        "0"
      ],
      [
        "ă",
        "/"
      ],
      [
        "Ã¿",
        "ÃĴ"
      ],
      [
        "2",
        "Â½"
      ],
      [
        "Ā",
        "ÂĻ"
      ],
      [
        "ÃĹ",
        "Â¡"
      ],
      [
        "o",
        "n"
      ],
      [
        "ć",
        "+"
      ],
      [
        "ÃŁ",
        "Ã°"
      ],
      [
        "Ã¾",
        "Ãĩ"
      ],
      [
        "Ġ",
        "s"
      ],
      [
        "ć",
        "Â¥"
      ],
      [
        "ÂĲ",
        "ď"
      ],
      [
        "Ā",
        "Â«"
      ],
      [
        "Ā",
        "_"
      ],
      [
        "Ā",
        "/"
      ],
      [
        "ÃŁ",
        "Ãģ"
      ],
      [
        "d",
        "e"
      ],
      [
        "Ă",
        "Âī"
      ],
      [
        "@",
        "}"
      ],
      [
        "Ā",
        ">"
      ],
      [
        "ă",
        "Ď"
      ],
      [
        "O",
        "Ã½"
      ],
      [
        "Ã¯",
        "Ã¼"
      ],
      [
        "Ãı",
        "Ã½"
      ],
      [
        "Ā",
        "+"
      ],
      [
        "Ā",
        ":"
      ],
      [
        "Â¶",
        "Â©"
      ],
      [
        "Ă",
        "Âĸ"
      ],
      [
        "o",
        "Ãģ"
      ],
      [
        "o",
        "Ã»"
      ],
      [
        "W",
        "Ã¼"
      ],
      [
        "ā",
        ";"
      ],
      [
        "w",
        "Ã½"
      ],
      [
        "2",
        "Â¼"
      ],
      [
        "ć",
        "Ė"
      ],
      [
        "q",
        "p"
      ],
      [
        "ÃŁ",
        "Ã¹"
      ],
      [
        "ÃŁ",
        "Ã³"
      ],
      [
        "Ã²",
        "M"
      ],
      [
        "Ă",
        "#"
      ],
      [
        "Ãį",
        "Ãģ"
      ],
      [
        "K",
        "f"
      ],
      [
        "Ā",
        "Âį"
      ],
      [
        "ÃŁ",
        "Ã¡"
      ],
      [
        "Ãį",
        "ÃĢ"
      ],
      [
        "o",
        "Ã¼"
      ],
      [
        "Ãı",
        "Ã»"
      ],
      [
        "o",
        "Ã¹"
      ],
      [
        "Ā",
        "Âĳ"
      ],
      [
        "Ā",
        "$"
      ],
      [
        "Â¿",
        "ÂŁ"
      ],
      [
        "Ă",
        "ĕ"
      ],
      [
        "Ā",
        "ÂĬ"
      ],
      [
        "Â¯",
        "ġ"
      ],
      [
        "Ãı",
        "Ãŀ"
      ],
      [
        "O",
        "Ã¼"
      ],
      [
        "Ãķ",
        "v"
      ],
      [
        "ă",
        "ĝ"
      ],
      [
        "Ć",
        "ġ"
      ],
      [
        "ă",
        "+"
      ],
      [
        "Ã¯",
        "Ã½"
      ],
      [
        "Â°",
        "?"
      ],
      [
        "u",
        "t"
      ],
      [
        "`",
        "ď"
      ],
      [
        "Ā",
        "Âķ"
      ],
      [
        "Ã¿",
        "Âª"
      ],
      [
        "ă",
        "Ē"
      ],
      [
        "Ãı",
        "Ã±"
      ],
      [
        "m",
        "S"
      ],
      [
        "Ą",
        "?"
      ],
      [
        "ā",
        "^"
      ],
      [
        "Ã¾",
        "Ã½"
      ],
      [
        "Ą",
        "Đ"
      ],
      [
        "Ãı",
        "y"
      ],
      [
        "Ă",
        "ÂĪ"
      ],
      [
        "ÃŁ",
        "Ã¸"
      ],
      [
        "Ã¾",
        "ÃĪ"
      ],
      [
        "Ă",
        "ÂĻ"
      ],
      [
        "1",
        "3"
      ],
      [
        "Ā",
        "Âĸ"
      ],
      [
        "ÃŁ",
        "Ãº"
      ],
      [
        "Ã¿",
        "p"
      ],
      [
        "Â¯",
        "Âĸ"
      ],
      [
        "W",
        "Ã¶"
      ],
      [
        "Ġ",
        "'"
      ],
      [
        "Â°",
        "ÂĲ"
      ],
      [
        "Ą",
        "Â·"
      ],
      [
        "Ã¿",
        "q"
      ],
      [
        "Ġ",
        "t"
      ],
      [
        "ÃŁ",
        "Ãł"
      ],
      [
        "@",
        "ą"
      ],
      [
        "Ă",
        "Ę"
      ],
      [
        "Ã¾",
        "ÃĢ"
      ],
      [
        "e",
        "d"
      ],
      [
        "Â¦",
        "ġ"
      ],
      [
        "Ãı",
        "Ãº"
      ],
      [
        "l",
        "Ãģ"
      ],
      [
        "h",
        "t"
      ],
      [
        "Ā",
        "~"
      ],
      [
        "Ĉ",
        "!"
      ],
      [
        "ÃŁ",
        "Ãµ"
      ],
      [
        "Ā",
        "Ã·"
      ],
      [
        "Ã¯",
        "Ã¹"
      ],
      [
        "ÃĹ",
        "?"
      ],
      [
        "s",
        "ÃĢ"
      ],
      [
        "s",
        "t"
      ],
      [
        "|",
        "ď"
      ],
      [
        "Ã¿",
        "T"
      ],
      [
        "ć",
        "ġ"
      ],
      [
        "h",
        "Ãĺ"
      ],
      [
        "Ãı",
        "Ã³"
      ],
      [
        "Âĥ",
        "Â¿"
      ],
      [
        "w",
        "Ã»"
      ],
      [
        "Ă",
        "*"
      ],
      [
        "Ā",
        "Âī"
      ],
      [
        "Ã¾",
        "R"
      ],
      [
        "Ă",
        "Â¡"
      ],
      [
        "Ã¿",
        "y"
      ],
      [
        "2",
        "4"
      ],
      [
        "Ā",
        ";"
      ],
      [
        "Ã¿",
        "n"
      ],
      [
        "Ă",
        "Âĳ"
      ],
      [
        "Ã¾",
        "Ã¼"
      ],
      [
        "o",
        "p"
      ],
      [
        "ÂĽ",
        "ÂŁ"
      ],
      [
        "Ą",
        "đ"
      ],
      [
        "Ė",
        "ÂŁ"
      ],
      [
        "i",
        "S"
      ],
      [
        "Ă",
        "Âŀ"
      ],
      [
        "Ā",
        "Â¢"
      ],
      [
        "Ā",
        "ÂĴ"
      ],
      [
        "a",
        "c"
      ],
      [
        "Ã¯",
        "Ã°"
      ],
      [
        "ğ",
        "ġ"
      ],
      [
        "Ā",
        "ÂĢ"
      ],
      [
        "o",
        "Ãº"
      ],
      [
        "Ã¾",
        "Âº"
      ],
      [
        "ÃĽ",
        "Ãģ"
      ],
      [
        "ÃŁ",
        "Ã±"
      ],
      [
        "g",
        "Ã½"
      ],
      [
        "ă",
        "ē"
      ],
      [
        "ÃĽ",
        "T"
      ],
      [
        "ÃŁ",
        "Ã´"
      ],
      [
        "Ãĵ",
        "p"
      ],
      [
        "Ã¶",
        "ÃĢ"
      ],
      [
        "Ā",
        "@"
      ],
      [
        "ÃŁ",
        "ÃĢ"
      ],
      [
        "Ã¯",
        "Ã»"
      ],
      [
        "Ă",
        "Ĕ"
      ],
      [
        "Ã«",
        "Ã¼"
      ],
      [
        "Ā",
        "ġ"
      ],
      [
        "Â¶",
        "ġ"
      ],
      [
        "Ã§",
        "Ã½"
      ],
      [
        "Z",
        "p"
      ],
      [
        "Ā",
        "ÂŁ"
      ],
      [
        "Ã¾",
        "Ãļ"
      ],
      [
        "ě",
        "ġ"
      ],
      [
        "w",
        "ÃŃ"
      ],
      [
        "Â»",
        "ġ"
      ],
      [
        "_",
        "ġ"
      ],
      [
        "ÃĿ",
        "Ãģ"
      ],
      [
        "Ą",
        "%"
      ],
      [
        "Ă",
        "Âĩ"
      ],
      [
        "ÃĦ",
        "A"
      ],
      [
        "Ă",
        "@"
      ],
      [
        "Ãĥ",
        "Ã½"
      ],
      [
        "Ãķ",
        "Ã£"
      ],
      [
        "Ã§",
        "Ã¼"
      ],
      [
        "Ã«",
        "Ã½"
      ],
      [
        "Ã¿",
        "v"
      ],
      [
        "ā",
        "Â¿"
      ],
      [
        "W",
        "Ã½"
      ],
      [
        "Ā",
        "ÂĿ"
      ],
      [
        "_",
        "Ã·"
      ],
      [
        "Ă",
        "$"
      ],
      [
        "\"",
        "?"
      ],
      [
        "ÃĶ",
        "Ã½"
      ],
      [
        "Ã¾",
        "y"
      ],
      [
        "g",
        "Ãģ"
      ],
      [
        "Ă",
        "Â¯"
      ],
      [
        "Ãı",
        "Ã¼"
      ],
      [
        "u",
        "b"
      ],
      [
        "{",
        "ġ"
      ],
      [
        "Ă",
        "ÂĤ"
      ],
      [
        "ā",
        "Ã·"
      ],
      [
        "Ġ",
        "Q"
      ],
      [
        "o",
        "Ã¡"
      ],
      [
        "ÃŁ",
        "Ãĩ"
      ],
      [
        "ÃŁ",
        "Ãª"
      ],
      [
        "|",
        "ġ"
      ],
      [
        "o",
        "Ã½"
      ],
      [
        "`",
        "?"
      ],
      [
        "Ġ",
        "b"
      ],
      [
        "a",
        "t"
      ],
      [
        "Ã¯",
        "ÃŃ"
      ],
      [
        "Ãı",
        "Ã²"
      ],
      [
        "ÂĹ",
        "ġ"
      ],
      [
        "Â·",
        "?"
      ],
      [
        "Ã¾",
        "Ã¹"
      ],
      [
        "ÂĹ",
        "?"
      ],
      [
        "C",
        "Ã¹"
      ],
      [
        "ÃŁ",
        "Ã¤"
      ],
      [
        "Ă",
        "Đ"
      ],
      [
        "ğ",
        "~"
      ],
      [
        "Ã¾",
        "Ã»"
      ],
      [
        "|",
        "="
      ],
      [
        "Ă",
        "Â±"
      ],
      [
        "Ã¾",
        "Ã±"
      ],
      [
        "ÂĻ",
        "Â«"
      ],
      [
        "z",
        "Ã½"
      ],
      [
        "ÃŁ",
        "ÃĤ"
      ],
      [
        "ÂĢ",
        "ą"
      ],
      [
        "Ã¦",
        "Ãº"
      ],
      [
        "ā",
        "Âİ"
      ],
      [
        "Ã§",
        "Ã±"
      ],
      [
        "Ã«",
        "Ãº"
      ],
      [
        ",",
        "ġ"
      ],
      [
        "W",
        "A"
      ],
      [
        "Ă",
        "ą"
      ],
      [
        "Ãı",
        "Ã°"
      ],
      [
        "Â°",
        "!"
      ],
      [
        "Ā",
        "Â¯"
      ],
      [
        "W",
        "Ãµ"
      ],
      [
        "O",
        "Ãº"
      ],
      [
        "ă",
        "ė"
      ],
      [
        "ÂĽ",
        "ġ"
      ],
      [
        "W",
        "Ã»"
      ],
      [
        "Ãį",
        "H"
      ],
      [
        "K",
        "c"
      ],
      [
        "ÂĪ",
        "ġ"
      ],
      [
        "ÃĿ",
        "Ã½"
      ],
      [
        "K",
        "y"
      ],
      [
        "Ãĵ",
        "Ã½"
      ],
      [
        "Ã¬",
        "Ãģ"
      ],
      [
        "Ã¸",
        "Âµ"
      ],
      [
        "R",
        "Ã»"
      ],
      [
        "s",
        "y"
      ],
      [
        "ā",
        ":"
      ],
      [
        "Ă",
        "ę"
      ],
      [
        "Ã¾",
        "Ã£"
      ],
      [
        "Ãĥ",
        "Ãģ"
      ],
      [
        "Â¸",
        "ġ"
      ],
      [
        "ÂĮ",
        "ġ"
      ],
      [
        "Ġ",
        "p"
      ],
      [
        "M",
        "y"
      ],
      [
        "Ġ",
        "ġ"
      ],
      [
        "ÂŃ",
        "Â«"
      ],
      [
        "Ã¾",
        "ÃĻ"
      ],
      [
        "Y",
        "ÃĢ"
      ],
      [
        "Y",
        "Ã¼"
      ],
      [
        "Ă",
        ")"
      ],
      [
        "Ã¾",
        "Ã¥"
      ],
      [
        "Ãı",
        "Ãµ"
      ],
      [
        "Â¸",
        "?"
      ],
      [
        "Ã¿",
        "e"
      ],
      [
        "Ãı",
        "Ã¡"
      ],
      [
        "E",
        "Ã´"
      ],
      [
        "Ãı",
        "b"
      ],
      [
        "Â´",
        "Âı"
      ],
      [
        "(",
        "}"
      ],
      [
        "o",
        "G"
      ],
      [
        "o",
        "Âµ"
      ],
      [
        "o",
        "Ã³"
      ],
      [
        "w",
        "Ã¼"
      ],
      [
        "Âľ",
        "ġ"
      ],
      [
        "Ć",
        "Â¥"
      ],
      [
        "Ġ",
        "A"
      ],
      [
        "Ã¿",
        "U"
      ],
      [
        "ÂĢ",
        "ÂĨ"
      ],
      [
        "O",
        "Ã¹"
      ],
      [
        "ă",
        "đ"
      ],
      [
        "Ãı",
        "c"
      ],
      [
        "ÃŁ",
        "Ã¶"
      ],
      [
        "E",
        "Ãģ"
      ],
      [
        "Ãķ",
        "ÃŃ"
      ],
      [
        "ÃŁ",
        "Ã£"
      ],
      [
        "O",
        "Ã»"
      ],
      [
        "Ã¾",
        "x"
      ],
      [
        "[",
        "ď"
      ],
      [
        "Ãı",
        "ÃŃ"
      ],
      [
        "Â£",
        "?"
      ],
      [
        "Ãİ",
        "Ã°"
      ],
      [
        "Ãı",
        "Ã¹"
      ],
      [
        "Ġ",
        "m"
      ],
      [
        "Ã¯",
        "Ã¶"
      ],
      [
        "[",
        "ġ"
      ],
      [
        "1",
        "5"
      ],
      [
        "Âľ",
        "?"
      ],
      [
        "/",
        "Ã·"
      ],
      [
        "Â©",
        "ġ"
      ],
      [
        "Âľ",
        "~"
      ],
      [
        "ă",
        "-"
      ],
      [
        "u",
        "Ã¼"
      ],
      [
        "Ą",
        "}"
      ],
      [
        "Ã®",
        "Ãģ"
      ],
      [
        "Â¤",
        "ġ"
      ],
      [
        "ÃŁ",
        "Ãľ"
      ],
      [
        "i",
        "p"
      ],
      [
        "Â»",
        "Âį"
      ],
      [
        "ÃĹ",
        "ġ"
      ],
      [
        "Ã¾",
        "Ãľ"
      ],
      [
        "Â£",
        "~"
      ],
      [
        "Ã©",
        "Ã»"
      ],
      [
        "Ā",
        "ÂĶ"
      ],
      [
        "Ã¿",
        "X"
      ],
      [
        "Ã¿",
        "c"
      ],
      [
        "_",
        "Ĕ"
      ],
      [
        "&",
        "ġ"
      ],
      [
        "`",
        "ġ"
      ],
      [
        "Ġ",
        "}"
      ],
      [
        "Ĉ",
        "ġ"
      ],
      [
        "Â®",
        "ġ"
      ],
      [
        "Ãĳ",
        "ÃĢ"
      ],
      [
        "g",
        "Ã»"
      ],
      [
        "|",
        ";"
      ],
      [
        "Ã¾",
        "X"
      ],
      [
        "Â§",
        "ġ"
      ],
      [
        "Ă",
        "Âı"
      ],
      [
        "ÂĦ",
        "ġ"
      ],
      [
        "Ã¬",
        "ÃĢ"
      ],
      [
        "Ã¾",
        "Ãł"
      ],
      [
        "Â²",
        "Â²"
      ],
      [
        "r",
        "Ã¼"
      ],
      [
        "w",
        "Ãģ"
      ],
      [
        "ÂĽ",
        "}"
      ],
      [
        "Ã¿",
        "A"
      ],
      [
        "Ãĵ",
        "A"
      ],
      [
        "ÃŁ",
        "v"
      ],
      [
        "Ã¿",
        "x"
      ],
      [
        "ÃŁ",
        "Ãļ"
      ],
      [
        "r",
        "Ãģ"
      ],
      [
        "ÂŃ",
        "ġ"
      ],
      [
        "Â©",
        "Âı"
      ],
      [
        "O",
        "Ãģ"
      ],
      [
        "Ą",
        ";"
      ],
      [
        "ÃĶ",
        "ÃĢ"
      ],
      [
        "K",
        "Ãº"
      ],
      [
        "Ā",
        "Âŀ"
      ],
      [
        "k",
        "Ãľ"
      ],
      [
        "Ġ",
        "ĀĀĀā"
      ],
      [
        "Ãī",
        "Ãģ"
      ],
      [
        "Ã«",
        "v"
      ],
      [
        "g",
        "Ã¼"
      ],
      [
        "Âĥ",
        "ġ"
      ],
      [
        "Ãı",
        "Ãª"
      ],
      [
        "ě",
        "Ã·"
      ],
      [
        "ÂĢ",
        "ġ"
      ],
      [
        "Â¿",
        "ġ"
      ],
      [
        "E",
        "Ã½"
      ],
      [
        "Ă",
        "Ē"
      ],
      [
        "Ĝ",
        "~"
      ],
      [
        "Ãĵ",
        "Q"
      ],
      [
        "Ãĸ",
        "ÃĢ"
      ],
      [
        "z",
        "Ãģ"
      ],
      [
        "{",
        "?"
      ],
      [
        "ÂŃ",
        "}"
      ],
      [
        "Ć",
        "~"
      ],
      [
        "Ã¿",
        "m"
      ],
      [
        "Ã¾",
        "ÃŃ"
      ],
      [
        "z",
        "Ãµ"
      ],
      [
        "Ã¬",
        "Âª"
      ],
      [
        "Ãĩ",
        "Âµ"
      ],
      [
        "Ă",
        "'"
      ],
      [
        "Ãĵ",
        "c"
      ],
      [
        "J",
        "ÃĬ"
      ],
      [
        "W",
        "Ãº"
      ],
      [
        "l",
        "Ã¹"
      ],
      [
        "u",
        "Ã½"
      ],
      [
        "Â£",
        "Ã·"
      ],
      [
        "]",
        "ÂŁ"
      ],
      [
        "s",
        "Ã½"
      ],
      [
        "Â¿",
        "?"
      ],
      [
        "Ã¦",
        "Ã¹"
      ],
      [
        "K",
        "Ã½"
      ],
      [
        "Ã¾",
        "A"
      ],
      [
        "Ã©",
        "Ã½"
      ],
      [
        "ă",
        "ġ"
      ],
      [
        "Â¬",
        "?"
      ],
      [
        "ÃĽ",
        "d"
      ],
      [
        "R",
        "Ã½"
      ],
      [
        "Ă",
        "Â·"
      ],
      [
        "Ą",
        "ė"
      ],
      [
        "Ã¿",
        "j"
      ],
      [
        "ÃĶ",
        "Ãģ"
      ],
      [
        "r",
        "Ã»"
      ],
      [
        "Ãķ",
        "X"
      ],
      [
        "[",
        "Âİ"
      ],
      [
        "Â¡",
        "?"
      ],
      [
        "a",
        "q"
      ],
      [
        "Ą",
        "ē"
      ],
      [
        "\"",
        ">"
      ],
      [
        "Ãĭ",
        "ÃĢ"
      ],
      [
        "1",
        "Â¾"
      ],
      [
        "Ã¾",
        "Ãµ"
      ],
      [
        "ÃŁ",
        "Ã¨"
      ],
      [
        "Ã§",
        "ÃĢ"
      ],
      [
        "Ã¸",
        "C"
      ],
      [
        "Â»",
        "?"
      ],
      [
        "Ãŀ",
        "Ã½"
      ],
      [
        "Â´",
        "Âİ"
      ],
      [
        "|",
        "?"
      ],
      [
        "Ă",
        "Ě"
      ],
      [
        "Ġ",
        "Ã£"
      ],
      [
        "O",
        "Ã¡"
      ],
      [
        "ğ",
        "'"
      ],
      [
        "ÃĽ",
        "S"
      ],
      [
        "Âķ",
        "?"
      ],
      [
        "Ã¯",
        "ÃĢ"
      ],
      [
        "Ãĵ",
        "B"
      ],
      [
        "Ãĸ",
        "Ã»"
      ],
      [
        "Ă",
        "Âĺ"
      ],
      [
        "Â»",
        "Ã·"
      ],
      [
        "Ãį",
        "ÃĬ"
      ],
      [
        "Ă",
        ":"
      ],
      [
        "Ă",
        "Âĭ"
      ],
      [
        "ć",
        "~"
      ],
      [
        "o",
        "ÃĤ"
      ],
      [
        "Ę",
        "ġ"
      ],
      [
        "Ã¾",
        "ÃĨ"
      ],
      [
        "Ã¯",
        "Ãº"
      ],
      [
        "Ãĸ",
        "G"
      ],
      [
        "K",
        "ÃĲ"
      ],
      [
        "V",
        "Ã»"
      ],
      [
        "ğ",
        "Ã·"
      ],
      [
        "Ġ",
        "8"
      ],
      [
        "g",
        "Ã°"
      ],
      [
        "Â´",
        "?"
      ],
      [
        "ÂĲ",
        "ÂŁ"
      ],
      [
        "Âĵ",
        "?"
      ],
      [
        "Ãĵ",
        "Ãģ"
      ],
      [
        "Ġ",
        "Ã·"
      ],
      [
        "Ãĸ",
        "y"
      ],
      [
        "r",
        "c"
      ],
      [
        "w",
        "B"
      ],
      [
        "ğ",
        "Ē"
      ],
      [
        "Â°",
        "ė"
      ],
      [
        "O",
        "Ãª"
      ],
      [
        "Ãķ",
        "U"
      ],
      [
        "Ã®",
        "A"
      ],
      [
        "W",
        "Ã³"
      ],
      [
        "ÃŁ",
        "ÃŃ"
      ],
      [
        "Ãı",
        "ÃĢ"
      ],
      [
        "Ã®",
        "Ãµ"
      ],
      [
        "w",
        "S"
      ],
      [
        "w",
        "Ã¥"
      ],
      [
        "Ãį",
        "Ã»"
      ],
      [
        "O",
        "Ã±"
      ],
      [
        "Ã¯",
        "ÃĻ"
      ],
      [
        "Ā",
        "Âı"
      ],
      [
        "Ã¾",
        "Ãģ"
      ],
      [
        "Â¦",
        "ÂŁ"
      ],
      [
        "O",
        "ÃĢ"
      ],
      [
        "7",
        "Â¾"
      ],
      [
        "I",
        "ÃĢ"
      ],
      [
        "ÂŃ",
        "?"
      ],
      [
        "|",
        "ē"
      ],
      [
        "`",
        "="
      ],
      [
        "Ã«",
        "Ãł"
      ],
      [
        "Â©",
        "ą"
      ],
      [
        "*",
        "ġ"
      ],
      [
        "Â¬",
        "Âı"
      ],
      [
        "Ã§",
        "Ã¹"
      ],
      [
        "Ãį",
        "Ã¼"
      ],
      [
        "ā",
        ">"
      ],
      [
        "Ãĵ",
        "Ã¼"
      ],
      [
        "Ãı",
        "ÃĬ"
      ],
      [
        "k",
        "Ãģ"
      ],
      [
        "O",
        "Ã°"
      ],
      [
        "ÂĽ",
        "="
      ],
      [
        "ÃĽ",
        "j"
      ],
      [
        "Ã¸",
        "D"
      ],
      [
        "Â¶",
        "}"
      ],
      [
        "o",
        "A"
      ],
      [
        "o",
        "Ã°"
      ],
      [
        "u",
        "H"
      ],
      [
        "Ā",
        "ÂĨ"
      ],
      [
        "Ãĵ",
        "b"
      ],
      [
        "ÃĶ",
        "Ãļ"
      ],
      [
        "R",
        "Ãľ"
      ],
      [
        "Ġ",
        "0"
      ],
      [
        "Ãĵ",
        "Ãµ"
      ],
      [
        "Âĥ",
        "?"
      ],
      [
        "o",
        "ÃĢ"
      ],
      [
        "`",
        "ą"
      ],
      [
        "ÂĹ",
        ">"
      ],
      [
        "ÂĽ",
        "Â«"
      ],
      [
        "W",
        "Ãģ"
      ],
      [
        "ÃĽ",
        "Ã½"
      ],
      [
        "Â¸",
        "="
      ],
      [
        "g",
        "Ãº"
      ],
      [
        "Âľ",
        "Âŀ"
      ],
      [
        "Ġ",
        "Ã¡"
      ],
      [
        "Â§",
        "Ã·"
      ],
      [
        "Â°",
        "ġ"
      ],
      [
        "{",
        "}"
      ],
      [
        "|",
        "Âĩ"
      ],
      [
        "Ã¸",
        "G"
      ],
      [
        "Ć",
        "Âĳ"
      ],
      [
        "Â¸",
        "}"
      ],
      [
        "Ġ",
        "ą"
      ],
      [
        "Ã¾",
        "Ã¢"
      ],
      [
        "g",
        "c"
      ],
      [
        "|",
        "#"
      ],
      [
        "ÃĮ",
        "Ã¼"
      ],
      [
        "Ć",
        "Â¤"
      ],
      [
        "Ã¯",
        "Ã³"
      ],
      [
        "o",
        "c"
      ],
      [
        "R",
        "Ãł"
      ],
      [
        "Ã¯",
        "Ãģ"
      ],
      [
        "i",
        "ÃĢ"
      ],
      [
        "Ã¿",
        "C"
      ],
      [
        "Ã¿",
        "f"
      ],
      [
        "ĝ",
        "ġ"
      ],
      [
        "Ã¯",
        "ÃĨ"
      ],
      [
        "Â¦",
        ";"
      ],
      [
        "Ãķ",
        "Ã¡"
      ],
      [
        "Â»",
        "ÂŁ"
      ],
      [
        "Â°",
        "Âĺ"
      ],
      [
        "Â¦",
        "?"
      ],
      [
        "g",
        "A"
      ],
      [
        "u",
        "Ãģ"
      ],
      [
        "ÂĽ",
        "Âı"
      ],
      [
        "Ą",
        "ď"
      ],
      [
        "Ãĺ",
        "P"
      ],
      [
        "g",
        "Ã±"
      ],
      [
        "Ãĩ",
        "Ã½"
      ],
      [
        "w",
        "A"
      ],
      [
        "Ãĸ",
        "Ãģ"
      ],
      [
        "Â´",
        "ġ"
      ],
      [
        "J",
        "Ã¡"
      ],
      [
        "Â´",
        "ÂŁ"
      ],
      [
        "V",
        "Ã¹"
      ],
      [
        "Ĉ",
        "Âģ"
      ],
      [
        "@",
        "ÂŁ"
      ],
      [
        "F",
        "Q"
      ],
      [
        "[",
        "^"
      ],
      [
        "k",
        "Ã¼"
      ],
      [
        "J",
        "Ãļ"
      ],
      [
        "W",
        "Ãª"
      ],
      [
        "z",
        "A"
      ],
      [
        "z",
        "Âµ"
      ],
      [
        "ÂĦ",
        "ÂŁ"
      ],
      [
        "Â§",
        "?"
      ],
      [
        "Ãħ",
        "Ã½"
      ],
      [
        "l",
        "A"
      ],
      [
        "l",
        "Z"
      ],
      [
        "w",
        "T"
      ],
      [
        "ÂĮ",
        "?"
      ],
      [
        "ÂĤ",
        ">"
      ],
      [
        "Ã§",
        "Ãģ"
      ],
      [
        "g",
        "Ã¡"
      ],
      [
        "Ãĵ",
        "Ã°"
      ],
      [
        "Ā",
        "Âģ"
      ],
      [
        "ÂŃ",
        "ė"
      ],
      [
        "Â¦",
        "Âı"
      ],
      [
        "w",
        "Ãł"
      ],
      [
        "ÃĽ",
        "Ã±"
      ],
      [
        "Â¦",
        "Âī"
      ],
      [
        "Â¨",
        "+"
      ],
      [
        "ÂĦ",
        "ď"
      ],
      [
        "Â´",
        "'"
      ],
      [
        "Â¨",
        "ġ"
      ],
      [
        "w",
        "Ãļ"
      ],
      [
        "Ã¾",
        "Ãº"
      ],
      [
        "Ã¦",
        "Ã¶"
      ],
      [
        "Ãĥ",
        "Ã¼"
      ],
      [
        "M",
        "ÃĢ"
      ],
      [
        "W",
        "Ã£"
      ],
      [
        "Â¯",
        "Ã·"
      ],
      [
        "ÃĽ",
        "Âª"
      ],
      [
        "Â´",
        "ą"
      ],
      [
        "Ãĳ",
        "Ãģ"
      ],
      [
        "{",
        "#"
      ],
      [
        "J",
        "y"
      ],
      [
        "Ã¾",
        "Ã°"
      ],
      [
        "ÃŁ",
        "ÃĬ"
      ],
      [
        "Ãĸ",
        "A"
      ],
      [
        "Ã¦",
        "Ã±"
      ],
      [
        "Ãķ",
        "Ã½"
      ],
      [
        "Ġ",
        "."
      ],
      [
        "Ãħ",
        "Ã¶"
      ],
      [
        "Ã¿",
        "Z"
      ],
      [
        "R",
        "ÃĪ"
      ],
      [
        "_",
        "<"
      ],
      [
        "ÂĹ",
        "Ã·"
      ],
      [
        "u",
        "N"
      ],
      [
        "Ã¾",
        "q"
      ],
      [
        "ÃĿ",
        "Ã°"
      ],
      [
        "Ã¾",
        "ÃĴ"
      ],
      [
        "ÂĿ",
        "ġ"
      ],
      [
        "Â®",
        "ÂĴ"
      ],
      [
        "ÂĲ",
        "Đ"
      ],
      [
        "ÃĽ",
        "Ã»"
      ],
      [
        "Ġ",
        "4"
      ],
      [
        "Ã«",
        "Ã»"
      ],
      [
        "Â¯",
        "Âĩ"
      ],
      [
        "Â¶",
        "?"
      ],
      [
        "ğ",
        "ÂĴ"
      ],
      [
        "Ã¿",
        "D"
      ],
      [
        "u",
        "Ã³"
      ],
      [
        "Ĉ",
        ")"
      ],
      [
        "Ă",
        "ė"
      ],
      [
        "Ã¾",
        "P"
      ],
      [
        "Â©",
        "Âİ"
      ],
      [
        "ā",
        "Âģ"
      ],
      [
        "w",
        "Ã³"
      ],
      [
        "Ã§",
        "Ã»"
      ],
      [
        "F",
        "T"
      ],
      [
        "w",
        "Ã±"
      ],
      [
        "ă",
        "^"
      ],
      [
        "Ãĸ",
        "Ã½"
      ],
      [
        "u",
        "v"
      ],
      [
        "Ãĵ",
        "Ã¹"
      ],
      [
        "\\",
        "ġ"
      ],
      [
        "Ã¯",
        "Ã¨"
      ],
      [
        "Ãķ",
        "Ãģ"
      ],
      [
        "Ã¬",
        "Ã»"
      ],
      [
        "E",
        "Ãļ"
      ],
      [
        "F",
        "Ã°"
      ],
      [
        "w",
        "b"
      ],
      [
        "Â®",
        "?"
      ],
      [
        "2",
        "0"
      ],
      [
        "Ãı",
        "Ã£"
      ],
      [
        "Â¶",
        "Â±"
      ],
      [
        "E",
        "Ãµ"
      ],
      [
        "ÃŁ",
        "Ãī"
      ],
      [
        "ă",
        "ĕ"
      ],
      [
        "ÂĢ",
        "ę"
      ],
      [
        "ÃĽ",
        "x"
      ],
      [
        "Y",
        "Ã½"
      ],
      [
        "Ã¯",
        "Ã±"
      ],
      [
        "6",
        "8"
      ],
      [
        "E",
        "Ã¼"
      ],
      [
        "Ă",
        "Â¢"
      ],
      [
        "g",
        "Ã¨"
      ],
      [
        "Ã§",
        "Ãº"
      ],
      [
        "ğ",
        "Âĭ"
      ],
      [
        "z",
        "p"
      ],
      [
        "Ã«",
        "Ã±"
      ],
      [
        "Ãĵ",
        "Ã»"
      ],
      [
        "Â¥",
        "Â±"
      ],
      [
        "Y",
        "Ãģ"
      ],
      [
        "ÂĽ",
        "Ã·"
      ],
      [
        "Ãĥ",
        "Ãł"
      ],
      [
        "|",
        "Ã·"
      ],
      [
        "w",
        "p"
      ],
      [
        "E",
        "ÃŃ"
      ],
      [
        "l",
        "b"
      ],
      [
        "Ã¦",
        "U"
      ],
      [
        "O",
        "ÃŃ"
      ],
      [
        "ÂĦ",
        ">"
      ],
      [
        "Ãĺ",
        "Ã¼"
      ],
      [
        "Ãĭ",
        "Ã¶"
      ],
      [
        "Â¿",
        "Âŀ"
      ],
      [
        "Â°",
        "ÂĬ"
      ],
      [
        "Ã¯",
        "Ã¥"
      ],
      [
        "w",
        "Ã°"
      ],
      [
        "Ă",
        "ÂĨ"
      ],
      [
        "Ć",
        "ą"
      ],
      [
        "Ã¾",
        "v"
      ],
      [
        "Ã¯",
        "Ãł"
      ],
      [
        "a",
        "n"
      ],
      [
        "Ĉ",
        "?"
      ],
      [
        "Ġ",
        "Ã°"
      ],
      [
        "Ġ",
        "ÃĻ"
      ],
      [
        "Ã¸",
        "Ã¼"
      ],
      [
        "Ă",
        "Â«"
      ],
      [
        "Ė",
        "?"
      ],
      [
        "ÂŃ",
        "Ã·"
      ],
      [
        "Ã§",
        "U"
      ],
      [
        "Âĵ",
        "ÂĬ"
      ],
      [
        "h",
        "Ãµ"
      ],
      [
        "Ė",
        "ġ"
      ],
      [
        "ÂĮ",
        "ÂŁ"
      ],
      [
        "ÂĦ",
        "~"
      ],
      [
        "g",
        "ÃĲ"
      ],
      [
        "Ĝ",
        "ÂŁ"
      ],
      [
        "Âļ",
        ":"
      ],
      [
        "Ġ",
        "Ã´"
      ],
      [
        "Ãĭ",
        "Ã»"
      ],
      [
        "Ã¿",
        "t"
      ],
      [
        "K",
        "b"
      ],
      [
        "z",
        "Ã°"
      ],
      [
        "|",
        "~"
      ],
      [
        "Ãı",
        "Ã¤"
      ],
      [
        "k",
        "Ã»"
      ],
      [
        "z",
        "Âª"
      ],
      [
        "Ã¾",
        "L"
      ],
      [
        "Âº",
        "Ã¹"
      ],
      [
        "ÂĢ",
        ">"
      ],
      [
        "Ãį",
        "Ãº"
      ],
      [
        "/",
        "ġ"
      ],
      [
        "o",
        "Ãµ"
      ],
      [
        "Ğ",
        "Âŀ"
      ],
      [
        "Ãĳ",
        "Ã°"
      ],
      [
        "Â¿",
        "]"
      ],
      [
        "Âĥ",
        "ÂŁ"
      ],
      [
        "l",
        "Ã»"
      ],
      [
        "K",
        "t"
      ],
      [
        "R",
        "Ãģ"
      ],
      [
        "|",
        "ą"
      ],
      [
        "ÂĽ",
        "?"
      ],
      [
        "ÃĽ",
        "p"
      ],
      [
        "\"",
        "Âı"
      ],
      [
        "K",
        "Ãª"
      ],
      [
        "k",
        "Ã½"
      ],
      [
        "{",
        "Âĭ"
      ],
      [
        "Âļ",
        "?"
      ],
      [
        "Ãħ",
        "Ã¹"
      ],
      [
        "z",
        "Ãľ"
      ],
      [
        "Ã«",
        "A"
      ],
      [
        "Â¨",
        "~"
      ],
      [
        "Ā",
        "Â¡"
      ],
      [
        "Ã²",
        "Ã±"
      ],
      [
        "Ãĳ",
        "Ã¼"
      ],
      [
        "M",
        "Ã½"
      ],
      [
        "Ãİ",
        "Ãº"
      ],
      [
        "`",
        ";"
      ],
      [
        "Âļ",
        "}"
      ],
      [
        "Â»",
        ">"
      ],
      [
        "Â´",
        "Âĳ"
      ],
      [
        "ÃĶ",
        "U"
      ],
      [
        "V",
        "ÃŃ"
      ],
      [
        "Ă",
        "&"
      ],
      [
        "[",
        "?"
      ],
      [
        "ÃĹ",
        "Ã·"
      ],
      [
        "Ãĳ",
        "Ã¹"
      ],
      [
        "`",
        "ė"
      ],
      [
        "Ã®",
        "ÃĬ"
      ],
      [
        "ÂĮ",
        "ÂĨ"
      ],
      [
        "{",
        "Ã·"
      ],
      [
        "Ã«",
        "Ã£"
      ],
      [
        "Ã¸",
        "T"
      ],
      [
        "Ãį",
        "Ã½"
      ],
      [
        "K",
        "Ã»"
      ],
      [
        "\"",
        "ÂŁ"
      ],
      [
        "Ĉ",
        ">"
      ],
      [
        "Â¿",
        "Âĺ"
      ],
      [
        "Ġ",
        "Ãł"
      ],
      [
        "Ãı",
        "Ã´"
      ],
      [
        "Ãĵ",
        "ÃĢ"
      ],
      [
        "Ãİ",
        "Ã½"
      ],
      [
        "k",
        "A"
      ],
      [
        "Ğ",
        "ġ"
      ],
      [
        "Ġ",
        "Âĩ"
      ],
      [
        "Ãİ",
        "A"
      ],
      [
        "7",
        "Â¹"
      ],
      [
        "M",
        "Ãģ"
      ],
      [
        "Ãĩ",
        "Ãº"
      ],
      [
        "V",
        "Ã°"
      ],
      [
        "g",
        "Ã³"
      ],
      [
        "o",
        "f"
      ],
      [
        "Ãĵ",
        "Ã¢"
      ],
      [
        "(",
        "ġ"
      ],
      [
        "Ĝ",
        "?"
      ],
      [
        "ÂĦ",
        "Â±"
      ],
      [
        "Âļ",
        "ġ"
      ],
      [
        "Ãı",
        "Ãł"
      ],
      [
        "J",
        "Ã°"
      ],
      [
        "W",
        "Ãł"
      ],
      [
        "Ã¾",
        "Q"
      ],
      [
        "O",
        "Ãļ"
      ],
      [
        "W",
        "Ã´"
      ],
      [
        "Ć",
        "ÂĬ"
      ],
      [
        "Ãĥ",
        "ÃĢ"
      ],
      [
        "K",
        "x"
      ],
      [
        "Ã¿",
        "S"
      ],
      [
        "(",
        "ą"
      ],
      [
        "w",
        "Ãº"
      ],
      [
        "ÃĽ",
        "Ã¶"
      ],
      [
        "Ãĸ",
        "Ã¡"
      ],
      [
        "Â»",
        "]"
      ],
      [
        "Â£",
        "ġ"
      ],
      [
        "9",
        "Â³"
      ],
      [
        "{",
        "'"
      ],
      [
        "Ã®",
        "Ãľ"
      ],
      [
        "Ã§",
        "Ã¢"
      ],
      [
        "Â¶",
        ":"
      ],
      [
        "M",
        "P"
      ],
      [
        "Ã§",
        "Q"
      ],
      [
        "F",
        "N"
      ],
      [
        "Ć",
        "ÂŁ"
      ],
      [
        "Ė",
        "ÂĻ"
      ],
      [
        "Â¦",
        "ė"
      ],
      [
        "Ã¸",
        "Ã¹"
      ],
      [
        "O",
        "A"
      ],
      [
        "l",
        "ÃĢ"
      ],
      [
        "Ã§",
        "Ã¡"
      ],
      [
        "Ãĥ",
        "A"
      ],
      [
        "k",
        "e"
      ],
      [
        "Âĵ",
        "ġ"
      ],
      [
        "Ã¾",
        "Ã¤"
      ],
      [
        "Â´",
        ":"
      ],
      [
        "l",
        "ÃĨ"
      ],
      [
        "Â½",
        "Â¾"
      ],
      [
        "Â¬",
        "Âī"
      ],
      [
        "F",
        "H"
      ],
      [
        "O",
        "Âµ"
      ],
      [
        "E",
        "Ã±"
      ],
      [
        "i",
        "Ã±"
      ],
      [
        "Ã¾",
        "j"
      ],
      [
        "Ãĩ",
        "Ã»"
      ],
      [
        "w",
        "Ã¢"
      ],
      [
        "Ą",
        "Ď"
      ],
      [
        "Ãĵ",
        "Ãļ"
      ],
      [
        "w",
        "Ãµ"
      ],
      [
        "|",
        "ė"
      ],
      [
        "ÂŃ",
        "~"
      ],
      [
        "Ę",
        "?"
      ],
      [
        "Ãķ",
        "Ãº"
      ],
      [
        "[",
        "Ě"
      ],
      [
        "Ĉ",
        "Âĩ"
      ],
      [
        "Ã«",
        "Ã¹"
      ],
      [
        "Â§",
        "ą"
      ],
      [
        "Ã¿",
        "b"
      ],
      [
        "Âļ",
        "Ã·"
      ],
      [
        "Ãĺ",
        "Ã½"
      ],
      [
        "Ą",
        "Ē"
      ],
      [
        "ÂĤ",
        "'"
      ],
      [
        "ÃĶ",
        "X"
      ],
      [
        "ā",
        "+"
      ],
      [
        "O",
        "Ã³"
      ],
      [
        "Ã«",
        "ÃĢ"
      ],
      [
        "O",
        "y"
      ],
      [
        "Â¿",
        ":"
      ],
      [
        "Â§",
        "ÂŁ"
      ],
      [
        "7",
        "4"
      ],
      [
        "K",
        "Ãģ"
      ],
      [
        "Ġ",
        "Ãģ"
      ],
      [
        "l",
        "y"
      ],
      [
        "w",
        "ÃĲ"
      ],
      [
        "3",
        "Â¼"
      ],
      [
        "K",
        "ÃĬ"
      ],
      [
        "ÃĶ",
        "Ã£"
      ],
      [
        "Ã¦",
        "Ã»"
      ],
      [
        "Â¶",
        "Âı"
      ],
      [
        "o",
        "Ãļ"
      ],
      [
        "Ã«",
        "ÃŃ"
      ],
      [
        "W",
        "Ãī"
      ],
      [
        "Y",
        "A"
      ],
      [
        "u",
        "ÃĢ"
      ],
      [
        "Ã¾",
        "ÃĬ"
      ],
      [
        "Ğ",
        "Âı"
      ],
      [
        "Ã¾",
        "b"
      ],
      [
        "ÂĹ",
        "}"
      ],
      [
        "Â¶",
        "Âį"
      ],
      [
        "W",
        "ÃĻ"
      ],
      [
        "Â¨",
        "ę"
      ],
      [
        "|",
        "%"
      ],
      [
        "Ã®",
        "Ã¼"
      ],
      [
        "Ãĩ",
        "Ã¼"
      ],
      [
        "o",
        "L"
      ],
      [
        "u",
        "Ã´"
      ],
      [
        "ğ",
        "Âĳ"
      ],
      [
        "o",
        "Ã¨"
      ],
      [
        "Ã¾",
        "D"
      ],
      [
        "ÃĶ",
        "Ã¼"
      ],
      [
        "Ãĳ",
        "Ã»"
      ],
      [
        "K",
        "Ãł"
      ],
      [
        "Ãı",
        "Ã¨"
      ],
      [
        "Ã®",
        "ÃĢ"
      ],
      [
        "{",
        "Âı"
      ],
      [
        "Ã¿",
        "d"
      ],
      [
        "{",
        ">"
      ],
      [
        "[",
        "Âĩ"
      ],
      [
        "Ã¾",
        "p"
      ],
      [
        "Ãķ",
        "Ã´"
      ],
      [
        "Ã®",
        "Ã¡"
      ],
      [
        "ÂŃ",
        ";"
      ],
      [
        "u",
        "ÃŃ"
      ],
      [
        "ÃŁ",
        "Âª"
      ],
      [
        "{",
        "-"
      ],
      [
        "Ġ",
        "?"
      ],
      [
        "[",
        "ÂŁ"
      ],
      [
        "`",
        "Â«"
      ],
      [
        "w",
        "Ã¹"
      ],
      [
        "Ã¾",
        "m"
      ],
      [
        "ā",
        "Âį"
      ],
      [
        "Ă",
        "%"
      ],
      [
        "Ą",
        "!"
      ],
      [
        "ă",
        "="
      ],
      [
        "Ã¿",
        "L"
      ],
      [
        "Â®",
        ">"
      ],
      [
        "ě",
        "ÂŁ"
      ],
      [
        "ÂĦ",
        "ÂĬ"
      ],
      [
        "ÃĦ",
        "Ãģ"
      ],
      [
        "O",
        "Âª"
      ],
      [
        "V",
        "Ãģ"
      ],
      [
        "W",
        "ÃŃ"
      ],
      [
        "Ãı",
        "A"
      ],
      [
        "Ãķ",
        "D"
      ],
      [
        "Â§",
        "Âĳ"
      ],
      [
        "Â®",
        "Â±"
      ],
      [
        "Ãĸ",
        "x"
      ],
      [
        "{",
        "ÂŁ"
      ],
      [
        "{",
        "Âī"
      ],
      [
        "Ãĳ",
        "Ã±"
      ],
      [
        "a",
        "Ã»"
      ],
      [
        "Ã©",
        "ÃĢ"
      ],
      [
        "i",
        "Ã»"
      ],
      [
        "ÃĽ",
        "Ã°"
      ],
      [
        "ÃĿ",
        "Ã¡"
      ],
      [
        "g",
        "ÃĢ"
      ],
      [
        "Ãĩ",
        "Ã¹"
      ],
      [
        "Â¶",
        "Âĳ"
      ],
      [
        "W",
        "ÃĢ"
      ],
      [
        "w",
        "G"
      ],
      [
        "ÃĽ",
        "Ãľ"
      ],
      [
        "Â£",
        "ė"
      ],
      [
        "ÂĽ",
        "ė"
      ],
      [
        "Â´",
        "~"
      ],
      [
        "Ãİ",
        "x"
      ],
      [
        "g",
        "Ãļ"
      ],
      [
        "ÂĽ",
        "ÂĨ"
      ],
      [
        "ÃĽ",
        "Ãŀ"
      ],
      [
        "Ãı",
        "p"
      ],
      [
        "Y",
        "Ã¡"
      ],
      [
        "[",
        "Ã·"
      ],
      [
        "o",
        "ÃŃ"
      ],
      [
        "Â¿",
        "<"
      ],
      [
        "Â§",
        "ÂĨ"
      ],
      [
        "Â¦",
        ":"
      ],
      [
        "Â¨",
        "Ã·"
      ],
      [
        "2",
        "1"
      ],
      [
        "u",
        "A"
      ],
      [
        "Â´",
        ";"
      ],
      [
        "Ã¾",
        "t"
      ],
      [
        "Ã©",
        "P"
      ],
      [
        "Ãĸ",
        "Âµ"
      ],
      [
        "Â»",
        "Â±"
      ],
      [
        "w",
        "ÃĴ"
      ],
      [
        "o",
        "Ã´"
      ],
      [
        "Ğ",
        "?"
      ],
      [
        "Ġ",
        "ė"
      ],
      [
        "Ã¯",
        "Ã´"
      ],
      [
        "Ãı",
        "Ã¥"
      ],
      [
        "Ãĭ",
        "Ãº"
      ],
      [
        "K",
        "Ã£"
      ],
      [
        "z",
        "x"
      ],
      [
        "Âļ",
        "Âĭ"
      ],
      [
        "Ã¯",
        "x"
      ],
      [
        "Â¸",
        "~"
      ],
      [
        "V",
        "ÃĨ"
      ],
      [
        "ÂĢ",
        "ÂĬ"
      ],
      [
        "ÃĮ",
        "Ã¥"
      ],
      [
        "g",
        "Ãµ"
      ],
      [
        "Ã¬",
        "Ã±"
      ],
      [
        "K",
        "Ãļ"
      ],
      [
        "Ã¾",
        "B"
      ],
      [
        "Ã¬",
        "Ã¼"
      ],
      [
        "Â¨",
        "ď"
      ],
      [
        "s",
        "Ãģ"
      ],
      [
        "ÃŁ",
        "ÃĻ"
      ],
      [
        "Â¦",
        "Ã·"
      ],
      [
        "k",
        "ÃĪ"
      ],
      [
        "Ã®",
        "Ã±"
      ],
      [
        "ÂŃ",
        "ÂŁ"
      ],
      [
        "Â¸",
        "<"
      ],
      [
        "9",
        "Â¼"
      ],
      [
        "Ã²",
        "Ã½"
      ],
      [
        "Ãħ",
        "Ã±"
      ],
      [
        "ÃĽ",
        "Ã¼"
      ],
      [
        "ÃŁ",
        "ÃĨ"
      ],
      [
        "|",
        "}"
      ],
      [
        "Ã²",
        "Ã»"
      ],
      [
        "Â´",
        "ď"
      ],
      [
        "[",
        "Âı"
      ],
      [
        "g",
        "Ã¹"
      ],
      [
        "{",
        "<"
      ],
      [
        "ÃŁ",
        "n"
      ],
      [
        "Â¸",
        "ÂŁ"
      ],
      [
        "Âķ",
        "ġ"
      ],
      [
        "ÃĦ",
        "Ã¹"
      ],
      [
        "ÂĶ",
        "ġ"
      ],
      [
        "ÂĿ",
        "^"
      ],
      [
        "Ã¾",
        "ÃĤ"
      ],
      [
        "ÃĹ",
        "Âı"
      ],
      [
        "O",
        "G"
      ],
      [
        "g",
        "B"
      ],
      [
        "g",
        "ÃĻ"
      ],
      [
        "Ã¾",
        "Âª"
      ],
      [
        "Ă",
        "Âģ"
      ],
      [
        "ÃŁ",
        "Ã¢"
      ],
      [
        "Â¦",
        "&"
      ],
      [
        "Ãİ",
        "Ãģ"
      ],
      [
        "_",
        "ÂŁ"
      ],
      [
        "{",
        "ď"
      ],
      [
        "Ã¸",
        "A"
      ],
      [
        "Ã¯",
        "A"
      ],
      [
        "Ã¯",
        "Ã¡"
      ],
      [
        "ÂĮ",
        "="
      ],
      [
        "Ã«",
        "Ã¡"
      ],
      [
        "Ã«",
        "Ã°"
      ],
      [
        "u",
        "ÃĤ"
      ],
      [
        "ÂĢ",
        "ÂŁ"
      ],
      [
        "ÃĽ",
        "Ã¹"
      ],
      [
        "Â´",
        "Âį"
      ],
      [
        "Âľ",
        "ÂŁ"
      ],
      [
        "Â¿",
        "Ē"
      ],
      [
        "Ã«",
        "Ãª"
      ],
      [
        "Ãĵ",
        "x"
      ],
      [
        "ÂĮ",
        "Âı"
      ],
      [
        "w",
        "Ã´"
      ],
      [
        "Ć",
        "?"
      ],
      [
        "Â´",
        "Âĸ"
      ],
      [
        "l",
        "Ãº"
      ],
      [
        "Ġ",
        "B"
      ],
      [
        "K",
        "A"
      ],
      [
        "g",
        "Ã¶"
      ],
      [
        "Â¯",
        "Â±"
      ],
      [
        "W",
        "Ã°"
      ],
      [
        "Ã¸",
        "Ãº"
      ],
      [
        "ÃŁ",
        "y"
      ],
      [
        "Ã§",
        "Ãļ"
      ],
      [
        "Ãĳ",
        "Ã½"
      ],
      [
        "Â¶",
        "Âī"
      ],
      [
        "`",
        "ÂŁ"
      ],
      [
        "Ą",
        "ġ"
      ],
      [
        "Ã¾",
        "Ã¡"
      ],
      [
        "Ãĥ",
        "P"
      ],
      [
        "k",
        "Ã¨"
      ],
      [
        "u",
        "Ãł"
      ],
      [
        "Ğ",
        "~"
      ],
      [
        "Ġ",
        "Ē"
      ],
      [
        "Â°",
        "Ã·"
      ],
      [
        "Ã¯",
        "Ãµ"
      ],
      [
        "Â·",
        "ġ"
      ],
      [
        "Âļ",
        "Âį"
      ],
      [
        "Ãĳ",
        "A"
      ],
      [
        "Â®",
        "~"
      ],
      [
        "K",
        "j"
      ],
      [
        "W",
        "ÃĬ"
      ],
      [
        "s",
        "Ã°"
      ],
      [
        "ĝ",
        "~"
      ],
      [
        "Â¿",
        "^"
      ],
      [
        "ÃĿ",
        "ÃĢ"
      ],
      [
        "Ãĥ",
        "Ã¹"
      ],
      [
        "Ãĵ",
        "ÃŃ"
      ],
      [
        "Â¯",
        "ĕ"
      ],
      [
        "Â»",
        "Âĩ"
      ],
      [
        "9",
        "Â¾"
      ],
      [
        "o",
        "ÃĴ"
      ],
      [
        "Ą",
        "Ĕ"
      ],
      [
        "ÂĹ",
        "~"
      ],
      [
        "K",
        "S"
      ],
      [
        "w",
        "y"
      ],
      [
        "Ć",
        "Âı"
      ],
      [
        "Ć",
        "Âį"
      ],
      [
        "Ã²",
        "Ãµ"
      ],
      [
        "Ã®",
        "y"
      ],
      [
        "Ã¦",
        "x"
      ],
      [
        "g",
        "Ã¥"
      ],
      [
        "Â§",
        "ē"
      ],
      [
        "Ã¬",
        "Ã¨"
      ],
      [
        "ÂĲ",
        "đ"
      ],
      [
        "Ãĵ",
        "Ã±"
      ],
      [
        "ć",
        "-"
      ],
      [
        "Ğ",
        "Â«"
      ],
      [
        "Ã«",
        "q"
      ],
      [
        "ÂĦ",
        "Âĭ"
      ],
      [
        "Ãı",
        "Ãī"
      ],
      [
        "u",
        "Ãŀ"
      ],
      [
        "Â¬",
        "ġ"
      ],
      [
        "ÃĶ",
        "t"
      ],
      [
        "r",
        "N"
      ],
      [
        "Ãķ",
        "ÃĻ"
      ],
      [
        "Â¦",
        ">"
      ],
      [
        "Ã¾",
        "T"
      ],
      [
        "/",
        "Â«"
      ],
      [
        "Ą",
        "Â¥"
      ],
      [
        "`",
        "Âŀ"
      ],
      [
        "i",
        "Ã£"
      ],
      [
        "k",
        "Ã¢"
      ],
      [
        "u",
        "y"
      ],
      [
        "ă",
        "ď"
      ],
      [
        "ÂĪ",
        "?"
      ],
      [
        "Ã¯",
        "U"
      ],
      [
        "Ã¿",
        "N"
      ],
      [
        "Â¿",
        "Âı"
      ],
      [
        "I",
        "Ã¼"
      ],
      [
        "O",
        "ÃĲ"
      ],
      [
        "`",
        "~"
      ],
      [
        "Ă",
        "?"
      ],
      [
        "Âº",
        "Ã½"
      ],
      [
        "J",
        "Ã³"
      ],
      [
        "[",
        ">"
      ],
      [
        "z",
        "Ãļ"
      ],
      [
        "ÂĽ",
        "Ě"
      ],
      [
        "Ã¾",
        "Ã´"
      ],
      [
        "Ã©",
        "A"
      ],
      [
        "J",
        "A"
      ],
      [
        "ÃĿ",
        "Ã´"
      ],
      [
        "Ãĩ",
        "Ã°"
      ],
      [
        "K",
        "ÃĻ"
      ],
      [
        "u",
        "ÃĬ"
      ],
      [
        "z",
        "ÃĢ"
      ],
      [
        "O",
        "Ãµ"
      ],
      [
        "W",
        "Ã¡"
      ],
      [
        "|",
        "Â¢"
      ],
      [
        "Ĉ",
        "ą"
      ],
      [
        "Â¨",
        "?"
      ],
      [
        "g",
        "ÃŃ"
      ],
      [
        "Â²",
        "Â¾"
      ],
      [
        "ÃŁ",
        "Q"
      ],
      [
        "ÂĲ",
        "Âĳ"
      ],
      [
        "M",
        "Ã¼"
      ],
      [
        "ě",
        "~"
      ],
      [
        "Ã¿",
        "Q"
      ],
      [
        "Â°",
        "Âĸ"
      ],
      [
        "Âº",
        "v"
      ],
      [
        "`",
        "+"
      ],
      [
        "F",
        "p"
      ],
      [
        "o",
        "Ãª"
      ],
      [
        "Ãĥ",
        "Ã³"
      ],
      [
        "ÂĢ",
        "%"
      ],
      [
        "ÃĽ",
        "Ã³"
      ],
      [
        "Â¸",
        "Âį"
      ],
      [
        "(",
        "Â¥"
      ],
      [
        "[",
        ")"
      ],
      [
        "g",
        "x"
      ],
      [
        "o",
        "Ãł"
      ],
      [
        "Ãķ",
        "ÃĪ"
      ],
      [
        "Â§",
        "ė"
      ],
      [
        "Ã¦",
        "ÃĢ"
      ],
      [
        "Â¦",
        "'"
      ],
      [
        "|",
        "Âį"
      ],
      [
        "ÃĽ",
        "f"
      ],
      [
        "Ã§",
        "ÃŃ"
      ],
      [
        "Ã¦",
        "Ã½"
      ],
      [
        "Ã¦",
        "Ãµ"
      ],
      [
        "Ãį",
        "Ã¤"
      ],
      [
        "Â¶",
        "Âĺ"
      ],
      [
        "E",
        "Ã³"
      ],
      [
        "Ġ",
        "P"
      ],
      [
        "ÃĿ",
        "ÃĻ"
      ],
      [
        "9",
        "5"
      ],
      [
        "E",
        "Ã»"
      ],
      [
        "{",
        "ĕ"
      ],
      [
        "Ġ",
        "H"
      ],
      [
        "ÂĽ",
        "Âģ"
      ],
      [
        "Â°",
        "^"
      ],
      [
        "\"",
        "<"
      ],
      [
        "l",
        "Ã¨"
      ],
      [
        "r",
        "Ã±"
      ],
      [
        "Ãķ",
        "Ã¤"
      ],
      [
        "_",
        "Â¤"
      ],
      [
        "i",
        "x"
      ],
      [
        "*",
        "?"
      ],
      [
        "ÃĮ",
        "Ã»"
      ],
      [
        "Ã«",
        "Ã´"
      ],
      [
        "Â¨",
        "."
      ],
      [
        "9",
        "4"
      ],
      [
        "I",
        "Ãº"
      ],
      [
        "K",
        "Ã¹"
      ],
      [
        "K",
        "Ã¥"
      ],
      [
        "s",
        "Ã´"
      ],
      [
        "Ã¬",
        "e"
      ],
      [
        "Â®",
        "Âĳ"
      ],
      [
        "u",
        "Ãµ"
      ],
      [
        "ÃĽ",
        "Ã¤"
      ],
      [
        "ÂĦ",
        "Âı"
      ],
      [
        "ÂĿ",
        "ė"
      ],
      [
        "l",
        "Âª"
      ],
      [
        "ÂĮ",
        "~"
      ],
      [
        "Y",
        "Ã³"
      ],
      [
        "Ãķ",
        "Ã¶"
      ],
      [
        "Â´",
        "Âĺ"
      ],
      [
        "|",
        "ÂĻ"
      ],
      [
        "ě",
        "?"
      ],
      [
        "Â°",
        "ę"
      ],
      [
        "Ãĭ",
        "Ã¹"
      ],
      [
        "Ã®",
        "Ã¤"
      ],
      [
        "Â»",
        "}"
      ],
      [
        "Ã¸",
        "ÃĢ"
      ],
      [
        "Â§",
        "Âĸ"
      ],
      [
        "Âĥ",
        "]"
      ],
      [
        "Â®",
        "Âĭ"
      ],
      [
        "Ãĸ",
        "Ãł"
      ],
      [
        "ÂĲ",
        "~"
      ],
      [
        "Â¨",
        "]"
      ],
      [
        "Y",
        "Ã±"
      ],
      [
        "h",
        "ÃŃ"
      ],
      [
        "k",
        "B"
      ],
      [
        "r",
        "Ã³"
      ],
      [
        "Ã®",
        "P"
      ],
      [
        "J",
        "Ãł"
      ],
      [
        "_",
        "Âį"
      ],
      [
        "i",
        "Ã¼"
      ],
      [
        "r",
        "B"
      ],
      [
        "|",
        "Âĸ"
      ],
      [
        "Ã§",
        "Ã¤"
      ],
      [
        "`",
        "ÂĬ"
      ],
      [
        "s",
        "Ãª"
      ],
      [
        "u",
        "P"
      ],
      [
        "|",
        "Ĕ"
      ],
      [
        "Ãķ",
        "Ãª"
      ],
      [
        "Ãĸ",
        "Ãļ"
      ],
      [
        "Ãĳ",
        "Ãµ"
      ],
      [
        "Â¶",
        "Âĩ"
      ],
      [
        "u",
        "c"
      ],
      [
        "ÃŁ",
        "T"
      ],
      [
        "Â¦",
        "ÂĻ"
      ],
      [
        "/",
        "ÂŁ"
      ],
      [
        "M",
        "Ã¡"
      ],
      [
        "Â¿",
        "~"
      ],
      [
        "Ã§",
        "A"
      ],
      [
        "ÃŁ",
        "x"
      ],
      [
        "Â»",
        "-"
      ],
      [
        "V",
        "ÃĢ"
      ],
      [
        "ć",
        "?"
      ],
      [
        "ÃŁ",
        "c"
      ],
      [
        "Â¶",
        "ď"
      ],
      [
        "Ãĥ",
        "ÃĪ"
      ],
      [
        "s",
        "e"
      ],
      [
        "ÃĹ",
        "Â¢"
      ],
      [
        "Ãį",
        "Ã±"
      ],
      [
        "Âº",
        "Q"
      ],
      [
        "W",
        "Ã¹"
      ],
      [
        "ÃŁ",
        "j"
      ],
      [
        "Ãĸ",
        "Ã¼"
      ],
      [
        "J",
        "c"
      ],
      [
        "h",
        "Ã¼"
      ],
      [
        "l",
        "Ã½"
      ],
      [
        "ĝ",
        "ÂŁ"
      ],
      [
        "ÃĶ",
        "G"
      ],
      [
        "ÃĶ",
        "ÃĤ"
      ],
      [
        "ÂĽ",
        "Âŀ"
      ],
      [
        "Â»",
        "~"
      ],
      [
        "w",
        "ÃĢ"
      ],
      [
        "Ğ",
        ";"
      ],
      [
        "Â·",
        "'"
      ],
      [
        "Ãĭ",
        "Ã¨"
      ],
      [
        "V",
        "Ã½"
      ],
      [
        "V",
        "Ã¢"
      ],
      [
        "Â§",
        "~"
      ],
      [
        "Ġ",
        ")"
      ],
      [
        "ÃĿ",
        "ÃĤ"
      ],
      [
        "(",
        "ÂŁ"
      ],
      [
        "Y",
        "c"
      ],
      [
        "r",
        "Ã°"
      ],
      [
        "Ã²",
        "Ã¼"
      ],
      [
        "ÂĹ",
        "Âĭ"
      ],
      [
        "Â¶",
        ";"
      ],
      [
        "h",
        "Ãº"
      ],
      [
        "Ã§",
        "X"
      ],
      [
        "Â´",
        "Â«"
      ],
      [
        "u",
        "Ã¨"
      ],
      [
        "ă",
        "Ã·"
      ],
      [
        "Â¬",
        "Ã·"
      ],
      [
        "Ãĭ",
        "p"
      ],
      [
        "Ãĭ",
        "Ã¡"
      ],
      [
        "E",
        "Ãľ"
      ],
      [
        "Ġ",
        "N"
      ],
      [
        "Ãı",
        "ÃĴ"
      ],
      [
        "Ġ",
        "Đ"
      ],
      [
        "Ã¦",
        "t"
      ],
      [
        "ğ",
        "ĕ"
      ],
      [
        "Â¬",
        "ď"
      ],
      [
        "Ã§",
        "Ã´"
      ],
      [
        "ÃĿ",
        "Ã»"
      ],
      [
        "ÂŃ",
        "Âŀ"
      ],
      [
        "Â¦",
        "ÂĨ"
      ],
      [
        "a",
        "Ã½"
      ],
      [
        "ğ",
        "Âĩ"
      ],
      [
        "Â¶",
        "Â¥"
      ],
      [
        "ÃĽ",
        "Ã¢"
      ],
      [
        "Â®",
        "Âī"
      ],
      [
        "E",
        "Ã¢"
      ],
      [
        "Ã«",
        "m"
      ],
      [
        "ÃĮ",
        "Ãģ"
      ],
      [
        "K",
        "Ã¨"
      ],
      [
        "\\",
        "Âŀ"
      ],
      [
        "g",
        "ÃĴ"
      ],
      [
        "s",
        "Ã¹"
      ],
      [
        "w",
        "Âµ"
      ],
      [
        "Â¦",
        "Âį"
      ],
      [
        "C",
        "Ã³"
      ],
      [
        "i",
        "Ãģ"
      ],
      [
        "|",
        "Âı"
      ],
      [
        "Ãĺ",
        "Ã¹"
      ],
      [
        "a",
        "Ãģ"
      ],
      [
        "Âļ",
        "~"
      ],
      [
        "Ã²",
        "Ã¹"
      ],
      [
        "/",
        "?"
      ],
      [
        "s",
        "Ã¼"
      ],
      [
        "{",
        "ÂĬ"
      ],
      [
        "Â°",
        "="
      ],
      [
        "_",
        "Âģ"
      ],
      [
        "o",
        "Ã¶"
      ],
      [
        "ÂĽ",
        "Âĸ"
      ],
      [
        "Ãĵ",
        "t"
      ],
      [
        "Ãĭ",
        "T"
      ],
      [
        "Â»",
        "ė"
      ],
      [
        "Â¨",
        "Âŀ"
      ],
      [
        "ā",
        "Âĸ"
      ],
      [
        "ğ",
        "Âį"
      ],
      [
        "g",
        "P"
      ],
      [
        "l",
        "q"
      ],
      [
        "u",
        "p"
      ],
      [
        "/",
        "Â¢"
      ],
      [
        "Ă",
        "ď"
      ],
      [
        "i",
        "Ã¹"
      ],
      [
        "z",
        "Ã»"
      ],
      [
        "ÃĶ",
        "S"
      ],
      [
        "Ãĸ",
        "Ã¹"
      ],
      [
        "Ã²",
        "D"
      ],
      [
        "Â°",
        "}"
      ],
      [
        "Ãķ",
        "A"
      ],
      [
        "Âĥ",
        ":"
      ],
      [
        "u",
        "x"
      ],
      [
        "Ã¾",
        "Ãŀ"
      ],
      [
        "\"",
        "ġ"
      ],
      [
        "{",
        "+"
      ],
      [
        "O",
        "Ã´"
      ],
      [
        "(",
        "?"
      ],
      [
        "ğ",
        "?"
      ],
      [
        "Ã§",
        "Ã£"
      ],
      [
        "Ãİ",
        "Ãļ"
      ],
      [
        "ÂĲ",
        "="
      ],
      [
        "M",
        "S"
      ],
      [
        "Y",
        "Ãº"
      ],
      [
        "Âľ",
        "^"
      ],
      [
        "a",
        "Ã£"
      ],
      [
        "Ą",
        "="
      ],
      [
        "Âĥ",
        "Âį"
      ],
      [
        "h",
        "A"
      ],
      [
        "Ã«",
        "j"
      ],
      [
        "Ãĸ",
        "Ã¥"
      ],
      [
        "Y",
        "Ãļ"
      ],
      [
        "Ãĥ",
        "j"
      ],
      [
        "R",
        "Ã¹"
      ],
      [
        "Ã«",
        "G"
      ],
      [
        "ÃŁ",
        "p"
      ],
      [
        "Ą",
        "Ã·"
      ],
      [
        "Ã©",
        "Ãł"
      ],
      [
        "Ã¬",
        "Ãļ"
      ],
      [
        "Â¦",
        "Ē"
      ],
      [
        "9",
        "Â½"
      ],
      [
        "I",
        "Ã»"
      ],
      [
        "R",
        "Ã¼"
      ],
      [
        "`",
        "ę"
      ],
      [
        "w",
        "n"
      ],
      [
        "ÃŁ",
        "Âµ"
      ],
      [
        "3",
        "Â³"
      ],
      [
        "F",
        "Ãģ"
      ],
      [
        "ă",
        "!"
      ],
      [
        "Ã¦",
        "ÃĻ"
      ],
      [
        "[",
        "ĕ"
      ],
      [
        "s",
        "p"
      ],
      [
        "ă",
        "Âĺ"
      ],
      [
        "ÃĹ",
        "Â«"
      ],
      [
        "ÃĽ",
        "Ãµ"
      ],
      [
        "ÃĶ",
        "Âµ"
      ],
      [
        "Â¦",
        "Âŀ"
      ],
      [
        "V",
        "Ã¨"
      ],
      [
        "Ã©",
        "n"
      ],
      [
        "Ã«",
        "n"
      ],
      [
        "Ãį",
        "D"
      ],
      [
        "ÂĮ",
        "Âį"
      ],
      [
        "\\",
        "^"
      ],
      [
        "k",
        "p"
      ],
      [
        "Ă",
        "Âİ"
      ],
      [
        "ÃĹ",
        "Âī"
      ],
      [
        "Ã©",
        "ÃĴ"
      ],
      [
        "g",
        "t"
      ],
      [
        "g",
        "Ã´"
      ],
      [
        "o",
        "S"
      ],
      [
        "ě",
        "Âĭ"
      ],
      [
        "ÃĮ",
        "T"
      ],
      [
        "Âº",
        "S"
      ],
      [
        "Â¸",
        "!"
      ],
      [
        "Ą",
        "Ě"
      ],
      [
        "Â´",
        "Ĕ"
      ],
      [
        "ÂĿ",
        "?"
      ],
      [
        "\"",
        "&"
      ],
      [
        "l",
        "B"
      ],
      [
        "o",
        "Ã£"
      ],
      [
        "ā",
        "Âĭ"
      ],
      [
        "Ĝ",
        "ġ"
      ],
      [
        "Ġ",
        "Âİ"
      ],
      [
        "Ã²",
        "ÃĢ"
      ],
      [
        "Â°",
        "ď"
      ],
      [
        "ÃŁ",
        "ÃĲ"
      ],
      [
        "Ãĸ",
        "v"
      ],
      [
        "Â®",
        "ÂĬ"
      ],
      [
        "6",
        "Â¼"
      ],
      [
        "Â¿",
        "Âĳ"
      ],
      [
        "Ãį",
        "Ãī"
      ],
      [
        "ÂŃ",
        ">"
      ],
      [
        "h",
        "Ãª"
      ],
      [
        "Ā",
        "Âĩ"
      ],
      [
        "Âļ",
        "<"
      ],
      [
        "Â§",
        "Â±"
      ],
      [
        "W",
        "Ã±"
      ],
      [
        "u",
        "Ãº"
      ],
      [
        "w",
        "Ã¡"
      ],
      [
        "Âļ",
        "Ď"
      ],
      [
        "Ġ",
        "ĕ"
      ],
      [
        "ÂĦ",
        "^"
      ],
      [
        "Ă",
        "Â¥"
      ],
      [
        "Ãħ",
        "Ã°"
      ],
      [
        "W",
        "b"
      ],
      [
        "Ą",
        "Â¢"
      ],
      [
        "ÃĹ",
        "Âĩ"
      ],
      [
        "ÃĹ",
        "Âį"
      ],
      [
        "Ã§",
        "L"
      ],
      [
        "Â¦",
        "Âĳ"
      ],
      [
        "$",
        "Âı"
      ],
      [
        "W",
        "T"
      ],
      [
        "ğ",
        "Â«"
      ],
      [
        "ÃĽ",
        "Ã¨"
      ],
      [
        "Ġ",
        "Â±"
      ],
      [
        "Ã¿",
        "P"
      ],
      [
        "Ãħ",
        "Ãģ"
      ],
      [
        "Â£",
        "Âĺ"
      ],
      [
        "ÂĪ",
        "ÂŁ"
      ],
      [
        "Â°",
        "Đ"
      ],
      [
        "Ãĳ",
        "U"
      ],
      [
        "Â´",
        "Â±"
      ],
      [
        "I",
        "S"
      ],
      [
        "o",
        "X"
      ],
      [
        "Ã¦",
        "Ãļ"
      ],
      [
        "Ãĭ",
        "Âµ"
      ],
      [
        "Â¸",
        "Âŀ"
      ],
      [
        "E",
        "A"
      ],
      [
        "W",
        "j"
      ],
      [
        "a",
        "ÃĢ"
      ],
      [
        "Ğ",
        "Â¢"
      ],
      [
        "Ã©",
        "Ã¹"
      ],
      [
        "Â¶",
        "Ã·"
      ],
      [
        "Âľ",
        ">"
      ],
      [
        "Â§",
        "}"
      ],
      [
        "Ãı",
        "ÃĪ"
      ],
      [
        "Ã®",
        "Âµ"
      ],
      [
        "Â©",
        ">"
      ],
      [
        "_",
        "?"
      ],
      [
        "Ãķ",
        "Ã³"
      ],
      [
        "Ã®",
        "Ã½"
      ],
      [
        "Â§",
        "ď"
      ],
      [
        "Âľ",
        "ę"
      ],
      [
        "Ãĸ",
        "Ã¨"
      ],
      [
        "ÃĮ",
        "f"
      ],
      [
        "Ãį",
        "ÃŃ"
      ],
      [
        "o",
        "Ã¢"
      ],
      [
        "ÃĶ",
        "Âª"
      ],
      [
        "ÃĿ",
        "j"
      ],
      [
        "Ãĩ",
        "Ãµ"
      ],
      [
        "Ãį",
        "Ã´"
      ],
      [
        "Â¶",
        "~"
      ],
      [
        "Âº",
        "Ã¡"
      ],
      [
        "O",
        "Ã¶"
      ],
      [
        "h",
        "Ã³"
      ],
      [
        "{",
        "Ę"
      ],
      [
        "Ġ",
        ";"
      ],
      [
        "Â¶",
        "'"
      ],
      [
        "E",
        "Ã¶"
      ],
      [
        "W",
        "N"
      ],
      [
        "i",
        "Ã¤"
      ],
      [
        "ÂĢ",
        ";"
      ],
      [
        "Ãħ",
        "Ã»"
      ],
      [
        "Ãĸ",
        "Ã¶"
      ],
      [
        "Ãį",
        "Ã¹"
      ],
      [
        "Âĥ",
        "Ã·"
      ],
      [
        "Ã¯",
        "X"
      ],
      [
        "Ãķ",
        "Âµ"
      ],
      [
        "Ãį",
        "U"
      ],
      [
        "ć",
        ";"
      ],
      [
        "Â¨",
        "ĕ"
      ],
      [
        "Y",
        "ÃĻ"
      ],
      [
        "_",
        "Ď"
      ],
      [
        "g",
        "p"
      ],
      [
        "o",
        "v"
      ],
      [
        "{",
        "~"
      ],
      [
        "Ă",
        "Âį"
      ],
      [
        "Ãĭ",
        "Ã´"
      ],
      [
        "Â¶",
        "ÂĨ"
      ],
      [
        "W",
        "Ãľ"
      ],
      [
        "Ė",
        "="
      ],
      [
        "ÂĪ",
        "Âį"
      ],
      [
        "E",
        "f"
      ],
      [
        "Ĝ",
        ">"
      ],
      [
        "Âļ",
        "ę"
      ],
      [
        "Â°",
        "đ"
      ],
      [
        "Â»",
        "Ĕ"
      ],
      [
        "E",
        "ÃĢ"
      ],
      [
        "W",
        "X"
      ],
      [
        "Ã«",
        "S"
      ],
      [
        "[",
        "ē"
      ],
      [
        "Ġ",
        "Âª"
      ],
      [
        "ÃŁ",
        "X"
      ],
      [
        "Ãĸ",
        "t"
      ],
      [
        "Â»",
        "Âŀ"
      ],
      [
        "ÂĮ",
        "Âĩ"
      ],
      [
        "@",
        "Âŀ"
      ],
      [
        "ÃĽ",
        "Ãª"
      ],
      [
        "ÂĤ",
        "?"
      ],
      [
        "Ãĭ",
        "Ã¼"
      ],
      [
        "Â¦",
        "Ĕ"
      ],
      [
        "(",
        "+"
      ],
      [
        "ÂĿ",
        "Ã·"
      ],
      [
        "I",
        "ÃĬ"
      ],
      [
        "ÃĶ",
        "y"
      ],
      [
        "Â¯",
        "~"
      ],
      [
        "Âĥ",
        "Âģ"
      ],
      [
        "r",
        "Ã¤"
      ],
      [
        "ā",
        "Âĩ"
      ],
      [
        "Ğ",
        ">"
      ],
      [
        "Â°",
        "Âį"
      ],
      [
        "Ã§",
        "Ãł"
      ],
      [
        "E",
        "X"
      ],
      [
        "Ãİ",
        "Ã´"
      ],
      [
        "E",
        "Ãº"
      ],
      [
        "h",
        "Ã¡"
      ],
      [
        "u",
        "Ã»"
      ],
      [
        "ÂĢ",
        "ė"
      ],
      [
        "Ãĵ",
        "q"
      ],
      [
        "Â»",
        "ÂĨ"
      ],
      [
        "Â©",
        ";"
      ],
      [
        "ÂĮ",
        ":"
      ],
      [
        "_",
        "Â±"
      ],
      [
        "u",
        "Âª"
      ],
      [
        "Ā",
        "Â±"
      ],
      [
        "Âľ",
        "<"
      ],
      [
        "Ā",
        "}"
      ],
      [
        "Â·",
        "Âĺ"
      ],
      [
        "Ãĭ",
        "j"
      ],
      [
        "ÃĦ",
        "Ã½"
      ],
      [
        "K",
        "Ã¡"
      ],
      [
        "O",
        "x"
      ],
      [
        "Ãķ",
        "Ã¹"
      ],
      [
        "Ã¬",
        "Ã¹"
      ],
      [
        "Ã¦",
        "Ã¥"
      ],
      [
        "Âľ",
        "+"
      ],
      [
        "a",
        "Ãļ"
      ],
      [
        "a",
        "Ã¥"
      ],
      [
        "u",
        "Q"
      ],
      [
        "ğ",
        "}"
      ],
      [
        "Ġ",
        "n"
      ],
      [
        "Ġ",
        "ÂŁ"
      ],
      [
        "Âļ",
        "ė"
      ],
      [
        "ÂĽ",
        "Â±"
      ],
      [
        "Ãķ",
        "ÃĢ"
      ],
      [
        "Â®",
        ","
      ],
      [
        "k",
        "Ã¥"
      ],
      [
        "ÂĿ",
        "'"
      ],
      [
        "Ĉ",
        "'"
      ],
      [
        "W",
        "Âµ"
      ],
      [
        "i",
        "X"
      ],
      [
        "o",
        "Ã±"
      ],
      [
        "|",
        "Â±"
      ],
      [
        "Ė",
        "Ã·"
      ],
      [
        "Ãĵ",
        "H"
      ],
      [
        "Ãĩ",
        "ÃŃ"
      ],
      [
        "Ã¦",
        "Ã¡"
      ],
      [
        "ÂĹ",
        "Ē"
      ],
      [
        "Â¦",
        "Âİ"
      ],
      [
        "l",
        "G"
      ],
      [
        "ÃŁ",
        "Z"
      ],
      [
        "Âľ",
        "}"
      ],
      [
        "ğ",
        "Âģ"
      ],
      [
        "Ã²",
        "Ãģ"
      ],
      [
        "Ãĵ",
        "y"
      ],
      [
        "Âľ",
        "Âĭ"
      ],
      [
        "F",
        "S"
      ],
      [
        "r",
        "Ã½"
      ],
      [
        "Ã¾",
        "Ãª"
      ],
      [
        "Ãĸ",
        "Ã±"
      ],
      [
        "ÂŃ",
        "<"
      ],
      [
        "z",
        "b"
      ],
      [
        "Ğ",
        "^"
      ],
      [
        "ğ",
        "Âŀ"
      ],
      [
        "Â¯",
        "ÂŁ"
      ],
      [
        "Â¦",
        "Â«"
      ],
      [
        "E",
        "Ã°"
      ],
      [
        "|",
        "'"
      ],
      [
        "Ã²",
        "ÃŃ"
      ],
      [
        "Â´",
        "Â¢"
      ],
      [
        "Â¶",
        ">"
      ],
      [
        "{",
        ";"
      ],
      [
        "Âļ",
        "="
      ],
      [
        "ÃĶ",
        "Ã¹"
      ],
      [
        "Ãĺ",
        "Ã¡"
      ],
      [
        "F",
        "Ã£"
      ],
      [
        "Ā",
        "]"
      ],
      [
        "Ġ",
        "="
      ],
      [
        "ÂĢ",
        ")"
      ],
      [
        "ÂĦ",
        "#"
      ],
      [
        "Ãĺ",
        "Ãļ"
      ],
      [
        "Â§",
        "Âı"
      ],
      [
        "Ã¬",
        "c"
      ],
      [
        "Â¨",
        ">"
      ],
      [
        "Âľ",
        "Ã·"
      ],
      [
        "0",
        "Â¾"
      ],
      [
        "[",
        "ė"
      ],
      [
        "w",
        "Ãŀ"
      ],
      [
        "Ĝ",
        "Ě"
      ],
      [
        "Ãħ",
        "Ã¡"
      ],
      [
        "ÂĤ",
        "~"
      ],
      [
        "Ãĵ",
        "ÃĲ"
      ],
      [
        "Â»",
        "Â«"
      ],
      [
        "Âĥ",
        "="
      ],
      [
        "ÂĮ",
        "Âī"
      ],
      [
        "C",
        "Ãº"
      ],
      [
        "{",
        ")"
      ],
      [
        "Ã²",
        "ÃĻ"
      ],
      [
        "Â°",
        "ē"
      ],
      [
        "u",
        "T"
      ],
      [
        "Ã²",
        "Ãł"
      ],
      [
        "Ĝ",
        "Âī"
      ],
      [
        "Ã¸",
        "P"
      ],
      [
        "Ã¸",
        "Ã½"
      ],
      [
        "V",
        "x"
      ],
      [
        "Â¸",
        "Â«"
      ],
      [
        "J",
        "Ãģ"
      ],
      [
        "Y",
        "q"
      ],
      [
        "z",
        "Ã¨"
      ],
      [
        "{",
        "Âİ"
      ],
      [
        "Ă",
        "="
      ],
      [
        "Âļ",
        "Âŀ"
      ],
      [
        "Ã¯",
        "Ã¤"
      ],
      [
        "Ã¦",
        "L"
      ],
      [
        "\"",
        "Âī"
      ],
      [
        "V",
        "N"
      ],
      [
        "z",
        "j"
      ],
      [
        "Â¶",
        "ÂŁ"
      ],
      [
        "Â©",
        "Âĺ"
      ],
      [
        "g",
        "G"
      ],
      [
        "Ġ",
        "#"
      ],
      [
        "Â°",
        "ą"
      ],
      [
        "ÂĦ",
        "}"
      ],
      [
        "ÃŁ",
        "q"
      ],
      [
        "Ãĺ",
        "L"
      ],
      [
        "Ãİ",
        "ÃĢ"
      ],
      [
        "r",
        "d"
      ],
      [
        "z",
        "P"
      ],
      [
        "ÃĽ",
        "Ãł"
      ],
      [
        "Âľ",
        "ĕ"
      ],
      [
        "i",
        "Ã¥"
      ],
      [
        "u",
        "Ã±"
      ],
      [
        "Ĉ",
        "#"
      ],
      [
        "Ğ",
        "ÂĻ"
      ],
      [
        "Âļ",
        "ÂŁ"
      ],
      [
        "ÂĦ",
        "ÂĻ"
      ],
      [
        "ÃĹ",
        "ĕ"
      ],
      [
        "Â·",
        "Âĸ"
      ],
      [
        "Ãĭ",
        "G"
      ],
      [
        "ÃĮ",
        "Ãŀ"
      ],
      [
        "Â¦",
        "="
      ],
      [
        "Â®",
        "-"
      ],
      [
        "J",
        "Ã¶"
      ],
      [
        "Â¨",
        "<"
      ],
      [
        "ÃĦ",
        "t"
      ],
      [
        "Ġ",
        "Ã¨"
      ],
      [
        "Ã«",
        "x"
      ],
      [
        "w",
        "e"
      ],
      [
        "Ã¯",
        "ÃĴ"
      ],
      [
        "ÃĿ",
        "Ã¼"
      ],
      [
        "Ãķ",
        "G"
      ],
      [
        "Ãĸ",
        "ÃĤ"
      ],
      [
        "Â©",
        "ÂĨ"
      ],
      [
        "E",
        "q"
      ],
      [
        "_",
        "}"
      ],
      [
        "k",
        "Ã¡"
      ],
      [
        "r",
        "ÃĢ"
      ],
      [
        "Ĉ",
        ";"
      ],
      [
        "Â°",
        "Âı"
      ],
      [
        "ÃĽ",
        "ÃĬ"
      ],
      [
        "Ã¯",
        "Ãŀ"
      ],
      [
        "Ã§",
        "Ãľ"
      ],
      [
        "Ãĭ",
        "Ãļ"
      ],
      [
        "ÂĲ",
        "ġ"
      ],
      [
        "Â®",
        "ď"
      ],
      [
        "Â£",
        "Âĩ"
      ],
      [
        "I",
        "P"
      ],
      [
        "Y",
        "n"
      ],
      [
        "ÂĢ",
        "="
      ],
      [
        "Â»",
        "'"
      ],
      [
        "w",
        "Ã¨"
      ],
      [
        "ÃĿ",
        "Âµ"
      ],
      [
        "Ãĺ",
        "p"
      ],
      [
        "Âľ",
        "Ď"
      ],
      [
        "O",
        "Ãī"
      ],
      [
        "z",
        "Ã¹"
      ],
      [
        "ă",
        "Ĕ"
      ],
      [
        "Âļ",
        "Âĩ"
      ],
      [
        "ÂĪ",
        "Ď"
      ],
      [
        "Â°",
        "#"
      ],
      [
        "ÂĦ",
        "="
      ],
      [
        "Ãĵ",
        "n"
      ],
      [
        "V",
        "c"
      ],
      [
        "W",
        "ÃĴ"
      ],
      [
        "Ă",
        "}"
      ],
      [
        "Ã©",
        "Ã¼"
      ],
      [
        "Ã®",
        "e"
      ],
      [
        "Âº",
        "Ãº"
      ],
      [
        "ÂĲ",
        "Ď"
      ],
      [
        "Â¦",
        "}"
      ],
      [
        "Â¦",
        "Âĸ"
      ],
      [
        "Â£",
        "="
      ],
      [
        "ÂĮ",
        "Âİ"
      ],
      [
        "J",
        "Ã±"
      ],
      [
        "_",
        "~"
      ],
      [
        "_",
        "Âĸ"
      ],
      [
        "`",
        "Âı"
      ],
      [
        "|",
        "ĕ"
      ],
      [
        "Ã¾",
        "Ã¶"
      ],
      [
        "Ãı",
        "ÃĤ"
      ],
      [
        "ÃĿ",
        "Ãª"
      ],
      [
        "ÂĮ",
        "Â¢"
      ],
      [
        "J",
        "Ã¢"
      ],
      [
        "Â¡",
        "ġ"
      ],
      [
        "Â»",
        "Âĺ"
      ],
      [
        "Â´",
        "Âŀ"
      ],
      [
        "Âĥ",
        "ĕ"
      ],
      [
        "{",
        "ÂĨ"
      ],
      [
        "ě",
        "Ē"
      ],
      [
        "ÃŁ",
        "A"
      ],
      [
        "Ãĩ",
        "Ã³"
      ],
      [
        "Ãĳ",
        "Ã£"
      ],
      [
        "\\",
        "'"
      ],
      [
        "h",
        "Ãģ"
      ],
      [
        "k",
        "Ãļ"
      ],
      [
        "Ą",
        "Â«"
      ],
      [
        "ÃĽ",
        "L"
      ],
      [
        "Â¸",
        "Âĳ"
      ],
      [
        "M",
        "Ãº"
      ],
      [
        "[",
        "Âģ"
      ],
      [
        "Ğ",
        ","
      ],
      [
        "Â®",
        "ÂŁ"
      ],
      [
        "J",
        "ÃĢ"
      ],
      [
        "J",
        "Ã¼"
      ],
      [
        "z",
        "q"
      ],
      [
        "Â°",
        ";"
      ],
      [
        "E",
        "Ã¹"
      ],
      [
        "o",
        "Ãľ"
      ],
      [
        "u",
        "ÃĨ"
      ],
      [
        "ğ",
        "Â¢"
      ],
      [
        "Â·",
        "+"
      ],
      [
        "ÃĮ",
        "Ãº"
      ],
      [
        "Â©",
        "~"
      ],
      [
        "C",
        "x"
      ],
      [
        "C",
        "Ãª"
      ],
      [
        "Ã§",
        "Ã³"
      ],
      [
        "ÃĶ",
        "v"
      ],
      [
        "ÃĦ",
        "Ã¡"
      ],
      [
        "(",
        "%"
      ],
      [
        "g",
        "Ãł"
      ],
      [
        "{",
        "^"
      ],
      [
        "Â¸",
        "'"
      ],
      [
        "E",
        "ÃĻ"
      ],
      [
        "J",
        "Ãľ"
      ],
      [
        "`",
        "Ē"
      ],
      [
        "Ġ",
        "Âµ"
      ],
      [
        "Ã¸",
        "Ã°"
      ],
      [
        "ÂĹ",
        "Âĩ"
      ],
      [
        "s",
        "Ã»"
      ],
      [
        "Ġ",
        "Ãµ"
      ],
      [
        "Ă",
        "<"
      ],
      [
        "Â¯",
        "Âĺ"
      ],
      [
        "C",
        "ÃĢ"
      ],
      [
        "J",
        "Ãª"
      ],
      [
        "[",
        "ą"
      ],
      [
        "r",
        "ÃĲ"
      ],
      [
        "z",
        "Ãł"
      ],
      [
        "Ã¾",
        "H"
      ],
      [
        "Ãķ",
        "Ã¢"
      ],
      [
        "7",
        "Â½"
      ],
      [
        "K",
        "ÃĨ"
      ],
      [
        "Y",
        "Ã¹"
      ],
      [
        "r",
        "Ã£"
      ],
      [
        "Ğ",
        "="
      ],
      [
        "Ğ",
        "ÂŁ"
      ],
      [
        "ÂĽ",
        "+"
      ],
      [
        "Â¸",
        "Âı"
      ],
      [
        "Ã¾",
        "Ã¨"
      ],
      [
        "Ã©",
        "Ã¢"
      ],
      [
        "Ãĳ",
        "Ãŀ"
      ],
      [
        "Â¸",
        "ę"
      ],
      [
        "Y",
        "Ã´"
      ],
      [
        "z",
        "ÃĤ"
      ],
      [
        "ā",
        ")"
      ],
      [
        "Ĉ",
        "Ě"
      ],
      [
        "Â¬",
        "<"
      ],
      [
        "Â¿",
        "}"
      ],
      [
        "Â¿",
        "Âĩ"
      ],
      [
        "ÃŁ",
        "ÃĪ"
      ],
      [
        "Ã§",
        "Ã¥"
      ],
      [
        "Âķ",
        "Âı"
      ],
      [
        "Ã¾",
        "S"
      ],
      [
        "Ã¸",
        "y"
      ],
      [
        "Â¸",
        "Ē"
      ],
      [
        "Â¦",
        "Ě"
      ],
      [
        "Â®",
        "Âĺ"
      ],
      [
        "k",
        "Ã£"
      ],
      [
        "Ã¾",
        "N"
      ],
      [
        "Â¬",
        "}"
      ],
      [
        "k",
        "f"
      ],
      [
        "Âļ",
        "!"
      ],
      [
        "Ãĥ",
        "Ã±"
      ],
      [
        "M",
        "N"
      ],
      [
        "ÃŁ",
        "ÃĴ"
      ],
      [
        "ÂĮ",
        "Â±"
      ],
      [
        "E",
        "Ã¨"
      ],
      [
        "K",
        "Ãµ"
      ],
      [
        "s",
        "Ãµ"
      ],
      [
        "Ą",
        "Âĳ"
      ],
      [
        "Ã¦",
        "n"
      ],
      [
        "6",
        "Â¾"
      ],
      [
        "M",
        "A"
      ],
      [
        "u",
        "Ã¢"
      ],
      [
        "ĝ",
        "Âı"
      ],
      [
        "ÂĪ",
        "Âı"
      ],
      [
        "Ãĸ",
        "p"
      ],
      [
        "Ãĳ",
        "x"
      ],
      [
        "ÂĿ",
        "Âİ"
      ],
      [
        "Â©",
        "Ã·"
      ],
      [
        "I",
        "Ã½"
      ],
      [
        "Ã¾",
        "Ãī"
      ],
      [
        "Ã¦",
        "Ã°"
      ],
      [
        "ÃĦ",
        "Ãµ"
      ],
      [
        "Ã«",
        "y"
      ],
      [
        "ÃĽ",
        "ÃĻ"
      ],
      [
        "Ã§",
        "n"
      ],
      [
        "Â»",
        ":"
      ],
      [
        "2",
        "8"
      ],
      [
        "`",
        "ÂĻ"
      ],
      [
        "Ą",
        "ĕ"
      ],
      [
        "Ć",
        ">"
      ],
      [
        "Âļ",
        "-"
      ],
      [
        "@",
        "="
      ],
      [
        "Ã¸",
        "Ãµ"
      ],
      [
        "Ãĸ",
        "X"
      ],
      [
        "Â¶",
        "Ď"
      ],
      [
        "Ãĥ",
        "ÃĻ"
      ],
      [
        "Ą",
        "ÂŁ"
      ],
      [
        "Ã¯",
        "ÃĬ"
      ],
      [
        "Â»",
        "ę"
      ],
      [
        "Â¸",
        "Âĩ"
      ],
      [
        "F",
        "Ã¡"
      ],
      [
        "ĝ",
        "}"
      ],
      [
        "ğ",
        "+"
      ],
      [
        "_",
        "Âĺ"
      ],
      [
        "h",
        "Ã¹"
      ],
      [
        "ÃĽ",
        "P"
      ],
      [
        "Â¨",
        "-"
      ],
      [
        "Â°",
        "Âĩ"
      ],
      [
        "ÃĶ",
        "Ãº"
      ],
      [
        "E",
        "B"
      ],
      [
        "_",
        "Âĩ"
      ],
      [
        "w",
        "c"
      ],
      [
        "Â°",
        "Âĳ"
      ],
      [
        "Ã¾",
        "G"
      ],
      [
        "Ãħ",
        "Ãª"
      ],
      [
        "Ãį",
        "P"
      ],
      [
        "Ãį",
        "X"
      ],
      [
        "ÃĦ",
        "v"
      ],
      [
        "r",
        "Ã´"
      ],
      [
        "ć",
        "<"
      ],
      [
        "ğ",
        "Âĸ"
      ],
      [
        "Ãķ",
        "n"
      ],
      [
        "Ã©",
        "Ãļ"
      ],
      [
        "Â©",
        "?"
      ],
      [
        "a",
        "Ãº"
      ],
      [
        "z",
        "ÃĲ"
      ],
      [
        "ÃĮ",
        "H"
      ],
      [
        "Â§",
        "="
      ],
      [
        "ÃĹ",
        "#"
      ],
      [
        "J",
        "Ã¨"
      ],
      [
        "O",
        "p"
      ],
      [
        "ÂĦ",
        "."
      ],
      [
        "F",
        "Ã¹"
      ],
      [
        "J",
        "Âµ"
      ],
      [
        "o",
        "j"
      ],
      [
        "Ġ",
        "<"
      ],
      [
        "ÃĶ",
        "ÃŃ"
      ],
      [
        "Ã©",
        "U"
      ],
      [
        "l",
        "e"
      ],
      [
        "Ą",
        ")"
      ],
      [
        "Â¶",
        "="
      ],
      [
        "Â£",
        "Ď"
      ],
      [
        "E",
        "p"
      ],
      [
        "K",
        "Ã¶"
      ],
      [
        "Y",
        "ÃĬ"
      ],
      [
        "k",
        "Ã¶"
      ],
      [
        "Ã¸",
        "n"
      ],
      [
        "Âĥ",
        "#"
      ],
      [
        "Ć",
        "}"
      ],
      [
        "ÂĽ",
        ")"
      ],
      [
        "Ã«",
        "Q"
      ],
      [
        "ÃĶ",
        "Ã±"
      ],
      [
        "Ã¬",
        "Ã¥"
      ],
      [
        "Âĥ",
        "Âı"
      ],
      [
        "E",
        "Ã¥"
      ],
      [
        "F",
        "Ã¨"
      ],
      [
        "M",
        "Ã»"
      ],
      [
        "M",
        "Ã£"
      ],
      [
        "o",
        "Ã¥"
      ],
      [
        "ÃŁ",
        "Ãŀ"
      ],
      [
        "Ãı",
        "Ãľ"
      ],
      [
        "Â»",
        "ÂĬ"
      ],
      [
        "J",
        "Âª"
      ],
      [
        "[",
        "Â¥"
      ],
      [
        "ÃĽ",
        "ÃĨ"
      ],
      [
        "Ã¯",
        "N"
      ],
      [
        "Â§",
        "+"
      ],
      [
        "Â¶",
        "Âŀ"
      ],
      [
        "Ãĥ",
        "x"
      ],
      [
        "Ã¯",
        "Ãļ"
      ],
      [
        "F",
        "P"
      ],
      [
        "|",
        "]"
      ],
      [
        "Ã¾",
        "U"
      ],
      [
        "Ã§",
        "Ã°"
      ],
      [
        "Ãĩ",
        "ÃĢ"
      ],
      [
        "\\",
        "ÂŁ"
      ],
      [
        "ÂĢ",
        "Ĕ"
      ],
      [
        "ÃĽ",
        "Ãī"
      ],
      [
        "Â»",
        "^"
      ],
      [
        "Ã¦",
        "P"
      ],
      [
        "K",
        "Ãľ"
      ],
      [
        "z",
        "Ã¤"
      ],
      [
        "ÂĽ",
        "Âİ"
      ],
      [
        "ÃĽ",
        "Ã¡"
      ],
      [
        "Ã©",
        "v"
      ],
      [
        "Â¨",
        "%"
      ],
      [
        "K",
        "Ã¢"
      ],
      [
        "M",
        "Ã¢"
      ],
      [
        "Y",
        "ÃĤ"
      ],
      [
        "ÃĽ",
        "B"
      ],
      [
        "Â¿",
        ">"
      ],
      [
        "Ã¬",
        "Ã¶"
      ],
      [
        "`",
        "ĕ"
      ],
      [
        "u",
        "Ã°"
      ],
      [
        "|",
        "Ď"
      ],
      [
        "Âĥ",
        "Ě"
      ],
      [
        "Â¦",
        "~"
      ],
      [
        "Â£",
        "Â«"
      ],
      [
        "Âľ",
        "Âĸ"
      ],
      [
        "R",
        "Ã¡"
      ],
      [
        "i",
        "y"
      ],
      [
        "w",
        "Ã¶"
      ],
      [
        "Ã¿",
        "B"
      ],
      [
        "ÃĦ",
        "ÃĢ"
      ],
      [
        "Y",
        "j"
      ],
      [
        "Ã¯",
        "Ãª"
      ],
      [
        "Ã§",
        "y"
      ],
      [
        "V",
        "ÃĻ"
      ],
      [
        "[",
        "~"
      ],
      [
        "Â´",
        "Â¥"
      ],
      [
        "Ğ",
        "ÂĨ"
      ],
      [
        "ÂĶ",
        "ĕ"
      ],
      [
        "Â¬",
        "."
      ],
      [
        "Â·",
        "Âı"
      ],
      [
        "|",
        "Âģ"
      ],
      [
        "Ć",
        "ē"
      ],
      [
        "Ć",
        "Âŀ"
      ],
      [
        "ÃĶ",
        "Ãŀ"
      ],
      [
        "ÃĿ",
        "y"
      ],
      [
        "Ã¬",
        "ÃĤ"
      ],
      [
        "ÂŃ",
        "Â±"
      ],
      [
        "M",
        "Ã´"
      ],
      [
        "Y",
        "Ã¢"
      ],
      [
        "_",
        "+"
      ],
      [
        "i",
        "Ã°"
      ],
      [
        "|",
        "Âİ"
      ],
      [
        "Ã²",
        "ÃĨ"
      ],
      [
        "Ãķ",
        "T"
      ],
      [
        "I",
        "p"
      ],
      [
        "Ġ",
        "Ã»"
      ],
      [
        "Ãħ",
        "Âµ"
      ],
      [
        "ÃĽ",
        "e"
      ],
      [
        "ÃĹ",
        "-"
      ],
      [
        "Ãĵ",
        "Ãł"
      ],
      [
        "J",
        "ÃĴ"
      ],
      [
        "w",
        "Ã£"
      ],
      [
        "|",
        "Âĳ"
      ],
      [
        "ě",
        "%"
      ],
      [
        "ğ",
        "Â±"
      ],
      [
        "ÂĢ",
        "Ě"
      ],
      [
        "Ã¬",
        "Ãª"
      ],
      [
        "Â£",
        "}"
      ],
      [
        "O",
        "Ã£"
      ],
      [
        "o",
        "ÃĻ"
      ],
      [
        "Ġ",
        ">"
      ],
      [
        "Âļ",
        "ÂĻ"
      ],
      [
        "Ã«",
        "ÃĴ"
      ],
      [
        "Ãĩ",
        "Ã´"
      ],
      [
        "ÂĿ",
        "="
      ],
      [
        "Ãĥ",
        "Âª"
      ],
      [
        "Â®",
        "}"
      ],
      [
        "ğ",
        ">"
      ],
      [
        "Ãķ",
        "t"
      ],
      [
        "Â¸",
        ":"
      ],
      [
        "J",
        "Ã½"
      ],
      [
        "Ă",
        ";"
      ],
      [
        "Ã¾",
        "ÃĲ"
      ],
      [
        "ÂĦ",
        ":"
      ],
      [
        "Ã§",
        "Ãŀ"
      ],
      [
        "ÂŃ",
        "Âĩ"
      ],
      [
        "Ãĥ",
        "Ã¤"
      ],
      [
        "a",
        "Ã¡"
      ],
      [
        "r",
        "ÃĴ"
      ],
      [
        "Ą",
        "Âĺ"
      ],
      [
        "Â¿",
        "ÂĴ"
      ],
      [
        "Ãĵ",
        "Ã£"
      ],
      [
        "Ã©",
        "Ã¶"
      ],
      [
        "Ğ",
        "Âĳ"
      ],
      [
        "Â°",
        "'"
      ],
      [
        "ÂĦ",
        "đ"
      ],
      [
        "I",
        "Ãŀ"
      ],
      [
        "{",
        "%"
      ],
      [
        "Ĝ",
        "ę"
      ],
      [
        "Ã¬",
        "n"
      ],
      [
        "Âľ",
        "Âĺ"
      ],
      [
        "{",
        "="
      ],
      [
        "Âļ",
        "Â¢"
      ],
      [
        "ÂĦ",
        "+"
      ],
      [
        "Ãĳ",
        "Ãº"
      ],
      [
        "Â¸",
        "%"
      ],
      [
        "[",
        "Â±"
      ],
      [
        "Â¿",
        "+"
      ],
      [
        "Ãı",
        "Ãģ"
      ],
      [
        "ÃĿ",
        "B"
      ],
      [
        "ÃĿ",
        "Ã¹"
      ],
      [
        "Ã®",
        "n"
      ],
      [
        "ÂŃ",
        "Âı"
      ],
      [
        "Â¦",
        "Âĩ"
      ],
      [
        "K",
        "Ã°"
      ],
      [
        "|",
        "ę"
      ],
      [
        "Ã®",
        "p"
      ],
      [
        "Ãĳ",
        "Ãļ"
      ],
      [
        "Ã¦",
        "Âª"
      ],
      [
        "Â¸",
        "Ã·"
      ],
      [
        "g",
        "v"
      ],
      [
        "Ć",
        "Âĭ"
      ],
      [
        "Â°",
        "Â«"
      ],
      [
        "Ã¦",
        "G"
      ],
      [
        "ÂŃ",
        "ď"
      ],
      [
        "Âĵ",
        "ÂŁ"
      ],
      [
        "Â¦",
        "!"
      ],
      [
        "V",
        "Ãª"
      ],
      [
        "l",
        "Ãī"
      ],
      [
        "w",
        "ÃĻ"
      ],
      [
        "Â°",
        "<"
      ],
      [
        "Â¦",
        "Â¢"
      ],
      [
        "Â¤",
        "ÂŁ"
      ],
      [
        "z",
        "Ãŀ"
      ],
      [
        "ÂĪ",
        "&"
      ],
      [
        "Ã²",
        "Ãŀ"
      ],
      [
        "Ã«",
        "H"
      ],
      [
        "ÂĢ",
        "]"
      ],
      [
        "ÃĹ",
        "Â±"
      ],
      [
        "Â¨",
        ":"
      ],
      [
        "ÃĦ",
        "Ã¼"
      ],
      [
        "2",
        "5"
      ],
      [
        "J",
        "n"
      ],
      [
        "z",
        "Ã³"
      ],
      [
        "ÃĽ",
        "ÃĴ"
      ],
      [
        "Ãħ",
        "P"
      ],
      [
        "ÃĿ",
        "x"
      ],
      [
        "Ãĭ",
        "D"
      ],
      [
        "ÃĦ",
        "L"
      ],
      [
        "ÂĮ",
        "}"
      ],
      [
        "ÂĽ",
        ","
      ],
      [
        "ÃĽ",
        "H"
      ],
      [
        "Âº",
        "Ã³"
      ],
      [
        "Â¸",
        "ė"
      ],
      [
        "Â¨",
        "Âĳ"
      ],
      [
        "Ãķ",
        "N"
      ],
      [
        "Â´",
        "ę"
      ],
      [
        "Ãį",
        "ÃĤ"
      ],
      [
        "I",
        "Ã¹"
      ],
      [
        "V",
        "A"
      ],
      [
        "Â¨",
        "đ"
      ],
      [
        "3",
        "Â¹"
      ],
      [
        "J",
        "Ãŀ"
      ],
      [
        "i",
        "Ãº"
      ],
      [
        "Ą",
        "<"
      ],
      [
        "Ãĩ",
        "Ã±"
      ],
      [
        "Â¨",
        "^"
      ],
      [
        "Y",
        "P"
      ],
      [
        "r",
        "Ã¥"
      ],
      [
        "ă",
        "."
      ],
      [
        "Ġ",
        "y"
      ],
      [
        "ÂĦ",
        "!"
      ],
      [
        "Ãķ",
        "Ã¼"
      ],
      [
        "Ãĥ",
        "T"
      ],
      [
        "ğ",
        "ę"
      ],
      [
        "Ãĸ",
        "N"
      ],
      [
        "Ã¬",
        "p"
      ],
      [
        "Â©",
        "ē"
      ],
      [
        "J",
        "S"
      ],
      [
        "w",
        "Âª"
      ],
      [
        "Ġ",
        "S"
      ],
      [
        "Ãı",
        "m"
      ],
      [
        "ÃĿ",
        "Ãº"
      ],
      [
        "*",
        ">"
      ],
      [
        "k",
        "Ã³"
      ],
      [
        "Ġ",
        "Âŀ"
      ],
      [
        "Âļ",
        "ĕ"
      ],
      [
        "Ã®",
        "N"
      ],
      [
        "Âĥ",
        ")"
      ],
      [
        "K",
        "Ãī"
      ],
      [
        "l",
        "Ãľ"
      ],
      [
        "Ã¸",
        "Ã¤"
      ],
      [
        "$",
        "ġ"
      ],
      [
        "a",
        "b"
      ],
      [
        "Ã²",
        "p"
      ],
      [
        "ÃĽ",
        "ÃĪ"
      ],
      [
        "ÃĶ",
        "Ãľ"
      ],
      [
        "Ã®",
        "Q"
      ],
      [
        "ÃĮ",
        "Ã¹"
      ],
      [
        "Â¬",
        "Âĳ"
      ],
      [
        "ÃŁ",
        "e"
      ],
      [
        "Ãĸ",
        "Ãľ"
      ],
      [
        "[",
        "-"
      ],
      [
        "Âĥ",
        "ę"
      ],
      [
        "r",
        "G"
      ],
      [
        "Ć",
        "Âİ"
      ],
      [
        "Â°",
        ")"
      ],
      [
        "ÃĹ",
        "ė"
      ],
      [
        "ÃĹ",
        "ÂŁ"
      ],
      [
        "Ãķ",
        "Ã°"
      ],
      [
        "Âľ",
        "-"
      ],
      [
        "R",
        "ÃĴ"
      ],
      [
        "W",
        "P"
      ],
      [
        "`",
        ">"
      ],
      [
        "k",
        "Ã°"
      ],
      [
        "Ĉ",
        ","
      ],
      [
        "Ã²",
        "Ã°"
      ],
      [
        "Ã§",
        "Ãµ"
      ],
      [
        "Â»",
        "Âĸ"
      ],
      [
        "Âľ",
        "="
      ],
      [
        "r",
        "Âµ"
      ],
      [
        "ÂĽ",
        "-"
      ],
      [
        "Ãĵ",
        "Ã¤"
      ],
      [
        "Ãĩ",
        "Ãģ"
      ],
      [
        "W",
        "n"
      ],
      [
        "Ĝ",
        "Âŀ"
      ],
      [
        "ÃĹ",
        "Â¥"
      ],
      [
        "ÂĹ",
        "Â«"
      ],
      [
        "Ãĥ",
        "Ãª"
      ],
      [
        "l",
        "x"
      ],
      [
        "ÂŃ",
        "ÂĨ"
      ],
      [
        "Âľ",
        ";"
      ],
      [
        "I",
        "U"
      ],
      [
        "Ğ",
        "Âį"
      ],
      [
        "Ãı",
        "Ãļ"
      ],
      [
        "ÃĶ",
        "Ãī"
      ],
      [
        "Ãĺ",
        "D"
      ],
      [
        "Â©",
        "#"
      ],
      [
        "i",
        "Q"
      ],
      [
        "s",
        "v"
      ],
      [
        "Ã®",
        "q"
      ],
      [
        "Â®",
        "+"
      ],
      [
        "Â£",
        "Âģ"
      ],
      [
        "I",
        "D"
      ],
      [
        "g",
        "L"
      ],
      [
        "i",
        "A"
      ],
      [
        "r",
        "H"
      ],
      [
        "Ã«",
        "ÃĻ"
      ],
      [
        "ÂŃ",
        "."
      ],
      [
        "Ãİ",
        "Ã¹"
      ],
      [
        "Â¸",
        "^"
      ],
      [
        "K",
        "Ã´"
      ],
      [
        "Ġ",
        "ÃĲ"
      ],
      [
        "ÂĽ",
        "~"
      ],
      [
        "Ãħ",
        "Ãľ"
      ],
      [
        "Ã¸",
        "ÃĪ"
      ],
      [
        "Â¿",
        "ÂĬ"
      ],
      [
        "Â»",
        ","
      ],
      [
        "Â¸",
        ")"
      ],
      [
        "Â®",
        "<"
      ],
      [
        "_",
        "Â¢"
      ],
      [
        "w",
        "x"
      ],
      [
        "w",
        "Ãľ"
      ],
      [
        "Ĉ",
        "Ĕ"
      ],
      [
        "ÂĦ",
        "Ã·"
      ],
      [
        "Ãĸ",
        "n"
      ],
      [
        "Ã®",
        "U"
      ],
      [
        "(",
        ":"
      ],
      [
        "[",
        "Âį"
      ],
      [
        "i",
        "c"
      ],
      [
        "Ãħ",
        "Ã´"
      ],
      [
        "ÂĤ",
        "ĕ"
      ],
      [
        "Ãĵ",
        "Ãľ"
      ],
      [
        "Âĥ",
        "đ"
      ],
      [
        "l",
        "ÃĴ"
      ],
      [
        "Âº",
        "ÃĢ"
      ],
      [
        "k",
        "Ã¹"
      ],
      [
        "z",
        "Ã¢"
      ],
      [
        "Ã¾",
        "e"
      ],
      [
        "ÂŃ",
        "#"
      ],
      [
        "Âķ",
        "ÂĴ"
      ],
      [
        "[",
        "Âĭ"
      ],
      [
        "u",
        "Ã¤"
      ],
      [
        "Ĝ",
        "#"
      ],
      [
        "ÃĽ",
        "N"
      ],
      [
        "Ã§",
        "S"
      ],
      [
        "Ã¦",
        "Ãª"
      ],
      [
        "z",
        "Z"
      ],
      [
        "{",
        "Âģ"
      ],
      [
        "Ã¸",
        "N"
      ],
      [
        "Ãĳ",
        "Ã³"
      ],
      [
        "u",
        "Ã¥"
      ],
      [
        "ÂĹ",
        "Ě"
      ],
      [
        "Â¶",
        "đ"
      ],
      [
        "/",
        "Âĺ"
      ],
      [
        "l",
        "t"
      ],
      [
        "Ĉ",
        "."
      ],
      [
        "Ã«",
        "t"
      ],
      [
        "Â·",
        "ė"
      ],
      [
        "J",
        "t"
      ],
      [
        "Ă",
        "ġ"
      ],
      [
        "Ãı",
        "ÃĲ"
      ],
      [
        "Â¤",
        "Âį"
      ],
      [
        "ÂĮ",
        "ē"
      ],
      [
        "$",
        "?"
      ],
      [
        "R",
        "A"
      ],
      [
        "Ć",
        "Â«"
      ],
      [
        "Ġ",
        "x"
      ],
      [
        "Â¯",
        "?"
      ],
      [
        "V",
        "ÃĪ"
      ],
      [
        "k",
        "j"
      ],
      [
        "l",
        "Âµ"
      ],
      [
        "ă",
        "?"
      ],
      [
        "Ã©",
        "q"
      ],
      [
        "Ã¬",
        "Ã½"
      ],
      [
        "Ãį",
        "Ãļ"
      ],
      [
        "ÂĿ",
        "-"
      ],
      [
        "Â¸",
        "Ď"
      ],
      [
        "Âķ",
        "ÂŁ"
      ],
      [
        "(",
        "Â«"
      ],
      [
        "I",
        "Ã°"
      ],
      [
        "Â°",
        "ÂŁ"
      ],
      [
        "ÃŁ",
        "S"
      ],
      [
        "Ã¯",
        "j"
      ],
      [
        "ÃĶ",
        "ÃĻ"
      ],
      [
        "Â´",
        ">"
      ],
      [
        "ÂĲ",
        "}"
      ],
      [
        "Â¦",
        "Â±"
      ],
      [
        "g",
        "H"
      ],
      [
        "u",
        "n"
      ],
      [
        "ÃĹ",
        "~"
      ],
      [
        "Â·",
        "Â±"
      ],
      [
        "Ã¦",
        "c"
      ],
      [
        "J",
        "Ã»"
      ],
      [
        "[",
        "Ď"
      ],
      [
        "\\",
        "Âĸ"
      ],
      [
        "_",
        "Âī"
      ],
      [
        "|",
        "Ě"
      ],
      [
        "ÂĽ",
        "<"
      ],
      [
        "Â¿",
        "."
      ],
      [
        "ÃĹ",
        "'"
      ],
      [
        "Ãĵ",
        "S"
      ],
      [
        "Âĥ",
        "Â¢"
      ],
      [
        "7",
        "8"
      ],
      [
        "F",
        "G"
      ],
      [
        "O",
        "e"
      ],
      [
        "ÃŁ",
        "Ã¥"
      ],
      [
        "ÂĿ",
        "Ē"
      ],
      [
        "Â¦",
        "+"
      ],
      [
        "l",
        "H"
      ],
      [
        "o",
        "ÃĪ"
      ],
      [
        "|",
        ")"
      ],
      [
        "w",
        "Ãī"
      ],
      [
        "z",
        "H"
      ],
      [
        "z",
        "T"
      ],
      [
        "Ã§",
        "ÃĪ"
      ],
      [
        "Â¶",
        "^"
      ],
      [
        "Â©",
        "ę"
      ],
      [
        "ÂĮ",
        "'"
      ],
      [
        "ÂĽ",
        ">"
      ],
      [
        "[",
        ":"
      ],
      [
        "z",
        "S"
      ],
      [
        "z",
        "ÃĪ"
      ],
      [
        "{",
        "ÂĻ"
      ],
      [
        "Ġ",
        "Âı"
      ],
      [
        "ÃĽ",
        "v"
      ],
      [
        "ÃĿ",
        "t"
      ],
      [
        "Â®",
        "Ã·"
      ],
      [
        "_",
        "ÂĨ"
      ],
      [
        "i",
        "Ã½"
      ],
      [
        "z",
        "Ãº"
      ],
      [
        "ÃŁ",
        "P"
      ],
      [
        "Ãĭ",
        "Ã£"
      ],
      [
        "Â¸",
        "ÂĨ"
      ],
      [
        "K",
        "ÃĢ"
      ],
      [
        "W",
        "p"
      ],
      [
        "Y",
        "ÃĪ"
      ],
      [
        "[",
        "Âī"
      ],
      [
        "g",
        "Z"
      ],
      [
        "Ã©",
        "f"
      ],
      [
        "ÂĹ",
        "%"
      ],
      [
        "ÂĽ",
        "ď"
      ],
      [
        "ÃĿ",
        "Ã³"
      ],
      [
        "Ãķ",
        "L"
      ],
      [
        "Â©",
        "Âĩ"
      ],
      [
        "w",
        "t"
      ],
      [
        "z",
        "ÃĻ"
      ],
      [
        "Ć",
        "Ã·"
      ],
      [
        "ć",
        "ÂĬ"
      ],
      [
        "ÃĶ",
        "Ã¤"
      ],
      [
        "Ã©",
        "Ã°"
      ],
      [
        "Ã¬",
        "q"
      ],
      [
        "Â®",
        "Âģ"
      ],
      [
        "ă",
        "}"
      ],
      [
        "Ġ",
        "e"
      ],
      [
        "Ãĵ",
        "N"
      ],
      [
        "Ã©",
        "Ã¥"
      ],
      [
        "Ã¬",
        "G"
      ],
      [
        "Â£",
        "Â±"
      ],
      [
        "V",
        "j"
      ],
      [
        "V",
        "Ã¼"
      ],
      [
        "w",
        "m"
      ],
      [
        "z",
        "U"
      ],
      [
        "ğ",
        "Âİ"
      ],
      [
        "ÂĪ",
        "~"
      ],
      [
        "Ã§",
        "Z"
      ],
      [
        "Ãĭ",
        "y"
      ],
      [
        "Âĥ",
        "Â±"
      ],
      [
        "Âķ",
        "Âĸ"
      ],
      [
        "\\",
        "+"
      ],
      [
        "h",
        "y"
      ],
      [
        "ÂĽ",
        ";"
      ],
      [
        "ÂĦ",
        "ę"
      ],
      [
        "Ã¯",
        "ÃĤ"
      ],
      [
        "ÂĿ",
        "~"
      ],
      [
        "ÂĹ",
        "!"
      ],
      [
        "Â¸",
        "Âİ"
      ],
      [
        "Â¤",
        ";"
      ],
      [
        "V",
        "Ã´"
      ],
      [
        "{",
        "!"
      ],
      [
        "{",
        "ē"
      ],
      [
        "Ă",
        "ÂŁ"
      ],
      [
        "Ġ",
        "Â¹"
      ],
      [
        "ÂĪ",
        "ď"
      ],
      [
        "Ãĵ",
        "Ã¡"
      ],
      [
        "Ãĵ",
        "Ã¨"
      ],
      [
        "ÃĮ",
        "Ã½"
      ],
      [
        "Ãį",
        "T"
      ],
      [
        "Âĥ",
        "Âĸ"
      ],
      [
        "o",
        "ÃĲ"
      ],
      [
        "ÂĢ",
        "Âİ"
      ],
      [
        "Ã¦",
        "q"
      ],
      [
        "ÂĮ",
        "<"
      ],
      [
        "O",
        "ÃĨ"
      ],
      [
        "l",
        "D"
      ],
      [
        "ě",
        "Âİ"
      ],
      [
        "Ãħ",
        "Ã¥"
      ],
      [
        "Ãĵ",
        "Ãº"
      ],
      [
        "Ã®",
        "Ã°"
      ],
      [
        "ÂŃ",
        "Âİ"
      ],
      [
        "Ãİ",
        "ÃĨ"
      ],
      [
        "C",
        "Ãģ"
      ],
      [
        "|",
        "ÂĴ"
      ],
      [
        "Âļ",
        "ą"
      ],
      [
        "Â»",
        "ď"
      ],
      [
        "Ãĳ",
        "Ã¥"
      ],
      [
        "ÂĿ",
        "Âĺ"
      ],
      [
        "Âľ",
        "Â¢"
      ],
      [
        "Ġ",
        "Ãº"
      ],
      [
        "ÂĿ",
        "Âı"
      ],
      [
        "ÂĹ",
        ";"
      ],
      [
        "Â¶",
        "Â¢"
      ],
      [
        "Âľ",
        "#"
      ],
      [
        "J",
        "P"
      ],
      [
        "l",
        "Ãµ"
      ],
      [
        "ÃĶ",
        "Ã»"
      ],
      [
        "Â¦",
        "<"
      ],
      [
        "Â¨",
        "ÂŁ"
      ],
      [
        "{",
        "Â¥"
      ],
      [
        "Ă",
        "."
      ],
      [
        "Ã²",
        "Ã¶"
      ],
      [
        "Â§",
        "Ď"
      ],
      [
        "Ãħ",
        "Ãº"
      ],
      [
        "Ã®",
        "Ã£"
      ],
      [
        "Âº",
        "Ãµ"
      ],
      [
        "`",
        "Âĩ"
      ],
      [
        "Âĥ",
        "}"
      ],
      [
        "Y",
        "Ãŀ"
      ],
      [
        "{",
        "đ"
      ],
      [
        "{",
        "ė"
      ],
      [
        "Ã©",
        "G"
      ],
      [
        "Ã¬",
        "x"
      ],
      [
        "ÂŃ",
        "Âĺ"
      ],
      [
        "Âľ",
        "Âı"
      ],
      [
        "V",
        "Ãº"
      ],
      [
        "[",
        "."
      ],
      [
        "ÂĽ",
        "'"
      ],
      [
        "Â°",
        "-"
      ],
      [
        "Â´",
        "Ě"
      ],
      [
        "Â¸",
        "ē"
      ],
      [
        "J",
        "ÃŃ"
      ],
      [
        "V",
        "Ã±"
      ],
      [
        "_",
        "Â«"
      ],
      [
        "Ġ",
        "v"
      ],
      [
        "Ġ",
        "Âĭ"
      ],
      [
        "Â¿",
        "ē"
      ],
      [
        "/",
        "'"
      ],
      [
        "F",
        "Ã»"
      ],
      [
        "_",
        "]"
      ],
      [
        "`",
        "Đ"
      ],
      [
        "z",
        "Q"
      ],
      [
        "z",
        "y"
      ],
      [
        "ā",
        "Â«"
      ],
      [
        "Ã¯",
        "G"
      ],
      [
        "ÃĿ",
        "p"
      ],
      [
        "Âľ",
        "Â±"
      ],
      [
        "V",
        "Q"
      ],
      [
        "o",
        "x"
      ],
      [
        "ě",
        "Â±"
      ],
      [
        "ā",
        "Âĺ"
      ],
      [
        "Ã©",
        "Ãµ"
      ],
      [
        "Ã®",
        "Ã»"
      ],
      [
        "Ãį",
        "y"
      ],
      [
        "Â¦",
        "-"
      ],
      [
        "o",
        "Ãŀ"
      ],
      [
        "u",
        "Ã¶"
      ],
      [
        "|",
        "Â«"
      ],
      [
        "Ãħ",
        "ÃĢ"
      ],
      [
        "Ã¯",
        "Ãľ"
      ],
      [
        "Â¤",
        "Â±"
      ],
      [
        "Ğ",
        "Âĩ"
      ],
      [
        "Â¶",
        "Âĸ"
      ],
      [
        "Ãĥ",
        "Ã¡"
      ],
      [
        "F",
        "Ã±"
      ],
      [
        "Ğ",
        "}"
      ],
      [
        "Â¬",
        "Âŀ"
      ],
      [
        "Â¿",
        "ÂĨ"
      ],
      [
        "ÃĶ",
        "b"
      ],
      [
        "ÂĹ",
        "ÂĻ"
      ],
      [
        "ÂŃ",
        ":"
      ],
      [
        "E",
        "Ã£"
      ],
      [
        "k",
        "ÃĻ"
      ],
      [
        "ÃĶ",
        "Ãµ"
      ],
      [
        "Ãĭ",
        "v"
      ],
      [
        "Ãĭ",
        "Ãģ"
      ],
      [
        "Ãĳ",
        "Ã¢"
      ],
      [
        "Âĥ",
        "+"
      ],
      [
        "I",
        "ÃĲ"
      ],
      [
        "`",
        "-"
      ],
      [
        "Ć",
        "ď"
      ],
      [
        "Ġ",
        "~"
      ],
      [
        "ÂĦ",
        "Âĸ"
      ],
      [
        "Ãķ",
        "Ã¥"
      ],
      [
        "u",
        "Ãª"
      ],
      [
        "Ġ",
        "Â¼"
      ],
      [
        "Ãķ",
        "Ãł"
      ],
      [
        "ÃĮ",
        "L"
      ],
      [
        "I",
        "Ã¥"
      ],
      [
        "W",
        "q"
      ],
      [
        "[",
        "="
      ],
      [
        "k",
        "d"
      ],
      [
        "Â¿",
        "%"
      ],
      [
        "Ãĸ",
        "Q"
      ],
      [
        "Â·",
        "Â«"
      ],
      [
        "Â´",
        "Âī"
      ],
      [
        "Â¶",
        "+"
      ],
      [
        "r",
        "Ãľ"
      ],
      [
        "Ĝ",
        "ĕ"
      ],
      [
        "*",
        "Âĺ"
      ],
      [
        "1",
        "Â³"
      ],
      [
        "Y",
        "f"
      ],
      [
        "a",
        "Ã¼"
      ],
      [
        "Ãĺ",
        "B"
      ],
      [
        "Ã©",
        "Ãª"
      ],
      [
        "h",
        "e"
      ],
[...]
