{
  "version": "1.0",
  "truncation": null,
  "padding": null,
  "added_tokens": [
    {
      "id": 0,
      "content": "<unk>",
      "single_word": false,
      "lstrip": false,
      "rstrip": false,
      "normalized": false,
      "special": true
    },
    {
      "id": 1,
      "content": "<pad>",
      "single_word": false,
      "lstrip": false,
      "rstrip": false,
      "normalized": false,
      "special": true
    },
    {
      "id": 2,
      "content": "<avc_lm>",
      "single_word": false,
      "lstrip": false,
      "rstrip": false,
      "normalized": false,
      "special": true
    },
    {
      "id": 3,
      "content": "</avc_lm>",
      "single_word": false,
      "lstrip": false,
      "rstrip": false,
      "normalized": false,
      "special": true
    }
  ],
  "normalizer": null,
  "pre_tokenizer": null,
  "post_processor": null,
  "decoder": null,
  "model": {
    "type": "BPE",
    "dropout": null,
    "unk_token": null,
    "continuing_subword_prefix": null,
    "end_of_word_suffix": null,
    "fuse_unk": false,
    "byte_fallback": false,
    "ignore_merges": false,
    "vocab": {
      "<unk>": 0,
      "<pad>": 1,
      "<avc_lm>": 2,
      "</avc_lm>": 3,
      "\u0000": 4,
      "\u0001": 5,
      "\u0002": 6,
      "\u0003": 7,
      "\u0004": 8,
      "\u0005": 9,
      "\u0006": 10,
      "\u0007": 11,
      "\b": 12,
      "\t": 13,
      "\n": 14,
      "\u000b": 15,
      "\f": 16,
      "\r": 17,
      "\u000e": 18,
      "\u000f": 19,
      "\u0010": 20,
      "\u0011": 21,
      "\u0012": 22,
      "\u0013": 23,
      "\u0014": 24,
      "\u0015": 25,
      "\u0016": 26,
      "\u0017": 27,
      "\u0018": 28,
      "\u0019": 29,
      "\u001a": 30,
      "\u001b": 31,
      "\u001c": 32,
      "\u001d": 33,
      "\u001e": 34,
      "\u001f": 35,
      " ": 36,
      "!": 37,
      "\"": 38,
      "#": 39,
      "$": 40,
      "%": 41,
      "&": 42,
      "'": 43,
      "(": 44,
      ")": 45,
      "*": 46,
      "+": 47,
      ",": 48,
      "-": 49,
      ".": 50,
      "/": 51,
      "0": 52,
      "1": 53,
      "2": 54,
      "3": 55,
      "4": 56,
      "5": 57,
      "6": 58,
      "7": 59,
      "8": 60,
      "9": 61,
      ":": 62,
      ";": 63,
      "<": 64,
      "=": 65,
      ">": 66,
      "?": 67,
      "@": 68,
      "A": 69,
      "B": 70,
      "C": 71,
      "D": 72,
      "E": 73,
      "F": 74,
      "G": 75,
      "H": 76,
      "I": 77,
      "J": 78,
      "K": 79,
      "L": 80,
      "M": 81,
      "N": 82,
      "O": 83,
      "P": 84,
      "Q": 85,
      "R": 86,
      "S": 87,
      "T": 88,
      "U": 89,
      "V": 90,
      "W": 91,
      "X": 92,
      "Y": 93,
      "Z": 94,
      "[": 95,
      "\\": 96,
      "]": 97,
      "^": 98,
      "_": 99,
      "`": 100,
      "a": 101,
      "b": 102,
      "c": 103,
      "d": 104,
      "e": 105,
      "f": 106,
      "g": 107,
      "h": 108,
      "i": 109,
      "j": 110,
      "k": 111,
      "l": 112,
      "m": 113,
      "n": 114,
      "o": 115,
      "p": 116,
      "q": 117,
      "r": 118,
      "s": 119,
      "t": 120,
      "u": 121,
      "v": 122,
      "w": 123,
      "x": 124,
      "y": 125,
      "z": 126,
      "{": 127,
      "|": 128,
      "}": 129,
      "~": 130,
      "": 131,
      "": 132,
      "": 133,
      "": 134,
      "": 135,
      "": 136,
      "": 137,
      "": 138,
      "": 139,
      "": 140,
      "": 141,
      "": 142,
      "": 143,
      "": 144,
      "": 145,
      "": 146,
      "": 147,
      "": 148,
      "": 149,
      "": 150,
      "": 151,
      "": 152,
      "": 153,
      "": 154,
      "": 155,
      "": 156,
      "": 157,
      "": 158,
      "": 159,
      "": 160,
      "": 161,
      "": 162,
      "": 163,
      " ": 164,
      "¡": 165,
      "¢": 166,
      "£": 167,
      "¤": 168,
      "¥": 169,
      "¦": 170,
      "§": 171,
      "¨": 172,
      "©": 173,
      "ª": 174,
      "«": 175,
      "¬": 176,
      "­": 177,
      "®": 178,
      "¯": 179,
      "°": 180,
      "±": 181,
      "²": 182,
      "³": 183,
      "´": 184,
      "µ": 185,
      "¶": 186,
      "·": 187,
      "¸": 188,
      "¹": 189,
      "º": 190,
      "»": 191,
      "¼": 192,
      "½": 193,
      "¾": 194,
      "¿": 195,
      "À": 196,
      "Á": 197,
      "Â": 198,
      "Ã": 199,
      "Ä": 200,
      "Å": 201,
      "Æ": 202,
      "Ç": 203,
      "È": 204,
      "É": 205,
      "Ê": 206,
      "Ë": 207,
      "Ì": 208,
      "Í": 209,
      "Î": 210,
      "Ï": 211,
      "Ð": 212,
      "Ñ": 213,
      "Ò": 214,
      "Ó": 215,
      "Ô": 216,
      "Õ": 217,
      "Ö": 218,
      "×": 219,
      "Ø": 220,
      "Ù": 221,
      "Ú": 222,
      "Û": 223,
      "Ü": 224,
      "Ý": 225,
      "Þ": 226,
      "ß": 227,
      "à": 228,
      "á": 229,
      "â": 230,
      "ã": 231,
      "ä": 232,
      "å": 233,
      "æ": 234,
      "ç": 235,
      "è": 236,
      "é": 237,
      "ê": 238,
      "ë": 239,
      "ì": 240,
      "í": 241,
      "î": 242,
      "ï": 243,
      "ð": 244,
      "ñ": 245,
      "ò": 246,
      "ó": 247,
      "ô": 248,
      "õ": 249,
      "ö": 250,
      "÷": 251,
      "ø": 252,
      "ù": 253,
      "ú": 254,
      "û": 255,
      "ü": 256,
      "ý": 257,
      "þ": 258,
      "ÿ": 259,
      "\u0000\u0000": 260,
      "ÿÿ": 261,
      "\u0000\u0001": 262,
      "\u0000\u0000\u0000\u0001": 263,
      "\u0000\u0000\u0000\u0001A": 264,
      "\u0000\u0000\u0000\u0001A": 265,
      "\u0000\u0000\u0000\u0001A": 266,
      "ÿÿÿÿ": 267,
      "'Ä": 268,
      "ñ": 269,
      "â|": 270,
      "?": 271,
      "\u0013": 272,
      ">\u0011": 273,
      "Äø": 274,
      "ùü": 275,
      "O": 276,
      "çó": 277,
      "á\u001f": 278,
      "\u0011â": 279,
      "]u": 280,
      "þ": 281,
      "×]u": 282,
      "?Ï": 283,
      "×]u×]u": 284,
      "ð": 285,
      "ñ": 286,
      "UU": 287,
      "øG": 288,
      "#Ä": 289,
      "|": 290,
      "çóùü": 291,
      "ñ>": 292,
      "\u0013â": 293,
      "x": 294,
      "\b": 295,
      "<G": 296,
      "k\u0013": 297,
      "\u0013": 298,
      "ªª": 299,
      "\u0011ñ": 300,
      ">&": 301,
      "ñ?": 302,
      "ÿÿÿ": 303,
      "ø": 304,
      "×]u×]u×]u×]u": 305,
      ">'": 306,
      "Ä\t": 307,
      "Äx": 308,
      "â\u0004": 309,
      "øF": 310,
      "5": 311,
      "|#": 312,
      "Â>\u0011": 313,
      "á\u001f\b": 314,
      "þ?Ï": 315,
      "0 ": 316,
      "Oñ": 317,
      "ÄÄ": 318,
      "ð": 319,
      "ñ\u0002": 320,
      ".'": 321,
      ">'Ä": 322,
      "ø": 323,
      "ø\u0013": 324,
      "\u0010&": 325,
      "<@": 326,
      "¬#": 327,
      "¼#": 328,
      "ø": 329,
      "ð": 330,
      "\b": 331,
      "Ö&": 332,
      "Ö'": 333,
      "ñ\u0018": 334,
      "Mb": 335,
      "¸": 336,
      "ÉÉ": 337,
      "üO": 338,
      "ÿÿÿÿÿÿÿÿ": 339,
      "ñ\u001e": 340,
      "\u0013â|": 341,
      "D\t": 342,
      "O": 343,
      "ð": 344,
      "ñ\u001e": 345,
      "ø": 346,
      "": 347,
      "\u0011": 348,
      " ": 349,
      "þ#": 350,
      "=0 ": 351,
      "G": 352,
      "b|": 353,
      "\u0000\u0000\u0000\u0001A": 354,
      "Â1": 355,
      "Ö'Ä": 356,
      "â": 357,
      "ñ1": 358,
      "ø": 359,
      "þ'": 360,
      "\u001aÄ": 361,
      "7": 362,
      ">$": 363,
      "Mâ": 364,
      "a\u001f": 365,
      "mÛ": 366,
      "\u0013": 367,
      "Ï": 368,
      "¸": 369,
      "Â5": 370,
      "ñ\u001f": 371,
      "ñ8": 372,
      "ø": 373,
      "úÄ": 374,
      "ÿþ": 375,
      "\u0011": 376,
      "<F": 377,
      "GÄ": 378,
      "X": 379,
      "\u0012": 380,
      "¬L": 381,
      "Â2": 382,
      "Þ&": 383,
      "â\u0002": 384,
      "â?": 385,
      "âk": 386,
      "â~": 387,
      "ñ2": 388,
      "øD": 389,
      "ü#": 390,
      "|#": 391,
      "XF": 392,
      "a\u0019": 393,
      "\u0000\u0000\u0000\u0001A": 394,
      "­~": 395,
      "¸": 396,
      "â<": 397,
      "ð": 398,
      "\u0011Ä": 399,
      "&&": 400,
      "&µ": 401,
      "O\u0011": 402,
      "O\u0013": 403,
      "^'": 404,
      "o\u0013": 405,
      "×": 406,
      "\b": 407,
      "": 408,
      "¢\u0004": 409,
      "¬M": 410,
      "¼L": 411,
      "Â8": 412,
      "á\u0019": 413,
      "ï": 414,
      "óùü": 415,
      "ø": 416,
      "ø": 417,
      "ÿ": 418,
      "ÿÄ": 419,
      "×]u×]u×]u×]u×]u×]u×]u×]u": 420,
      " M": 421,
      ".µ": 422,
      "7": 423,
      ">#": 424,
      "LL": 425,
      "Q\u0002": 426,
      "nß": 427,
      "o\b": 428,
      "x": 429,
      "Â": 430,
      "Ä": 431,
      "\u0013": 432,
      "Ä\u0004": 433,
      "Þÿ": 434,
      "âD": 435,
      "ð": 436,
      "ðÏ": 437,
      "ñ\u001a": 438,
      "ñ3": 439,
      "øC": 440,
      "þ?": 441,
      "\u001e#": 442,
      "&'": 443,
      "X": 444,
      "ZÖ": 445,
      "|L": 446,
      "~&": 447,
      "": 448,
      "¾": 449,
      "#": 450,
      "\b": 451,
      "¬G": 452,
      "¿\b": 453,
      "¿": 454,
      "¿Ä": 455,
      "Â\u0018": 456,
      "Ï": 457,
      "á\u000f": 458,
      "â0": 459,
      "äÖ": 460,
      "åÖ": 461,
      "ë\u0013": 462,
      "ñ5": 463,
      "ø": 464,
      "ùº": 465,
      "ü!": 466,
      "üG": 467,
      "üL": 468,
      "ÿ\u0013": 469,
      "\u0000\u0000\u0000\u0001A@": 470,
      "\u0000\u0000\u0000\u0001A`": 471,
      "\u0011â<": 472,
      "çóùüþ?Ï": 473,
      "<G": 474,
      ">\"": 475,
      "Oÿ": 476,
      "Vµ": 477,
      "iÓ": 478,
      "om": 479,
      "q\u0002": 480,
      "re": 481,
      "x": 482,
      "\u0011": 483,
      "e": 484,
      "Ä": 485,
      "¬3": 486,
      "±\u001f": 487,
      "±5": 488,
      "Á\u000f": 489,
      "Â\u001e": 490,
      "Â?": 491,
      "Âx": 492,
      "Ä~": 493,
      "ÄÉ": 494,
      "Ö¿": 495,
      "á\u001a": 496,
      "âI": 497,
      "ë_": 498,
      "ñ\"": 499,
      "ñ>\u0011": 500,
      "ø": 501,
      "ú×": 502,
      "þ\u0011": 503,
      "þ\"": 504,
      "þ&": 505,
      "ÿ\u0011": 506,
      "\u0000\u0000\u0000\u0001Aà": 507,
      "\u0000\u0000\u0000\u0001A ": 508,
      "\u0000\u0000\u0000\u0001AÀ": 509,
      "\u0000\u0000\u0000\u0001Aà": 510,
      "ñ>'": 511,
      "\u0010#": 512,
      "\u0013ò": 513,
      " L": 514,
      "%W": 515,
      "+\b": 516,
      ".#": 517,
      ".&": 518,
      "0": 519,
      "6µ": 520,
      "7\u0011": 521,
      "=1": 522,
      "Da": 523,
      "O": 524,
      "]W": 525,
      "_\u0013": 526,
      "bf": 527,
      "j#": 528,
      "n#": 529,
      "q\u001f": 530,
      "w": 531,
      "x": 532,
      "x": 533,
      "|O": 534,
      "ÿ": 535,
      "?Ï": 536,
      "<": 537,
      "": 538,
      "®": 539,
      "\u0013": 540,
      "ù": 541,
      "Ä": 542,
      "¬O": 543,
      "±\u0002": 544,
      "·m": 545,
      "¸": 546,
      "¾j": 547,
      "¿": 548,
      "¿Ë": 549,
      "Â\u001f": 550,
      "Äa": 551,
      "Äy": 552,
      "Ä": 553,
      "Äâ": 554,
      "ÕU": 555,
      "Õk": 556,
      "Ýk": 557,
      "Þ'": 558,
      "â$": 559,
      "â1": 560,
      "âd": 561,
      "âu": 562,
      "ë\b": 563,
      "íÛ": 564,
      "ñ\u0015": 565,
      "ø": 566,
      "ø": 567,
      "ø®": 568,
      "ø\b": 569,
      "üF": 570,
      "üH": 571,
      "üN": 572,
      "üÜ": 573,
      "ÿ÷": 574,
      "\u0000\u0000\u0000\u0001A\u0000": 575,
      "\u0000\u0000\u0000\u0001A@": 576,
      "ÿÿÿÿÿÿ": 577,
      "á\u001f\u0013": 578,
      "\bË": 579,
      "\u0010'": 580,
      "\u0011": 581,
      "\u0015Í": 582,
      "\u001bÄ": 583,
      "&\u0011": 584,
      "+\u0013": 585,
      ".$": 586,
      "12": 587,
      "6#": 588,
      "7U": 589,
      "< ": 590,
      "XG": 591,
      "X\u0013": 592,
      "Zª": 593,
      "Z×": 594,
      "\\F": 595,
      "^&": 596,
      "_\u0011": 597,
      "ed": 598,
      "n'": 599,
      "o\u0011": 600,
      "oÄ": 601,
      "q\u001c": 602,
      "q2": 603,
      "q8": 604,
      "ra": 605,
      "xF": 606,
      "x\u0013": 607,
      "|E": 608,
      "~#": 609,
      "~n": 610,
      "\u0012": 611,
      "æ": 612,
      "µ": 613,
      "Ä": 614,
      "¨": 615,
      "¬O": 616,
      "¬Ì": 617,
      "­k": 618,
      "¯": 619,
      "¯Â": 620,
      "°": 621,
      "°Ì": 622,
      "±\u0012": 623,
      "±1": 624,
      "¸": 625,
      "¸": 626,
      "¹²": 627,
      "º¯": 628,
      "¼G": 629,
      "¾#": 630,
      "¿\u0013": 631,
      "¿ÿ": 632,
      "Â>&": 633,
      "Ä\b": 634,
      "Äb": 635,
      "ÉË": 636,
      "ÏË": 637,
      "Ô@": 638,
      "Ö\u0011": 639,
      "Ö±": 640,
      "×\u0011": 641,
      "ÜF": 642,
      "ß\u0011": 643,
      "à": 644,
      "à\u0000\u0000\u0000\u0001A": 645,
      "á\u0012": 646,
      "á<": 647,
      "â\"": 648,
      "âx": 649,
      "äå": 650,
      "åê": 651,
      "éÓ": 652,
      "ð": 653,
      "ñ\u0001": 654,
      "ñ\u0011": 655,
      "ñ\u0013": 656,
      "ûÄ": 657,
      "ü": 658,
      "þ$": 659,
      "þ/": 660,
      "þ÷": 661,
      "\u0000\u0000\u0000\u0001A\u0000": 662,
      "\u0000\u0000\u0000\u0001A": 663,
      "\u0000\u0000\u0000\u0001A": 664,
      "Äø\u0013": 665,
      "UUUU": 666,
      "ñ>'Ä": 667,
      "\u0010\"": 668,
      "\u0011": 669,
      "\u0013": 670,
      "\u0013Ã": 671,
      "\u0017É": 672,
      "\u0017Ë": 673,
      "\u001b\u0011": 674,
      "\u001cN": 675,
      " #": 676,
      "\"\u0004": 677,
      "$F": 678,
      "&$": 679,
      "'&": 680,
      "2b": 681,
      "3b": 682,
      "3á": 683,
      "6&": 684,
      "?\u0011": 685,
      "?\u0013": 686,
      "?5": 687,
      "?": 688,
      "?": 689,
      "N#": 690,
      "N&": 691,
      "Q\u0018": 692,
      "Uª": 693,
      "X": 694,
      "\\#": 695,
      "_.": 696,
      "_": 697,
      "a\u0018": 698,
      "dÄ": 699,
      "gÃ": 700,
      "in": 701,
      "k\b": 702,
      "kZ": 703,
      "s1": 704,
      "u]": 705,
      "xC": 706,
      "|!": 707,
      "|M": 708,
      "|N": 709,
      "|º": 710,
      "~\"": 711,
      "~'": 712,
      "": 713,
      "b": 714,
      "\u0011": 715,
      "": 716,
      "\u0011": 717,
      "": 718,
      "¬": 719,
      "Z": 720,
      "": 721,
      "": 722,
      "": 723,
      "\u0011": 724,
      "µ": 725,
      "Ä": 726,
      "ÿ": 727,
      "¨": 728,
      "¨": 729,
      "®+": 730,
      "®n": 731,
      "¯Ä": 732,
      "°": 733,
      "·Ä": 734,
      "¸": 735,
      "¹": 736,
      "¼M": 737,
      "¾'": 738,
      "¾m": 739,
      "¿\u0011": 740,
      "Â7": 741,
      "Äe": 742,
      "ÄÇ": 743,
      "Äã": 744,
      "ÏÍ": 745,
      "Ö#": 746,
      "Öµ": 747,
      "×&": 748,
      "á\f": 749,
      "á\u0018": 750,
      "â\t": 751,
      "â3": 752,
      "âb": 753,
      "âf": 754,
      "â¼": 755,
      "å§": 756,
      "åÿ": 757,
      "æb": 758,
      "ææ": 759,
      "ï\u0013": 760,
      "ðC": 761,
      "ð": 762,
      "ðÌ": 763,
      "ñ$": 764,
      "ñ<": 765,
      "òs": 766,
      "÷": 767,
      "÷Í": 768,
      "ø!": 769,
      "øK": 770,
      "øf": 771,
      "ø": 772,
      "ø": 773,
      "ø": 774,
      "ùz": 775,
      "ü%": 776,
      "ü@": 777,
      "üM": 778,
      "üO": 779,
      "ÿ": 780,
      "ÿü": 781,
      "\u0000\u0000\u0000\u0001A!": 782,
      "\u0000\u0000\u0000\u0001A ": 783,
      "ÄøG": 784,
      "\u0000": 785,
      "\u0011®": 786,
      "\u0013": 787,
      "\u001cG": 788,
      "#\u0013": 789,
      "$¬": 790,
      "&": 791,
      "+\u001e": 792,
      ",@": 793,
      "/\u0013": 794,
      "/": 795,
      "0": 796,
      ">\u0010": 797,
      ">\u0019": 798,
      ">³": 799,
      "?\b": 800,
      "De": 801,
      "DÉ": 802,
      "F'": 803,
      "L#": 804,
      "LG": 805,
      "OÄ": 806,
      "Q\u0019": 807,
      "UÄ": 808,
      "V\"": 809,
      "V#": 810,
      "X": 811,
      "X": 812,
      "^\u0011": 813,
      "^\"": 814,
      "_": 815,
      "a\u001a": 816,
      "de": 817,
      "gÄ": 818,
      "iÿ": 819,
      "j ": 820,
      "k\u0011": 821,
      "k": 822,
      "o\f": 823,
      "q\u0018": 824,
      "v×": 825,
      "x": 826,
      "|\u0010": 827,
      "|\"": 828,
      "|'": 829,
      "}Õ": 830,
      "~\u0011": 831,
      "~ ": 832,
      "\u0013": 833,
      "": 834,
      "\u0019": 835,
      "I": 836,
      "Å": 837,
      "Ë": 838,
      "ß": 839,
      "ä": 840,
      "ü": 841,
      "D": 842,
      "b": 843,
      "Ä": 844,
      "": 845,
      "": 846,
      "": 847,
      "": 848,
      "": 849,
      "": 850,
      "«": 851,
      "O": 852,
      "": 853,
      "¦": 854,
      "®I": 855,
      "¯\u0011": 856,
      "°": 857,
      "±>'Ä": 858,
      "¹9": 859,
      "º®": 860,
      "¼N": 861,
      "¼O": 862,
      "¾L": 863,
      "¾M": 864,
      "Â0": 865,
      "Äc": 866,
      "Ä": 867,
      "Åþ": 868,
      "É": 869,
      "Ï": 870,
      "ÓÓ": 871,
      "Ý»": 872,
      "Þ'Ä": 873,
      "ßâ": 874,
      "ßÿ": 875,
      "á=": 876,
      "â*": 877,
      "â8": 878,
      "âK": 879,
      "âp": 880,
      "âq": 881,
      "äª": 882,
      "åî": 883,
      "æ­": 884,
      "ê«": 885,
      "ìu": 886,
      "ï\b": 887,
      "ð": 888,
      "ð": 889,
      "ñ\u0017": 890,
      "ñ[": 891,
      "ñ\\": 892,
      "ñ5": 893,
      "òu": 894,
      "ó1": 895,
      "óf": 896,
      "ók": 897,
      "óù": 898,
      "õË": 899,
      "øN": 900,
      "ø": 901,
      "øº": 902,
      "ù7": 903,
      "ù·": 904,
      "ûß": 905,
      "ûæ": 906,
      "ûê": 907,
      "üE": 908,
      "ü´": 909,
      "þ\u0010": 910,
      "þ[": 911,
      "þk": 912,
      "þ}": 913,
      "ÿ": 914,
      "\u0000\u0000\u0000\u0001A\u0001": 915,
      "\u0000\u0000\u0000\u0001A ": 916,
      "\u0000\u0000\u0000\u0001A ": 917,
      "ñ\u001e": 918,
      "ñ1": 919,
      "â|#": 920,
      "â|L": 921,
      "â|O": 922,
      "â|Oñ": 923,
      "Äø": 924,
      "=1 ": 925,
      "\b": 926,
      "\nq": 927,
      "\u0010\u0011": 928,
      "\u0010+": 929,
      "\u0010ø": 930,
      "\u0011X": 931,
      "\u0015": 932,
      "\u0019": 933,
      "\u001cF": 934,
      "\u001cÌ": 935,
      "\u001f\u0011": 936,
      " -": 937,
      "$@": 938,
      "$¹": 939,
      "&\"": 940,
      "'/": 941,
      "+\u0011": 942,
      "/\t": 943,
      "/w": 944,
      "/": 945,
      "4e": 946,
      "4Ë": 947,
      "7\u0013": 948,
      "7": 949,
      "8": 950,
      "<N": 951,
      "> ": 952,
      ">\\": 953,
      "@": 954,
      "Dc": 955,
      "Eb": 956,
      "H": 957,
      "I+": 958,
      "MÛ": 959,
      "N«": 960,
      "OË": 961,
      "Q8": 962,
      "T|": 963,
      "U­": 964,
      "V&": 965,
      "X": 966,
      "Z®": 967,
      "Zÿ": 968,
      "\\L": 969,
      "\\´": 970,
      "\\º": 971,
      "\\Ú": 972,
      "]k": 973,
      "]Ú": 974,
      "_\t": 975,
      "_6": 976,
      "_Ä": 977,
      "a\u001b": 978,
      "b\u0004": 979,
      "b~": 980,
      "b<G": 981,
      "cc": 982,
      "gâ": 983,
      "jµ": 984,
      "me": 985,
      "nÝ": 986,
      "q?": 987,
      "qZ": 988,
      "st": 989,
      "t": 990,
      "uU": 991,
      "uª": 992,
      "v5": 993,
      "vÛ": 994,
      "xB": 995,
      "xG": 996,
      "x": 997,
      "yy": 998,
      "yü": 999,
      "|¹": 1000,
      "|O": 1001,
      "~L": 1002,
      "\b": 1003,
      "%": 1004,
      "?": 1005,
      "": 1006,
      "": 1007,
      "": 1008,
      "0": 1009,
      "~": 1010,
      "<": 1011,
      "\f": 1012,
      "Æ": 1013,
      "É": 1014,
      "Í": 1015,
      "ó": 1016,
      "Þ": 1017,
      "\u0011": 1018,
      "É": 1019,
      "ï": 1020,
      "Ë": 1021,
      "Ë": 1022,
      "ß": 1023,
      "F": 1024,
      "G": 1025,
      "": 1026,
      "": 1027,
      "\u0011": 1028,
      "Z": 1029,
      "Ë": 1030,
      "F": 1031,
      "G": 1032,
      "D": 1033,
      "": 1034,
      "¢q": 1035,
      "¥Ä": 1036,
      "§Ë": 1037,
      "¨G": 1038,
      "¨": 1039,
      "¨": 1040,
      "ª¯": 1041,
      "¬A": 1042,
      "¬N": 1043,
      "­d": 1044,
      "­x": 1045,
      "®\"": 1046,
      "®'": 1047,
      "®M": 1048,
      "®m": 1049,
      "¯É": 1050,
      "°¦": 1051,
      "±\u0011": 1052,
      "±\u001e": 1053,
      "¶Û": 1054,
      "¸F": 1055,
      "¸O": 1056,
      "¸": 1057,
      "¸": 1058,
      "»ù": 1059,
      "¼!": 1060,
      "¼D": 1061,
      "¼W": 1062,
      "¿\u0012": 1063,
      "ÁL": 1064,
      "Â\u001c": 1065,
      "Â\"": 1066,
      "Âz": 1067,
      "Äd": 1068,
      "Äw": 1069,
      "ÄÅ": 1070,
      "Ää": 1071,
      "Äò": 1072,
      "Çà": 1073,
      "É": 1074,
      "Éª": 1075,
      "ÉÍ": 1076,
      "ÊÅ": 1077,
      "Ë": 1078,
      "ËÕ": 1079,
      "ÌÅ": 1080,
      "Ïç": 1081,
      "ÔH": 1082,
      "ÕW": 1083,
      "Ö$": 1084,
      "Ö³": 1085,
      "Ö¾": 1086,
      "×Ä": 1087,
      "Û¶": 1088,
      "ß\b": 1089,
      "ß-": 1090,
      "à": 1091,
      "á\n": 1092,
      "á-": 1093,
      "á": 1094,
      "â\u0005": 1095,
      "â\n": 1096,
      "â.": 1097,
      "â4": 1098,
      "â¶": 1099,
      "â<G": 1100,
      "âk\u0013": 1101,
      "äÝ": 1102,
      "äÞ": 1103,
      "äó": 1104,
      "åò": 1105,
      "æc": 1106,
      "êµ": 1107,
      "ëÄ": 1108,
      "í¶": 1109,
      "ï\u0011": 1110,
      "ï÷": 1111,
      "ð": 1112,
      "ð": 1113,
      "ð": 1114,
      "ñ\u0012": 1115,
      "ñV": 1116,
      "ñ{": 1117,
      "òg": 1118,
      "òÓ": 1119,
      "÷Z": 1120,
      "÷w": 1121,
      "øJ": 1122,
      "ø": 1123,
      "ø": 1124,
      "ø": 1125,
      "ø": 1126,
      "ù*": 1127,
      "ù1": 1128,
      "ù<": 1129,
      "ûÅ": 1130,
      "ü'": 1131,
      "üD": 1132,
      "ü": 1133,
      "ü·": 1134,
      "ü¼": 1135,
      "üÚ": 1136,
      "þ\u0013": 1137,
      "þM": 1138,
      "þ\\": 1139,
      "þ^": 1140,
      "þj": 1141,
      "þ~": 1142,
      "þ'Ä": 1143,
      "ÿ\b": 1144,
      "ÿ\t": 1145,
      "ÿ&": 1146,
      "ÿ/": 1147,
      "ÿ5": 1148,
      "ÿ": 1149,
      "ÿä": 1150,
      "\u0000\u0000\u0000\u0001AÁ": 1151,
      "\u0000\u0000\u0000\u0001A\u0001": 1152,
      "ÿÿÿÿÿÿÿ": 1153,
      "ñ?": 1154,
      "â|I": 1155,
      "\u0011â<G": 1156,
      "?Ïçó": 1157,
      "øGÄ": 1158,
      "çóùüþ": 1159,
      "ÉÉÉÉ": 1160,
      "Ïç": 1161,
      "×]u×]u×]u×]u×]u×]u×]u×]u×]u×]u×]u×]u×]u×]u×]u×]u": 1162,
      "\u0001\u0001": 1163,
      "\na": 1164,
      "\u0010\u0010": 1165,
      "\u0010$": 1166,
      "\u0010'Ä": 1167,
      "\u0011\u001f": 1168,
      "\u0012M": 1169,
      "\u0012å": 1170,
      "\u0013.": 1171,
      "\u00137": 1172,
      "\u0013p": 1173,
      "\u0013Í": 1174,
      "\u0013ç": 1175,
      "\u0015\u0011": 1176,
      "\u0017\u0011": 1177,
      "\u0017": 1178,
      "\u001d\u001f": 1179,
      "\u001f": 1180,
      "\"0": 1181,
      "\"6": 1182,
      "\"?": 1183,
      "#": 1184,
      "$G": 1185,
      "'5": 1186,
      "'\\": 1187,
      "'u": 1188,
      "'w": 1189,
      "'": 1190,
      "'§": 1191,
      "'ò": 1192,
      ",F": 1193,
      ".!": 1194,
      "/\u0015": 1195,
      "/": 1196,
      "0": 1197,
      "1\u001f": 1198,
      "31": 1199,
      "33": 1200,
      "3r": 1201,
      "5": 1202,
      "6\"": 1203,
      "6Ç": 1204,
      "7~": 1205,
      "7": 1206,
      "7É": 1207,
      "9¼": 1208,
      "<#": 1209,
      "<D": 1210,
      "<Ì": 1211,
      "=4": 1212,
      ">\b": 1213,
      ">\u001a": 1214,
      ">2": 1215,
      "?": 1216,
      "?ÿ": 1217,
      "@\u0000\u0000\u0000\u0001A": 1218,
      "A:": 1219,
      "B0": 1220,
      "D\u0004": 1221,
      "Iq": 1222,
      "J|": 1223,
      "LD": 1224,
      "LO": 1225,
      "L¸": 1226,
      "MU": 1227,
      "Nª": 1228,
      "Nû": 1229,
      "Q\u001a": 1230,
      "TF": 1231,
      "Tµ": 1232,
      "T¼": 1233,
      "UV": 1234,
      "V$": 1235,
      "X": 1236,
      "X": 1237,
      "Yü": 1238,
      "[·": 1239,
      "\\M": 1240,
      "\\O": 1241,
      "\\Ô": 1242,
      "\\Ý": 1243,
      "^\u0010": 1244,
      "^¹": 1245,
      "_\u0004": 1246,
      "`¨": 1247,
      "a<": 1248,
      "ad": 1249,
      "a": 1250,
      "b8": 1251,
      "bM": 1252,
      "ba": 1253,
      "bp": 1254,
      "gó": 1255,
      "kR": 1256,
      "kY": 1257,
      "k\u0013â": 1258,
      "li": 1259,
      "m¡": 1260,
      "m¯": 1261,
      "nî": 1262,
      "o\u0013â": 1263,
      "p": 1264,
      "q\"": 1265,
      "qp": 1266,
      "rg": 1267,
      "sd": 1268,
      "t9": 1269,
      "tï": 1270,
      "ví": 1271,
      "x@": 1272,
      "x": 1273,
      "x": 1274,
      "x": 1275,
      "x": 1276,
      "x¯": 1277,
      "y*": 1278,
      "y3": 1279,
      "zt": 1280,
      "{Ä": 1281,
      "{ý": 1282,
      "|H": 1283,
      "|I": 1284,
      "|\\": 1285,
      "|_": 1286,
      "|i": 1287,
      "|": 1288,
      "|¼": 1289,
      "|Ý": 1290,
      "8": 1291,
      "\u0004": 1292,
      "D": 1293,
      "c": 1294,
      "p": 1295,
      "0": 1296,
      "": 1297,
      "Ã": 1298,
      "Ç": 1299,
      "Ô": 1300,
      "ù": 1301,
      "": 1302,
      "Ä": 1303,
      "î": 1304,
      "\u0011": 1305,
      "À": 1306,
      "æ": 1307,
      "û": 1308,
      "Ä": 1309,
      "Ú": 1310,
      "\f": 1311,
      "[": 1312,
      "": 1313,
      "ï": 1314,
      "\u0012": 1315,
      "ñ": 1316,
      "": 1317,
      "": 1318,
      "\u001c": 1319,
      "\u001f": 1320,
      "\b": 1321,
      "¡": 1322,
      "¶": 1323,
      "Í": 1324,
      "": 1325,
      "#": 1326,
      "\u0011": 1327,
      "Å": 1328,
      " ": 1329,
      "¢2": 1330,
      "¢5": 1331,
      "¤": 1332,
      "§§": 1333,
      "§Ä": 1334,
      "ªÄ": 1335,
      "ªâ": 1336,
      "ªä": 1337,
      "«": 1338,
      "«â": 1339,
      "¬D": 1340,
      "¬I": 1341,
      "­W": 1342,
      "­b": 1343,
      "­j": 1344,
      "®#": 1345,
      "¯\b": 1346,
      "¯\u0013": 1347,
      "¯": 1348,
      "¯": 1349,
      "¯º": 1350,
      "°": 1351,
      "±\u0018": 1352,
      "±\u0019": 1353,
      "±\u001a": 1354,
      "±2": 1355,
      "±3": 1356,
      "±8": 1357,
      "²ÿ": 1358,
      "´Ò": 1359,
      "´×": 1360,
      "´é": 1361,
      "µZ": 1362,
      "µÏ": 1363,
      "¶w": 1364,
      "·n": 1365,
      "·": 1366,
      "¸": 1367,
      "¸": 1368,
      "¹u": 1369,
      "ºÖ": 1370,
      "ºä": 1371,
      "»»": 1372,
      "»½": 1373,
      "¼\u0010": 1374,
      "¼'": 1375,
      "¼@": 1376,
      "¼Ì": 1377,
      "¼Ô": 1378,
      "¼ù": 1379,
      "¼O": 1380,
      "½ï": 1381,
      "¾;": 1382,
      "¾ï": 1383,
      "¿â": 1384,
      "Á\f": 1385,
      "Â\u0011": 1386,
      "Â&": 1387,
      "Ân": 1388,
      "Ây": 1389,
      "Â>'Ä": 1390,
      "Ã3": 1391,
      "Ã>\u0011": 1392,
      "Äi": 1393,
      "Äk": 1394,
      "Äo": 1395,
      "Äx": 1396,
      "Å[": 1397,
      "Åâ": 1398,
      "Æ©": 1399,
      "Çc": 1400,
      "ÉU": 1401,
      "Ë\u0013": 1402,
      "Ì#": 1403,
      "Í­": 1404,
      "Íã": 1405,
      "Ó*": 1406,
      "ÓN": 1407,
      "ÓO": 1408,
      "ÔF": 1409,
      "ÔG": 1410,
      "Õj": 1411,
      "Õu": 1412,
      "×\b": 1413,
      "×/": 1414,
      "×Å": 1415,
      "×ë": 1416,
      "Ø": 1417,
      "Ø": 1418,
      "Ø": 1419,
      "ÙY": 1420,
      "Úk": 1421,
      "Û­": 1422,
      "ÜN": 1423,
      "Ü¹": 1424,
      "Ýr": 1425,
      "Ýµ": 1426,
      "Ý÷": 1427,
      "Þ\u0011": 1428,
      "Þ\"": 1429,
      "Þ$": 1430,
      "ß5": 1431,
      "ßU": 1432,
      "á\u000b": 1433,
      "á\u000e": 1434,
      "á\u0011": 1435,
      "á\u0013": 1436,
      "á\u001c": 1437,
      "á\u001e": 1438,
      "á/": 1439,
      "á:": 1440,
      "â\u0015": 1441,
      "â>": 1442,
      "âa": 1443,
      "âc": 1444,
      "ât": 1445,
      "âú": 1446,
      "ãð": 1447,
      "ä": 1448,
      "åb": 1449,
      "å±": 1450,
      "æ»": 1451,
      "æË": 1452,
      "æÞ": 1453,
      "æä": 1454,
      "æî": 1455,
      "çÆ": 1456,
      "çÎ": 1457,
      "é": 1458,
      "é§": 1459,
      "êf": 1460,
      "êõ": 1461,
      "ë\u0012": 1462,
      "í·": 1463,
      "ï{": 1464,
      "ïª": 1465,
      "ðG": 1466,
      "ðÍ": 1467,
      "ñ\u0019": 1468,
      "ñ;": 1469,
      "ñU": 1470,
      "ñX": 1471,
      "ñø": 1472,
      "ñ<@": 1473,
      "ò[": 1474,
      "ò±": 1475,
      "óP": 1476,
      "óV": 1477,
      "ór": 1478,
      "óu": 1479,
      "ôÓ": 1480,
      "õ": 1481,
      "õª": 1482,
      "õï": 1483,
      "÷U": 1484,
      "÷­": 1485,
      "ø$": 1486,
      "ø": 1487,
      "ø¯": 1488,
      "øþ": 1489,
      "ù)": 1490,
      "ù+": 1491,
      "ù/": 1492,
      "ù4": 1493,
      "ù9": 1494,
      "ùi": 1495,
      "ù÷": 1496,
      "ü^": 1497,
      "ü": 1498,
      "ü": 1499,
      "ýk": 1500,
      "ýò": 1501,
      "þ ": 1502,
      "þL": 1503,
      "þO": 1504,
      "þl": 1505,
      "þ": 1506,
      "þ#Ä": 1507,
      "ÿ.": 1508,
      "ÿ½": 1509,
      "ÿÉ": 1510,
      "ÿÛ": 1511,
      "ÿñ": 1512,
      "ÿú": 1513,
      "ÿý": 1514,
      "\u0000\u0000\u0000\u0001A¡": 1515,
      "\u0000\u0000\u0000\u0001AÀ": 1516,
      "\u0000\u0000\u0000\u0001A": 1517,
      "ñ>\u0011": 1518,
      "â|M": 1519,
      "Äø": 1520,
      "\u0011â<G": 1521,
      "ñ\u0019": 1522,
      "çóùüþ?": 1523,
      "ñ>&": 1524,
      "\u0013Ä\t": 1525,
      "ªªª": 1526,
      "á\u001f\bøG": 1527,
      "¸ÿÿÿÿÿÿÿÿ": 1528,
      "a\u001f\b": 1529,
      "int": 1530,
      " - ": 1531,
      "\u0000x": 1532,
      "\u0002\u0002": 1533,
      "\u0004\u0018": 1534,
      "\u0004ð": 1535,
      "\u0004ó": 1536,
      "\b\f": 1537,
      "\b2": 1538,
      "\bc": 1539,
      "\bw": 1540,
      "\t¸": 1541,
      "\tÛ": 1542,
      "\tã": 1543,
      "\n)": 1544,
      "\nc": 1545,
      "\u000bý": 1546,
      "\fÏ": 1547,
      "\u0010\u0019": 1548,
      "\u0010o": 1549,
      "\u0011": 1550,
      "\u0011": 1551,
      "\u0011´": 1552,
      "\u0012&": 1553,
      "\u0012^": 1554,
      "\u0012q": 1555,
      "\u0012£": 1556,
      "\u0012Ä": 1557,
      "\u0013\u0015": 1558,
      "\u0013": 1559,
      "\u0013ù": 1560,
      "\u0014#": 1561,
      "\u0014À": 1562,
      "\u0015": 1563,
      "\u0015": 1564,
      "\u0017": 1565,
      "\u0017": 1566,
      "\u0017Õ": 1567,
      "\u0018": 1568,
      "\u0018¡": 1569,
      "\u0019\u0011": 1570,
      "\u0019i": 1571,
      "\u001aæ": 1572,
      "\u001b»": 1573,
      "\u001d\n": 1574,
      "\u001d": 1575,
      "\u001f\u0004": 1576,
      " G": 1577,
      " O": 1578,
      " s": 1579,
      " ": 1580,
      "!\u001c": 1581,
      "!È": 1582,
      "\"\u0010": 1583,
      "\"&": 1584,
      "\"2": 1585,
      "\"[": 1586,
      "\"í": 1587,
      "#Ï": 1588,
      "$Ä": 1589,
      "%c": 1590,
      "&S": 1591,
      "&í": 1592,
      "'\b": 1593,
      "'\u0011": 1594,
      "'%": 1595,
      "'^": 1596,
      "'Ï": 1597,
      "(O": 1598,
      "(": 1599,
      "++": 1600,
      "+]": 1601,
      ",#": 1602,
      ",D": 1603,
      ",G": 1604,
      ",": 1605,
      "-?": 1606,
      "-W": 1607,
      ".\u0019": 1608,
      ".o": 1609,
      "/\b": 1610,
      "//": 1611,
      "/": 1612,
      "0:": 1613,
      "0S": 1614,
      "13": 1615,
      "1Ñ": 1616,
      "1ø": 1617,
      "1>\u0011": 1618,
      "2#": 1619,
      "2Ä": 1620,
      "2Ó": 1621,
      "3\u0019": 1622,
      "3N": 1623,
      "3\\": 1624,
      "3q": 1625,
      "4+": 1626,
      "4ì": 1627,
      "5W": 1628,
      "5Z": 1629,
      "5": 1630,
      "64": 1631,
      "69": 1632,
      "6´": 1633,
      "6ë": 1634,
      "7\b": 1635,
      "7C": 1636,
      "7w": 1637,
      "7": 1638,
      "7": 1639,
      "7Í": 1640,
      "8": 1641,
      "9¹": 1642,
      ":ª": 1643,
      ":¯": 1644,
      ":Ä": 1645,
      ";\f": 1646,
      "<": 1647,
      ">+": 1648,
      ">~": 1649,
      ">¨": 1650,
      ">µ": 1651,
      "?%": 1652,
      "?u": 1653,
      "?": 1654,
      "?ý": 1655,
      "A<": 1656,
      "B'": 1657,
      "B": 1658,
      "C3": 1659,
      "CÄ": 1660,
      "D@": 1661,
      "Dg": 1662,
      "F#": 1663,
      "F?": 1664,
      "HW": 1665,
      "H": 1666,
      "I": 1667,
      "JÖ": 1668,
      "J×": 1669,
      "K\b": 1670,
      "KÉ": 1671,
      "L!": 1672,
      "LI": 1673,
      "LÃ": 1674,
      "Lÿ": 1675,
      "N\u0011": 1676,
      "N'": 1677,
      "Nï": 1678,
      "O\u0015": 1679,
      "OÅ": 1680,
      "OÝ": 1681,
      "Oä": 1682,
      "Q\u0012": 1683,
      "Q\u001e": 1684,
      "Sc": 1685,
      "S§": 1686,
      "Sª": 1687,
      "T@": 1688,
      "UZ": 1689,
      "UÉ": 1690,
      "U×": 1691,
      "U÷": 1692,
      "W\u0011": 1693,
      "W&": 1694,
      "WU": 1695,
      "W": 1696,
      "WÂ": 1697,
      "Wÿ": 1698,
      "Xf": 1699,
      "X": 1700,
      "X": 1701,
      "X": 1702,
      "X": 1703,
      "X": 1704,
      "Xß": 1705,
      "Y": 1706,
      "Y": 1707,
      "ZÆ": 1708,
      "ZÊ": 1709,
      "\\\"": 1710,
      "\\": 1711,
      "\\Õ": 1712,
      "]Y": 1713,
      "]ß": 1714,
      "]þ": 1715,
      "]ÿ": 1716,
      "^#": 1717,
      "^K": 1718,
      "^l": 1719,
      "^Ç": 1720,
      "_-": 1721,
      "_t": 1722,
      "_": 1723,
      "_": 1724,
      "_ý": 1725,
      "aL": 1726,
      "a_": 1727,
      "b\n": 1728,
      "b0": 1729,
      "b<": 1730,
      "bD": 1731,
      "bI": 1732,
      "cq": 1733,
      "c": 1734,
      "cÉ": 1735,
      "e\u000f": 1736,
      "eI": 1737,
      "ef": 1738,
      "eÄ": 1739,
      "f:": 1740,
      "fc": 1741,
      "ge": 1742,
      "gñ": 1743,
      "hV": 1744,
      "hh": 1745,
      "hr": 1746,
      "ht": 1747,
      "i¿": 1748,
      "ju": 1749,
      "j": 1750,
      "j¯": 1751,
      "j M": 1752,
      "k": 1753,
      "kó": 1754,
      "k÷": 1755,
      "lL": 1756,
      "lw": 1757,
      "l«": 1758,
      "m\u000e": 1759,
      "mj": 1760,
      "mí": 1761,
      "mþ": 1762,
      "n&": 1763,
      "n*": 1764,
      "nÜ": 1765,
      "nÞ": 1766,
      "on": 1767,
      "o": 1768,
      "ps": 1769,
      "p¦": 1770,
      "q<": 1771,
      "q[": 1772,
      "qc": 1773,
      "qÜ": 1774,
      "r1": 1775,
      "ró": 1776,
      "sb": 1777,
      "se": 1778,
      "só": 1779,
      "té": 1780,
      "t=0 ": 1781,
      "u": 1782,
      "wø": 1783,
      "x": 1784,
      "x": 1785,
      "x": 1786,
      "x": 1787,
      "x¿": 1788,
      "y1": 1789,
      "y;": 1790,
      "zÄ": 1791,
      "zÕ": 1792,
      "zÖ": 1793,
      "|F": 1794,
      "|G": 1795,
      "|": 1796,
      "|¶": 1797,
      "|»": 1798,
      "|Ø": 1799,
      "|ø": 1800,
      "}D": 1801,
      "~\u0010": 1802,
      "~\u0012": 1803,
      "~j": 1804,
      "~¹": 1805,
      "\u0012": 1806,
      "\u0017": 1807,
      "&": 1808,
      ">": 1809,
      "u": 1810,
      "": 1811,
      "": 1812,
      "þ": 1813,
      "?": 1814,
      "": 1815,
      "\u0000\u0000": 1816,
      "\u0011": 1817,
      "": 1818,
      "/": 1819,
      "9": 1820,
      ";": 1821,
      "q": 1822,
      "r": 1823,
      "°": 1824,
      "\u001c": 1825,
      "p": 1826,
      "w": 1827,
      "": 1828,
      "": 1829,
      "": 1830,
      "Á": 1831,
      "Ü": 1832,
      "â": 1833,
      "¨": 1834,
      "Å": 1835,
      "±": 1836,
      "µ": 1837,
      "Ð": 1838,
      "ñ": 1839,
      "ò": 1840,
      "Ë": 1841,
      "ê": 1842,
      "S": 1843,
      "p": 1844,
      "r": 1845,
      "ý": 1846,
      "#": 1847,
      "Ç": 1848,
      "À": 1849,
      "É": 1850,
      "ù": 1851,
      "\u0002": 1852,
      "\u001f": 1853,
      "L": 1854,
      "": 1855,
      "\u0012": 1856,
      "?": 1857,
      "I": 1858,
      "j": 1859,
      "m": 1860,
      "w": 1861,
      "F": 1862,
      "": 1863,
      "K": 1864,
      "M": 1865,
      "": 1866,
      "": 1867,
      "«": 1868,
      "#": 1869,
      "4": 1870,
      "": 1871,
      "": 1872,
      "": 1873,
      "»": 1874,
      "É": 1875,
      "f": 1876,
      "": 1877,
      "\u0013": 1878,
      "v": 1879,
      "ª": 1880,
      "ÿ": 1881,
      "%": 1882,
      "Ö": 1883,
      "G": 1884,
      "ß": 1885,
      "$": 1886,
      "\u0004": 1887,
      ">": 1888,
      "": 1889,
      "Ë": 1890,
      "¡ê": 1891,
      "¢\u0002": 1892,
      "¢\u001c": 1893,
      "¢&": 1894,
      "¢'": 1895,
      "¢1": 1896,
      "¢b": 1897,
      "¢r": 1898,
      "¢±": 1899,
      "¦?": 1900,
      "¦}": 1901,
      "¦ý": 1902,
      "§O": 1903,
      "§û": 1904,
      "¨": 1905,
      "¨": 1906,
      "¨\u0000\u0000\u0000\u0001A": 1907,
      "ªå": 1908,
      "«_": 1909,
      "«­": 1910,
      "«¯": 1911,
      "«Ä": 1912,
      "¬¾": 1913,
      "­U": 1914,
      "­q": 1915,
      "­r": 1916,
      "­§": 1917,
      "®«": 1918,
      "®µ": 1919,
      "¯\u0010": 1920,
      "¯½": 1921,
      "¯Ë": 1922,
      "°": 1923,
      "°Ï": 1924,
      "±Ø": 1925,
      "²(": 1926,
      "¶": 1927,
      "¶ß": 1928,
      "¶ç": 1929,
      "·à": 1930,
      "¸G": 1931,
      "¸": 1932,
      "¸": 1933,
      "¸\u0013": 1934,
      "¹?": 1935,
      "ºK": 1936,
      "º«": 1937,
      "ºÄ": 1938,
      "»®": 1939,
      "»¾": 1940,
      "¼H": 1941,
      "¼I": 1942,
      "¼V": 1943,
      "¼": 1944,
      "¼¼": 1945,
      "½V": 1946,
      "½k": 1947,
      "½q": 1948,
      "½¿": 1949,
      "¾\u0012": 1950,
      "¾&": 1951,
      "¾/": 1952,
      "¾\\": 1953,
      "¾k": 1954,
      "¾l": 1955,
      "¾n": 1956,
      "¾ª": 1957,
      "¾¯": 1958,
      "¿-": 1959,
      "¿5": 1960,
      "¿7": 1961,
      "À@": 1962,
      "Â:": 1963,
      "ÂS": 1964,
      "ÂZ": 1965,
      "Â>'": 1966,
      "Â5": 1967,
      "Â>$": 1968,
      "Ã*": 1969,
      "Ã>\u0019": 1970,
      "ÄI": 1971,
      "Ä_": 1972,
      "Äf": 1973,
      "Äp": 1974,
      "Äþ": 1975,
      "ÅD": 1976,
      "Åc": 1977,
      "Åø": 1978,
      "Æ": 1979,
      "ÆÄ": 1980,
      "Ça": 1981,
      "Ç}": 1982,
      "Çå": 1983,
      "ÉÕ": 1984,
      "ÊÇ": 1985,
      "Ë'": 1986,
      "Ëä": 1987,
      "Ëå": 1988,
      "Ì§": 1989,
      "ÌÌ": 1990,
      "Í\u001d": 1991,
      "ÍO": 1992,
      "Íb": 1993,
      "Í½": 1994,
      "ÍÝ": 1995,
      "Íÿ": 1996,
      "ÎË": 1997,
      "Ï": 1998,
      "Ð": 1999,
      "Ð§": 2000,
      "ÔD": 2001,
      "Õ\u000e": 2002,
      "Õ\u000f": 2003,
      "ÕV": 2004,
      "Õr": 2005,
      "Ö\u0019": 2006,
      "Ö}": 2007,
      "×7": 2008,
      "Ø": 2009,
      "Ø×": 2010,
      "Ù": 2011,
      "Ùô": 2012,
      "Ú~": 2013,
      "Ûo": 2014,
      "ÜV": 2015,
      "Üì": 2016,
      "ÝI": 2017,
      "ÝT": 2018,
      "ÝË": 2019,
      "Þo": 2020,
      "Þµ": 2021,
      "Þ¹": 2022,
      "ÞÇ": 2023,
      "Þß": 2024,
      "ß\u0015": 2025,
      "ß%": 2026,
      "ß": 2027,
      "ß": 2028,
      "ßï": 2029,
      "àÇ": 2030,
      "à\u0000\u0000\u0000\u0001A": 2031,
      "á\u0000": 2032,
      "á\u001b": 2033,
      "á.": 2034,
      "áL": 2035,
      "á": 2036,
      "á\u001aÄ": 2037,
      "â#": 2038,
      "â%": 2039,
      "â5": 2040,
      "âB": 2041,
      "âM": 2042,
      "â`": 2043,
      "âw": 2044,
      "â³": 2045,
      "âë": 2046,
      "ä": 2047,
      "äÎ": 2048,
      "ää": 2049,
      "äî": 2050,
      "å\u0011": 2051,
      "åÇ": 2052,
      "æ¡": 2053,
      "æ¦": 2054,
      "æ®": 2055,
      "æ½": 2056,
      "æÆ": 2057,
      "æÒ": 2058,
      "æÕ": 2059,
      "èF": 2060,
      "é·": 2061,
      "éë": 2062,
      "ê¸": 2063,
      "êë": 2064,
      "ê÷": 2065,
      "ë\u0011": 2066,
      "ëÿ": 2067,
      "îª": 2068,
      "îµ": 2069,
      "ïZ": 2070,
      "ðE": 2071,
      "ðQ": 2072,
      "ð": 2073,
      "ð¦": 2074,
      "ñ\u0006": 2075,
      "ñ ": 2076,
      "ñ!": 2077,
      "ñ&": 2078,
      "ñ=": 2079,
      "ñy": 2080,
      "ñì": 2081,
      "òW": 2082,
      "òb": 2083,
      "òÖ": 2084,
      "òÛ": 2085,
      "òï": 2086,
      "ò÷": 2087,
      "òmÛ": 2088,
      "óÃ": 2089,
      "óã": 2090,
      "õ\u0013": 2091,
      "õU": 2092,
      "õ©": 2093,
      "õ®": 2094,
      "ö;": 2095,
      "ø*": 2096,
      "øO": 2097,
      "øc": 2098,
      "ø­": 2099,
      "ø¹": 2100,
      "ø¼": 2101,
      "ø¾": 2102,
      "øç": 2103,
      "ù3": 2104,
      "ù5": 2105,
      "ùj": 2106,
      "ùm": 2107,
      "ùt": 2108,
      "ùu": 2109,
      "ù¡": 2110,
      "ùµ": 2111,
      "ù¼": 2112,
      "úc": 2113,
      "úi": 2114,
      "ú¿": 2115,
      "û\u001a": 2116,
      "û·": 2117,
      "ûÏ": 2118,
      "ü": 2119,
      "üµ": 2120,
      "ý~": 2121,
      "ýÕ": 2122,
      "ýõ": 2123,
      "þ+": 2124,
      "þ?": 2125,
      "þh": 2126,
      "þn": 2127,
      "þ|": 2128,
      "ÿ": 2129,
      "ÿ": 2130,
      "ÿ«": 2131,
      "ÿë": 2132,
      "ÿî": 2133,
      "\u0000\u0000\u0000\u0001A¢": 2134,
      "\u0000\u0000\u0000\u0001AA": 2135,
      "\u0000\u0000\u0000\u0001A¡": 2136,
      "\u0000\u0000\u0000\u0001AÁ": 2137,
      "ÿÿÿÿÿ": 2138,
      "ñ2": 2139,
      "â|O": 2140,
      "Äø": 2141,
      "Äø\u0012": 2142,
      "çóø": 2143,
      "á\u001f\f": 2144,
      "á\u001f\u0013â|": 2145,
      "\u0011â\u0002": 2146,
      "\u0011â5": 2147,
      "þ>": 2148,
      "?Ïçóùü": 2149,
      "#Äx": 2150,
      "|I": 2151,
      "x\u0011": 2152,
      ".'ÿÿÿÿÿÿÿÿ": 2153,
      "Mbb": 2154,
      "\u0013â|O": 2155,
      "b|L": 2156,
      "\u0000\u0000\u0000\u0001Aa": 2157,
      "óùüþ?Ï": 2158,
      "ð'": 2159,
      "çóùüþ?Ïçóùüþ?": 2160,
      "Â\u001e\u0010": 2161,
      "< \u0011": 2162,
      "\u0000\u0010": 2163,
      "\u0000": 2164,
      "\u0000£": 2165,
      "\u0001\u0000": 2166,
      "\u0001\u0003": 2167,
      "\u0001\u0019": 2168,
      "\u0001\u001f": 2169,
      "\u0001#": 2170,
      "\u0002\u0003": 2171,
      "\u0002\u001b": 2172,
      "\u0002": 2173,
      "\u0003Ä": 2174,
      "\u0004\u0006": 2175,
      "\u0004\u0019": 2176,
      "\u00045": 2177,
      "\u00051": 2178,
      "\u0006G": 2179,
      "\u0007": 2180,
      "\b\u0004": 2181,
      "\b¨": 2182,
      "\b¸": 2183,
      "\bÇ": 2184,
      "\bë": 2185,
      "\tL": 2186,
      "\tj": 2187,
      "\tm": 2188,
      "\to": 2189,
      "\tù": 2190,
      "\n\u001f": 2191,
      "\nU": 2192,
      "\no": 2193,
      "\nµ": 2194,
      "\nÁ": 2195,
      "\nî": 2196,
      "\u000bh": 2197,
      "\fÌ": 2198,
      "\u000e$": 2199,
      "\u000e": 2200,
      "\u000e»": 2201,
      "\u000f": 2202,
      "\u000fÁ": 2203,
      "\u0010J": 2204,
      "\u0010[": 2205,
      "\u0010¬": 2206,
      "\u0010½": 2207,
      "\u0011\u0013": 2208,
      "\u0011\u0015": 2209,
      "\u0011$": 2210,
      "\u0011%": 2211,
      "\u0011&": 2212,
      "\u00115": 2213,
      "\u0011t": 2214,
      "\u0011": 2215,
      "\u0011": 2216,
      "\u0011£": 2217,
      "\u0011Ë": 2218,
      "\u0011÷": 2219,
      "\u0011ú": 2220,
      "\u0011ü": 2221,
      "\u0012\t": 2222,
      "\u0012=": 2223,
      "\u0012": 2224,
      "\u0013\u001a": 2225,
      "\u0013\u001d": 2226,
      "\u0013^": 2227,
      "\u0013x": 2228,
      "\u0013y": 2229,
      "\u0013": 2230,
      "\u0013Æ": 2231,
      "\u0014P": 2232,
      "\u0015\u0013": 2233,
      "\u0015P": 2234,
      "\u0015À": 2235,
      "\u0015Â": 2236,
      "\u0015Ê": 2237,
      "\u0015è": 2238,
      "\u0017": 2239,
      "\u0017": 2240,
      "\u0017": 2241,
      "\u0017": 2242,
      "\u0017º": 2243,
      "\u0017½": 2244,
      "\u0017Í": 2245,
      "\u0017ú": 2246,
      "\u0018A": 2247,
      "\u0018B": 2248,
      "\u0018": 2249,
      "\u0018": 2250,
      "\u0018": 2251,
      "\u0018": 2252,
      "\u0018¾": 2253,
      "\u0018Í": 2254,
      "\u0019O": 2255,
      "\u0019": 2256,
      "\u0019Ä": 2257,
      "\u0019Ó": 2258,
      "\u0019×": 2259,
      "\u001a\u0014": 2260,
      "\u001ae": 2261,
      "\u001a¦": 2262,
      "\u001bA": 2263,
      "\u001b": 2264,
      "\u001bÉ": 2265,
      "\u001bË": 2266,
      "\u001c}": 2267,
      "\u001c¬": 2268,
      "\u001cÇ": 2269,
      "\u001cÔ": 2270,
      "\u001dR": 2271,
      "\u001dV": 2272,
      "\u001d": 2273,
      "\u001d­": 2274,
      "\u001dß": 2275,
      "\u001eL": 2276,
      "\u001e¹": 2277,
      "\u001f\u0013": 2278,
      "\u001f&": 2279,
      "\u001f7": 2280,
      "\u001f": 2281,
      "\u001f": 2282,
      "\u001f¡": 2283,
      "\u001fº": 2284,
      "\u001fÅ": 2285,
      "\u001f×": 2286,
      "\u001fÿ": 2287,
      " 3": 2288,
      " I": 2289,
      " c": 2290,
      " ": 2291,
      " Mâ": 2292,
      "!X": 2293,
      "!": 2294,
      "!Õ": 2295,
      "!õ": 2296,
      "\"\"": 2297,
      "\".": 2298,
      "\"4": 2299,
      "\"p": 2300,
      "\"r": 2301,
      "\"³": 2302,
      "\"µ": 2303,
      "\"¹": 2304,
      "#\u0007": 2305,
      "#+": 2306,
      "#õ": 2307,
      "$!": 2308,
      "$O": 2309,
      "$e": 2310,
      "$®": 2311,
      "$ý": 2312,
      "%_": 2313,
      "%o": 2314,
      "%É": 2315,
      "%î": 2316,
      "%ÿ": 2317,
      "&\u0013": 2318,
      "&E": 2319,
      "&L": 2320,
      "&N": 2321,
      "&o": 2322,
      "&§": 2323,
      "&Ä": 2324,
      "&ö": 2325,
      "'\u0017": 2326,
      "'2": 2327,
      "'Q": 2328,
      "'b": 2329,
      "'": 2330,
      "'": 2331,
      "'": 2332,
      "'": 2333,
      "'": 2334,
      "'Ë": 2335,
      "'ÿ": 2336,
      "(": 2337,
      ")ù": 2338,
      "*": 2339,
      "+\u0007": 2340,
      "+\u0016": 2341,
      "+\u001d": 2342,
      "+:": 2343,
      "+G": 2344,
      "+[": 2345,
      "+": 2346,
      "+": 2347,
      "+Ï": 2348,
      "-2": 2349,
      "-9": 2350,
      "-k": 2351,
      "-t": 2352,
      "-": 2353,
      ".\u0010": 2354,
      ". ": 2355,
      ".2": 2356,
      ".O": 2357,
      ".Ç": 2358,
      ".Ú": 2359,
      ".'Ä": 2360,
      "/%": 2361,
      "/.": 2362,
      "/i": 2363,
      "/": 2364,
      "/": 2365,
      "/": 2366,
      "/»": 2367,
      "/Ä": 2368,
      "/Ë": 2369,
      "/ö": 2370,
      "/\b": 2371,
      "0.": 2372,
      "0": 2373,
      "0": 2374,
      "1\u0011": 2375,
      "1\u0018": 2376,
      "18": 2377,
      "1Q": 2378,
      "1": 2379,
      "1": 2380,
      "2$": 2381,
      "2/": 2382,
      "2": 2383,
      "2²": 2384,
      "3\u0005": 2385,
      "3\b": 2386,
      "3\u0015": 2387,
      "3\u0016": 2388,
      "3\u001c": 2389,
      "3Ã": 2390,
      "3Ä\t": 2391,
      "4@": 2392,
      "4G": 2393,
      "4": 2394,
      "4¼": 2395,
      "4Ó": 2396,
      "4Ô": 2397,
      "5<": 2398,
      "5I": 2399,
      "5T": 2400,
      "5u": 2401,
      "5": 2402,
      "5å": 2403,
      "5ñ": 2404,
      "5|": 2405,
      "6\u0011": 2406,
      "6:": 2407,
      "6;": 2408,
      "6b": 2409,
      "6e": 2410,
      "6u": 2411,
      "6~": 2412,
      "6Û": 2413,
      "6ï": 2414,
      "7'": 2415,
      "7": 2416,
      "7·": 2417,
      "7Û": 2418,
      "7æ": 2419,
      "7þ": 2420,
      "8C": 2421,
      "8D": 2422,
      "8": 2423,
      "8": 2424,
      "8": 2425,
      "8¯": 2426,
      "8Î": 2427,
      "91": 2428,
      "9Y": 2429,
      "9": 2430,
      "9": 2431,
      "9ñ": 2432,
      ":Û": 2433,
      ":î": 2434,
      ";\u0006": 2435,
      ";\n": 2436,
      ";i": 2437,
      ";û": 2438,
      "<'": 2439,
      "<E": 2440,
      "<H": 2441,
      "<L": 2442,
      "<V": 2443,
      "<W": 2444,
      "<_": 2445,
      "<µ": 2446,
      "<Ø": 2447,
      "=\u0016": 2448,
      "=2": 2449,
      ">3": 2450,
      ">8": 2451,
      ">u": 2452,
      "?\u0004": 2453,
      "?\u0012": 2454,
      "?\u0016": 2455,
      "?&": 2456,
      "?-": 2457,
      "?\\": 2458,
      "?ü": 2459,
      "@M": 2460,
      "A\u0015": 2461,
      "A\u001a": 2462,
      "A*": 2463,
      "AÆ": 2464,
      "AÜ": 2465,
      "B\u000e": 2466,
      "B+": 2467,
      "B½": 2468,
      "C": 2469,
      "Cª": 2470,
      "CÉ": 2471,
      "Cá": 2472,
      "D#": 2473,
      "DI": 2474,
      "Dk": 2475,
      "DË": 2476,
      "DÕ": 2477,
      "Dò": 2478,
      "E,": 2479,
      "EW": 2480,
      "Eg": 2481,
      "Eá": 2482,
      "Eä": 2483,
      "Eô": 2484,
      "Eõ": 2485,
      "F\b": 2486,
      "FS": 2487,
      "F'Ä": 2488,
      "G\b": 2489,
      "G/": 2490,
      "GÇ": 2491,
      "Gà": 2492,
      "Gò": 2493,
      "HC": 2494,
      "H": 2495,
      "HÆ": 2496,
      "Jl": 2497,
      "Ju": 2498,
      "J§": 2499,
      "Jª": 2500,
      "J±": 2501,
      "J·": 2502,
      "K": 2503,
      "K": 2504,
      "KË": 2505,
      "KÍ": 2506,
      "L ": 2507,
      "L": 2508,
      "L": 2509,
      "L·": 2510,
      "LÜ": 2511,
      "Lþ": 2512,
      "M?": 2513,
      "Mf": 2514,
      "Mq": 2515,
      "Mr": 2516,
      "M": 2517,
      "Mª": 2518,
      "M¶": 2519,
      "M½": 2520,
      "N\u0010": 2521,
      "N+": 2522,
      "N3": 2523,
      "N": 2524,
      "N": 2525,
      "N": 2526,
      "N¹": 2527,
      "NÑ": 2528,
      "Nã": 2529,
      "O": 2530,
      "O§": 2531,
      "OÜ": 2532,
      "P": 2533,
      "Q\"": 2534,
      "Q9": 2535,
      "RI": 2536,
      "R}": 2537,
      "R": 2538,
      "RÄ": 2539,
      "S\t": 2540,
      "S(": 2541,
      "S": 2542,
      "S²": 2543,
      "Sñ": 2544,
      "T\u0013": 2545,
      "TD": 2546,
      "TQ": 2547,
      "Tª": 2548,
      "T²": 2549,
      "TÈ": 2550,
      "Tõ": 2551,
      "Tÿ": 2552,
      "UT": 2553,
      "Uj": 2554,
      "VL": 2555,
      "VX": 2556,
      "V³": 2557,
      "Ví": 2558,
      "W": 2559,
      "W": 2560,
      "W«": 2561,
      "X!": 2562,
      "XE": 2563,
      "X": 2564,
      "X¯": 2565,
      "XÆ": 2566,
      "Xë": 2567,
      "X÷": 2568,
      "ZM": 2569,
      "Zj": 2570,
      "Zn": 2571,
      "Zo": 2572,
      "Zý": 2573,
      "[": 2574,
      "[ß": 2575,
      "[ÿ": 2576,
      "\\\u0018": 2577,
      "\\D": 2578,
      "\\I": 2579,
      "\\K": 2580,
      "\\v": 2581,
      "\\": 2582,
      "\\": 2583,
      "\\": 2584,
      "\\²": 2585,
      "\\·": 2586,
      "\\Ö": 2587,
      "]\n": 2588,
      "]%": 2589,
      "]V": 2590,
      "]_": 2591,
      "]~": 2592,
      "]Û": 2593,
      "]ï": 2594,
      "^\b": 2595,
      "^L": 2596,
      "^O": 2597,
      "^^": 2598,
      "^î": 2599,
      "^÷": 2600,
      "^'Ä": 2601,
      "_\u0015": 2602,
      "_\u001f": 2603,
      "_É": 2604,
      "_û": 2605,
      "`": 2606,
      "`": 2607,
      "a\n": 2608,
      "a\u000f": 2609,
      "a\u001c": 2610,
      "a÷": 2611,
      "a\u001aÄ": 2612,
      "b\u000b": 2613,
      "b1": 2614,
      "b2": 2615,
      "b:": 2616,
      "bO": 2617,
      "bT": 2618,
      "bc": 2619,
      "be": 2620,
      "b": 2621,
      "bo\u0013": 2622,
      "bk\b": 2623,
      "c\u0004": 2624,
      "c4": 2625,
      "cr": 2626,
      "c¿": 2627,
      "d@": 2628,
      "dH": 2629,
      "d§": 2630,
      "dÂ": 2631,
      "dî": 2632,
      "dò": 2633,
      "e:": 2634,
      "ee": 2635,
      "er": 2636,
      "e¥": 2637,
      "f\"": 2638,
      "f'": 2639,
      "f>": 2640,
      "fä": 2641,
      "g7": 2642,
      "g_": 2643,
      "g÷": 2644,
      "h^": 2645,
      "h¿": 2646,
      "hù": 2647,
      "hre": 2648,
      "ib": 2649,
      "i­": 2650,
      "iý": 2651,
      "j": 2652,
      "j£": 2653,
      "jÇ": 2654,
      "jÕ": 2655,
      "k>": 2656,
      "kU": 2657,
      "kÓ": 2658,
      "kØ": 2659,
      "la": 2660,
      "lg": 2661,
      "ls": 2662,
      "lÆ": 2663,
      "lù": 2664,
      "lú": 2665,
      "m\n": 2666,
      "m2": 2667,
      "mR": 2668,
      "mV": 2669,
      "m[": 2670,
      "n?": 2671,
      "nJ": 2672,
      "nv": 2673,
      "n": 2674,
      "n·": 2675,
      "nÆ": 2676,
      "nØ": 2677,
      "o'": 2678,
      "ok": 2679,
      "o": 2680,
      "o": 2681,
      "o": 2682,
      "o": 2683,
      "o®": 2684,
      "oæ": 2685,
      "oý": 2686,
      "oÿ": 2687,
      "p_": 2688,
      "p": 2689,
      "p": 2690,
      "pÃ": 2691,
      "q\u0015": 2692,
      "q\u001a": 2693,
      "q\u001e": 2694,
      "q3": 2695,
      "q=": 2696,
      "r#": 2697,
      "rI": 2698,
      "rR": 2699,
      "ru": 2700,
      "r©": 2701,
      "r±": 2702,
      "rç": 2703,
      "s(": 2704,
      "s)": 2705,
      "sk": 2706,
      "s³": 2707,
      "sø": 2708,
      "s=0 ": 2709,
      "ti": 2710,
      "t": 2711,
      "tÓ": 2712,
      "tÕ": 2713,
      "tÛ": 2714,
      "uQ": 2715,
      "u|": 2716,
      "u¬": 2717,
      "uÍ": 2718,
      "uÖ": 2719,
      "uUU": 2720,
      "v7": 2721,
      "v?": 2722,
      "vË": 2723,
      "vÓ": 2724,
      "vÝ": 2725,
      "we": 2726,
      "w|": 2727,
      "w": 2728,
      "w¼": 2729,
      "wÍ": 2730,
      "wÝ": 2731,
      "wâ": 2732,
      "x!": 2733,
      "xO": 2734,
      "x": 2735,
      "x": 2736,
      "x": 2737,
      "x": 2738,
      "x¬": 2739,
      "x®": 2740,
      "x¼": 2741,
      "x½": 2742,
      "xGÄ": 2743,
      "x": 2744,
      "yq": 2745,
      "yz": 2746,
      "y¹": 2747,
      "yØ": 2748,
      "z~": 2749,
      "z§": 2750,
      "zÐ": 2751,
      "zÔ": 2752,
      "zë": 2753,
      "{\u0011": 2754,
      "{ÿ": 2755,
      "|@": 2756,
      "|D": 2757,
      "|K": 2758,
      "|w": 2759,
      "||": 2760,
      "|": 2761,
      "|": 2762,
      "|µ": 2763,
      "|·": 2764,
      "|Ò": 2765,
      "|Õ": 2766,
      "|Þ": 2767,
      "|ý": 2768,
      "}U": 2769,
      "}W": 2770,
      "}": 2771,
      "}Ý": 2772,
      "}ê": 2773,
      "}ù": 2774,
      "}b|": 2775,
      "~\u0013": 2776,
      "~J": 2777,
      "~N": 2778,
      "~\\": 2779,
      "~k": 2780,
      "\u0015": 2781,
      "b": 2782,
      "": 2783,
      "÷": 2784,
      "ý": 2785,
      "@": 2786,
      "[": 2787,
      "": 2788,
      "": 2789,
      "": 2790,
      "": 2791,
      "\u0003": 2792,
      "\u0006": 2793,
      "\u000e": 2794,
      "\u0003": 2795,
      "x": 2796,
      "¸": 2797,
      "·": 2798,
      "\u0002": 2799,
      "\u0003": 2800,
      "(": 2801,
      "1": 2802,
      "F": 2803,
      "d": 2804,
      "i": 2805,
      "Ô": 2806,
      "ð": 2807,
      "ñ": 2808,
      "ó": 2809,
      "b": 2810,
      "q": 2811,
      "±": 2812,
      "&": 2813,
      "\u0011": 2814,
      "\u0016": 2815,
      "&": 2816,
      "C": 2817,
      "Ë": 2818,
      "Ô": 2819,
      "'": 2820,
      "": 2821,
      "": 2822,
      "": 2823,
      "»": 2824,
      "Ê": 2825,
      "Þ": 2826,
      "\u0013â": 2827,
      "": 2828,
      "Â": 2829,
      "Ã": 2830,
      "É": 2831,
      "Ñ": 2832,
      "Õ": 2833,
      "ð": 2834,
      "Ã": 2835,
      "È": 2836,
      "ä": 2837,
      "Õ": 2838,
      "ä": 2839,
      "æ": 2840,
      "í": 2841,
      "G": 2842,
      "g": 2843,
      "¸": 2844,
      "Ô": 2845,
      "ã": 2846,
      "ÿ": 2847,
      "R": 2848,
      "": 2849,
      "\u0019": 2850,
      " ": 2851,
      "$": 2852,
      "&": 2853,
      "/": 2854,
      "¡": 2855,
      "S": 2856,
      "": 2857,
      "Á": 2858,
      "ñ": 2859,
      "F": 2860,
      "": 2861,
      "\u0013": 2862,
      "\u001a": 2863,
      "": 2864,
      "\\": 2865,
      "_": 2866,
      "": 2867,
      "÷": 2868,
      "+": 2869,
      "<": 2870,
      "l": 2871,
      "": 2872,
      "": 2873,
      "º": 2874,
      "È": 2875,
      "É": 2876,
      "í": 2877,
      "N": 2878,
      "E": 2879,
      "s": 2880,
      "": 2881,
      "­": 2882,
      "": 2883,
      "": 2884,
      "µ": 2885,
      ">": 2886,
      "r": 2887,
      "": 2888,
      "ÿ": 2889,
      "\t": 2890,
      "¿": 2891,
      "Ì": 2892,
      "M": 2893,
      "": 2894,
      "»": 2895,
      "#": 2896,
      "": 2897,
      "": 2898,
      "§": 2899,
      "×": 2900,
      "\"": 2901,
      "": 2902,
      "": 2903,
      "Ò": 2904,
      "\u0013": 2905,
      "": 2906,
      "": 2907,
      "": 2908,
      "": 2909,
      "": 2910,
      "¼": 2911,
      "Ì": 2912,
      "½": 2913,
      "ä": 2914,
      "b|": 2915,
      "\b": 2916,
      "\"": 2917,
      "&": 2918,
      "+": 2919,
      "%": 2920,
      "M": 2921,
      "": 2922,
      "": 2923,
      "": 2924,
      "Ä": 2925,
      " ®": 2926,
      "¡\u0019": 2927,
      "¡": 2928,
      "¡¡": 2929,
      "¡Ï": 2930,
      "¡ù": 2931,
      "¢?": 2932,
      "¢³": 2933,
      "£P": 2934,
      "¤L": 2935,
      "¤¿": 2936,
      "¥ù": 2937,
      "¦": 2938,
      "¦": 2939,
      "¦¢": 2940,
      "¦¹": 2941,
      "§â": 2942,
      "§ñ": 2943,
      "§ÿ": 2944,
      "¨\n": 2945,
      "¨8": 2946,
      "¨r": 2947,
      "¨": 2948,
      "¨": 2949,
      "¨Ü": 2950,
      "¨ø": 2951,
      "©\u0019": 2952,
      "ª·": 2953,
      "ªÖ": 2954,
      "ªø": 2955,
      "«\u0011": 2956,
      "«Z": 2957,
      "«": 2958,
      "«Þ": 2959,
      "«ß": 2960,
      "«ä": 2961,
      "¬!": 2962,
      "¬F": 2963,
      "¬W": 2964,
      "¬k": 2965,
      "¬n": 2966,
      "¬o": 2967,
      "¬ù": 2968,
      "¬Oñ": 2969,
      "­H": 2970,
      "­M": 2971,
      "­o": 2972,
      "­«": 2973,
      "­Û": 2974,
      "®J": 2975,
      "®]": 2976,
      "®i": 2977,
      "®¯": 2978,
      "®Û": 2979,
      "®ú": 2980,
      "¯U": 2981,
      "¯": 2982,
      "¯æ": 2983,
      "°C": 2984,
      "°": 2985,
      "°": 2986,
      "°Í": 2987,
      "±:": 2988,
      "±¡": 2989,
      "±®": 2990,
      "±ã": 2991,
      "±>&": 2992,
      "±>$": 2993,
      "²": 2994,
      "³ã": 2995,
      "³ùü": 2996,
      "´h": 2997,
      "´": 2998,
      "´Ø": 2999,
      "µY": 3000,
      "µo": 3001,
      "¶": 3002,
      "¶": 3003,
      "¶Ó": 3004,
      "¶í": 3005,
      "¶ÿ": 3006,
      "·Q": 3007,
      "·l": 3008,
      "¸!": 3009,
      "¸K": 3010,
      "¸\\": 3011,
      "¸f": 3012,
      "¸": 3013,
      "¸": 3014,
      "¸­": 3015,
      "¸¿": 3016,
      "¹+": 3017,
      "¹k": 3018,
      "¹": 3019,
      "¹©": 3020,
      "¹³": 3021,
      "¹¼": 3022,
      "¹ñ": 3023,
      "¹ü": 3024,
      "¹ÿ": 3025,
      "º": 3026,
      "º­": 3027,
      "º±": 3028,
      "º¿": 3029,
      "»\u001a": 3030,
      "»L": 3031,
      "»~": 3032,
      "»¼": 3033,
      "»ß": 3034,
      "»å": 3035,
      "»î": 3036,
      "»ø": 3037,
      "»ÿ": 3038,
      "¼3": 3039,
      "¼": 3040,
      "¼": 3041,
      "¼ÿ": 3042,
      "¼Oñ": 3043,
      "½\u000e": 3044,
      "½f": 3045,
      "½s": 3046,
      "½¬": 3047,
      "½»": 3048,
      "½å": 3049,
      "½÷": 3050,
      "¾\u0013": 3051,
      "¾": 3052,
      "¿,": 3053,
      "¿": 3054,
      "¿Á": 3055,
      "¿î": 3056,
      "¿ý": 3057,
      "À\n": 3058,
      "À": 3059,
      "Á#": 3060,
      "Â\u0001": 3061,
      "Â\u0002": 3062,
      "Â\u0005": 3063,
      "Â+": 3064,
      "Âv": 3065,
      "Â": 3066,
      "ÂØ": 3067,
      "Ã7": 3068,
      "Äg": 3069,
      "Äq": 3070,
      "Ä¸": 3071,
      "ÄÆ": 3072,
      "Äñ": 3073,
      "Äü": 3074,
      "Äñ\u0002": 3075,
      "Åb": 3076,
      "Åo": 3077,
      "År": 3078,
      "Åx": 3079,
      "Åy": 3080,
      "Åù": 3081,
      "Æ\u0013": 3082,
      "Æ": 3083,
      "Ç\u0013": 3084,
      "Ç©": 3085,
      "ÇÃ": 3086,
      "È#": 3087,
      "È": 3088,
      "Éj": 3089,
      "É": 3090,
      "É": 3091,
      "É": 3092,
      "É­": 3093,
      "É»": 3094,
      "Éñ": 3095,
      "Ê'": 3096,
      "ËC": 3097,
      "Ë": 3098,
      "Ë": 3099,
      "ËÂ": 3100,
      "ËÆ": 3101,
      "ËÞ": 3102,
      "Ëï": 3103,
      "ÌD": 3104,
      "Ìº": 3105,
      "Ì¿": 3106,
      "ÍD": 3107,
      "ÍE": 3108,
      "ÍM": 3109,
      "Íz": 3110,
      "Í": 3111,
      "Í": 3112,
      "Í·": 3113,
      "ÍÉ": 3114,
      "ÍÍ": 3115,
      "Íæ": 3116,
      "Íì": 3117,
      "Íò": 3118,
      "Í÷": 3119,
      "Ï\b": 3120,
      "Ï\u0011": 3121,
      "ÏE": 3122,
      "Ï": 3123,
      "ÏÓ": 3124,
      "ÏÞ": 3125,
      "Ïß": 3126,
      "Ïÿ": 3127,
      "Ðm": 3128,
      "Ð": 3129,
      "ÐÈ": 3130,
      "Ðß": 3131,
      "Ðì": 3132,
      "Ðï": 3133,
      "Ñ\u001a": 3134,
      "Ñ:": 3135,
      "Ñ": 3136,
      "Ñ±": 3137,
      "Ñô": 3138,
      "Òd": 3139,
      "Ó'": 3140,
      "Ó_": 3141,
      "Ó": 3142,
      "Ó": 3143,
      "Ó§": 3144,
      "Ó÷": 3145,
      "ÔÆ": 3146,
      "Ôë": 3147,
      "Õý": 3148,
      "Õþ": 3149,
      "Ö\"": 3150,
      "Ö": 3151,
      "Ö¢": 3152,
      "Öª": 3153,
      "Ö«": 3154,
      "Ö\u0011ñ": 3155,
      "×\u0012": 3156,
      "×\u001f": 3157,
      "×6": 3158,
      "×o": 3159,
      "×s": 3160,
      "×": 3161,
      "×¤": 3162,
      "×Ë": 3163,
      "×Í": 3164,
      "ØF": 3165,
      "Ø": 3166,
      "Ø¼": 3167,
      "ØÏ": 3168,
      "Ù4": 3169,
      "Ú\u0018": 3170,
      "Ú\u001b": 3171,
      "Út": 3172,
      "Úù": 3173,
      "Û.": 3174,
      "Û_": 3175,
      "ÛÕ": 3176,
      "Ûâ": 3177,
      "Ü@": 3178,
      "Üv": 3179,
      "Üù": 3180,
      "Ý5": 3181,
      "Ýõ": 3182,
      "Ýÿ": 3183,
      "Þ ": 3184,
      "Þ+": 3185,
      "Þ7": 3186,
      "Þl": 3187,
      "ÞÚ": 3188,
      "Þ#Ä": 3189,
      "ß\u0013": 3190,
      "ß6": 3191,
      "ßÉ": 3192,
      "ßÝ": 3193,
      "ßû": 3194,
      "à\f": 3195,
      "àL": 3196,
      "á\u0001": 3197,
      "á\b": 3198,
      "á\u0010": 3199,
      "á\u001d": 3200,
      "á,": 3201,
      "á\\": 3202,
      "á]": 3203,
      "á": 3204,
      "á": 3205,
      "á ": 3206,
      "á\b": 3207,
      "â\u001e": 3208,
      "â6": 3209,
      "â7": 3210,
      "â9": 3211,
      "âE": 3212,
      "âe": 3213,
      "ân": 3214,
      "âr": 3215,
      "âv": 3216,
      "ây": 3217,
      "â°": 3218,
      "â·": 3219,
      "âí": 3220,
      "â<G": 3221,
      "ân#": 3222,
      "ã": 3223,
      "ã©": 3224,
      "ã¼": 3225,
      "ä1": 3226,
      "ä¤": 3227,
      "ä½": 3228,
      "äÍ": 3229,
      "äæ": 3230,
      "äñ": 3231,
      "å>": 3232,
      "åS": 3233,
      "å^": 3234,
      "åf": 3235,
      "å¦": 3236,
      "å®": 3237,
      "å¶": 3238,
      "åÂ": 3239,
      "åÆ": 3240,
      "åÎ": 3241,
      "åæ": 3242,
      "æ´": 3243,
      "æÄ": 3244,
      "æÛ": 3245,
      "ç": 3246,
      "ç": 3247,
      "ç¯": 3248,
      "çÏ": 3249,
      "çä": 3250,
      "çñ\u001e": 3251,
      "èn": 3252,
      "é'": 3253,
      "éy": 3254,
      "éÄ": 3255,
      "êó": 3256,
      "ë^": 3257,
      "ë": 3258,
      "ë": 3259,
      "ëº": 3260,
      "ëâ": 3261,
      "ëå": 3262,
      "ëü": 3263,
      "ëý": 3264,
      "ìC": 3265,
      "ì_": 3266,
      "ì": 3267,
      "í³": 3268,
      "î\"": 3269,
      "î": 3270,
      "îÏ": 3271,
      "î÷": 3272,
      "ï": 3273,
      "ï": 3274,
      "ï¤": 3275,
      "ï»": 3276,
      "ð@": 3277,
      "ðI": 3278,
      "ðR": 3279,
      "ð": 3280,
      "ð": 3281,
      "ð": 3282,
      "ð": 3283,
      "ð": 3284,
      "ñ\u0005": 3285,
      "ñ\u0014": 3286,
      "ñ.": 3287,
      "ñ4": 3288,
      "ñY": 3289,
      "ñZ": 3290,
      "ñv": 3291,
      "ñz": 3292,
      "ñ": 3293,
      "ñÜ": 3294,
      "ñõ": 3295,
      "ò1": 3296,
      "òU": 3297,
      "òi": 3298,
      "òk": 3299,
      "òy": 3300,
      "òù": 3301,
      "óU": 3302,
      "óZ": 3303,
      "ój": 3304,
      "óm": 3305,
      "óo": 3306,
      "ót": 3307,
      "ó±": 3308,
      "óå": 3309,
      "óæ": 3310,
      "óø": 3311,
      "ô8": 3312,
      "ôÛ": 3313,
      "õ\u0004": 3314,
      "õ¯": 3315,
      "õÉ": 3316,
      "ö#": 3317,
      "ö": 3318,
      "öÓ": 3319,
      "öí": 3320,
      "÷2": 3321,
      "÷O": 3322,
      "÷n": 3323,
      "÷}": 3324,
      "÷½": 3325,
      "øB": 3326,
      "ø¬": 3327,
      "øÜ": 3328,
      "ø ": 3329,
      "ù&": 3330,
      "ù.": 3331,
      "ù0": 3332,
      "ùy": 3333,
      "ù¢": 3334,
      "ù©": 3335,
      "ù«": 3336,
      "ù²": 3337,
      "ù³": 3338,
      "ù¹": 3339,
      "ù¿": 3340,
      "ùò": 3341,
      "ùÿ": 3342,
      "úD": 3343,
      "úI": 3344,
      "ú~": 3345,
      "úÏ": 3346,
      "úÖ": 3347,
      "úý": 3348,
      "úÿ": 3349,
      "úÄx": 3350,
      "û\u001c": 3351,
      "ûk": 3352,
      "û": 3353,
      "û": 3354,
      "û": 3355,
      "û¢": 3356,
      "ûä": 3357,
      "ûý": 3358,
      "ü3": 3359,
      "üI": 3360,
      "üK": 3361,
      "ün": 3362,
      "ü": 3363,
      "ü½": 3364,
      "üÒ": 3365,
      "üÔ": 3366,
      "üÕ": 3367,
      "üÝ": 3368,
      "üü": 3369,
      "üÿ": 3370,
      "üMb": 3371,
      "ý¿": 3372,
      "ýæ": 3373,
      "þ\u0012": 3374,
      "þ*": 3375,
      "þ>": 3376,
      "þ¿": 3377,
      "ÿ": 3378,
      "ÿ¢": 3379,
      "ÿ®": 3380,
      "ÿË": 3381,
      "ÿÝ": 3382,
      "ÿÿ": 3383,
      "\u0000\u0000\u0000\u0001AA": 3384,
      "\u0000\u0000\u0000\u0001AB": 3385,
      "\u0000\u0000\u0000\u0001AÂ": 3386,
      "\u0000\u0000\u0000\u0001Aâ": 3387,
      "\u0000\u0000\u0000\u0001A`": 3388,
      "\u0000\u0000\u0000\u0001Aa": 3389,
      "\u0000\u0000\u0000\u0001A¢": 3390,
      "\u0000\u0000\u0000\u0001AÂ": 3391,
      "â|\"": 3392,
      "â|@": 3393,
      "â|O": 3394,
      "â|Mb": 3395,
      "ÄøF": 3396,
      "Äø": 3397,
      "Äø": 3398,
      "Äø": 3399,
      "á\u001f\u0010": 3400,
      "\u0011â\u0004": 3401,
      "ð": 3402,
      "ðe": 3403,
      "ñ\u0002": 3404,
      "øGÂ>\u0011": 3405,
      "#Ä\u0004": 3406,
      "Äx": 3407,
      "Äx": 3408,
      "øF°": 3409,
      ".'ÿÿ": 3410,
      "<@ ": 3411,
      "¸ÿÿÿ": 3412,
      "ÿÿÿÿÿÿÿÿÿÿ": 3413,
      "ñ\u001e#Ä": 3414,
      "ñ\u001e?Ï": 3415,
      "ñ\u001e#Ï": 3416,
      "ðb": 3417,
      "ñ\u001e#": 3418,
      "ñ\u001e#Ä": 3419,
      "ÿÿÿÿÿÿÿ": 3420,
      "\u0000\u0000\u0000\u0001A\"": 3421,
      "Ö'Äø\u0013": 3422,
      "\u0013ò": 3423,
      "â\u0002>\u0011": 3424,
      "âk\b": 3425,
      "­~µ": 3426,
      "ï½": 3427,
      "Ä\u0004d": 3428,
      "ðÏ": 3429,
      "á\u000f\b": 3430,
      "üG": 3431,
      "\u0000\u0000\u0000\u0001A`©": 3432,
      "\u0000\u0000\u0000\u0001A`": 3433,
      "ref": 3434,
      "Á\u000f": 3435,
      "Â\u001e ": 3436,
      "ÄÉñ": 3437,
      "\u0000\u0000\u0000\u0001A ¨": 3438,
      "\u0000\u0000\u0000\u0001Aà¨": 3439,
      "_\u0013§": 3440,
      "\u0000\u0000\u0000\u0001A\u0000©": 3441,
      "Zª©": 3442,
      "n'\u0013": 3443,
      "UUUUUU": 3444,
      "X": 3445,
      "\u0000\u0000\u0000\u0001A ¨": 3446,
      "\u0000\u0000\u0000": 3447,
      "º®¹": 3448,
      "þ}g": 3449,
      "â|Oñ>'": 3450,
      "Ïçñ>": 3451,
      "¬¾Ê": 3452,
      "hread": 3453,
      "\u0000\u0019": 3454,
      "\u00002": 3455,
      "\u0000@": 3456,
      "\u0000Ç": 3457,
      "\u0000\tj": 3458,
      "\u0001\n": 3459,
      "\u0001\u000f": 3460,
      "\u00010": 3461,
      "\u0001?": 3462,
      "\u0001e": 3463,
      "\u0001": 3464,
      "\u0001È": 3465,
      "\u0001[": 3466,
      "\u0002\u0006": 3467,
      "\u0002\u0012": 3468,
      "\u0002/": 3469,
      "\u00025": 3470,
      "\u0002B": 3471,
      "\u0002L": 3472,
      "\u0002o": 3473,
      "\u0002": 3474,
      "\u0002": 3475,
      "\u0002Ì": 3476,
      "\u0002\u0000\u0000": 3477,
      "\u00035": 3478,
      "\u0003": 3479,
      "\u0003¿": 3480,
      "\u0003Ã": 3481,
      "\u0003\u0000\u0000\u0000": 3482,
      "\u0004\u0007": 3483,
      "\u0004\u001a": 3484,
      "\u0004\"": 3485,
      "\u0004*": 3486,
      "\u00040": 3487,
      "\u0004<": 3488,
      "\u0004?": 3489,
      "\u0004X": 3490,
      "\u0004\\": 3491,
      "\u0004j": 3492,
      "\u0004s": 3493,
      "\u0004": 3494,
      "\u0004ç": 3495,
      "\u0004ÿ": 3496,
      "\u0004>\u0011": 3497,
      "\u0004\u0002\u001b": 3498,
      "\u0005?": 3499,
      "\u0005|": 3500,
      "\u0005½": 3501,
      "\u0005Û": 3502,
      "\u0005ð": 3503,
      "\u00052b": 3504,
      "\u0006#": 3505,
      "\u0006&": 3506,
      "\u0006)": 3507,
      "\u00065": 3508,
      "\u0006f": 3509,
      "\u0006l": 3510,
      "\u0006¸": 3511,
      "\u0006î": 3512,
      "\u0007?": 3513,
      "\u0007r": 3514,
      "\u0007": 3515,
      "\u0007¬": 3516,
      "\u0007ù": 3517,
      "\b\u0018": 3518,
      "\b\u001e": 3519,
      "\bD": 3520,
      "\b`": 3521,
      "\bq": 3522,
      "\br": 3523,
      "\bs": 3524,
      "\b": 3525,
      "\b": 3526,
      "\b®": 3527,
      "\b½": 3528,
      "\bÏ": 3529,
      "\bÔ": 3530,
      "\bõ": 3531,
      "\b÷": 3532,
      "\bøG": 3533,
      "\bßÝ": 3534,
      "\t\u001f": 3535,
      "\tI": 3536,
      "\tR": 3537,
      "\tY": 3538,
      "\tZ": 3539,
      "\t[": 3540,
      "\t`": 3541,
      "\tx": 3542,
      "\t": 3543,
      "\t¡": 3544,
      "\t¦": 3545,
      "\t¨": 3546,
      "\t­": 3547,
      "\tÇ": 3548,
      "\tÉ": 3549,
      "\tÑ": 3550,
      "\tÒ": 3551,
      "\tÓ": 3552,
      "\tà": 3553,
      "\tó": 3554,
      "\n\n": 3555,
      "\n\u001a": 3556,
      "\n(": 3557,
      "\n+": 3558,
      "\n,": 3559,
      "\n9": 3560,
      "\n<": 3561,
      "\n>": 3562,
      "\nb": 3563,
      "\ne": 3564,
      "\ng": 3565,
      "\nr": 3566,
      "\n~": 3567,
      "\n¸": 3568,
      "\n¼": 3569,
      "\ná": 3570,
      "\nâ": 3571,
      "\nã": 3572,
      "\n\u001cN": 3573,
      "\u000b\b": 3574,
      "\u000b\u0011": 3575,
      "\u000b:": 3576,
      "\u000b?": 3577,
      "\u000b^": 3578,
      "\u000b`": 3579,
      "\f2": 3580,
      "\fL": 3581,
      "\f`": 3582,
      "\fg": 3583,
      "\fk": 3584,
      "\f²": 3585,
      "\f¼": 3586,
      "\fÇ": 3587,
      "\fÉ": 3588,
      "\fø": 3589,
      "\føG": 3590,
      "\u000e{": 3591,
      "\u000e±": 3592,
      "\u000eµ": 3593,
      "\u000eÛ": 3594,
      "\u000f\b": 3595,
      "\u000f\u0012": 3596,
      "\u000fC": 3597,
      "\u000fU": 3598,
      "\u000fW": 3599,
      "\u000f": 3600,
      "\u000f": 3601,
      "\u000f»": 3602,
      "\u000fÂ": 3603,
      "\u000fÄ": 3604,
      "\u000fÉ": 3605,
      "\u000f÷": 3606,
      "\u0010\u0013": 3607,
      "\u0010;": 3608,
      "\u0010k": 3609,
      "\u0010m": 3610,
      "\u0010u": 3611,
      "\u0010": 3612,
      "\u0010¡": 3613,
      "\u0010¨": 3614,
      "\u0010ª": 3615,
      "\u0010­": 3616,
      "\u0010²": 3617,
      "\u0010ç": 3618,
      "\u0010ñ": 3619,
      "\u0010ÿ": 3620,
      "\u0010\u0011ñ": 3621,
      "\u0010øF": 3622,
      "\u0010äÖ": 3623,
      "\u0011\u0011": 3624,
      "\u0011\u001a": 3625,
      "\u0011,": 3626,
      "\u0011:": 3627,
      "\u0011Q": 3628,
      "\u0011v": 3629,
      "\u0011": 3630,
      "\u0011": 3631,
      "\u0011": 3632,
      "\u0011": 3633,
      "\u0011": 3634,
      "\u0011¡": 3635,
      "\u0011¨": 3636,
      "\u0011µ": 3637,
      "\u0011¼": 3638,
      "\u0011Ï": 3639,
      "\u0011î": 3640,
      "\u0011ð": 3641,
      "\u0011¬O": 3642,
      "\u0012\u0019": 3643,
      "\u0012\u001f": 3644,
      "\u0012'": 3645,
      "\u0012*": 3646,
      "\u0012/": 3647,
      "\u00127": 3648,
      "\u0012H": 3649,
      "\u0012N": 3650,
      "\u0012P": 3651,
      "\u0012n": 3652,
      "\u0012|": 3653,
      "\u0012}": 3654,
      "\u0012": 3655,
      "\u0012ª": 3656,
      "\u0012«": 3657,
      "\u0012ê": 3658,
      "\u0013\u0017": 3659,
      "\u0013S": 3660,
      "\u0013z": 3661,
      "\u0013": 3662,
      "\u0013": 3663,
      "\u0013": 3664,
      "\u0013": 3665,
      "\u0013 ": 3666,
      "\u0013¤": 3667,
      "\u0013º": 3668,
      "\u0013Á": 3669,
      "\u0013Ø": 3670,
      "\u0013ñ": 3671,
      "\u0013ü": 3672,
      "\u0013çóùü": 3673,
      "\u0013ñ1": 3674,
      "\u0013çóø": 3675,
      "\u0014\t": 3676,
      "\u0014*": 3677,
      "\u0014F": 3678,
      "\u0014J": 3679,
      "\u0014_": 3680,
      "\u0014t": 3681,
      "\u0014Ã": 3682,
      "\u0014Ê": 3683,
      "\u0014ï": 3684,
      "\u0014Äø": 3685,
      "\u0015/": 3686,
      "\u0015_": 3687,
      "\u0015": 3688,
      "\u0015": 3689,
      "\u0015£": 3690,
      "\u0015©": 3691,
      "\u0015»": 3692,
      "\u0015Ä": 3693,
      "\u0015Ë": 3694,
      "\u0015Ì": 3695,
      "\u0015é": 3696,
      "\u0015ï": 3697,
      "\u0015ñ": 3698,
      "\u0016$": 3699,
      "\u0016\\": 3700,
      "\u0016f": 3701,
      "\u0016": 3702,
      "\u0016¤": 3703,
      "\u0016í": 3704,
      "\u0016þ": 3705,
      "\u0017\u0003": 3706,
      "\u0017\u0017": 3707,
      "\u0017M": 3708,
      "\u0017N": 3709,
      "\u0017Z": 3710,
      "\u0017»": 3711,
      "\u0017ç": 3712,
      "\u0017ÿ": 3713,
      "\u0017ñ\u001e": 3714,
      "\u0018O": 3715,
      "\u0018Z": 3716,
      "\u0018g": 3717,
      "\u0018": 3718,
      "\u0018": 3719,
      "\u0018": 3720,
      "\u0018¦": 3721,
      "\u0018Ã": 3722,
      "\u0018È": 3723,
      "\u0018ä": 3724,
      "\u00191": 3725,
      "\u00195": 3726,
      "\u0019|": 3727,
      "\u0019": 3728,
      "\u0019": 3729,
      "\u0019": 3730,
      "\u0019": 3731,
      "\u0019§": 3732,
      "\u0019©": 3733,
      "\u0019»": 3734,
      "\u0019¿": 3735,
      "\u0019Á": 3736,
      "\u0019Ç": 3737,
      "\u0019å": 3738,
      "\u0019é": 3739,
      "\u0019ù": 3740,
      "\u001aA": 3741,
      "\u001ag": 3742,
      "\u001as": 3743,
      "\u001a²": 3744,
      "\u001aÕ": 3745,
      "\u001b\u001b": 3746,
      "\u001bl": 3747,
      "\u001b": 3748,
      "\u001b": 3749,
      "\u001bÔ": 3750,
      "\u001bã": 3751,
      "\u001bæ¦": 3752,
      "\u001c#": 3753,
      "\u001c@": 3754,
      "\u001cE": 3755,
      "\u001cI": 3756,
      "\u001cq": 3757,
      "\u001cw": 3758,
      "\u001c": 3759,
      "\u001cË": 3760,
      "\u001cÒ": 3761,
      "\u001cÕ": 3762,
      "\u001cé": 3763,
      "\u001cG": 3764,
      "\u001dP": 3765,
      "\u001dW": 3766,
      "\u001d": 3767,
      "\u001dÉ": 3768,
      "\u001dÍ": 3769,
      "\u001dò": 3770,
      "\u001e\"": 3771,
      "\u001e%": 3772,
      "\u001eY": 3773,
      "\u001eo": 3774,
      "\u001e": 3775,
      "\u001eÏ": 3776,
      "\u001e÷": 3777,
      "\u001e'\\": 3778,
      "\u001e\u0007": 3779,
      "\u001f\u0017": 3780,
      "\u001f/": 3781,
      "\u001fd": 3782,
      "\u001f": 3783,
      "\u001f": 3784,
      "\u001f": 3785,
      "\u001f": 3786,
      "\u001fâ": 3787,
      "\u001fò": 3788,
      "\u001fÿÿÿÿ": 3789,
      "\u001fÿÿÿÿÿÿÿÿ": 3790,
      "\u001f\u0013ò": 3791,
      " \u001f": 3792,
      " &": 3793,
      " N": 3794,
      " ^": 3795,
      " j": 3796,
      " v": 3797,
      " ": 3798,
      " ³": 3799,
      " ü": 3800,
      " G": 3801,
      " \u0000\u0000\u0000\u0001Aà": 3802,
      " ·Ä": 3803,
      " \u0013Ø": 3804,
      "!\f": 3805,
      "!$": 3806,
      "!L": 3807,
      "!a": 3808,
      "!": 3809,
      "!¡": 3810,
      "!Á": 3811,
      "!É": 3812,
      "!Ý": 3813,
      "!è": 3814,
      "!î": 3815,
      "!ô": 3816,
      "!ü": 3817,
      "!ü'": 3818,
      "\"\u001b": 3819,
      "\"#": 3820,
      "\"5": 3821,
      "\"D": 3822,
      "\"Y": 3823,
      "\"i": 3824,
      "\"n": 3825,
      "\"q": 3826,
      "\"": 3827,
      "\"": 3828,
      "\" ": 3829,
      "\"©": 3830,
      "\"ã": 3831,
      "\"é": 3832,
      "\"ë": 3833,
      "\"ñ": 3834,
      "\"ú": 3835,
      "#\u0004": 3836,
      "#\t": 3837,
      "#\u000b": 3838,
      "#\u001a": 3839,
      "#(": 3840,
      "#5": 3841,
      "#F": 3842,
      "#^": 3843,
      "#h": 3844,
      "#": 3845,
      "#": 3846,
      "#¡": 3847,
      "#¨": 3848,
      "#Ô": 3849,
      "#ð": 3850,
      "#ô": 3851,
      "#X": 3852,
      "#á\u001f\u0013": 3853,
      "#X": 3854,
      "$\u0002": 3855,
      "$_": 3856,
      "$a": 3857,
      "$y": 3858,
      "$": 3859,
      "$": 3860,
      "$¾": 3861,
      "$Ý": 3862,
      "$î": 3863,
      "$ñ": 3864,
      "%4": 3865,
      "%:": 3866,
      "%S": 3867,
      "%i": 3868,
      "%": 3869,
      "%": 3870,
      "%­": 3871,
      "%¶": 3872,
      "%º": 3873,
      "%Ä": 3874,
      "%Í": 3875,
      "%Ú": 3876,
      "%ß": 3877,
      "%â": 3878,
      "%é": 3879,
      "%ð": 3880,
      "%ßâ": 3881,
      "&=": 3882,
      "&]": 3883,
      "&`": 3884,
      "&j": 3885,
      "&": 3886,
      "&¹": 3887,
      "&Ù": 3888,
      "&Û": 3889,
      "&Ý": 3890,
      "&ë": 3891,
      "&÷": 3892,
      "&Â8": 3893,
      "'\f": 3894,
      "'\u0013": 3895,
      "'\u0015": 3896,
      "'-": 3897,
      "'.": 3898,
      "'4": 3899,
      "'6": 3900,
      "'M": 3901,
      "'R": 3902,
      "'f": 3903,
      "'": 3904,
      "'": 3905,
      "'": 3906,
      "'¯": 3907,
      "'´": 3908,
      "'¾": 3909,
      "'Å": 3910,
      "'Ê": 3911,
      "'Ý": 3912,
      "'ß": 3913,
      "'â": 3914,
      "'î": 3915,
      "'ó": 3916,
      "'â?": 3917,
      "'&'": 3918,
      "'U÷": 3919,
      "'zÕ": 3920,
      "(": 3921,
      "(â": 3922,
      "(î": 3923,
      ")p": 3924,
      ")¡": 3925,
      ")®": 3926,
      ")¯": 3927,
      ")²": 3928,
      ")³": 3929,
      ")õ": 3930,
      "*\u001b": 3931,
      "*\"": 3932,
      "*": 3933,
      "*": 3934,
      "*": 3935,
      "*¬": 3936,
      "*®": 3937,
      "*²": 3938,
      "*Æ": 3939,
      "*Ý": 3940,
      "+\u0003": 3941,
      "+\u0005": 3942,
      "+\u0006": 3943,
      "+\u0012": 3944,
      "+S": 3945,
      "+Z": 3946,
      "+c": 3947,
      "+": 3948,
      "+": 3949,
      "+´": 3950,
      "+\u0011Ä": 3951,
      "+\føG": 3952,
      ",\u0018": 3953,
      ", ": 3954,
      ",%": 3955,
      ",3": 3956,
      ",E": 3957,
      ",L": 3958,
      ",N": 3959,
      ",W": 3960,
      ",h": 3961,
      ",p": 3962,
      ",": 3963,
      ",": 3964,
      ",": 3965,
      ",": 3966,
      ",¹": 3967,
      ",Ê": 3968,
      ",O": 3969,
      "-\b": 3970,
      "-\n": 3971,
      "-\u000e": 3972,
      "-\u0013": 3973,
      "-\u001a": 3974,
      "-=": 3975,
      "-P": 3976,
      "-g": 3977,
      "- ": 3978,
      "-­": 3979,
      "-®": 3980,
      "-¹": 3981,
      "-½": 3982,
      "-Í": 3983,
      "-î": 3984,
      "-ï": 3985,
      ".\u0017": 3986,
      ".4": 3987,
      ".F": 3988,
      ".U": 3989,
      ".v": 3990,
      ".": 3991,
      ".": 3992,
      ".": 3993,
      ".«": 3994,
      ".´": 3995,
      ".î": 3996,
      ".\u0011â": 3997,
      ".#Ä": 3998,
      ".äå": 3999,
      "/\n": 4000,
      "/\u000f": 4001,
      "/\u0011": 4002,
      "/\u0012": 4003,
      "/\u001d": 4004,
      "/#": 4005,
      "/M": 4006,
      "/U": 4007,
      "/[": 4008,
      "/^": 4009,
      "/f": 4010,
      "/v": 4011,
      "/y": 4012,
      "/": 4013,
      "/": 4014,
      "/¨": 4015,
      "/è": 4016,
      "/é": 4017,
      "0M": 4018,
      "0u": 4019,
      "0¹": 4020,
      "1\u0012": 4021,
      "1\u001c": 4022,
      "1?": 4023,
      "1C": 4024,
      "1[": 4025,
      "1c": 4026,
      "1": 4027,
      "1": 4028,
      "1": 4029,
      "1¡": 4030,
      "1´": 4031,
      "1ê": 4032,
      "1ÿ": 4033,
      "17": 4034,
      "13á": 4035,
      "1'â": 4036,
      "2\n": 4037,
      "2(": 4038,
      "22": 4039,
      "24": 4040,
      "2a": 4041,
      "2c": 4042,
      "2t": 4043,
      "2}": 4044,
      "2": 4045,
      "2©": 4046,
      "2¸": 4047,
      "2Â": 4048,
      "2Ë": 4049,
      "2è": 4050,
      "2ó": 4051,
      "2÷": 4052,
      "2Ä\t": 4053,
      "264": 4054,
      "3\n": 4055,
      "3+": 4056,
      "3C": 4057,
      "3Z": 4058,
      "3w": 4059,
      "3": 4060,
      "3": 4061,
      "3À": 4062,
      "3Ð": 4063,
      "3ò": 4064,
      "3ý": 4065,
      "3>\u0011": 4066,
      "3D\t": 4067,
      "3-2": 4068,
      "4\u0014": 4069,
      "4!": 4070,
      "44": 4071,
      "4b": 4072,
      "4j": 4073,
      "4|": 4074,
      "4~": 4075,
      "4": 4076,
      "4": 4077,
      "4­": 4078,
      "4Õ": 4079,
      "4Ú": 4080,
      "4ÿ": 4081,
      "4~'": 4082,
      "4¦}": 4083,
      "5\b": 4084,
      "5\u0017": 4085,
      "5.": 4086,
      "59": 4087,
      "5H": 4088,
      "5Q": 4089,
      "5f": 4090,
      "5": 4091,
      "5Ä": 4092,
      "5Ë": 4093,
      "5ý": 4094,
      "5¯": 4095,
      "5Ää": 4096,
      "6\u001b": 4097,
      "6 ": 4098,
      "6V": 4099,
      "6q": 4100,
      "6|": 4101,
      "6": 4102,
      "6": 4103,
      "6": 4104,
      "6©": 4105,
      "6¬": 4106,
      "6±": 4107,
      "6¸": 4108,
      "6Ö": 4109,
      "6ç": 4110,
      "6í": 4111,
      "6ø": 4112,
      "6'Ä": 4113,
      "7.": 4114,
      "76": 4115,
      "77": 4116,
      "7A": 4117,
      "7": 4118,
      "7": 4119,
      "7": 4120,
      "7": 4121,
      "7¶": 4122,
      "7Ü": 4123,
      "7ï": 4124,
      "7÷": 4125,
      "7ÿ": 4126,
      "7ð": 4127,
      "8+": 4128,
      "8;": 4129,
      "8G": 4130,
      "8M": 4131,
      "8": 4132,
      "8": 4133,
      "8": 4134,
      "8Ë": 4135,
      "9\u0013": 4136,
      "9\u0019": 4137,
      "94": 4138,
      "9E": 4139,
      "9h": 4140,
      "9q": 4141,
      "9": 4142,
      "9¦": 4143,
      "9º": 4144,
      "9ò": 4145,
      ":#": 4146,
      ":I": 4147,
      ":Q": 4148,
      ":c": 4149,
      ":e": 4150,
      ":k": 4151,
      ":w": 4152,
      ":x": 4153,
      ":}": 4154,
      ":": 4155,
      ":": 4156,
      ":Æ": 4157,
      ":Î": 4158,
      ":ñ": 4159,
      ":ó": 4160,
      ":õ": 4161,
      ":ö": 4162,
      ":ý": 4163,
      ";\u0000": 4164,
      ";\b": 4165,
      ";\u0013": 4166,
      ";\u0016": 4167,
      ";>": 4168,
      ";K": 4169,
      ";O": 4170,
      ";Q": 4171,
      ";j": 4172,
      ";m": 4173,
      ";": 4174,
      ";¼": 4175,
      ";½": 4176,
      ";¾": 4177,
      ";Â": 4178,
      ";Ç": 4179,
      ";Ñ": 4180,
      ";×": 4181,
      ";\u0013ù": 4182,
      "<\u0016": 4183,
      "<O": 4184,
      "<": 4185,
      "<¬": 4186,
      "<øF": 4187,
      "=\n": 4188,
      "=\u001f": 4189,
      "=@": 4190,
      "=s": 4191,
      "=w": 4192,
      "=": 4193,
      "=": 4194,
      "=Í": 4195,
      "=0:": 4196,
      ">.": 4197,
      ">9": 4198,
      ">F": 4199,
      ">L": 4200,
      ">V": 4201,
      ">f": 4202,
      ">j": 4203,
      ">n": 4204,
      ">q": 4205,
      ">|": 4206,
      ">": 4207,
      ">": 4208,
      ">¾": 4209,
      ">¿": 4210,
      ">Ä": 4211,
      ">í": 4212,
      ">î": 4213,
      ">ÿ": 4214,
      ">/": 4215,
      ">\u0012ª": 4216,
      "?\f": 4217,
      "?\u0015": 4218,
      "?.": 4219,
      "?2": 4220,
      "?C": 4221,
      "?X": 4222,
      "?": 4223,
      "?": 4224,
      "?": 4225,
      "?´": 4226,
      "?·": 4227,
      "?¸": 4228,
      "?¹": 4229,
      "?¾": 4230,
      "?Ä": 4231,
      "?Ý": 4232,
      "?æ": 4233,
      "?î": 4234,
      "?ð": 4235,
      "?ñ\u001e": 4236,
      "?(O": 4237,
      "?ñ\u001e#Ï": 4238,
      "@D": 4239,
      "@N": 4240,
      "@º": 4241,
      "@\u0000\u0000\u0000\u0001A@": 4242,
      "@\u0000\u0000\u0000\u0001A": 4243,
      "@\u0000\u0000\u0000\u0001AÁ": 4244,
      "A\u0000": 4245,
      "A\u001c": 4246,
      "A;": 4247,
      "AM": 4248,
      "AV": 4249,
      "A\\": 4250,
      "A×": 4251,
      "Aõ": 4252,
      "B\f": 4253,
      "B5": 4254,
      "B8": 4255,
      "B[": 4256,
      "Bq": 4257,
      "Bx": 4258,
      "B": 4259,
      "B": 4260,
      "B¹": 4261,
      "BØ": 4262,
      "Bò": 4263,
      "BÀ\n": 4264,
      "C\u0013": 4265,
      "C/": 4266,
      "C9": 4267,
      "CU": 4268,
      "Cq": 4269,
      "C": 4270,
      "C«": 4271,
      "C®": 4272,
      "CÇ": 4273,
      "Câ": 4274,
      "D\b": 4275,
      "DF": 4276,
      "DK": 4277,
      "DM": 4278,
      "D]": 4279,
      "Df": 4280,
      "Dh": 4281,
      "Du": 4282,
      "Dv": 4283,
      "DÒ": 4284,
      "DÚ": 4285,
      "Då": 4286,
      "Dþ": 4287,
      "Dk\u0013": 4288,
      "Dø\u0013": 4289,
      "Dj#": 4290,
      "E\u0015": 4291,
      "E+": 4292,
      "EI": 4293,
      "Ea": 4294,
      "Eo": 4295,
      "E": 4296,
      "EÝ": 4297,
      "Eâ": 4298,
      "Eò": 4299,
      "F\u0012": 4300,
      "F&": 4301,
      "Ff": 4302,
      "Fh": 4303,
      "F|": 4304,
      "F": 4305,
      "F©": 4306,
      "FÁ": 4307,
      "FÓ": 4308,
      "F+\u0013": 4309,
      "G\u0011": 4310,
      "G\u0017": 4311,
      "Gc": 4312,
      "Gs": 4313,
      "G": 4314,
      "G": 4315,
      "GÅ": 4316,
      "GÝ": 4317,
      "Gñ": 4318,
      "Gõ": 4319,
      "Gø": 4320,
      "Gñ": 4321,
      "G\b": 4322,
      "GÄø\u0013": 4323,
      "Hj": 4324,
      "H": 4325,
      "H": 4326,
      "H": 4327,
      "H¹": 4328,
      "H¿": 4329,
      "HÇ": 4330,
      "HÈ": 4331,
      "HÌ": 4332,
      "Hé": 4333,
      "I7": 4334,
      "I;": 4335,
      "I<": 4336,
      "I>": 4337,
      "IN": 4338,
      "IZ": 4339,
      "Ix": 4340,
      "I": 4341,
      "I§": 4342,
      "I´": 4343,
      "Iº": 4344,
      "I»": 4345,
      "I¿": 4346,
      "IÍ": 4347,
      "Iä": 4348,
      "J\u001a": 4349,
      "J'": 4350,
      "J¡": 4351,
      "J¯": 4352,
      "J¾": 4353,
      "JÁ": 4354,
      "JÃ": 4355,
      "JÄ": 4356,
      "Jî": 4357,
      "Jò": 4358,
      "Jô": 4359,
      "Jö": 4360,
      "K\u0004": 4361,
      "K\f": 4362,
      "KZ": 4363,
      "Ki": 4364,
      "Kn": 4365,
      "Kv": 4366,
      "K": 4367,
      "K": 4368,
      "K¾": 4369,
      "KÄ": 4370,
      "KÜ": 4371,
      "Kß": 4372,
      "Kå": 4373,
      "Kì": 4374,
      "Kñ8": 4375,
      "L\u0010": 4376,
      "LF": 4377,
      "Lg": 4378,
      "L": 4379,
      "L": 4380,
      "L§": 4381,
      "L©": 4382,
      "L±": 4383,
      "L²": 4384,
      "LØ": 4385,
      "Lì": 4386,
      "LOñ": 4387,
      "L~&": 4388,
      "M\u0005": 4389,
      "M*": 4390,
      "M4": 4391,
      "M6": 4392,
      "M@": 4393,
      "MD": 4394,
      "My": 4395,
      "M": 4396,
      "M": 4397,
      "M²": 4398,
      "Mº": 4399,
      "MË": 4400,
      "Mã": 4401,
      "Mù": 4402,
      "Mû": 4403,
      "MË": 4404,
      "N\"": 4405,
      "NI": 4406,
      "NJ": 4407,
      "NL": 4408,
      "N\\": 4409,
      "N]": 4410,
      "N_": 4411,
      "Nl": 4412,
      "Nn": 4413,
      "N}": 4414,
      "N~": 4415,
      "N": 4416,
      "N": 4417,
      "N": 4418,
      "N": 4419,
      "Nµ": 4420,
      "N¿": 4421,
      "NÇ": 4422,
      "NË": 4423,
      "NÏ": 4424,
      "NÐ": 4425,
      "Nê": 4426,
      "Nú": 4427,
      "N#Ä": 4428,
      "O\u001d": 4429,
      "O+": 4430,
      "O/": 4431,
      "O2": 4432,
      "ON": 4433,
      "OO": 4434,
      "OV": 4435,
      "O]": 4436,
      "O": 4437,
      "O¦": 4438,
      "O­": 4439,
      "OÇ": 4440,
      "OÍ": 4441,
      "Oã": 4442,
      "Oæ": 4443,
      "Oé": 4444,
      "Oë": 4445,
      "O÷": 4446,
      "Oá\u001f": 4447,
      "O7w": 4448,
      "Oñ\u001e?Ï": 4449,
      "PE": 4450,
      "PG": 4451,
      "Pk": 4452,
      "P": 4453,
      "P": 4454,
      "Pè": 4455,
      "Põ": 4456,
      "Q\u0001": 4457,
      "Q\u001b": 4458,
      "Q\u001c": 4459,
      "Q:": 4460,
      "Q<": 4461,
      "Q@": 4462,
      "Q}": 4463,
      "Q": 4464,
      "QÇ": 4465,
      "QÕ": 4466,
      "QØ": 4467,
      "Q\u001e#": 4468,
      "QX": 4469,
      "R\u000b": 4470,
      "R@": 4471,
      "RC": 4472,
      "RD": 4473,
      "R^": 4474,
      "R_": 4475,
      "R": 4476,
      "RÍ": 4477,
      "S2": 4478,
      "S;": 4479,
      "S=": 4480,
      "SJ": 4481,
      "SS": 4482,
      "Sg": 4483,
      "S": 4484,
      "S¡": 4485,
      "SÏ": 4486,
      "SÛ": 4487,
      "Sà": 4488,
      "Sä": 4489,
      "Sÿ": 4490,
      "Sø": 4491,
      "T5": 4492,
      "TL": 4493,
      "Th": 4494,
      "Tv": 4495,
      "T": 4496,
      "T": 4497,
      "T": 4498,
      "TÊ": 4499,
      "TÛ": 4500,
      "TÜ": 4501,
      "Tã": 4502,
      "T\u0000\u0000\u0000\u0001Aà": 4503,
      "U\u000f": 4504,
      "U@": 4505,
      "Ub": 4506,
      "Uq": 4507,
      "Ur": 4508,
      "U": 4509,
      "U¦": 4510,
      "U»": 4511,
      "U½": 4512,
      "UË": 4513,
      "Uë": 4514,
      "Uÿ": 4515,
      "Uâ\u0004": 4516,
      "Uñ\u001f": 4517,
      "V^": 4518,
      "V_": 4519,
      "Vh": 4520,
      "Vx": 4521,
      "V": 4522,
      "V¨": 4523,
      "VØ": 4524,
      "Væ": 4525,
      "V'Ä": 4526,
      "W\u0012": 4527,
      "W,": 4528,
      "WZ": 4529,
      "Wt": 4530,
      "W": 4531,
      "Wª": 4532,
      "WÄ": 4533,
      "Wá": 4534,
      "Wñ": 4535,
      "W\u0013": 4536,
      "W7U": 4537,
      "Wù4": 4538,
      "Xg": 4539,
      "X": 4540,
      "X": 4541,
      "X": 4542,
      "Xý": 4543,
      "Xþ": 4544,
      "X\b": 4545,
      "XGÄ": 4546,
      "Y\u000e": 4547,
      "Y\u0014": 4548,
      "Y!": 4549,
      "YX": 4550,
      "Yj": 4551,
      "Ys": 4552,
      "Y~": 4553,
      "Z5": 4554,
      "Zl": 4555,
      "Zt": 4556,
      "Zw": 4557,
      "Z": 4558,
      "Z": 4559,
      "ZÅ": 4560,
      "ZÒ": 4561,
      "ZÕ": 4562,
      "ZÚ": 4563,
      "Zã": 4564,
      "[\u0002": 4565,
      "[e": 4566,
      "[": 4567,
      "[¡": 4568,
      "[ä": 4569,
      "[å": 4570,
      "[ê": 4571,
      "\\\u0011": 4572,
      "\\'": 4573,
      "\\1": 4574,
      "\\G": 4575,
      "\\J": 4576,
      "\\N": 4577,
      "\\t": 4578,
      "\\z": 4579,
      "\\": 4580,
      "\\": 4581,
      "\\": 4582,
      "\\³": 4583,
      "\\Ò": 4584,
      "\\×": 4585,
      "\\Ù": 4586,
      "\\Û": 4587,
      "\\Ü": 4588,
      "\\O\u0011": 4589,
      "\\ü": 4590,
      "]$": 4591,
      "]:": 4592,
      "]]": 4593,
      "]i": 4594,
      "]o": 4595,
      "]}": 4596,
      "]«": 4597,
      "]»": 4598,
      "]Í": 4599,
      "]×": 4600,
      "]õ": 4601,
      "^\u000e": 4602,
      "^ ": 4603,
      "^_": 4604,
      "^e": 4605,
      "^n": 4606,
      "^|": 4607,
      "^": 4608,
      "^": 4609,
      "^": 4610,
      "^­": 4611,
      "^¯": 4612,
      "^µ": 4613,
      "^Ù": 4614,
      "^ê": 4615,
      "^õ": 4616,
      "^û": 4617,
      "^\u0011ñ": 4618,
      "^\b": 4619,
      "^MÛ": 4620,
      "_\u0017": 4621,
      "_%": 4622,
      "_+": 4623,
      "_5": 4624,
      "_o": 4625,
      "_w": 4626,
      "_": 4627,
      "_": 4628,
      "_¯": 4629,
      "_»": 4630,
      "_À": 4631,
      "_Ç": 4632,
      "_Ë": 4633,
      "_Ñ": 4634,
      "_Ý": 4635,
      "_â": 4636,
      "_ä": 4637,
      "_ù": 4638,
      "_ÿ": 4639,
      "_ñ>": 4640,
      "_ref": 4641,
      "`\f": 4642,
      "`#": 4643,
      "`¶": 4644,
      "`¼": 4645,
      "`Æ": 4646,
      "`Ê": 4647,
      "`\u0000\u0000\u0000\u0001A¡": 4648,
      "a\u0003": 4649,
      "a7": 4650,
      "a=": 4651,
      "al": 4652,
      "aw": 4653,
      "a}": 4654,
      "a": 4655,
      "a": 4656,
      "b\u000f": 4657,
      "b\u0017": 4658,
      "bF": 4659,
      "bb": 4660,
      "bd": 4661,
      "bj": 4662,
      "bl": 4663,
      "bq": 4664,
      "bu": 4665,
      "b¢": 4666,
      "b¼": 4667,
      "bÇ": 4668,
      "b0": 4669,
      "c9": 4670,
      "cT": 4671,
      "ci": 4672,
      "c|": 4673,
      "c¢": 4674,
      "c£": 4675,
      "c§": 4676,
      "cÂ": 4677,
      "cÄ": 4678,
      "cî": 4679,
      "ced": 4680,
      "dC": 4681,
      "di": 4682,
      "dl": 4683,
      "d": 4684,
      "d": 4685,
      "d": 4686,
      "d": 4687,
      "d": 4688,
      "dÈ": 4689,
      "dO": 4690,
      "e!": 4691,
      "e?": 4692,
      "ey": 4693,
      "e": 4694,
      "e": 4695,
      "e§": 4696,
      "eÇ": 4697,
      "eÿ": 4698,
      "f\u0013": 4699,
      "f\u0016": 4700,
      "f\u0017": 4701,
      "f ": 4702,
      "f#": 4703,
      "f&": 4704,
      "f1": 4705,
      "fV": 4706,
      "fo": 4707,
      "fv": 4708,
      "fÌ": 4709,
      "fÞ": 4710,
      "fæ": 4711,
      "fë": 4712,
      "fó": 4713,
      "fõ": 4714,
      "fö": 4715,
      "g\u0005": 4716,
      "g\u0013": 4717,
      "gF": 4718,
      "gc": 4719,
      "g": 4720,
      "g": 4721,
      "g": 4722,
      "g": 4723,
      "gÌ": 4724,
      "gÎ": 4725,
      "gÓ": 4726,
      "gï": 4727,
      "gBÀ\n": 4728,
      "hk": 4729,
      "hn": 4730,
      "hq": 4731,
      "h": 4732,
      "h": 4733,
      "h": 4734,
      "hÎ": 4735,
      "hÓ": 4736,
      "i$": 4737,
      "iL": 4738,
      "it": 4739,
      "i": 4740,
      "i¦": 4741,
      "i§": 4742,
      "ió": 4743,
      "jO": 4744,
      "jS": 4745,
      "j|": 4746,
      "j": 4747,
      "j": 4748,
      "j": 4749,
      "j¢": 4750,
      "j±": 4751,
      "j³": 4752,
      "j¹": 4753,
      "k(": 4754,
      "k5": 4755,
      "kM": 4756,
      "kQ": 4757,
      "kT": 4758,
      "ki": 4759,
      "k{": 4760,
      "k": 4761,
      "k": 4762,
      "k": 4763,
      "k¹": 4764,
      "kÙ": 4765,
      "kâ": 4766,
      "kã": 4767,
      "kð": 4768,
      "key": 4769,
      "ld": 4770,
      "lf": 4771,
      "lm": 4772,
      "lÊ": 4773,
      "lÌ": 4774,
      "lÍ": 4775,
      "lÙ": 4776,
      "lë": 4777,
      "lN#": 4778,
      "m$": 4779,
      "mE": 4780,
      "ma": 4781,
      "mb": 4782,
      "ml": 4783,
      "m": 4784,
      "m¾": 4785,
      "m×": 4786,
      "min": 4787,
      "n\u0013": 4788,
      "nU": 4789,
      "nj": 4790,
      "nr": 4791,
      "n~": 4792,
      "n": 4793,
      "nº": 4794,
      "n¾": 4795,
      "nÀ": 4796,
      "nÈ": 4797,
      "o\u001d": 4798,
      "o&": 4799,
      "o?": 4800,
      "oQ": 4801,
      "op": 4802,
      "oÅ": 4803,
      "oË": 4804,
      "oøF": 4805,
      "p ": 4806,
      "pC": 4807,
      "p": 4808,
      "p": 4809,
      "p": 4810,
      "p": 4811,
      "p": 4812,
      "p": 4813,
      "p®": 4814,
      "pÆ": 4815,
      "q\u0005": 4816,
      "q\u0010": 4817,
      "q!": 4818,
      "q1": 4819,
      "q7": 4820,
      "q\\": 4821,
      "qy": 4822,
      "qz": 4823,
      "q{": 4824,
      "q": 4825,
      "q": 4826,
      "qª": 4827,
      "qÚ": 4828,
      "qçó": 4829,
      "q>&": 4830,
      "q>\"": 4831,
      "q> ": 4832,
      "r\u001f": 4833,
      "r2": 4834,
      "rS": 4835,
      "rc": 4836,
      "rd": 4837,
      "ri": 4838,
      "rv": 4839,
      "rw": 4840,
      "rz": 4841,
      "r": 4842,
      "r": 4843,
      "r®": 4844,
      "rÒ": 4845,
      "rÓ": 4846,
      "rã": 4847,
      "rõ": 4848,
      "rÿ": 4849,
      "rÖ³": 4850,
      "s.": 4851,
      "sC": 4852,
      "sL": 4853,
      "sU": 4854,
      "sh": 4855,
      "su": 4856,
      "sw": 4857,
      "s¿": 4858,
      "sÆ": 4859,
      "sæ": 4860,
      "sý": 4861,
      "sþ": 4862,
      "sø": 4863,
      "s=1 ": 4864,
      "tX": 4865,
      "t}": 4866,
      "t~": 4867,
      "t": 4868,
      "t×": 4869,
      "tß": 4870,
      "tò": 4871,
      "tre": 4872,
      "u\u0011": 4873,
      "u1": 4874,
      "u3": 4875,
      "uP": 4876,
      "u[": 4877,
      "ub": 4878,
      "uj": 4879,
      "u": 4880,
      "u": 4881,
      "u¦": 4882,
      "u®": 4883,
      "uÅ": 4884,
      "uÉ": 4885,
      "uÞ": 4886,
      "uþ": 4887,
      "v\u0007": 4888,
      "v+": 4889,
      "væ": 4890,
      "ww": 4891,
      "w{": 4892,
      "w": 4893,
      "w±": 4894,
      "wË": 4895,
      "wÕ": 4896,
      "w×": 4897,
      "x8": 4898,
      "xf": 4899,
      "x": 4900,
      "x": 4901,
      "x": 4902,
      "x": 4903,
      "xÅ": 4904,
      "xÝ": 4905,
      "xé": 4906,
      "xò": 4907,
      "xý": 4908,
      "xÿ": 4909,
      "xÄ": 4910,
      "x": 4911,
      "x264": 4912,
      "y\u000f": 4913,
      "y\u0013": 4914,
      "y%": 4915,
      "y0": 4916,
      "y8": 4917,
      "y9": 4918,
      "y_": 4919,
      "yw": 4920,
      "y{": 4921,
      "y|": 4922,
      "y": 4923,
      "y×": 4924,
      "yñ": 4925,
      "yô": 4926,
      "yû": 4927,
      "z|": 4928,
      "z}": 4929,
      "z": 4930,
      "zä": 4931,
      "zæ": 4932,
      "zÂ5": 4933,
      "{M": 4934,
      "{O": 4935,
      "{_": 4936,
      "{m": 4937,
      "{©": 4938,
      "{±": 4939,
      "{³": 4940,
      "{Í": 4941,
      "{Ñ": 4942,
      "{Û": 4943,
      "{Ý": 4944,
      "{ä": 4945,
      "{ë": 4946,
      "{ú": 4947,
      "{Â>\u0011": 4948,
      "|\u0015": 4949,
      "|%": 4950,
      "|J": 4951,
      "|V": 4952,
      "|W": 4953,
      "|]": 4954,
      "|e": 4955,
      "|f": 4956,
      "|v": 4957,
      "|": 4958,
      "|": 4959,
      "|": 4960,
      "|": 4961,
      "|": 4962,
      "|": 4963,
      "|": 4964,
      "|": 4965,
      "|½": 4966,
      "|¾": 4967,
      "|Ä": 4968,
      "|Ì": 4969,
      "|Ð": 4970,
      "|Ô": 4971,
      "|Ú": 4972,
      "|Û": 4973,
      "|Ü": 4974,
      "|â": 4975,
      "|þ": 4976,
      "|Mb": 4977,
      "|þ?": 4978,
      "|3á": 4979,
      "|@": 4980,
      "|3\\": 4981,
      "}\u0012": 4982,
      "}a": 4983,
      "}": 4984,
      "}¤": 4985,
      "}Ú": 4986,
      "}Ü": 4987,
      "}UU": 4988,
      "}Lÿ": 4989,
      "~$": 4990,
      "~<": 4991,
      "~U": 4992,
      "~~": 4993,
      "~": 4994,
      "~­": 4995,
      "~®": 4996,
      "~¿": 4997,
      "~Ü": 4998,
      "~ì": 4999,
      "~÷": 5000,
      "~ú": 5001,
      "7": 5002,
      "m": 5003,
      "": 5004,
      "": 5005,
      "¸": 5006,
      "º": 5007,
      "Ã": 5008,
      "Ä": 5009,
      "Ö": 5010,
      "Ù": 5011,
      "Û": 5012,
      "ä": 5013,
      "&&": 5014,
      "ù": 5015,
      ">\\": 5016,
      "": 5017,
      "": 5018,
      "": 5019,
      "\u0007": 5020,
      "7": 5021,
      "¦": 5022,
      "þ": 5023,
      "\u000e": 5024,
      "\u001a": 5025,
      "\u001c": 5026,
      "z": 5027,
      "": 5028,
      "": 5029,
      "": 5030,
      "\n": 5031,
      "ð": 5032,
      "\u0005": 5033,
      "'": 5034,
      "`": 5035,
      "m": 5036,
      "u": 5037,
      "": 5038,
      "±": 5039,
      "³": 5040,
      "¶": 5041,
      "Á": 5042,
      "Ä": 5043,
      "Ü": 5044,
      "á": 5045,
      "è": 5046,
      "ô": 5047,
      "û": 5048,
      "o\u0013": 5049,
      "l": 5050,
      "": 5051,
      "°": 5052,
      "¼": 5053,
      "?ÿ": 5054,
      " ": 5055,
      "0": 5056,
      "f": 5057,
      "o": 5058,
      "p": 5059,
      "x": 5060,
      "Ò": 5061,
      "Ú": 5062,
      "k\u0013": 5063,
      "b": 5064,
      "": 5065,
      "": 5066,
      "É": 5067,
      "Ó": 5068,
      "â": 5069,
      "ç": 5070,
      "\t": 5071,
      "Q": 5072,
      "": 5073,
      "": 5074,
      "": 5075,
      "º": 5076,
      "Ä": 5077,
      "Ì": 5078,
      "Ð": 5079,
      "ã": 5080,
      "ì": 5081,
      "ï": 5082,
      "\u0013": 5083,
      "Ö'Ä": 5084,
      "þ'": 5085,
      "\u000f": 5086,
      "": 5087,
      "À": 5088,
      "Æ": 5089,
      "Ò": 5090,
      "ß": 5091,
      "ý": 5092,
      "ø": 5093,
      "Â": 5094,
      "¥": 5095,
      "§": 5096,
      "º": 5097,
      "É": 5098,
      "Ô": 5099,
      "Õ": 5100,
      "è": 5101,
      "î": 5102,
      "Â7": 5103,
      "": 5104,
      "": 5105,
      "ª": 5106,
      "Â": 5107,
      "Ò": 5108,
      "Ý": 5109,
      "å": 5110,
      "é": 5111,
      "ý": 5112,
      "Äe": 5113,
      "­r": 5114,
      "3": 5115,
      "W": 5116,
      "b": 5117,
      "}": 5118,
      "": 5119,
      "¦": 5120,
      "Â": 5121,
      "Ê": 5122,
      "\u0000\u0000\u0000\u0001A": 5123,
      "\u001f": 5124,
      "s": 5125,
      "y": 5126,
      "": 5127,
      "»": 5128,
      "Ð": 5129,
      "ë": 5130,
      "ö": 5131,
      "û": 5132,
      "a\u0019": 5133,
      ")": 5134,
      "f": 5135,
      "j": 5136,
      "o": 5137,
      "r": 5138,
      "v": 5139,
      "": 5140,
      "²": 5141,
      "Æ": 5142,
      "Ò": 5143,
      "ï": 5144,
      "": 5145,
      "ü": 5146,
      "Ë": 5147,
      "\u0013": 5148,
      "\u0015": 5149,
      "&": 5150,
      ">": 5151,
      "e": 5152,
      "m": 5153,
      "{": 5154,
      "µ": 5155,
      "Í": 5156,
      "ç": 5157,
      "è": 5158,
      "ñ": 5159,
      "Â0": 5160,
      "\f": 5161,
      "'": 5162,
      "C": 5163,
      "": 5164,
      "": 5165,
      "Ô": 5166,
      "ø": 5167,
      "ü": 5168,
      "4": 5169,
      "F": 5170,
      "q": 5171,
      "": 5172,
      "": 5173,
      "ý": 5174,
      "\u000f": 5175,
      "V": 5176,
      "d": 5177,
      "e": 5178,
      "g": 5179,
      "": 5180,
      "£": 5181,
      "¦": 5182,
      "×": 5183,
      "\u0015": 5184,
      "1": 5185,
      "g": 5186,
      "i": 5187,
      "n": 5188,
      "t": 5189,
      "": 5190,
      "": 5191,
      "": 5192,
      "ª": 5193,
      "¹": 5194,
      "Ä": 5195,
      "Ú": 5196,
      "ï": 5197,
      "õ": 5198,
      "ÿ": 5199,
      "V": 5200,
      "§": 5201,
      "×": 5202,
      "ï": 5203,
      "û": 5204,
      "-": 5205,
      "D": 5206,
      "x": 5207,
      "{": 5208,
      "": 5209,
      "": 5210,
      "": 5211,
      "Þ": 5212,
      "õ": 5213,
      "ü": 5214,
      "'": 5215,
      ")": 5216,
      ":": 5217,
      "U": 5218,
      "_": 5219,
      "": 5220,
      "": 5221,
      "»": 5222,
      "Ó": 5223,
      "ß": 5224,
      "é": 5225,
      "÷": 5226,
      "­«": 5227,
      "\f": 5228,
      "\"": 5229,
      "<": 5230,
      "": 5231,
      "": 5232,
      "": 5233,
      "Í": 5234,
      "Ï": 5235,
      "â": 5236,
      "î": 5237,
      "ù": 5238,
      "Ä": 5239,
      "\u0002": 5240,
      "c": 5241,
      "": 5242,
      "": 5243,
      "": 5244,
      "": 5245,
      "ê": 5246,
      "ì": 5247,
      "ù": 5248,
      "ú": 5249,
      "\b": 5250,
      "\u0011": 5251,
      "\u0013": 5252,
      "": 5253,
      "Ð": 5254,
      "Ø": 5255,
      "ó": 5256,
      "\u0015": 5257,
      "\\": 5258,
      "t": 5259,
      "": 5260,
      "": 5261,
      "": 5262,
      "": 5263,
      "©": 5264,
      "ª": 5265,
      "­": 5266,
      "¸": 5267,
      "Â": 5268,
      "ä": 5269,
      "\\F": 5270,
      "\u0005": 5271,
      "\u001f": 5272,
      ":": 5273,
      "i": 5274,
      "": 5275,
      "": 5276,
      "µ": 5277,
      "Ç": 5278,
      "Ô": 5279,
      "Ý": 5280,
      "ß": 5281,
      "þ": 5282,
      "#": 5283,
      "C": 5284,
      "D": 5285,
      "V": 5286,
      "": 5287,
      "º": 5288,
      "Ò": 5289,
      "Ü": 5290,
      "û": 5291,
      "G": 5292,
      "ÝT": 5293,
      "1": 5294,
      "z": 5295,
      "ÿ": 5296,
      "?5": 5297,
      "\u0010": 5298,
      "'": 5299,
      "Z": 5300,
      "m": 5301,
      "o": 5302,
      "": 5303,
      "Ë": 5304,
      "ß": 5305,
      "ï": 5306,
      "": 5307,
      "e?": 5308,
      "\u001f": 5309,
      "'": 5310,
      "?": 5311,
      "D": 5312,
      "Q": 5313,
      "x": 5314,
      "y": 5315,
      "": 5316,
      "¯": 5317,
      "¾": 5318,
      "Æ": 5319,
      "í": 5320,
      "\u0010&": 5321,
      " C": 5322,
      " U": 5323,
      " ": 5324,
      " ´": 5325,
      " è": 5326,
      " ó": 5327,
      "¡\u001c": 5328,
      "¡7": 5329,
      "¡": 5330,
      "¡·": 5331,
      "¡¼": 5332,
      "¡Ð": 5333,
      "¡ø": 5334,
      "¡ø": 5335,
      "¢6": 5336,
      "¢7": 5337,
      "¢9": 5338,
      "¢<": 5339,
      "¢i": 5340,
      "¢y": 5341,
      "¢z": 5342,
      "¢": 5343,
      "¢°": 5344,
      "¢÷": 5345,
      "¢ñ2": 5346,
      "¢ø": 5347,
      "¢\u0013": 5348,
      "£>": 5349,
      "£G": 5350,
      "£X": 5351,
      "£_": 5352,
      "£": 5353,
      "£¸": 5354,
      "£Ä": 5355,
      "£ä": 5356,
      "£é": 5357,
      "£ó": 5358,
      "£Ä": 5359,
      "£ð": 5360,
      "¤5": 5361,
      "¤>": 5362,
      "¤E": 5363,
      "¤\\": 5364,
      "¤¬": 5365,
      "¤Ï": 5366,
      "¤ù": 5367,
      "¥\u0015": 5368,
      "¥/": 5369,
      "¥3": 5370,
      "¥4": 5371,
      "¥C": 5372,
      "¥Q": 5373,
      "¥f": 5374,
      "¥h": 5375,
      "¥ß": 5376,
      "¥ã": 5377,
      "¥æ": 5378,
      "¥ÿ": 5379,
      "¥Íã": 5380,
      "¦H": 5381,
      "¦h": 5382,
      "¦w": 5383,
      "¦¯": 5384,
      "¦¾": 5385,
      "¦¿": 5386,
      "¦Ä": 5387,
      "¦Å": 5388,
      "¦×": 5389,
      "§": 5390,
      "§": 5391,
      "§«": 5392,
      "§¿": 5393,
      "§Û": 5394,
      "¨!": 5395,
      "¨@": 5396,
      "¨O": 5397,
      "¨": 5398,
      "¨": 5399,
      "¨Á": 5400,
      "¨Ä": 5401,
      "¨Ì": 5402,
      "¨÷": 5403,
      "¨b": 5404,
      "©3": 5405,
      "©6": 5406,
      "©D": 5407,
      "©i": 5408,
      "©¿": 5409,
      "©Ï": 5410,
      "©ø": 5411,
      "©âI": 5412,
      "©á\u0012": 5413,
      "©ø": 5414,
      "ª\u001b": 5415,
      "ª\u001f": 5416,
      "ªN": 5417,
      "ªr": 5418,
      "ª­": 5419,
      "ªµ": 5420,
      "ª¿": 5421,
      "ªÛ": 5422,
      "ªê": 5423,
      "ªÿ": 5424,
      "«\u0013": 5425,
      "«R": 5426,
      "«s": 5427,
      "«": 5428,
      "«Â": 5429,
      "«Ð": 5430,
      "«×": 5431,
      "«ÉË": 5432,
      "¬\u0014": 5433,
      "¬B": 5434,
      "¬E": 5435,
      "¬X": 5436,
      "¬¹": 5437,
      "¬Ô": 5438,
      "¬Ù": 5439,
      "¬ß": 5440,
      "¬÷": 5441,
      "¬ú": 5442,
      "¬Mb": 5443,
      "¬O": 5444,
      "¬\u0010ø": 5445,
      "­\n": 5446,
      "­5": 5447,
      "­T": 5448,
      "­h": 5449,
      "­}": 5450,
      "­µ": 5451,
      "­ê": 5452,
      "­k\u0013": 5453,
      "­Vµ": 5454,
      "®\u0011": 5455,
      "®\u0012": 5456,
      "®\u0013": 5457,
      "®\u0018": 5458,
      "®&": 5459,
      "®/": 5460,
      "®N": 5461,
      "®¡": 5462,
      "®ß": 5463,
      "®ï": 5464,
      "®þ": 5465,
      "®ÿ": 5466,
      "®Z®": 5467,
      "¯A": 5468,
      "¯": 5469,
      "¯": 5470,
      "¯": 5471,
      "¯": 5472,
      "¯": 5473,
      "¯": 5474,
      "¯Í": 5475,
      "¯ÿ": 5476,
      "¯ÿÿ": 5477,
      "¯Ö¿": 5478,
      "¯x": 5479,
      "¯â`": 5480,
      "° ": 5481,
      "°": 5482,
      "°¤": 5483,
      "°Å": 5484,
      "°ò": 5485,
      "°ù": 5486,
      "±\u000b": 5487,
      "±\u0014": 5488,
      "±\u001d": 5489,
      "±9": 5490,
      "±<": 5491,
      "±X": 5492,
      "±Y": 5493,
      "±": 5494,
      "±": 5495,
      "±¤": 5496,
      "±¦": 5497,
      "±Î": 5498,
      "±Ô": 5499,
      "±í": 5500,
      "±>\u0011": 5501,
      "±\u001e#": 5502,
      "±3b": 5503,
      "±\u0001\u001f": 5504,
      "²/": 5505,
      "²r": 5506,
      "²²": 5507,
      "²Ç": 5508,
      "²Ò": 5509,
      "²ç": 5510,
      "²þ": 5511,
      "²%": 5512,
      "³c": 5513,
      "³f": 5514,
      "³à": 5515,
      "³ø": 5516,
      "´f": 5517,
      "´}": 5518,
      "´´": 5519,
      "´Û": 5520,
      "´ß": 5521,
      "µ[": 5522,
      "µª": 5523,
      "µ¯": 5524,
      "µÉ": 5525,
      "µªª": 5526,
      "µøC": 5527,
      "¶6": 5528,
      "¶:": 5529,
      "¶?": 5530,
      "¶O": 5531,
      "¶": 5532,
      "¶": 5533,
      "¶­": 5534,
      "¶¹": 5535,
      "¶Þ": 5536,
      "¶ë": 5537,
      "¶þ": 5538,
      "·\u0015": 5539,
      "·\u001c": 5540,
      "·Z": 5541,
      "·o": 5542,
      "·¶": 5543,
      "··": 5544,
      "·¿": 5545,
      "·æ": 5546,
      "·û": 5547,
      "·ü": 5548,
      "¸\"": 5549,
      "¸@": 5550,
      "¸C": 5551,
      "¸`": 5552,
      "¸": 5553,
      "¸«": 5554,
      "¸¬": 5555,
      "¸¼": 5556,
      "¸Ì": 5557,
      "¸ã": 5558,
      "¸î": 5559,
      "¸\u0011": 5560,
      "¹%": 5561,
      "¹'": 5562,
      "¹*": 5563,
      "¹,": 5564,
      "¹-": 5565,
      "¹X": 5566,
      "¹b": 5567,
      "¹s": 5568,
      "¹¨": 5569,
      "¹½": 5570,
      "¹Ô": 5571,
      "¹Ù": 5572,
      "¹â": 5573,
      "¹ú": 5574,
      "º>": 5575,
      "ºt": 5576,
      "º": 5577,
      "º³": 5578,
      "º½": 5579,
      "ºÂ": 5580,
      "ºÕ": 5581,
      "ºÚ": 5582,
      "ºê": 5583,
      "»\u0013": 5584,
      "»¿": 5585,
      "»É": 5586,
      "»Þ": 5587,
      "»øD": 5588,
      "¼\\": 5589,
      "¼": 5590,
      "¼²": 5591,
      "¼Ö": 5592,
      "¼×": 5593,
      "¼ß": 5594,
      "¼ø": 5595,
      "¼Eb": 5596,
      "¼Mbb": 5597,
      "¼+": 5598,
      "½B": 5599,
      "½_": 5600,
      "½j": 5601,
      "½z": 5602,
      "½{": 5603,
      "½": 5604,
      "½Ú": 5605,
      "½ã": 5606,
      "½í": 5607,
      "½õ": 5608,
      "½¯\b": 5609,
      "¾\b": 5610,
      "¾!": 5611,
      "¾*": 5612,
      "¾J": 5613,
      "¾K": 5614,
      "¾^": 5615,
      "¾x": 5616,
      "¾": 5617,
      "¾´": 5618,
      "¾º": 5619,
      "¾Ò": 5620,
      "¾î": 5621,
      "¾'Ä": 5622,
      "¾]W": 5623,
      "¿\u0010": 5624,
      "¿\u0015": 5625,
      "¿\u001f": 5626,
      "¿#": 5627,
      "¿/": 5628,
      "¿": 5629,
      "¿·": 5630,
      "¿º": 5631,
      "¿Þ": 5632,
      "¿ï": 5633,
      "¿ò": 5634,
      "¿ó": 5635,
      "¿ù": 5636,
      "¿û": 5637,
      "¿XF": 5638,
      "¿\u0011": 5639,
      "À\u000b": 5640,
      "À\u001e": 5641,
      "À": 5642,
      "À¡": 5643,
      "ÀÍ": 5644,
      "Á\u001e": 5645,
      "Á'": 5646,
      "Á5": 5647,
      "Án": 5648,
      "Á": 5649,
      "ÁÍ": 5650,
      "ÁÙ": 5651,
      "Â\u0000": 5652,
      "Â\u0019": 5653,
      "Â=": 5654,
      "ÂU": 5655,
      "ÂX": 5656,
      "Âu": 5657,
      "Â¸": 5658,
      "Â¾": 5659,
      "Âÿ": 5660,
      "Â<@": 5661,
      "Â<F": 5662,
      "Â>\b": 5663,
      "Ã\u0011": 5664,
      "Ã\u0014": 5665,
      "Ã&": 5666,
      "ÃH": 5667,
      "Ã": 5668,
      "Ãç": 5669,
      "Ã>'": 5670,
      "Ã5": 5671,
      "Ã>\u0010": 5672,
      "Ãêf": 5673,
      "Ä=": 5674,
      "Äl": 5675,
      "Ät": 5676,
      "Äu": 5677,
      "ÄÊ": 5678,
      "ÄÍ": 5679,
      "ÄÕ": 5680,
      "ÄÛ": 5681,
      "Äà": 5682,
      "Äá": 5683,
      "Äê": 5684,
      "Äù": 5685,
      "Äÿ": 5686,
      "ÄÖ'": 5687,
      "Äñ\u001a": 5688,
      "Äw": 5689,
      "Å;": 5690,
      "Åa": 5691,
      "Åd": 5692,
      "Åi": 5693,
      "Åj": 5694,
      "Åt": 5695,
      "Å¸": 5696,
      "Åè": 5697,
      "Åë": 5698,
      "Åó": 5699,
      "Åý": 5700,
      "ÅVµ": 5701,
      "ÅSª": 5702,
      "Æ\u001b": 5703,
      "Æ*": 5704,
      "ÆD": 5705,
      "Æn": 5706,
      "Æ¨": 5707,
      "Æ¬": 5708,
      "Æµ": 5709,
      "ÆÓ": 5710,
      "ÇT": 5711,
      "Ç": 5712,
      "ÇÇ": 5713,
      "ÇÉ": 5714,
      "ÇË": 5715,
      "Ç×": 5716,
      "ÇÙ": 5717,
      "Çæ": 5718,
      "ÇúÄ": 5719,
      "ÇÄp": 5720,
      "È\n": 5721,
      "È¥": 5722,
      "È½": 5723,
      "ÈÌ": 5724,
      "Èû": 5725,
      "É\t": 5726,
      "É\u001f": 5727,
      "É$": 5728,
      "É2": 5729,
      "É<": 5730,
      "ÉZ": 5731,
      "É{": 5732,
      "É": 5733,
      "É": 5734,
      "É": 5735,
      "É§": 5736,
      "É¶": 5737,
      "ÉÛ": 5738,
      "É\u0010&": 5739,
      "Êc": 5740,
      "Ê¦": 5741,
      "ÊÌ": 5742,
      "Ë\u000b": 5743,
      "ËN": 5744,
      "ËO": 5745,
      "Ëm": 5746,
      "Ë": 5747,
      "Ëª": 5748,
      "Ë­": 5749,
      "ËË": 5750,
      "ËÑ": 5751,
      "Ë×": 5752,
      "ËØ": 5753,
      "ËÝ": 5754,
      "Ëæ": 5755,
      "Ëþ": 5756,
      "Ë|": 5757,
      "ÌA": 5758,
      "Ì¡": 5759,
      "ÌÄ": 5760,
      "ÌÇ": 5761,
      "Ìì": 5762,
      "Í]": 5763,
      "Í": 5764,
      "Í": 5765,
      "Í§": 5766,
      "Í¬": 5767,
      "ÍÕ": 5768,
      "Íê": 5769,
      "Íë": 5770,
      "Î#": 5771,
      "ÎÊ": 5772,
      "ÎÌì": 5773,
      "ÏS": 5774,
      "Ï": 5775,
      "Ï": 5776,
      "Ï": 5777,
      "ÏÝ": 5778,
      "Ïä": 5779,
      "Ï÷": 5780,
      "Ïø": 5781,
      "Ï": 5782,
      "Ð1": 5783,
      "Ð": 5784,
      "Ð": 5785,
      "Ð": 5786,
      "Ð": 5787,
      "ÐÐ": 5788,
      "ÐÓ": 5789,
      "ÐÔ": 5790,
      "Ð×": 5791,
      "Ðä": 5792,
      "Ðç": 5793,
      "Ñ\u0001": 5794,
      "Ñ8": 5795,
      "ÑJ": 5796,
      "Ñ": 5797,
      "ÑÎ": 5798,
      "ÑÖ": 5799,
      "Ñê": 5800,
      "Ñø": 5801,
      "ÒA": 5802,
      "Ò«": 5803,
      "Òµ": 5804,
      "ÒÚ": 5805,
      "Ó\b": 5806,
      "Ó": 5807,
      "Ó": 5808,
      "Ó¡": 5809,
      "Óà": 5810,
      "ÓÄI": 5811,
      "Ô1": 5812,
      "Ôw": 5813,
      "ÔÛ": 5814,
      "Ôç": 5815,
      "Õ/": 5816,
      "Õ>": 5817,
      "Õq": 5818,
      "Õ": 5819,
      "Õ¯": 5820,
      "Õ¿": 5821,
      "Õæ": 5822,
      "Ö\u000b": 5823,
      "Ö\u0010": 5824,
      "Ö\u0018": 5825,
      "Ö\\": 5826,
      "Öh": 5827,
      "Ö´": 5828,
      "ÖÜ": 5829,
      "×\u0013": 5830,
      "×,": 5831,
      "×c": 5832,
      "×": 5833,
      "×": 5834,
      "×Â": 5835,
      "×Õ": 5836,
      "×Þ": 5837,
      "×å": 5838,
      "×î": 5839,
      "×÷": 5840,
      "×\u0013": 5841,
      "×Ýk": 5842,
      "×7U": 5843,
      "×\u0017Ë": 5844,
      "Ø ": 5845,
      "ØG": 5846,
      "Ø": 5847,
      "ØÌ": 5848,
      "ØÓ": 5849,
      "ØÕ": 5850,
      "ØØ": 5851,
      "Øâ": 5852,
      "Øì": 5853,
      "Øú": 5854,
      "Ù#": 5855,
      "ÙX": 5856,
      "Ùy": 5857,
      "Ù": 5858,
      "Ù": 5859,
      "ÙÕ": 5860,
      "Ùñ": 5861,
      "Ùü": 5862,
      "Ú5": 5863,
      "Ú<": 5864,
      "ÚO": 5865,
      "ÚÔ": 5866,
      "Úæ": 5867,
      "Úñ": 5868,
      "Úû": 5869,
      "Ú\u0004\u0002\u001b": 5870,
      "ÛR": 5871,
      "ÛZ": 5872,
      "Ûj": 5873,
      "Ûm": 5874,
      "Û": 5875,
      "Ûª": 5876,
      "Û¯": 5877,
      "Û²": 5878,
      "Û½": 5879,
      "ÛÜ": 5880,
      "Ûÿ": 5881,
      "Û·à": 5882,
      "Üa": 5883,
      "Ül": 5884,
      "Üø": 5885,
      "Ý\"": 5886,
      "Ý4": 5887,
      "Ý?": 5888,
      "Ý¦": 5889,
      "Ýª": 5890,
      "Ý²": 5891,
      "Ýï": 5892,
      "Þ\u0010": 5893,
      "Þ\u0019": 5894,
      "Þ2": 5895,
      "ÞH": 5896,
      "Þ": 5897,
      "Þ¢": 5898,
      "ÞÜ": 5899,
      "ÞÞ": 5900,
      "Þ÷": 5901,
      "Þë_": 5902,
      "Þß": 5903,
      "ß\u0019": 5904,
      "ß.": 5905,
      "ß7": 5906,
      "ß?": 5907,
      "ßV": 5908,
      "ßu": 5909,
      "ß": 5910,
      "ßÄø": 5911,
      "ß\to": 5912,
      "à¢": 5913,
      "àç": 5914,
      "à\u0000\u0000\u0000\u0001A\u0000": 5915,
      "á\u0017": 5916,
      "á)": 5917,
      "á*": 5918,
      "á+": 5919,
      "á8": 5920,
      "á;": 5921,
      "áë": 5922,
      "áý": 5923,
      "á ": 5924,
      "á\b": 5925,
      "á7ÿ": 5926,
      "â\u0003": 5927,
      "â&": 5928,
      "âj": 5929,
      "â¦": 5930,
      "âÝ": 5931,
      "âê": 5932,
      "âî": 5933,
      "âï": 5934,
      "âö": 5935,
      "âþ": 5936,
      "âx": 5937,
      "â>\"": 5938,
      "â¹²": 5939,
      "ã\u000f": 5940,
      "ã\u0014": 5941,
      "ãJ": 5942,
      "ãO": 5943,
      "ãm": 5944,
      "ã°": 5945,
      "ãÂ": 5946,
      "ãù": 5947,
      "äR": 5948,
      "äc": 5949,
      "äm": 5950,
      "ä": 5951,
      "äÉ": 5952,
      "äÏ": 5953,
      "ä": 5954,
      "äê«": 5955,
      "äÛ¶": 5956,
      "ä": 5957,
      "å1": 5958,
      "å6": 5959,
      "å`": 5960,
      "åo": 5961,
      "å": 5962,
      "å": 5963,
      "å·": 5964,
      "åÕ": 5965,
      "åÛ": 5966,
      "åä": 5967,
      "åå": 5968,
      "åì": 5969,
      "åõ": 5970,
      "å­~": 5971,
      "åÍò": 5972,
      "æQ": 5973,
      "æW": 5974,
      "æ]": 5975,
      "æ": 5976,
      "æ§": 5977,
      "æ«": 5978,
      "æµ": 5979,
      "æÉ": 5980,
      "æÊ": 5981,
      "æÍ": 5982,
      "æÐ": 5983,
      "æå": 5984,
      "æï": 5985,
      "æó": 5986,
      "æô": 5987,
      "æý": 5988,
      "ç": 5989,
      "çè": 5990,
      "çñ": 5991,
      "çü": 5992,
      "çÿ": 5993,
      "çñ>": 5994,
      "çÓ": 5995,
      "è'": 5996,
      "èY": 5997,
      "èw": 5998,
      "è~": 5999,
      "è": 6000,
      "è": 6001,
      "èÏ": 6002,
      "è¸": 6003,
      "é;": 6004,
      "é=": 6005,
      "é": 6006,
      "é": 6007,
      "é¾": 6008,
      "éï": 6009,
      "éñ": 6010,
      "ê\"": 6011,
      "ê#": 6012,
      "ê¾": 6013,
      "ê×": 6014,
      "êß": 6015,
      "êêë": 6016,
      "ë\n": 6017,
      "ë\u001c": 6018,
      "ëQ": 6019,
      "ë~": 6020,
      "ë": 6021,
      "ë": 6022,
      "ë­": 6023,
      "ë½": 6024,
      "ëÂ": 6025,
      "ëÓ": 6026,
      "ëã": 6027,
      "ëõ": 6028,
      "ëªÄ": 6029,
      "ë": 6030,
      "ìM": 6031,
      "ìb": 6032,
      "ìq": 6033,
      "ì½": 6034,
      "ì¿": 6035,
      "ìì": 6036,
      "ìø": 6037,
      "ì¸G": 6038,
      "í\u001f": 6039,
      "í,": 6040,
      "íD": 6041,
      "íÔ": 6042,
      "íö": 6043,
      "íÿ": 6044,
      "î\u0010": 6045,
      "î+": 6046,
      "îA": 6047,
      "îO": 6048,
      "î~": 6049,
      "î": 6050,
      "î¨": 6051,
      "î¹": 6052,
      "î»": 6053,
      "îÚ": 6054,
      "îï": 6055,
      "îö": 6056,
      "îý": 6057,
      "ï7": 6058,
      "ïU": 6059,
      "ï~": 6060,
      "ï": 6061,
      "ïº": 6062,
      "ïÍ": 6063,
      "ïâ": 6064,
      "ïï": 6065,
      "ïäÖ": 6066,
      "ð ": 6067,
      "ð,": 6068,
      "ðS": 6069,
      "ðp": 6070,
      "ð": 6071,
      "ð´": 6072,
      "ñ0": 6073,
      "ñN": 6074,
      "ñ]": 6075,
      "ñ_": 6076,
      "ñ|": 6077,
      "ñô": 6078,
      "ñ7": 6079,
      "ñ\u001bÄ": 6080,
      "ò]": 6081,
      "òa": 6082,
      "òn": 6083,
      "òv": 6084,
      "òw": 6085,
      "òÒ": 6086,
      "òÚ": 6087,
      "òê": 6088,
      "òë": 6089,
      "òñ": 6090,
      "òó": 6091,
      "òá\u0012": 6092,
      "ó\u001f": 6093,
      "óB": 6094,
      "óa": 6095,
      "ón": 6096,
      "ós": 6097,
      "ó": 6098,
      "ó": 6099,
      "óê": 6100,
      "óû": 6101,
      "óÿ": 6102,
      "óø": 6103,
      "ô\t": 6104,
      "ô7": 6105,
      "ôo": 6106,
      "ô": 6107,
      "ôÖ": 6108,
      "ô×": 6109,
      "ôé": 6110,
      "ô|\u0010": 6111,
      "ô8": 6112,
      "õ?": 6113,
      "õC": 6114,
      "õ": 6115,
      "õ¶": 6116,
      "õÕ": 6117,
      "õö": 6118,
      "õñ": 6119,
      "õ\u0006G": 6120,
      "ö3": 6121,
      "÷\u0013": 6122,
      "÷\u001c": 6123,
      "÷": 6124,
      "÷Þ": 6125,
      "÷ø": 6126,
      "÷ñ": 6127,
      "ø%": 6128,
      "ø+": 6129,
      "ø1": 6130,
      "øE": 6131,
      "øS": 6132,
      "øh": 6133,
      "øw": 6134,
      "ø©": 6135,
      "øÌ": 6136,
      "øÞ": 6137,
      "øí": 6138,
      "øù": 6139,
      "øü": 6140,
      "ø¬Ì": 6141,
      "ù\u0014": 6142,
      "ù\u0018": 6143,
      "ù\u001f": 6144,
      "ù,": 6145,
      "ù-": 6146,
      "ù:": 6147,
      "ùW": 6148,
      "ùo": 6149,
      "ùr": 6150,
      "ù": 6151,
      "ù": 6152,
      "ù": 6153,
      "ù¦": 6154,
      "ù¨": 6155,
      "ù®": 6156,
      "ù´": 6157,
      "ùú": 6158,
      "ùð": 6159,
      "ù¢\u0004": 6160,
      "ùlw": 6161,
      "ú": 6162,
      "ú¯": 6163,
      "úë": 6164,
      "úõ": 6165,
      "ú÷": 6166,
      "úþ": 6167,
      "û^": 6168,
      "ûu": 6169,
      "û¡": 6170,
      "ûª": 6171,
      "û¾": 6172,
      "ûâ": 6173,
      "ûÿ": 6174,
      "ûÄx": 6175,
      "ûÞ¹": 6176,
      "ü\u0010": 6177,
      "ü\u0012": 6178,
      "ü\u0014": 6179,
      "ü\u001c": 6180,
      "ü ": 6181,
      "ü&": 6182,
      "üB": 6183,
      "üT": 6184,
      "üU": 6185,
      "ü]": 6186,
      "ü_": 6187,
      "üo": 6188,
      "ü~": 6189,
      "ü": 6190,
      "ü": 6191,
      "ü": 6192,
      "ü±": 6193,
      "ü²": 6194,
      "üÐ": 6195,
      "üÖ": 6196,
      "üÛ": 6197,
      "üþ?Ï": 6198,
      "üG": 6199,
      "ý\n": 6200,
      "ý\u0016": 6201,
      "ý\u001f": 6202,
      "ý?": 6203,
      "ýz": 6204,
      "ýÃ": 6205,
      "ýÍ": 6206,
      "ýï": 6207,
      "þY": 6208,
      "þ_": 6209,
      "þw": 6210,
      "þ": 6211,
      "þ": 6212,
      "þµ": 6213,
      "þï": 6214,
      "þù": 6215,
      "þ¢\u0004": 6216,
      "þ±\u0012": 6217,
      "þ|¹": 6218,
      "ÿ$": 6219,
      "ÿW": 6220,
      "ÿs": 6221,
      "ÿ×": 6222,
      "ÿÜ": 6223,
      "ÿå": 6224,
      "ÿø": 6225,
      "ÿù": 6226,
      "ÿ\u0013â": 6227,
      "ÿø": 6228,
      "ÿÓÓ": 6229,
      "ÿ\u0000\u0010": 6230,
      "ÿÿñ<": 6231,
      "\u0000\u0000\u0000\u0001gBÀ\n": 6232,
      "\u0000\u0000\u0000\u0001hÎ": 6233,
      "\u0000\u0000\u0000\u0001Ab": 6234,
      "\u0000\u0000\u0000\u0001A": 6235,
      "\u0000\u0000\u0000\u0001Aá": 6236,
      "\u0000\u0000\u0000\u0001A\"": 6237,
      "\u0000\u0000\u0000\u0001Aá": 6238,
      "ñ¤": 6239,
      "ñ>'": 6240,
      "ñ7\u0011": 6241,
      "â|N": 6242,
      "\u0013Ä\t": 6243,
      "Äø": 6244,
      "Äø": 6245,
      "Äø": 6246,
      "ÄøGÄ": 6247,
      "ùüþ": 6248,
      "çóå": 6249,
      "çóù÷": 6250,
      "çóùò": 6251,
      "\u0011â\n": 6252,
      "\u0011â3": 6253,
      "\u0011â9": 6254,
      "\u0011âD": 6255,
      "\u0011â": 6256,
      "\u0011â¼": 6257,
      "þ\u0013â": 6258,
      "?Ïç": 6259,
      "?Ïçóùüþ?Ï": 6260,
      "ðå": 6261,
      "ð|": 6262,
      "ð|#": 6263,
      "ðI": 6264,
      "ðÉ»": 6265,
      "ñ\u001b": 6266,
      "UUu": 6267,
      "øGÂ": 6268,
      "øGÂ1": 6269,
      "øGÄø\u0013": 6270,
      "#Ä\b": 6271,
      "#ÄI": 6272,
      "|\"": 6273,
      "çóùüþ|¹": 6274,
      "\u0013â<": 6275,
      "\u0013âI": 6276,
      "\u0013âd": 6277,
      "x\u0011â": 6278,
      "x\u0011â<": 6279,
      "<G": 6280,
      "\u0013XF": 6281,
      "ªª«": 6282,
      "\u0011ñ>\u0011": 6283,
      "\u0011ñ<@": 6284,
      "ñ?5": 6285,
      "ñ?ÿ": 6286,
      "ñ?ÿÿÿÿ": 6287,
      "ÿÿÿþ": 6288,
      "Ä\t¬3": 6289,
      "Äx": 6290,
      "â\u0004Ö&": 6291,
      "â\u0004Ö'Ä": 6292,
      "|#.'Ä": 6293,
      "Â>\u0011ð": 6294,
      "á\u001f\b": 6295,
      "á\u001f\bø": 6296,
      "á\u001f\bø\b": 6297,
      "0 a": 6298,
      "Oñ1": 6299,
      "ÄÄb": 6300,
      "ÄÄò": 6301,
      "ñ\u0002>": 6302,
      "ñ\u0002D": 6303,
      "ñ\u0002e": 6304,
      "ñ\u0002o\u0013": 6305,
      "\u0010&¹": 6306,
      "¬#\b": 6307,
      "¬#â|#": 6308,
      "¼#â": 6309,
      "ðð": 6310,
      "\bÆ": 6311,
      "Mb|#": 6312,
      "üOÉ": 6313,
      "üOñ\u001e": 6314,
      "\u0013â|Mb": 6315,
      "\u0013â|Mâ": 6316,
      "D\t¨": 6317,
      "ðD\t": 6318,
      "ñ\u001e'": 6319,
      "øÄ": 6320,
      " #": 6321,
      "þ#Ï": 6322,
      "=0 de": 6323,
      "GÇ": 6324,
      "\u0000\u0000\u0000\u0001A`¨": 6325,
      "øM": 6326,
      "a\u001f\u0013": 6327,
      "\u0013\u0015": 6328,
      "¸5": 6329,
      "Â5\u0011": 6330,
      "Â5\u0010&": 6331,
      "ÿþ\u0010": 6332,
      "X\u0011â<": 6333,
      "X\u0011â<G": 6334,
      "\u0012n": 6335,
      "Â2a\u0019": 6336,
      "â~J": 6337,
      "ñ2bI": 6338,
      "øDµ": 6339,
      "\u0000\u0000\u0000\u0001Aa": 6340,
      "\u0000\u0000\u0000\u0001A": 6341,
      "\u0000\u0000\u0000\u0001A ": 6342,
      "¸\u0013": 6343,
      "¸Í": 6344,
      "â<!": 6345,
      "â<E": 6346,
      "â<O": 6347,
      "×5å": 6348,
      "¬Mr": 6349,
      "¬MD\t": 6350,
      "¼L": 6351,
      "¼L": 6352,
      "á\u00191": 6353,
      "óùüþ": 6354,
      "øÙ": 6355,
      "LLF": 6356,
      "Q\u0002\u000b": 6357,
      "o\bÆ": 6358,
      "Ä\u0004|#": 6359,
      "âDøGÄø\u0013": 6360,
      "ð\u0000": 6361,
      "ðµ": 6362,
      "ñ\u001a\u0013": 6363,
      "þ?Äe": 6364,
      "&'": 6365,
      "&'Â": 6366,
      "¾_.": 6367,
      "¬GÍ": 6368,
      "¿\b": 6369,
      "ø7": 6370,
      "\u0000\u0000\u0000\u0001A@": 6371,
      "\u0000\u0000\u0000\u0001A@¨": 6372,
      "\u0000\u0000\u0000\u0001A`¨": 6373,
      "\u0011â<þ": 6374,
      "iÓ\\": 6375,
      "omp": 6376,
      "oma_": 6377,
      "q\u0002b": 6378,
      "Á\u000f": 6379,
      "Â\u001e\"": 6380,
      "Â?¼#": 6381,
      "ë_­W": 6382,
      "ñ\"|I": 6383,
      "þ\u0011êµ": 6384,
      "\u0000\u0000\u0000\u0001A ": 6385,
      "\u0000\u0000\u0000\u0001AÀ": 6386,
      "\u0000\u0000\u0000\u0001AÀ©": 6387,
      "\u0013ò[": 6388,
      "+\bV\"": 6389,
      "Oóùüþ?Ï": 6390,
      "x1": 6391,
      "±\u0002e": 6392,
      "Äâ5": 6393,
      "ÕUV": 6394,
      "ë\bÞ&": 6395,
      "íÛ¶": 6396,
      "\u0000\u0000\u0000\u0001A@©á\u0012": 6397,
      "\bË": 6398,
      "&\u0011¬#": 6399,
      ".$Ó": 6400,
      "Zª": 6401,
      "_\u0011·m": 6402,
      "ed": 6403,
      "o\u0011\u0011": 6404,
      "q\u001cø": 6405,
      "ra\u001b": 6406,
      "~n]": 6407,
      "µ¬": 6408,
      "±\u0012S": 6409,
      "¹²³": 6410,
      "ÏË<": 6411,
      "Ö±\u0018": 6412,
      "à\u0000\u0000\u0000\u0001AÀ": 6413,
      "äå­": 6414,
      "åê¤": 6415,
      "ñ\u00114": 6416,
      "\u0000\u0000\u0000\u0001AÈ": 6417,
      "\u0013ÃL·": 6418,
      "3bg": 6419,
      "Q\u0018Ø": 6420,
      "_.y": 6421,
      "u]E": 6422,
      "u]": 6423,
      "|ºÖ": 6424,
      "ÄÍ": 6425,
      "¸M": 6426,
      "¾m\f": 6427,
      "ÄÇÞÿ": 6428,
      "á\u0018": 6429,
      "øKT": 6430,
      "øf+": 6431,
      "üOý": 6432,
      "\u0000\u0000\u0000\u0001A!.'": 6433,
      "j O": 6434,
      "ä>": 6435,
      "Æ": 6436,
      "±>'ÄÖ'Ä": 6437,
      "Ï&": 6438,
      "â*ªª": 6439,
      "æ­e": 6440,
      "ñ[m": 6441,
      "óùø": 6442,
      "ù7¹9": 6443,
      "ûßü": 6444,
      "ûêñ": 6445,
      "\u0000\u0000\u0000\u0001A ¨": 6446,
      "\u0000\u0000\u0000\u0001A È": 6447,
      "â|L": 6448,
      "\u0019": 6449,
      "4Ë": 6450,
      "8#": 6451,
      "b~M": 6452,
      "b<Gñ": 6453,
      "ccc": 6454,
      "v5c": 6455,
      "xB¹": 6456,
      "yüþ?Ï": 6457,
      "Þóù": 6458,
      "¨ÿ": 6459,
      "¶Ûm": 6460,
      "¸FLG": 6461,
      "¸»": 6462,
      "¼W": 6463,
      "ÉÍÕ": 6464,
      "â<Gñ": 6465,
      "â<GÏ": 6466,
      "òÓ§": 6467,
      "ù*": 6468,
      "ù*¿": 6469,
      "ûÅx": 6470,
      "üD": 6471,
      "â|I)": 6472,
      "ÉÉÉÉÉÉÉÉ": 6473,
      "×]u×]u×]u×]u×]u×]u×]u×]u×]u×]u×]u×]u×]u×]u×]u×]u×]u×]u×]u×]u×]u×]u×]u×]u×]u×]u×]u×]u×]u×]u×]u×]u": 6474,
      "\u0001\u0001": 6475,
      "\u0001\u0001Ä": 6476,
      "\na¥3": 6477,
      "\u0010'ÄÖ&": 6478,
      ".!q": 6479,
      "|¾": 6480,
      "D": 6481,
      "ÇÚ": 6482,
      "´×\u0013": 6483,
      "ºÖ+": 6484,
      "Ø¯": 6485,
      "Úk": 6486,
      "ÜN¢q": 6487,
      "ñ\u0019ð": 6488,
      "óu'": 6489,
      "ù+_": 6490,
      "ÿ½ÿ": 6491,
      "ÿÛom": 6492,
      "\u0000\u0000\u0000\u0001A¡.'ÿÿÿÿÿÿÿÿ": 6493,
      "intra": 6494,
      "\u0002\u0002\u0002\u0000\u0000": 6495,
      "\n)": 6496,
      "/\bø\b": 6497,
      "?ýó": 6498,
      "Hò": 6499,
      "YV": 6500,
      "_thread": 6501,
      "_\u000f": 6502,
      "c": 6503,
      "hroma_": 6504,
      "\u0011\u001b": 6505,
      "Ï": 6506,
      "ÜD": 6507,
      "ñ^": 6508,
      "S\u0006": 6509,
      "¢\u001cÄ": 6510,
      "»¾ø®": 6511,
      "ÌÌÌ": 6512,
      "áL4¦}": 6513,
      "ä": 6514,
      "ñ&Ö": 6515,
      "òÖ": 6516,
      "\u0011â5ñ\u001e": 6517,
      "çóùüþ?Ïçóùüþ?Äx": 6518,
      "\u0001\u0003\\": 6519,
      "\n\u001fe": 6520,
      "\u0010Jt": 6521,
      "\u0011D": 6522,
      "\u0013x\b": 6523,
      "\u0015P\u0000\u0000\u0000\u0001hÎ": 6524,
      "=25": 6525,
      "f>m": 6526,
      "ÿÖ": 6527,
      "ÌE": 6528,
      "¬o¬N": 6529,
      "¼Oñ>'Ä": 6530,
      "Ûâ(": 6531,
      "á\u001d:": 6532,
      "â<Gó": 6533,
      "ëå­d": 6534,
      "ð": 6535,
      "ñ4'": 6536,
      "ÄøÉ": 6537,
      "ñ\u001e#Äyüþ?Ï": 6538,
      "Ïçñ>#": 6539,
      "\u0000\tj\u0002\u0002\u0002\u0000\u0000": 6540,
      "\u0003\u0000\u0000": 6541,
      "\u0003\u0000\u0000\u0000\u001e\u0007": 6542,
      "\u0011\u00112": 6543,
      "%­¾'": 6544,
      "+ï": 6545,
      "MÌ": 6546,
      "keyint": 6547,
      "p": 6548,
      ">\\": 6549,
      "ë~": 6550,
      "£Äÿÿÿ": 6551,
      "Ú\u0004\u0002\u001bÿ\u0000\u0010": 6552,
      "ûÄx": 6553,
      "\u0000\u0000\u0000\u0001gBÀ\nÚ\u0004\u0002\u001bÿ\u0000\u0010": 6554,
      "ðÉ»Ö'": 6555,
      "X\u0011â<!": 6556,
      "þ\u0011êµUU": 6557,
      "\u0013ÃL·þ": 6558,
      "\u0015P\u0000\u0000\u0000\u0001hÎ\u0003\u0000\u0000": 6559,
      "\u0000\tj\u0002\u0002\u0002\u0000\u0000\u0003\u0000\u0000\u0000\u001e\u0007": 6560,
      "\u0000\u0000\u0000\u0001gBÀ\nÚ\u0004\u0002\u001bÿ\u0000\u0010\u0000\tj\u0002\u0002\u0002\u0000\u0000\u0003\u0000\u0000\u0000\u001e\u0007": 6561,
      "\u0000\u0000\u0000\u0001gBÀ\nÚ\u0004\u0002\u001bÿ\u0000\u0010\u0000\tj\u0002\u0002\u0002\u0000\u0000\u0003\u0000\u0000\u0000\u001e\u0007\u0015P\u0000\u0000\u0000\u0001hÎ\u0003\u0000\u0000": 6562,
      "\u0000\u0006": 6563,
      "\u0000\u001a": 6564,
      "\u0000\u001c": 6565,
      "\u0000\u001d": 6566,
      "\u00000": 6567,
      "\u00001": 6568,
      "\u0000C": 6569,
      "\u0000I": 6570,
      "\u0000P": 6571,
      "\u0000]": 6572,
      "\u0000a": 6573,
      "\u0000e": 6574,
      "\u0000h": 6575,
      "\u0000l": 6576,
      "\u0000p": 6577,
      "\u0000": 6578,
      "\u0000": 6579,
      "\u0000": 6580,
      "\u0000": 6581,
      "\u0000": 6582,
      "\u0000": 6583,
      "\u0000": 6584,
      "\u0000¤": 6585,
      "\u0000º": 6586,
      "\u0000Ì": 6587,
      "\u0000Í": 6588,
      "\u0000Î": 6589,
      "\u0000Ò": 6590,
      "\u0000Ø": 6591,
      "\u0000Ü": 6592,
      "\u0000à": 6593,
      "\u0000è": 6594,
      "\u0000ü": 6595,
      "\u0000ý": 6596,
      "\u0000\u0013": 6597,
      "\u0000V&": 6598,
      "\u0000Äò": 6599,
      "\u0000`¨": 6600,
      "\u0000 s": 6601,
      "\u0000\bë": 6602,
      "\u0000\u000e": 6603,
      "\u0000&": 6604,
      "\u0000Í": 6605,
      "\u0000ÏÞ": 6606,
      "\u0000Ö¢": 6607,
      "\u0000\b\u0018": 6608,
      "\u0000\"q": 6609,
      "\u0000Ô": 6610,
      "\u0000ðp": 6611,
      "\u0001\u0006": 6612,
      "\u0001\u001b": 6613,
      "\u0001 ": 6614,
      "\u0001%": 6615,
      "\u0001&": 6616,
      "\u00011": 6617,
      "\u00012": 6618,
      "\u00013": 6619,
      "\u00015": 6620,
      "\u0001G": 6621,
      "\u0001M": 6622,
      "\u0001Q": 6623,
      "\u0001W": 6624,
      "\u0001_": 6625,
      "\u0001c": 6626,
      "\u0001p": 6627,
      "\u0001y": 6628,
      "\u0001~": 6629,
      "\u0001": 6630,
      "\u0001": 6631,
      "\u0001": 6632,
      "\u0001": 6633,
      "\u0001": 6634,
      "\u0001¨": 6635,
      "\u0001¯": 6636,
      "\u0001±": 6637,
      "\u0001Ä": 6638,
      "\u0001Ô": 6639,
      "\u0001Û": 6640,
      "\u0001à": 6641,
      "\u0001á": 6642,
      "\u0001ÿ": 6643,
      "\u0001\u0011": 6644,
      "\u0001\u001cN": 6645,
      "\u0001ñ\u0012": 6646,
      "\u0001\u001aæ": 6647,
      "\u0001/%": 6648,
      "\u0001ÿÝ": 6649,
      "\u0001\u0012n": 6650,
      "\u0001'î": 6651,
      "\u0001¤E": 6652,
      "\u0002\u0004": 6653,
      "\u0002\u0007": 6654,
      "\u0002\f": 6655,
      "\u0002\u000f": 6656,
      "\u0002\u0010": 6657,
      "\u0002\u0013": 6658,
      "\u0002\u001e": 6659,
      "\u0002!": 6660,
      "\u0002\"": 6661,
      "\u0002&": 6662,
      "\u0002'": 6663,
      "\u00021": 6664,
      "\u0002=": 6665,
      "\u0002G": 6666,
      "\u0002P": 6667,
      "\u0002R": 6668,
      "\u0002x": 6669,
      "\u0002": 6670,
      "\u0002": 6671,
      "\u0002": 6672,
      "\u0002 ": 6673,
      "\u0002¥": 6674,
      "\u0002¦": 6675,
      "\u0002­": 6676,
      "\u0002®": 6677,
      "\u0002°": 6678,
      "\u0002±": 6679,
      "\u0002½": 6680,
      "\u0002Î": 6681,
      "\u0002é": 6682,
      "\u0002ò": 6683,
      "\u0002÷": 6684,
      "\u0002þ": 6685,
      "\u0002\u0013": 6686,
      "\u0002>\u0019": 6687,
      "\u0002|O": 6688,
      "\u0002ï": 6689,
      "\u0002âk\u0013": 6690,
      "\u0002\u0000\u0000\u0000\u0001AÁ": 6691,
      "\u00026\"": 6692,
      "\u0002ÓN": 6693,
      "\u0002¸ÿÿÿÿÿÿÿÿ": 6694,
      "\u0002\u001f\u0004": 6695,
      "\u0002~j": 6696,
      "\u0002\u0007": 6697,
      "\u0002\tm": 6698,
      "\u0002ð": 6699,
      "\u0002Öª": 6700,
      "\u0002Fh": 6701,
      "\u0002¨b": 6702,
      "\u0002\u0000\bë": 6703,
      "\u0002\u0001%": 6704,
      "\u0003\u0006": 6705,
      "\u0003\n": 6706,
      "\u0003\u000f": 6707,
      "\u0003\u0015": 6708,
      "\u0003#": 6709,
      "\u0003)": 6710,
      "\u0003,": 6711,
      "\u00039": 6712,
      "\u0003F": 6713,
      "\u0003P": 6714,
      "\u0003X": 6715,
      "\u0003m": 6716,
      "\u0003w": 6717,
      "\u0003x": 6718,
      "\u0003": 6719,
      "\u0003": 6720,
      "\u0003": 6721,
      "\u0003ª": 6722,
      "\u0003¯": 6723,
      "\u0003¶": 6724,
      "\u0003Ö": 6725,
      "\u0003Þ": 6726,
      "\u0003â": 6727,
      "\u0003ç": 6728,
      "\u0003ó": 6729,
      "\u0003û": 6730,
      "\u0003ý": 6731,
      "\u0003à": 6732,
      "\u0003'Ï": 6733,
      "\u0003ºK": 6734,
      "\u0003D#": 6735,
      "\u0003p_": 6736,
      "\u0003}Ý": 6737,
      "\u0003½s": 6738,
      "\u0003×6": 6739,
      "\u0003]}": 6740,
      "\u0003ä": 6741,
      "\u0003ñ&Ö": 6742,
      "\u0003\u0001¤E": 6743,
      "\u0004\u001b": 6744,
      "\u0004\u001c": 6745,
      "\u00041": 6746,
      "\u00042": 6747,
      "\u00046": 6748,
      "\u00048": 6749,
      "\u0004;": 6750,
      "\u0004>": 6751,
      "\u0004G": 6752,
      "\u0004I": 6753,
      "\u0004M": 6754,
      "\u0004S": 6755,
      "\u0004V": 6756,
      "\u0004]": 6757,
      "\u0004`": 6758,
      "\u0004b": 6759,
      "\u0004d": 6760,
      "\u0004e": 6761,
      "\u0004f": 6762,
      "\u0004k": 6763,
      "\u0004m": 6764,
      "\u0004{": 6765,
      "\u0004": 6766,
      "\u0004": 6767,
      "\u0004": 6768,
      "\u0004": 6769,
      "\u0004": 6770,
      "\u0004": 6771,
      "\u0004": 6772,
      "\u0004¦": 6773,
      "\u0004±": 6774,
      "\u0004²": 6775,
      "\u0004¶": 6776,
      "\u0004º": 6777,
      "\u0004¾": 6778,
      "\u0004¿": 6779,
      "\u0004Ï": 6780,
      "\u0004Ò": 6781,
      "\u0004Ô": 6782,
      "\u0004Ú": 6783,
      "\u0004å": 6784,
      "\u0004í": 6785,
      "\u0004ô": 6786,
      "\u0004ø": 6787,
      "\u0004á\u001f": 6788,
      "\u0004LL": 6789,
      "\u0004>\"": 6790,
      "\u0004/": 6791,
      "\u0004\"0": 6792,
      "\u0004D\u0004": 6793,
      "\u0004nî": 6794,
      "\u0004|I": 6795,
      "\u00044+": 6796,
      "\u0004]ß": 6797,
      "\u0004r": 6798,
      "\u0004«­": 6799,
      "\u0004\n\u001f": 6800,
      "\u0004\u0011£": 6801,
      "\u0004\u001e¹": 6802,
      "\u0004\u001f7": 6803,
      "\u0004;\u0006": 6804,
      "\u0004V³": 6805,
      "\u0004Äg": 6806,
      "\u0004<@ ": 6807,
      "\u0004-\b": 6808,
      "\u0004Dj#": 6809,
      "\u0004Ys": 6810,
      "\u0004Zl": 6811,
      "\u0004p": 6812,
      "\u0004f": 6813,
      "\u0004\f": 6814,
      "\u0004´}": 6815,
      "\u0004¸`": 6816,
      "\u0004Û¯": 6817,
      "\u00043bg": 6818,
      "\u0004\u0003ª": 6819,
      "\u0005\u000b": 6820,
      "\u0005\f": 6821,
      "\u0005\u0011": 6822,
      "\u0005\u0012": 6823,
      "\u0005\u0015": 6824,
      "\u0005+": 6825,
      "\u00056": 6826,
      "\u0005=": 6827,
      "\u0005H": 6828,
      "\u0005\\": 6829,
      "\u0005`": 6830,
      "\u0005a": 6831,
      "\u0005f": 6832,
      "\u0005g": 6833,
      "\u0005l": 6834,
      "\u0005o": 6835,
      "\u0005x": 6836,
      "\u0005§": 6837,
      "\u0005·": 6838,
      "\u0005Ò": 6839,
      "\u0005Þ": 6840,
      "\u0005ä": 6841,
      "\u0005å": 6842,
      "\u0005è": 6843,
      "\u0005é": 6844,
      "\u0005ò": 6845,
      "\u0005ÿÿ": 6846,
      "\u0005>\u0010": 6847,
      "\u0005ï\b": 6848,
      "\u0005øJ": 6849,
      "\u0005": 6850,
      "\u0005²ÿ": 6851,
      "\u0005b\n": 6852,
      "\u00053\u0005": 6853,
      "\u00059": 6854,
      "\u0005>8": 6855,
      "\u0005\\": 6856,
      "\u0005k>": 6857,
      "\u0005o®": 6858,
      "\u0005w": 6859,
      "\u0005x¬": 6860,
      "\u0005Ó_": 6861,
      "\u0005ój": 6862,
      "\u0005\bÔ": 6863,
      "\u0005%â": 6864,
      "\u00053Ð": 6865,
      "\u0005JÄ": 6866,
      "\u0005\u0004«­": 6867,
      "\u0006\t": 6868,
      "\u0006\u000b": 6869,
      "\u0006\u0011": 6870,
      "\u0006\u0019": 6871,
      "\u0006'": 6872,
      "\u0006+": 6873,
      "\u00061": 6874,
      "\u0006>": 6875,
      "\u0006M": 6876,
      "\u0006R": 6877,
      "\u0006S": 6878,
      "\u0006Z": 6879,
      "\u0006[": 6880,
      "\u0006g": 6881,
      "\u0006m": 6882,
      "\u0006": 6883,
      "\u0006": 6884,
      "\u0006°": 6885,
      "\u0006´": 6886,
      "\u0006Ï": 6887,
      "\u0006Ø": 6888,
      "\u0006Ý": 6889,
      "\u0006ô": 6890,
      "\u0006ú": 6891,
      "\u0006ý": 6892,
      "\u00067\u0013": 6893,
      "\u0006¼Ô": 6894,
      "\u0006'\b": 6895,
      "\u0006jÕ": 6896,
      "\u0006°Í": 6897,
      "\u0006ã¼": 6898,
      "\u0006\u0006î": 6899,
      "\u0006\f²": 6900,
      "\u00064|": 6901,
      "\u0006Tv": 6902,
      "\u0006©3": 6903,
      "\u0006å1": 6904,
      "\u0006\u0002P": 6905,
      "\u0007\u0011": 6906,
      "\u0007\u0013": 6907,
      "\u0007$": 6908,
      "\u0007*": 6909,
      "\u0007/": 6910,
      "\u00072": 6911,
      "\u0007G": 6912,
      "\u0007N": 6913,
      "\u0007S": 6914,
      "\u0007T": 6915,
      "\u0007e": 6916,
      "\u0007g": 6917,
      "\u0007": 6918,
      "\u0007": 6919,
      "\u0007¡": 6920,
      "\u0007§": 6921,
      "\u0007®": 6922,
      "\u0007Á": 6923,
      "\u0007Å": 6924,
      "\u0007Æ": 6925,
      "\u0007É": 6926,
      "\u0007Ð": 6927,
      "\u0007Ñ": 6928,
      "\u0007Ò": 6929,
      "\u0007Õ": 6930,
      "\u0007×": 6931,
      "\u0007á": 6932,
      "\u0007ó": 6933,
      "\u0007ø": 6934,
      "\u0007F": 6935,
      "\u0007ðG": 6936,
      "\u0007 ": 6937,
      "\u0007ÍÝ": 6938,
      "\u0007ÿ": 6939,
      "\u0007g_": 6940,
      "\u0007oÿ": 6941,
      "\u0007|ý": 6942,
      "\u0007&": 6943,
      "\u0007®i": 6944,
      "\u0007»L": 6945,
      "\u0007ßû": 6946,
      "\u0007|þ?": 6947,
      "\u0007è": 6948,
      "\u0007ñ|": 6949,
      "\b\t": 6950,
      "\b\u000e": 6951,
      "\b\u000f": 6952,
      "\b\u001f": 6953,
      "\b(": 6954,
      "\b*": 6955,
      "\b3": 6956,
      "\b5": 6957,
      "\b9": 6958,
      "\b<": 6959,
      "\b=": 6960,
      "\b@": 6961,
      "\bI": 6962,
      "\bJ": 6963,
      "\bP": 6964,
      "\bV": 6965,
      "\bW": 6966,
      "\bZ": 6967,
      "\b_": 6968,
      "\bf": 6969,
      "\bi": 6970,
      "\bk": 6971,
      "\bo": 6972,
      "\bv": 6973,
      "\by": 6974,
      "\b~": 6975,
      "\b": 6976,
      "\b": 6977,
      "\b": 6978,
      "\b­": 6979,
      "\b»": 6980,
      "\b¼": 6981,
      "\bÅ": 6982,
      "\bÉ": 6983,
      "\bÍ": 6984,
      "\bÎ": 6985,
      "\bÐ": 6986,
      "\bÞ": 6987,
      "\bà": 6988,
      "\bâ": 6989,
      "\bæ": 6990,
      "\bí": 6991,
      "\bÿ": 6992,
      "\bð": 6993,
      "\bUU": 6994,
      "\b|#": 6995,
      "\bï": 6996,
      "\bÂ\u0018": 6997,
      "\bø": 6998,
      "\bÂ\u001f": 6999,
      "\bÞ'": 7000,
      "\bá\u001f\u0013": 7001,
      "\b|E": 7002,
      "\b¼G": 7003,
      "\bâx": 7004,
      "\bÖ#": 7005,
      "\bø!": 7006,
      "\bÄø": 7007,
      "\bvÛ": 7008,
      "\bxB": 7009,
      "\bÔH": 7010,
      "\bøGÄ": 7011,
      "\bo\u0013â": 7012,
      "\b¡": 7013,
      "\bÝr": 7014,
      "\bå±": 7015,
      "\bñU": 7016,
      "\bò±": 7017,
      "\bT@": 7018,
      "\b½k": 7019,
      "\bñ\u0006": 7020,
      "\b\u0003Ä": 7021,
      "\b\tù": 7022,
      "\b\u0019×": 7023,
      "\bKÍ": 7024,
      "\bvÝ": 7025,
      "\båæ": 7026,
      "\bð": 7027,
      "\b\u0000\u0000\u0000\u0001Aâ": 7028,
      "\b\u0005|": 7029,
      "\b\u0019¿": 7030,
      "\b\u001cG": 7031,
      "\bY!": 7032,
      "\bu[": 7033,
      "\b|": 7034,
      "\bºÚ": 7035,
      "\bÊ¦": 7036,
      "\bÌA": 7037,
      "\bÒA": 7038,
      "\bã\u000f": 7039,
      "\bb<Gñ": 7040,
      "\b\u0002": 7041,
      "\b\u0005+": 7042,
      "\t\u000b": 7043,
      "\t\u000e": 7044,
      "\t\u000f": 7045,
      "\t\u001d": 7046,
      "\t%": 7047,
      "\t(": 7048,
      "\t-": 7049,
      "\t5": 7050,
      "\t9": 7051,
      "\t;": 7052,
      "\t?": 7053,
      "\tC": 7054,
      "\tF": 7055,
      "\tH": 7056,
      "\tW": 7057,
      "\tX": 7058,
      "\tq": 7059,
      "\ts": 7060,
      "\tt": 7061,
      "\tv": 7062,
      "\tw": 7063,
      "\tz": 7064,
      "\t": 7065,
      "\t": 7066,
      "\t": 7067,
      "\t": 7068,
      "\t": 7069,
      "\t": 7070,
      "\t": 7071,
      "\t¬": 7072,
      "\t´": 7073,
      "\tº": 7074,
      "\tÂ": 7075,
      "\tÔ": 7076,
      "\tÖ": 7077,
      "\tß": 7078,
      "\tá": 7079,
      "\té": 7080,
      "\tî": 7081,
      "\tú": 7082,
      "\tþ": 7083,
      "\tÿ": 7084,
      "\tâ|": 7085,
      "\tþ'": 7086,
      "\t¿ÿ": 7087,
      "\t\"\u0004": 7088,
      "\tâb": 7089,
      "\tåÿ": 7090,
      "\tï\u0013": 7091,
      "\t0": 7092,
      "\tÅ": 7093,
      "\tø": 7094,
      "\tÿ": 7095,
      "\tx": 7096,
      "\tðÍ": 7097,
      "\tñU": 7098,
      "\teI": 7099,
      "\t\nÁ": 7100,
      "\t8": 7101,
      "\ti­": 7102,
      "\t|Ò": 7103,
      "\tÍE": 7104,
      "\tØÏ": 7105,
      "\târ": 7106,
      "\t\u0003¿": 7107,
      "\t4­": 7108,
      "\t>¾": 7109,
      "\tNÇ": 7110,
      "\t^\u000e": 7111,
      "\trÖ³": 7112,
      "\tªÿ": 7113,
      "\t¿#": 7114,
      "\tÕ>": 7115,
      "\tØÕ": 7116,
      "\tå1": 7117,
      "\tæW": 7118,
      "\tê×": 7119,
      "\tõÕ": 7120,
      "\tñ¤": 7121,
      "\t\u0004d": 7122,
      "\t\u0005x¬": 7123,
      "\t\bP": 7124,
      "\n\f": 7125,
      "\n\u0010": 7126,
      "\n\u0018": 7127,
      "\n!": 7128,
      "\n\"": 7129,
      "\n#": 7130,
      "\n-": 7131,
      "\n1": 7132,
      "\n2": 7133,
      "\n8": 7134,
      "\nD": 7135,
      "\nK": 7136,
      "\nL": 7137,
      "\nM": 7138,
      "\nO": 7139,
      "\nQ": 7140,
      "\nX": 7141,
      "\n[": 7142,
      "\nf": 7143,
      "\nk": 7144,
      "\nm": 7145,
      "\nn": 7146,
      "\ns": 7147,
      "\nv": 7148,
      "\n": 7149,
      "\n": 7150,
      "\n": 7151,
      "\n£": 7152,
      "\n¤": 7153,
      "\n¨": 7154,
      "\n¬": 7155,
      "\n­": 7156,
      "\n®": 7157,
      "\n´": 7158,
      "\nÃ": 7159,
      "\nÅ": 7160,
      "\nË": 7161,
      "\nÍ": 7162,
      "\nÎ": 7163,
      "\nÒ": 7164,
      "\nÓ": 7165,
      "\në": 7166,
      "\nì": 7167,
      "\nò": 7168,
      "\n|#": 7169,
      "\nXF": 7170,
      "\nÄa": 7171,
      "\në\b": 7172,
      "\nñ\u0001": 7173,
      "\n?\u0013": 7174,
      "\n>³": 7175,
      "\nDe": 7176,
      "\ngÄ": 7177,
      "\n\u0000\u0000\u0000\u0001A ": 7178,
      "\nâ|L": 7179,
      "\nnÝ": 7180,
      "\n?": 7181,
      "\n\f": 7182,
      "\n¸O": 7183,
      "\nÁL": 7184,
      "\n\"0": 7185,
      "\n1\u001f": 7186,
      "\n|I": 7187,
      "\nÄ": 7188,
      "\nñ;": 7189,
      "\n,D": 7190,
      "\n:¯": 7191,
      "\nZÆ": 7192,
      "\n]þ": 7193,
      "\n^#": 7194,
      "\n|»": 7195,
      "\n\u0004\u0019": 7196,
      "\n\u00051": 7197,
      "\n4Ô": 7198,
      "\nlg": 7199,
      "\nÄñ\u0002": 7200,
      "\nàL": 7201,
      "\nó±": 7202,
      "\nÄ\u0004d": 7203,
      "\n\u000eÛ": 7204,
      "\n/#": 7205,
      "\n3C": 7206,
      "\n6q": 7207,
      "\n:": 7208,
      "\nJ¾": 7209,
      "\n": 7210,
      "\n¦Ä": 7211,
      "\nä>": 7212,
      "\n\u0011\u00112": 7213,
      "\n\bI": 7214,
      "\u000b\u000f": 7215,
      "\u000b\u001d": 7216,
      "\u000b*": 7217,
      "\u000b8": 7218,
      "\u000bM": 7219,
      "\u000bW": 7220,
      "\u000ba": 7221,
      "\u000be": 7222,
      "\u000bl": 7223,
      "\u000bm": 7224,
      "\u000bv": 7225,
      "\u000bw": 7226,
      "\u000by": 7227,
      "\u000b{": 7228,
      "\u000b}": 7229,
      "\u000b": 7230,
      "\u000b": 7231,
      "\u000b": 7232,
      "\u000b": 7233,
      "\u000b": 7234,
      "\u000b": 7235,
      "\u000b": 7236,
      "\u000b ": 7237,
      "\u000b¨": 7238,
      "\u000b±": 7239,
      "\u000bº": 7240,
      "\u000bÄ": 7241,
      "\u000bÆ": 7242,
      "\u000bÉ": 7243,
      "\u000bÍ": 7244,
      "\u000bÓ": 7245,
      "\u000bÛ": 7246,
      "\u000bâ": 7247,
      "\u000bä": 7248,
      "\u000bç": 7249,
      "\u000bí": 7250,
      "\u000bî": 7251,
      "\u000bò": 7252,
      "\u000bù": 7253,
      "\u000b\b": 7254,
      "\u000b>#": 7255,
      "\u000bå§": 7256,
      "\u000bß-": 7257,
      "\u000bí¶": 7258,
      "\u000büD": 7259,
      "\u000bâa": 7260,
      "\u000b+]": 7261,
      "\u000br1": 7262,
      "\u000b¨": 7263,
      "\u000bn": 7264,
      "\u000b(": 7265,
      "\u000b6¬": 7266,
      "\u000b<øF": 7267,
      "\u000bN]": 7268,
      "\u000bg": 7269,
      "\u000b¢z": 7270,
      "\u000bÅVµ": 7271,
      "\u000bé=": 7272,
      "\u000bÿå": 7273,
      "\u000b\u0000\u000e": 7274,
      "\u000b\u0006\u000b": 7275,
      "\f\u0012": 7276,
      "\f\u0019": 7277,
      "\f\"": 7278,
      "\f#": 7279,
      "\f$": 7280,
      "\f&": 7281,
      "\f'": 7282,
      "\f*": 7283,
      "\f9": 7284,
      "\fD": 7285,
      "\fI": 7286,
      "\fM": 7287,
      "\fU": 7288,
      "\fW": 7289,
      "\f^": 7290,
      "\f_": 7291,
      "\fa": 7292,
      "\fb": 7293,
      "\fe": 7294,
      "\fi": 7295,
      "\fq": 7296,
      "\f": 7297,
      "\f": 7298,
      "\f": 7299,
      "\f": 7300,
      "\f": 7301,
      "\f¡": 7302,
      "\f¤": 7303,
      "\f¦": 7304,
      "\f©": 7305,
      "\f«": 7306,
      "\f¬": 7307,
      "\f­": 7308,
      "\f¯": 7309,
      "\f´": 7310,
      "\f½": 7311,
      "\fÆ": 7312,
      "\fÍ": 7313,
      "\fÑ": 7314,
      "\fÖ": 7315,
      "\f×": 7316,
      "\fÜ": 7317,
      "\fô": 7318,
      "\fO": 7319,
      "\fñ?": 7320,
      "\fø": 7321,
      "\fw": 7322,
      "\f¬O": 7323,
      "\f?\u0013": 7324,
      "\f|N": 7325,
      "\fÉ": 7326,
      "\fa\u001b": 7327,
      "\fxB": 7328,
      "\fþ^": 7329,
      "\fbp": 7330,
      "\fx@": 7331,
      "\f": 7332,
      "\fÞ\u0011": 7333,
      "\fâ\u0015": 7334,
      "\fât": 7335,
      "\fÿý": 7336,
      "\f\n)": 7337,
      "\fH": 7338,
      "\fÐ": 7339,
      "\f7": 7340,
      "\f¡¡": 7341,
      "\fÍ÷": 7342,
      "\fë": 7343,
      "\f¬¾Ê": 7344,
      "\f\tÇ": 7345,
      "\f \u0000\u0000\u0000\u0001Aà": 7346,
      "\f>f": 7347,
      "\fsw": 7348,
      "\f|3\\": 7349,
      "\f}": 7350,
      "\f°ò": 7351,
      "\féï": 7352,
      "\fúõ": 7353,
      "\füÐ": 7354,
      "\fþ": 7355,
      "\føDµ": 7356,
      "\fâ<!": 7357,
      "\føf+": 7358,
      "\f\u0000e": 7359,
      "\f\u0002¥": 7360,
      "\f\u0007Å": 7361,
      "\f\tî": 7362,
      "\u000e\u0016": 7363,
      "\u000e\u001c": 7364,
      "\u000e!": 7365,
      "\u000e#": 7366,
      "\u000e&": 7367,
      "\u000e)": 7368,
      "\u000e.": 7369,
      "\u000e6": 7370,
      "\u000e<": 7371,
      "\u000e=": 7372,
      "\u000eE": 7373,
      "\u000eM": 7374,
      "\u000e]": 7375,
      "\u000ea": 7376,
      "\u000ei": 7377,
      "\u000el": 7378,
      "\u000ez": 7379,
      "\u000e": 7380,
      "\u000e": 7381,
      "\u000e": 7382,
      "\u000e": 7383,
      "\u000e": 7384,
      "\u000eª": 7385,
      "\u000e«": 7386,
      "\u000e­": 7387,
      "\u000e®": 7388,
      "\u000e´": 7389,
      "\u000eÀ": 7390,
      "\u000eÇ": 7391,
      "\u000eÉ": 7392,
      "\u000eÓ": 7393,
      "\u000eî": 7394,
      "\u000eð": 7395,
      "\u000eñ": 7396,
      "\u000eó": 7397,
      "\u000eþ": 7398,
      "\u000eë\u0013": 7399,
      "\u000eÿ": 7400,
      "\u000e¨": 7401,
      "\u000eÄã": 7402,
      "\u000e~ ": 7403,
      "\u000e7\u0013": 7404,
      "\u000e7": 7405,
      "\u000e¸O": 7406,
      "\u000eù*": 7407,
      "\u000eqp": 7408,
      "\u000eñ<@": 7409,
      "\u000emþ": 7410,
      "\u000eÚ~": 7411,
      "\u000e+\u0007": 7412,
      "\u000e8": 7413,
      "\u000ex": 7414,
      "\u000e³ã": 7415,
      "\u000eÄ¸": 7416,
      "\u000eÍ·": 7417,
      "\u000eÝÿ": 7418,
      "\u000eì": 7419,
      "\u000ek": 7420,
      "\u000e}a": 7421,
      "\u000e¹s": 7422,
      "\u000f\u0010": 7423,
      "\u000f\u001c": 7424,
      "\u000f\u001d": 7425,
      "\u000f ": 7426,
      "\u000f3": 7427,
      "\u000f5": 7428,
      "\u000f6": 7429,
      "\u000fT": 7430,
      "\u000fV": 7431,
      "\u000f_": 7432,
      "\u000fm": 7433,
      "\u000f{": 7434,
      "\u000f": 7435,
      "\u000f": 7436,
      "\u000f": 7437,
      "\u000f": 7438,
      "\u000f¥": 7439,
      "\u000f¦": 7440,
      "\u000f³": 7441,
      "\u000f·": 7442,
      "\u000fº": 7443,
      "\u000f½": 7444,
      "\u000fÒ": 7445,
      "\u000fÕ": 7446,
      "\u000fç": 7447,
      "\u000fë": 7448,
      "\u000fþ": 7449,
      "\u000fÿ": 7450,
      "\u000fçóùü": 7451,
      "\u000fø": 7452,
      "\u000füL": 7453,
      "\u000f\u0010'": 7454,
      "\u000f'&": 7455,
      "\u000fu]": 7456,
      "\u000f&": 7457,
      "\u000fÂz": 7458,
      "\u000f\u00137": 7459,
      "\u000f|\\": 7460,
      "\u000fÃ": 7461,
      "\u000fæä": 7462,
      "\u000fñ<@": 7463,
      "\u000f\u0010\u0019": 7464,
      "\u000f¾ª": 7465,
      "\u000fÄþ": 7466,
      "\u000fÅø": 7467,
      "\u000fòÛ": 7468,
      "\u000fÿ«": 7469,
      "\u000f\u0000\u0000\u0000\u0001Aa": 7470,
      "\u000f\u000e$": 7471,
      "\u000f\u001bË": 7472,
      "\u000f8C": 7473,
      "\u000fµ": 7474,
      "\u000f¤L": 7475,
      "\u000f!è": 7476,
      "\u000f&Ý": 7477,
      "\u000fQØ": 7478,
      "\u000fo?": 7479,
      "\u000f¸": 7480,
      "\u000fÓ": 7481,
      "\u000fÇ": 7482,
      "\u000f ó": 7483,
      "\u0010 ": 7484,
      "\u0010,": 7485,
      "\u0010/": 7486,
      "\u00103": 7487,
      "\u00108": 7488,
      "\u0010G": 7489,
      "\u0010I": 7490,
      "\u0010M": 7491,
      "\u0010O": 7492,
      "\u0010a": 7493,
      "\u0010c": 7494,
      "\u0010h": 7495,
      "\u0010l": 7496,
      "\u0010q": 7497,
      "\u0010x": 7498,
      "\u0010z": 7499,
      "\u0010": 7500,
      "\u0010": 7501,
      "\u0010": 7502,
      "\u0010¢": 7503,
      "\u0010£": 7504,
      "\u0010«": 7505,
      "\u0010®": 7506,
      "\u0010¯": 7507,
      "\u0010·": 7508,
      "\u0010¾": 7509,
      "\u0010À": 7510,
      "\u0010Ã": 7511,
      "\u0010Í": 7512,
      "\u0010Õ": 7513,
      "\u0010Ý": 7514,
      "\u0010á": 7515,
      "\u0010ã": 7516,
      "\u0010õ": 7517,
      "\u0010ý": 7518,
      "\u0010ø\u0013": 7519,
      "\u0010ñ\u0018": 7520,
      "\u0010â<": 7521,
      "\u0010ð": 7522,
      "\u0010\u001e#": 7523,
      "\u0010\u0011": 7524,
      "\u0010µ": 7525,
      "\u0010\u0011": 7526,
      "\u0010\u0017É": 7527,
      "\u0010ÄÇ": 7528,
      "\u0010": 7529,
      "\u0010Å": 7530,
      "\u0010ó1": 7531,
      "\u0010ð": 7532,
      "\u0010Á\f": 7533,
      "\u0010Ý÷": 7534,
      "\u0010é": 7535,
      "\u0010\u0000\u0000\u0000\u0001AÀ": 7536,
      "\u0010\t¸": 7537,
      "\u0010\u000bý": 7538,
      "\u0010Nï": 7539,
      "\u0010q<": 7540,
      "\u0010\u0004": 7541,
      "\u0010Ï": 7542,
      "\u0010ä": 7543,
      "\u0010\u0000\u0000\u0000\u0001AÁ": 7544,
      "\u0010\u0011â\u0002": 7545,
      "\u0010#Äx": 7546,
      "\u0010\u0013â|O": 7547,
      "\u0010/i": 7548,
      "\u0010À\n": 7549,
      "\u0010ÏÓ": 7550,
      "\u0010×s": 7551,
      "\u0010Ý5": 7552,
      "\u0010ë^": 7553,
      "\u0010üÝ": 7554,
      "\u0010\u000f\u0012": 7555,
      "\u0010%Ú": 7556,
      "\u0010.": 7557,
      "\u00104Ú": 7558,
      "\u0010>î": 7559,
      "\u0010Kv": 7560,
      "\u0010Tv": 7561,
      "\u0010Ö\u000b": 7562,
      "\u0010ß\to": 7563,
      "\u0010î\u0010": 7564,
      "\u0010ú¯": 7565,
      "\u0010\u0013âI": 7566,
      "\u0010Â>\u0011ð": 7567,
      "\u0010¸\u0013": 7568,
      "\u0010\u0001Q": 7569,
      "\u0010\u0005Ò": 7570,
      "\u0010\u0007\u0011": 7571,
      "\u0010\n\"": 7572,
      "\u0010\u000bÓ": 7573,
      "\u0011\u001c": 7574,
      "\u0011\u001e": 7575,
      "\u0011 ": 7576,
      "\u00111": 7577,
      "\u00113": 7578,
      "\u00114": 7579,
      "\u0011<": 7580,
      "\u0011>": 7581,
      "\u0011I": 7582,
      "\u0011N": 7583,
      "\u0011O": 7584,
      "\u0011P": 7585,
      "\u0011U": 7586,
      "\u0011Y": 7587,
      "\u0011d": 7588,
      "\u0011g": 7589,
      "\u0011q": 7590,
      "\u0011u": 7591,
      "\u0011x": 7592,
      "\u0011": 7593,
      "\u0011": 7594,
      "\u0011": 7595,
      "\u0011": 7596,
      "\u0011": 7597,
      "\u0011": 7598,
      "\u0011": 7599,
      "\u0011": 7600,
      "\u0011¤": 7601,
      "\u0011©": 7602,
      "\u0011¬": 7603,
      "\u0011°": 7604,
      "\u0011·": 7605,
      "\u0011À": 7606,
      "\u0011Â": 7607,
      "\u0011Ê": 7608,
      "\u0011Î": 7609,
      "\u0011Ó": 7610,
      "\u0011ß": 7611,
      "\u0011á": 7612,
      "\u0011ò": 7613,
      "\u0011ó": 7614,
      "\u0011ÿÿ": 7615,
      "\u0011\u0000\u0000\u0000\u0001A": 7616,
      "\u0011ñ": 7617,
      "\u0011ñ>": 7618,
      "\u0011ð": 7619,
      "\u0011ø": 7620,
      "\u0011\u0010&": 7621,
      "\u0011ø": 7622,
      "\u0011¸": 7623,
      "\u0011&&": 7624,
      "\u0011\b": 7625,
      "\u0011Ä": 7626,
      "\u0011\u0013": 7627,
      "\u0011ðÏ": 7628,
      "\u0011#": 7629,
      "\u0011¿\b": 7630,
      "\u0011±5": 7631,
      "\u0011þ\"": 7632,
      "\u00116µ": 7633,
      "\u0011Ä": 7634,
      "\u0011ð": 7635,
      "\u0011\u0011": 7636,
      "\u0011|\"": 7637,
      "\u0011ù·": 7638,
      "\u0011ñ\u001e": 7639,
      "\u0011<N": 7640,
      "\u0011|¹": 7641,
      "\u0011Ë": 7642,
      "\u0011\u0011â<G": 7643,
      "\u0011çóùüþ": 7644,
      "\u0011¼ù": 7645,
      "\u0011Å[": 7646,
      "\u0011ÉU": 7647,
      "\u0011æË": 7648,
      "\u0011óP": 7649,
      "\u0011\u0017": 7650,
      "\u0011\u0002": 7651,
      "\u0011¾\u0012": 7652,
      "\u0011Ça": 7653,
      "\u0011ýõ": 7654,
      "\u0011ÿ": 7655,
      "\u0011-9": 7656,
      "\u0011.Ú": 7657,
      "\u00117": 7658,
      "\u0011\\": 7659,
      "\u0011\\": 7660,
      "\u0011": 7661,
      "\u0011±ã": 7662,
      "\u0011Á#": 7663,
      "\u0011Ìº": 7664,
      "\u0011×¤": 7665,
      "\u0011ëý": 7666,
      "\u0011ôÛ": 7667,
      "\u0011Äø": 7668,
      "\u0011ðe": 7669,
      "\u0011(": 7670,
      "\u0011=\n": 7671,
      "\u0011A\\": 7672,
      "\u0011|]": 7673,
      "\u0011å": 7674,
      "\u0011": 7675,
      "\u0011±\u001d": 7676,
      "\u0011ºÂ": 7677,
      "\u0011Ðä": 7678,
      "\u0011Ùñ": 7679,
      "\u0011ðð": 7680,
      "\u0011\u0013\u0015": 7681,
      "\u0011\u0000\u0000\u0000\u0001A": 7682,
      "\u0011¼W": 7683,
      "\u0011X\u0011â<!": 7684,
      "\u0011\u0001": 7685,
      "\u0011\u0002!": 7686,
      "\u0011\n4Ô": 7687,
      "\u0011\u0010ý": 7688,
      "\u0012\u0014": 7689,
      "\u0012\u0016": 7690,
      "\u0012\u001e": 7691,
      "\u0012\"": 7692,
      "\u0012$": 7693,
      "\u00120": 7694,
      "\u00126": 7695,
      "\u0012>": 7696,
      "\u0012D": 7697,
      "\u0012J": 7698,
      "\u0012S": 7699,
      "\u0012U": 7700,
      "\u0012V": 7701,
      "\u0012d": 7702,
      "\u0012k": 7703,
      "\u0012m": 7704,
      "\u0012x": 7705,
      "\u0012y": 7706,
      "\u0012{": 7707,
      "\u0012": 7708,
      "\u0012": 7709,
      "\u0012": 7710,
      "\u0012¡": 7711,
      "\u0012¨": 7712,
      "\u0012°": 7713,
      "\u0012¶": 7714,
      "\u0012À": 7715,
      "\u0012Ã": 7716,
      "\u0012Ë": 7717,
      "\u0012Ñ": 7718,
      "\u0012Ó": 7719,
      "\u0012×": 7720,
      "\u0012Ú": 7721,
      "\u0012á": 7722,
      "\u0012ì": 7723,
      "\u0012ñ": 7724,
      "\u0012ó": 7725,
      "\u0012ý": 7726,
      "\u0012'Ä": 7727,
      "\u0012#Ä": 7728,
      "\u0012\u0011ñ": 7729,
      "\u0012>'": 7730,
      "\u0012ï": 7731,
      "\u0012¬O": 7732,
      "\u0012a\u0018": 7733,
      "\u0012": 7734,
      "\u0012·Ä": 7735,
      "\u0012æb": 7736,
      "\u0012÷": 7737,
      "\u0012iÿ": 7738,
      "\u0012X": 7739,
      "\u0012#": 7740,
      "\u0012@\u0000\u0000\u0000\u0001A": 7741,
      "\u0012Nª": 7742,
      "\u0012|i": 7743,
      "\u0012×ë": 7744,
      "\u0012çÆ": 7745,
      "\u0012ñU": 7746,
      "\u0012b\n": 7747,
      "\u0012?": 7748,
      "\u0012â`": 7749,
      "\u0012\u0013Æ": 7750,
      "\u0012<Ø": 7751,
      "\u0012[ß": 7752,
      "\u0012ok": 7753,
      "\u0012±ã": 7754,
      "\u0012³ã": 7755,
      "\u0012´": 7756,
      "\u0012ç": 7757,
      "\u0012ö#": 7758,
      "\u0012úI": 7759,
      "\u0012\u00010": 7760,
      "\u0012\u0003Ã": 7761,
      "\u0012\fø": 7762,
      "\u0012 \u0013Ø": 7763,
      "\u0012.«": 7764,
      "\u0012Z": 7765,
      "\u0012rc": 7766,
      "\u0012´}": 7767,
      "\u0012Õq": 7768,
      "\u0012æå": 7769,
      "\u0012îÚ": 7770,
      "\u0012ô": 7771,
      "\u0012õÕ": 7772,
      "\u0012Äø": 7773,
      "\u0012Ä\t¬3": 7774,
      "\u0012\n-": 7775,
      "\u0013\u0013": 7776,
      "\u0013&": 7777,
      "\u00135": 7778,
      "\u00138": 7779,
      "\u0013C": 7780,
      "\u0013G": 7781,
      "\u0013O": 7782,
      "\u0013R": 7783,
      "\u0013T": 7784,
      "\u0013U": 7785,
      "\u0013Z": 7786,
      "\u0013\\": 7787,
      "\u0013}": 7788,
      "\u0013": 7789,
      "\u0013": 7790,
      "\u0013": 7791,
      "\u0013": 7792,
      "\u0013": 7793,
      "\u0013": 7794,
      "\u0013": 7795,
      "\u0013": 7796,
      "\u0013": 7797,
      "\u0013": 7798,
      "\u0013¥": 7799,
      "\u0013«": 7800,
      "\u0013¬": 7801,
      "\u0013­": 7802,
      "\u0013¸": 7803,
      "\u0013¿": 7804,
      "\u0013Â": 7805,
      "\u0013Ç": 7806,
      "\u0013È": 7807,
      "\u0013Ê": 7808,
      "\u0013Ë": 7809,
      "\u0013Î": 7810,
      "\u0013Ð": 7811,
      "\u0013Ñ": 7812,
      "\u0013Õ": 7813,
      "\u0013Ý": 7814,
      "\u0013î": 7815,
      "\u0013ï": 7816,
      "\u0013ø": 7817,
      "\u0013ú": 7818,
      "\u0013á\u001f": 7819,
      "\u0013ñ": 7820,
      "\u0013ÿÿÿ": 7821,
      "\u0013Â>\u0011": 7822,
      "\u0013ð": 7823,
      "\u0013¸": 7824,
      "\u0013üO": 7825,
      "\u0013ø": 7826,
      "\u0013ÿþ": 7827,
      "\u0013\u0000\u0000\u0000\u0001A": 7828,
      "\u0013¬M": 7829,
      "\u0013ï": 7830,
      "\u0013\u0013": 7831,
      "\u0013Ä\u0004": 7832,
      "\u0013ñ\u001a": 7833,
      "\u0013.&": 7834,
      "\u0013q\u001f": 7835,
      "\u0013ÿÿÿÿÿÿ": 7836,
      "\u0013xF": 7837,
      "\u0013\u0011": 7838,
      "\u0013ð": 7839,
      "\u0013ø": 7840,
      "\u0013\u0011®": 7841,
      "\u0013": 7842,
      "\u0013\\´": 7843,
      "\u0013~": 7844,
      "\u0013à": 7845,
      "\u0013\u001f": 7846,
      "\u0013x": 7847,
      "\u0013÷­": 7848,
      "\u0013C3": 7849,
      "\u0013#": 7850,
      "\u0013¼¼": 7851,
      "\u0013ÉÕ": 7852,
      "\u0013ää": 7853,
      "\u0013çóùüþ?Ïçóùüþ?": 7854,
      "\u0013-k": 7855,
      "\u0013»ø": 7856,
      "\u00132(": 7857,
      "\u00136'Ä": 7858,
      "\u0013Mº": 7859,
      "\u0013Nµ": 7860,
      "\u0013PE": 7861,
      "\u0013Q\u0001": 7862,
      "\u0013sL": 7863,
      "\u0013¨": 7864,
      "\u0013±": 7865,
      "\u0013×7U": 7866,
      "\u0013äê«": 7867,
      "\u0013é;": 7868,
      "\u0013ð": 7869,
      "\u0013÷ñ": 7870,
      "\u0013û¾": 7871,
      "\u0013ø7": 7872,
      "\u0013\bUU": 7873,
      "\u0013\ns": 7874,
      "\u0013\u000bn": 7875,
      "\u0013\føDµ": 7876,
      "\u0013\u000eÿ": 7877,
      "\u0014 ": 7878,
      "\u0014\"": 7879,
      "\u0014.": 7880,
      "\u0014/": 7881,
      "\u0014A": 7882,
      "\u0014G": 7883,
      "\u0014K": 7884,
      "\u0014M": 7885,
      "\u0014N": 7886,
      "\u0014W": 7887,
      "\u0014\\": 7888,
      "\u0014r": 7889,
      "\u0014{": 7890,
      "\u0014": 7891,
      "\u0014": 7892,
      "\u0014": 7893,
      "\u0014": 7894,
      "\u0014": 7895,
      "\u0014¢": 7896,
      "\u0014­": 7897,
      "\u0014Â": 7898,
      "\u0014Ï": 7899,
      "\u0014Þ": 7900,
      "\u0014ã": 7901,
      "\u0014è": 7902,
      "\u0014ë": 7903,
      "\u0014ì": 7904,
      "\u0014í": 7905,
      "\u0014ñ": 7906,
      "\u0014ø": 7907,
      "\u0014ø": 7908,
      "\u0014\u0011": 7909,
      "\u0014Â>&": 7910,
      "\u0014Äb": 7911,
      "\u0014ÉË": 7912,
      "\u0014×\u0011": 7913,
      "\u0014ùz": 7914,
      "\u0014üM": 7915,
      "\u0014ÿü": 7916,
      "\u0014?\b": 7917,
      "\u0014â4": 7918,
      "\u0014ûÅ": 7919,
      "\u0014ÿ&": 7920,
      "\u0014¤": 7921,
      "\u0014O\u0015": 7922,
      "\u0014Oä": 7923,
      "\u0014e\u000f": 7924,
      "\u0014\u0018": 7925,
      "\u0014÷": 7926,
      "\u0014ÿ": 7927,
      "\u0014Ë": 7928,
      "\u0014â7": 7929,
      "\u0014ZÒ": 7930,
      "\u0014W": 7931,
      "\u0014)": 7932,
      "\u0014É": 7933,
      "\u0014åÕ": 7934,
      "\u0014ÉÍÕ": 7935,
      "\u0014áL4¦}": 7936,
      "\u0014\u0013Ê": 7937,
      "\u0015\u0017": 7938,
      "\u0015\u001d": 7939,
      "\u0015#": 7940,
      "\u0015%": 7941,
      "\u0015)": 7942,
      "\u0015+": 7943,
      "\u00159": 7944,
      "\u0015H": 7945,
      "\u0015N": 7946,
      "\u0015S": 7947,
      "\u0015Z": 7948,
      "\u0015h": 7949,
      "\u0015m": 7950,
      "\u0015p": 7951,
      "\u0015q": 7952,
      "\u0015t": 7953,
      "\u0015~": 7954,
      "\u0015": 7955,
      "\u0015": 7956,
      "\u0015": 7957,
      "\u0015": 7958,
      "\u0015": 7959,
      "\u0015": 7960,
      "\u0015": 7961,
      "\u0015": 7962,
      "\u0015": 7963,
      "\u0015": 7964,
      "\u0015 ": 7965,
      "\u0015§": 7966,
      "\u0015ª": 7967,
      "\u0015«": 7968,
      "\u0015¯": 7969,
      "\u0015µ": 7970,
      "\u0015¶": 7971,
      "\u0015·": 7972,
      "\u0015Ã": 7973,
      "\u0015Å": 7974,
      "\u0015Æ": 7975,
      "\u0015Ö": 7976,
      "\u0015Þ": 7977,
      "\u0015í": 7978,
      "\u0015ñ": 7979,
      "\u0015ô": 7980,
      "\u0015ö": 7981,
      "\u0015ÿ": 7982,
      "\u0015çóùü": 7983,
      "\u0015\u0010&": 7984,
      "\u0015â": 7985,
      "\u0015mÛ": 7986,
      "\u0015ë\u0013": 7987,
      "\u0015ù": 7988,
      "\u0015Ýk": 7989,
      "\u0015\u0010'": 7990,
      "\u0015øf": 7991,
      "\u0015De": 7992,
      "\u0015Äc": 7993,
      "\u0015Ï": 7994,
      "\u0015nÝ": 7995,
      "\u0015ÄÅ": 7996,
      "\u0015ñ?": 7997,
      "\u0015\u0010$": 7998,
      "\u0015ªä": 7999,
      "\u0015Â\u0011": 8000,
      "\u0015ñ\u0019": 8001,
      "\u0015çóùüþ?": 8002,
      "\u0015": 8003,
      "\u0015\b¨": 8004,
      "\u0015+\u001d": 8005,
      "\u0015;\n": 8006,
      "\u0015OÜ": 8007,
      "\u0015]%": 8008,
      "\u0015`": 8009,
      "\u0015b2": 8010,
      "\u0015mR": 8011,
      "\u0015v7": 8012,
      "\u0015vË": 8013,
      "\u0015º­": 8014,
      "\u0015Æ\u0013": 8015,
      "\u0015ëº": 8016,
      "\u0015ü3": 8017,
      "\u0015\u001cÒ": 8018,
      "\u0015\u001f\u0013ò": 8019,
      "\u0015$_": 8020,
      "\u00158M": 8021,
      "\u0015b\u0017": 8022,
      "\u0015{": 8023,
      "\u0015¸¬": 8024,
      "\u0015ß7": 8025,
      "\u0015\u0000\u0000\u0000\u0001Aá": 8026,
      "\u0015çóå": 8027,
      "\u0015\u0000\u0000\u0000\u0001AÈ": 8028,
      "\u0015ñ\u0019ð": 8029,
      "\u0015â<Gó": 8030,
      "\u0016%": 8031,
      "\u00164": 8032,
      "\u0016:": 8033,
      "\u0016;": 8034,
      "\u0016B": 8035,
      "\u0016b": 8036,
      "\u0016g": 8037,
      "\u0016s": 8038,
      "\u0016t": 8039,
      "\u0016w": 8040,
      "\u0016x": 8041,
      "\u0016|": 8042,
      "\u0016}": 8043,
      "\u0016~": 8044,
      "\u0016": 8045,
      "\u0016": 8046,
      "\u0016": 8047,
      "\u0016¥": 8048,
      "\u0016«": 8049,
      "\u0016®": 8050,
      "\u0016¼": 8051,
      "\u0016½": 8052,
      "\u0016Ã": 8053,
      "\u0016Ä": 8054,
      "\u0016È": 8055,
      "\u0016É": 8056,
      "\u0016Û": 8057,
      "\u0016ã": 8058,
      "\u0016÷": 8059,
      "\u0016ú": 8060,
      "\u0016íÛ": 8061,
      "\u0016¸": 8062,
      "\u0016¸O": 8063,
      "\u0016ü¼": 8064,
      "\u0016\\O": 8065,
      "\u0016ÿ½": 8066,
      "\u0016ÿñ": 8067,
      "\u0016p": 8068,
      "\u00164": 8069,
      "\u0016}": 8070,
      "\u0016\u0011â\u0004": 8071,
      "\u0016\u0013z": 8072,
      "\u0016\u001e\"": 8073,
      "\u0016E\u0015": 8074,
      "\u0016L\u0010": 8075,
      "\u0016yû": 8076,
      "\u0016õ": 8077,
      "\u0016Þ": 8078,
      "\u0016â&": 8079,
      "\u0017$": 8080,
      "\u0017/": 8081,
      "\u00174": 8082,
      "\u0017<": 8083,
      "\u0017>": 8084,
      "\u0017?": 8085,
      "\u0017S": 8086,
      "\u0017_": 8087,
      "\u0017a": 8088,
      "\u0017n": 8089,
      "\u0017p": 8090,
      "\u0017w": 8091,
      "\u0017z": 8092,
      "\u0017": 8093,
      "\u0017": 8094,
      "\u0017": 8095,
      "\u0017¡": 8096,
      "\u0017¦": 8097,
      "\u0017§": 8098,
      "\u0017ª": 8099,
      "\u0017­": 8100,
      "\u0017¯": 8101,
      "\u0017°": 8102,
      "\u0017²": 8103,
      "\u0017Â": 8104,
      "\u0017Ð": 8105,
      "\u0017Ò": 8106,
      "\u0017Ô": 8107,
      "\u0017Ý": 8108,
      "\u0017â": 8109,
      "\u0017ö": 8110,
      "\u0017ý": 8111,
      "\u0017þ": 8112,
      "\u0017á\u001f": 8113,
      "\u0017ñ": 8114,
      "\u0017ñ>": 8115,
      "\u0017\u0011ñ": 8116,
      "\u0017ø": 8117,
      "\u0017¯Â": 8118,
      "\u0017": 8119,
      "\u0017¨": 8120,
      "\u0017Äe": 8121,
      "\u0017å§": 8122,
      "\u0017«": 8123,
      "\u0017à": 8124,
      "\u0017\u00137": 8125,
      "\u0017'u": 8126,
      "\u0017gó": 8127,
      "\u0017Ü¹": 8128,
      "\u0017ßU": 8129,
      "\u0017\u0000\u0000\u0000\u0001AÀ": 8130,
      "\u0017\u001f": 8131,
      "\u0017bT": 8132,
      "\u0017c¿": 8133,
      "\u0017wÝ": 8134,
      "\u0017¡": 8135,
      "\u0017¼ÿ": 8136,
      "\u0017øÜ": 8137,
      "\u0017\u0016": 8138,
      "\u00173\n": 8139,
      "\u0017y0": 8140,
      "\u0017": 8141,
      "\u0017¥C": 8142,
      "\u0017¾*": 8143,
      "\u0017À\u001e": 8144,
      "\u0017ÄÕ": 8145,
      "\u0017UUu": 8146,
      "\u0017|\"": 8147,
      "\u0017\fÐ": 8148,
      "\u0017\u000f!è": 8149,
      "\u0017\u0010#Äx": 8150,
      "\u0017\u0013\\´": 8151,
      "\u0017\u0014M": 8152,
      "\u0018\u001a": 8153,
      "\u0018$": 8154,
      "\u0018%": 8155,
      "\u00188": 8156,
      "\u00189": 8157,
      "\u0018@": 8158,
      "\u0018D": 8159,
      "\u0018G": 8160,
      "\u0018K": 8161,
      "\u0018W": 8162,
      "\u0018X": 8163,
      "\u0018i": 8164,
      "\u0018m": 8165,
      "\u0018o": 8166,
      "\u0018p": 8167,
      "\u0018q": 8168,
      "\u0018w": 8169,
      "\u0018{": 8170,
      "\u0018": 8171,
      "\u0018¥": 8172,
      "\u0018§": 8173,
      "\u0018¬": 8174,
      "\u0018¯": 8175,
      "\u0018º": 8176,
      "\u0018À": 8177,
      "\u0018Á": 8178,
      "\u0018Â": 8179,
      "\u0018Æ": 8180,
      "\u0018Ç": 8181,
      "\u0018Î": 8182,
      "\u0018Ï": 8183,
      "\u0018Ó": 8184,
      "\u0018×": 8185,
      "\u0018å": 8186,
      "\u0018ì": 8187,
      "\u0018û": 8188,
      "\u0018ÿ": 8189,
      "\u0018ñ\u0002": 8190,
      "\u0018\u0011": 8191
    },
    "merges": [
      [
        "\u0000",
        "\u0000"
      ],
      [
        "ÿ",
        "ÿ"
      ],
      [
        "\u0000",
        "\u0001"
      ],
      [
        "\u0000\u0000",
        "\u0000\u0001"
      ],
      [
        "\u0000\u0000\u0000\u0001",
        "A"
      ],
      [
        "\u0000\u0000\u0000\u0001A",
        ""
      ],
      [
        "\u0000\u0000\u0000\u0001A",
        ""
      ],
      [
        "ÿÿ",
        "ÿÿ"
      ],
      [
        "'",
        "Ä"
      ],
      [
        "",
        "ñ"
      ],
      [
        "â",
        "|"
      ],
      [
        "?",
        ""
      ],
      [
        "",
        "\u0013"
      ],
      [
        ">",
        "\u0011"
      ],
      [
        "Ä",
        "ø"
      ],
      [
        "ù",
        "ü"
      ],
      [
        "O",
        ""
      ],
      [
        "ç",
        "ó"
      ],
      [
        "á",
        "\u001f"
      ],
      [
        "\u0011",
        "â"
      ],
      [
        "]",
        "u"
      ],
      [
        "þ",
        ""
      ],
      [
        "×",
        "]u"
      ],
      [
        "?",
        "Ï"
      ],
      [
        "×]u",
        "×]u"
      ],
      [
        "ð",
        ""
      ],
      [
        "",
        "ñ"
      ],
      [
        "U",
        "U"
      ],
      [
        "ø",
        "G"
      ],
      [
        "#",
        "Ä"
      ],
      [
        "",
        "|"
      ],
      [
        "çó",
        "ùü"
      ],
      [
        "ñ",
        ">"
      ],
      [
        "\u0013",
        "â"
      ],
      [
        "x",
        ""
      ],
      [
        "",
        "\b"
      ],
      [
        "<",
        "G"
      ],
      [
        "k",
        "\u0013"
      ],
      [
        "",
        "\u0013"
      ],
      [
        "ª",
        "ª"
      ],
      [
        "\u0011",
        "ñ"
      ],
      [
        ">",
        "&"
      ],
      [
        "ñ",
        "?"
      ],
      [
        "ÿÿ",
        "ÿ"
      ],
      [
        "ø",
        ""
      ],
      [
        "×]u×]u",
        "×]u×]u"
      ],
      [
        ">",
        "'"
      ],
      [
        "Ä",
        "\t"
      ],
      [
        "Ä",
        "x"
      ],
      [
        "â",
        "\u0004"
      ],
      [
        "ø",
        "F"
      ],
      [
        "5",
        ""
      ],
      [
        "|",
        "#"
      ],
      [
        "Â",
        ">\u0011"
      ],
      [
        "á\u001f",
        "\b"
      ],
      [
        "þ",
        "?Ï"
      ],
      [
        "0",
        " "
      ],
      [
        "O",
        "ñ"
      ],
      [
        "Ä",
        "Ä"
      ],
      [
        "ð",
        ""
      ],
      [
        "ñ",
        "\u0002"
      ],
      [
        ".",
        "'"
      ],
      [
        ">",
        "'Ä"
      ],
      [
        "ø",
        ""
      ],
      [
        "ø",
        "\u0013"
      ],
      [
        "\u0010",
        "&"
      ],
      [
        "<",
        "@"
      ],
      [
        "¬",
        "#"
      ],
      [
        "¼",
        "#"
      ],
      [
        "ø",
        ""
      ],
      [
        "ð",
        ""
      ],
      [
        "",
        "\b"
      ],
      [
        "Ö",
        "&"
      ],
      [
        "Ö",
        "'"
      ],
      [
        "ñ",
        "\u0018"
      ],
      [
        "M",
        "b"
      ],
      [
        "¸",
        ""
      ],
      [
        "É",
        "É"
      ],
      [
        "ü",
        "O"
      ],
      [
        "ÿÿÿÿ",
        "ÿÿÿÿ"
      ],
      [
        "ñ",
        "\u001e"
      ],
      [
        "\u0013",
        "â|"
      ],
      [
        "D",
        "\t"
      ],
      [
        "O",
        ""
      ],
      [
        "ð",
        ""
      ],
      [
        "ñ",
        "\u001e"
      ],
      [
        "ø",
        ""
      ],
      [
        "",
        ""
      ],
      [
        "",
        "\u0011"
      ],
      [
        "",
        " "
      ],
      [
        "þ",
        "#"
      ],
      [
        "=",
        "0 "
      ],
      [
        "G",
        ""
      ],
      [
        "b",
        "|"
      ],
      [
        "",
        "\u0000\u0000\u0000\u0001A"
      ],
      [
        "Â",
        "1"
      ],
      [
        "Ö",
        "'Ä"
      ],
      [
        "â",
        ""
      ],
      [
        "ñ",
        "1"
      ],
      [
        "ø",
        ""
      ],
      [
        "þ",
        "'"
      ],
      [
        "\u001a",
        "Ä"
      ],
      [
        "7",
        ""
      ],
      [
        ">",
        "$"
      ],
      [
        "M",
        "â"
      ],
      [
        "a",
        "\u001f"
      ],
      [
        "m",
        "Û"
      ],
      [
        "",
        "\u0013"
      ],
      [
        "",
        "Ï"
      ],
      [
        "¸",
        ""
      ],
      [
        "Â",
        "5"
      ],
      [
        "ñ",
        "\u001f"
      ],
      [
        "ñ",
        "8"
      ],
      [
        "ø",
        ""
      ],
      [
        "ú",
        "Ä"
      ],
      [
        "ÿ",
        "þ"
      ],
      [
        "\u0011",
        ""
      ],
      [
        "<",
        "F"
      ],
      [
        "G",
        "Ä"
      ],
      [
        "X",
        ""
      ],
      [
        "",
        "\u0012"
      ],
      [
        "¬",
        "L"
      ],
      [
        "Â",
        "2"
      ],
      [
        "Þ",
        "&"
      ],
      [
        "â",
        "\u0002"
      ],
      [
        "â",
        "?"
      ],
      [
        "â",
        "k"
      ],
      [
        "â",
        "~"
      ],
      [
        "ñ",
        "2"
      ],
      [
        "ø",
        "D"
      ],
      [
        "ü",
        "#"
      ],
      [
        "|",
        "#"
      ],
      [
        "X",
        "F"
      ],
      [
        "a",
        "\u0019"
      ],
      [
        "",
        "\u0000\u0000\u0000\u0001A"
      ],
      [
        "­",
        "~"
      ],
      [
        "¸",
        ""
      ],
      [
        "â",
        "<"
      ],
      [
        "ð",
        ""
      ],
      [
        "\u0011",
        "Ä"
      ],
      [
        "&",
        "&"
      ],
      [
        "&",
        "µ"
      ],
      [
        "O",
        "\u0011"
      ],
      [
        "O",
        "\u0013"
      ],
      [
        "^",
        "'"
      ],
      [
        "o",
        "\u0013"
      ],
      [
        "",
        "×"
      ],
      [
        "",
        "\b"
      ],
      [
        "",
        ""
      ],
      [
        "¢",
        "\u0004"
      ],
      [
        "¬",
        "M"
      ],
      [
        "¼",
        "L"
      ],
      [
        "Â",
        "8"
      ],
      [
        "á",
        "\u0019"
      ],
      [
        "ï",
        ""
      ],
      [
        "ó",
        "ùü"
      ],
      [
        "ø",
        ""
      ],
      [
        "ø",
        ""
      ],
      [
        "ÿ",
        ""
      ],
      [
        "ÿ",
        "Ä"
      ],
      [
        "×]u×]u×]u×]u",
        "×]u×]u×]u×]u"
      ],
      [
        " ",
        "M"
      ],
      [
        ".",
        "µ"
      ],
      [
        "7",
        ""
      ],
      [
        ">",
        "#"
      ],
      [
        "L",
        "L"
      ],
      [
        "Q",
        "\u0002"
      ],
      [
        "n",
        "ß"
      ],
      [
        "o",
        "\b"
      ],
      [
        "x",
        ""
      ],
      [
        "",
        "Â"
      ],
      [
        "",
        "Ä"
      ],
      [
        "",
        "\u0013"
      ],
      [
        "Ä",
        "\u0004"
      ],
      [
        "Þ",
        "ÿ"
      ],
      [
        "â",
        "D"
      ],
      [
        "ð",
        ""
      ],
      [
        "ð",
        "Ï"
      ],
      [
        "ñ",
        "\u001a"
      ],
      [
        "ñ",
        "3"
      ],
      [
        "ø",
        "C"
      ],
      [
        "þ",
        "?"
      ],
      [
        "\u001e",
        "#"
      ],
      [
        "&",
        "'"
      ],
      [
        "X",
        ""
      ],
      [
        "Z",
        "Ö"
      ],
      [
        "|",
        "L"
      ],
      [
        "~",
        "&"
      ],
      [
        "",
        ""
      ],
      [
        "",
        "¾"
      ],
      [
        "",
        "#"
      ],
      [
        "",
        "\b"
      ],
      [
        "¬",
        "G"
      ],
      [
        "¿",
        "\b"
      ],
      [
        "¿",
        ""
      ],
      [
        "¿",
        "Ä"
      ],
      [
        "Â",
        "\u0018"
      ],
      [
        "Ï",
        ""
      ],
      [
        "á",
        "\u000f"
      ],
      [
        "â",
        "0"
      ],
      [
        "ä",
        "Ö"
      ],
      [
        "å",
        "Ö"
      ],
      [
        "ë",
        "\u0013"
      ],
      [
        "ñ",
        "5"
      ],
      [
        "ø",
        ""
      ],
      [
        "ù",
        "º"
      ],
      [
        "ü",
        "!"
      ],
      [
        "ü",
        "G"
      ],
      [
        "ü",
        "L"
      ],
      [
        "ÿ",
        "\u0013"
      ],
      [
        "\u0000\u0000\u0000\u0001A",
        "@"
      ],
      [
        "\u0000\u0000\u0000\u0001A",
        "`"
      ],
      [
        "\u0011â",
        "<"
      ],
      [
        "çóùü",
        "þ?Ï"
      ],
      [
        "<G",
        ""
      ],
      [
        ">",
        "\""
      ],
      [
        "O",
        "ÿ"
      ],
      [
        "V",
        "µ"
      ],
      [
        "i",
        "Ó"
      ],
      [
        "o",
        "m"
      ],
      [
        "q",
        "\u0002"
      ],
      [
        "r",
        "e"
      ],
      [
        "x",
        ""
      ],
      [
        "",
        "\u0011"
      ],
      [
        "",
        "e"
      ],
      [
        "",
        "Ä"
      ],
      [
        "¬",
        "3"
      ],
      [
        "±",
        "\u001f"
      ],
      [
        "±",
        "5"
      ],
      [
        "Á",
        "\u000f"
      ],
      [
        "Â",
        "\u001e"
      ],
      [
        "Â",
        "?"
      ],
      [
        "Â",
        "x"
      ],
      [
        "Ä",
        "~"
      ],
      [
        "Ä",
        "É"
      ],
      [
        "Ö",
        "¿"
      ],
      [
        "á",
        "\u001a"
      ],
      [
        "â",
        "I"
      ],
      [
        "ë",
        "_"
      ],
      [
        "ñ",
        "\""
      ],
      [
        "ñ",
        ">\u0011"
      ],
      [
        "ø",
        ""
      ],
      [
        "ú",
        "×"
      ],
      [
        "þ",
        "\u0011"
      ],
      [
        "þ",
        "\""
      ],
      [
        "þ",
        "&"
      ],
      [
        "ÿ",
        "\u0011"
      ],
      [
        "\u0000\u0000\u0000\u0001A",
        "à"
      ],
      [
        "\u0000\u0000\u0000\u0001A",
        " "
      ],
      [
        "\u0000\u0000\u0000\u0001A",
        "À"
      ],
      [
        "\u0000\u0000\u0000\u0001A",
        "à"
      ],
      [
        "ñ>",
        "'"
      ],
      [
        "\u0010",
        "#"
      ],
      [
        "\u0013",
        "ò"
      ],
      [
        " ",
        "L"
      ],
      [
        "%",
        "W"
      ],
      [
        "+",
        "\b"
      ],
      [
        ".",
        "#"
      ],
      [
        ".",
        "&"
      ],
      [
        "0",
        ""
      ],
      [
        "6",
        "µ"
      ],
      [
        "7",
        "\u0011"
      ],
      [
        "=",
        "1"
      ],
      [
        "D",
        "a"
      ],
      [
        "O",
        ""
      ],
      [
        "]",
        "W"
      ],
      [
        "_",
        "\u0013"
      ],
      [
        "b",
        "f"
      ],
      [
        "j",
        "#"
      ],
      [
        "n",
        "#"
      ],
      [
        "q",
        "\u001f"
      ],
      [
        "w",
        ""
      ],
      [
        "x",
        ""
      ],
      [
        "x",
        ""
      ],
      [
        "|",
        "O"
      ],
      [
        "",
        "ÿ"
      ],
      [
        "",
        "?Ï"
      ],
      [
        "",
        "<"
      ],
      [
        "",
        ""
      ],
      [
        "",
        "®"
      ],
      [
        "",
        "\u0013"
      ],
      [
        "",
        "ù"
      ],
      [
        "",
        "Ä"
      ],
      [
        "¬",
        "O"
      ],
      [
        "±",
        "\u0002"
      ],
      [
        "·",
        "m"
      ],
      [
        "¸",
        ""
      ],
      [
        "¾",
        "j"
      ],
      [
        "¿",
        ""
      ],
      [
        "¿",
        "Ë"
      ],
      [
        "Â",
        "\u001f"
      ],
      [
        "Ä",
        "a"
      ],
      [
        "Ä",
        "y"
      ],
      [
        "Ä",
        ""
      ],
      [
        "Ä",
        "â"
      ],
      [
        "Õ",
        "U"
      ],
      [
        "Õ",
        "k"
      ],
      [
        "Ý",
        "k"
      ],
      [
        "Þ",
        "'"
      ],
      [
        "â",
        "$"
      ],
      [
        "â",
        "1"
      ],
      [
        "â",
        "d"
      ],
      [
        "â",
        "u"
      ],
      [
        "ë",
        "\b"
      ],
      [
        "í",
        "Û"
      ],
      [
        "ñ",
        "\u0015"
      ],
      [
        "ø",
        ""
      ],
      [
        "ø",
        ""
      ],
      [
        "ø",
        "®"
      ],
      [
        "ø",
        "\b"
      ],
      [
        "ü",
        "F"
      ],
      [
        "ü",
        "H"
      ],
      [
        "ü",
        "N"
      ],
      [
        "ü",
        "Ü"
      ],
      [
        "ÿ",
        "÷"
      ],
      [
        "\u0000\u0000\u0000\u0001A",
        "\u0000"
      ],
      [
        "\u0000\u0000\u0000\u0001A",
        "@"
      ],
      [
        "ÿÿÿÿ",
        "ÿÿ"
      ],
      [
        "á\u001f",
        "\u0013"
      ],
      [
        "\b",
        "Ë"
      ],
      [
        "\u0010",
        "'"
      ],
      [
        "\u0011",
        ""
      ],
      [
        "\u0015",
        "Í"
      ],
      [
        "\u001b",
        "Ä"
      ],
      [
        "&",
        "\u0011"
      ],
      [
        "+",
        "\u0013"
      ],
      [
        ".",
        "$"
      ],
      [
        "1",
        "2"
      ],
      [
        "6",
        "#"
      ],
      [
        "7",
        "U"
      ],
      [
        "<",
        " "
      ],
      [
        "X",
        "G"
      ],
      [
        "X",
        "\u0013"
      ],
      [
        "Z",
        "ª"
      ],
      [
        "Z",
        "×"
      ],
      [
        "\\",
        "F"
      ],
      [
        "^",
        "&"
      ],
      [
        "_",
        "\u0011"
      ],
      [
        "e",
        "d"
      ],
      [
        "n",
        "'"
      ],
      [
        "o",
        "\u0011"
      ],
      [
        "o",
        "Ä"
      ],
      [
        "q",
        "\u001c"
      ],
      [
        "q",
        "2"
      ],
      [
        "q",
        "8"
      ],
      [
        "r",
        "a"
      ],
      [
        "x",
        "F"
      ],
      [
        "x",
        "\u0013"
      ],
      [
        "|",
        "E"
      ],
      [
        "~",
        "#"
      ],
      [
        "~",
        "n"
      ],
      [
        "",
        "\u0012"
      ],
      [
        "",
        "æ"
      ],
      [
        "",
        "µ"
      ],
      [
        "",
        "Ä"
      ],
      [
        "¨",
        ""
      ],
      [
        "¬",
        "O"
      ],
      [
        "¬",
        "Ì"
      ],
      [
        "­",
        "k"
      ],
      [
        "¯",
        ""
      ],
      [
        "¯",
        "Â"
      ],
      [
        "°",
        ""
      ],
      [
        "°",
        "Ì"
      ],
      [
        "±",
        "\u0012"
      ],
      [
        "±",
        "1"
      ],
      [
        "¸",
        ""
      ],
      [
        "¸",
        ""
      ],
      [
        "¹",
        "²"
      ],
      [
        "º",
        "¯"
      ],
      [
        "¼",
        "G"
      ],
      [
        "¾",
        "#"
      ],
      [
        "¿",
        "\u0013"
      ],
      [
        "¿",
        "ÿ"
      ],
      [
        "Â",
        ">&"
      ],
      [
        "Ä",
        "\b"
      ],
      [
        "Ä",
        "b"
      ],
      [
        "É",
        "Ë"
      ],
      [
        "Ï",
        "Ë"
      ],
      [
        "Ô",
        "@"
      ],
      [
        "Ö",
        "\u0011"
      ],
      [
        "Ö",
        "±"
      ],
      [
        "×",
        "\u0011"
      ],
      [
        "Ü",
        "F"
      ],
      [
        "ß",
        "\u0011"
      ],
      [
        "à",
        ""
      ],
      [
        "à",
        "\u0000\u0000\u0000\u0001A"
      ],
      [
        "á",
        "\u0012"
      ],
      [
        "á",
        "<"
      ],
      [
        "â",
        "\""
      ],
      [
        "â",
        "x"
      ],
      [
        "ä",
        "å"
      ],
      [
        "å",
        "ê"
      ],
      [
        "é",
        "Ó"
      ],
      [
        "ð",
        ""
      ],
      [
        "ñ",
        "\u0001"
      ],
      [
        "ñ",
        "\u0011"
      ],
      [
        "ñ",
        "\u0013"
      ],
      [
        "û",
        "Ä"
      ],
      [
        "ü",
        ""
      ],
      [
        "þ",
        "$"
      ],
      [
        "þ",
        "/"
      ],
      [
        "þ",
        "÷"
      ],
      [
        "\u0000\u0000\u0000\u0001A",
        "\u0000"
      ],
      [
        "\u0000\u0000\u0000\u0001A",
        ""
      ],
      [
        "\u0000\u0000\u0000\u0001A",
        ""
      ],
      [
        "Äø",
        "\u0013"
      ],
      [
        "UU",
        "UU"
      ],
      [
        "ñ>",
        "'Ä"
      ],
      [
        "\u0010",
        "\""
      ],
      [
        "\u0011",
        ""
      ],
      [
        "\u0013",
        ""
      ],
      [
        "\u0013",
        "Ã"
      ],
      [
        "\u0017",
        "É"
      ],
      [
        "\u0017",
        "Ë"
      ],
      [
        "\u001b",
        "\u0011"
      ],
      [
        "\u001c",
        "N"
      ],
      [
        " ",
        "#"
      ],
      [
        "\"",
        "\u0004"
      ],
      [
        "$",
        "F"
      ],
      [
        "&",
        "$"
      ],
      [
        "'",
        "&"
      ],
      [
        "2",
        "b"
      ],
      [
        "3",
        "b"
      ],
      [
        "3",
        "á"
      ],
      [
        "6",
        "&"
      ],
      [
        "?",
        "\u0011"
      ],
      [
        "?",
        "\u0013"
      ],
      [
        "?",
        "5"
      ],
      [
        "?",
        ""
      ],
      [
        "?",
        ""
      ],
      [
        "N",
        "#"
      ],
      [
        "N",
        "&"
      ],
      [
        "Q",
        "\u0018"
      ],
      [
        "U",
        "ª"
      ],
      [
        "X",
        ""
      ],
      [
        "\\",
        "#"
      ],
      [
        "_",
        "."
      ],
      [
        "_",
        ""
      ],
      [
        "a",
        "\u0018"
      ],
      [
        "d",
        "Ä"
      ],
      [
        "g",
        "Ã"
      ],
      [
        "i",
        "n"
      ],
      [
        "k",
        "\b"
      ],
      [
        "k",
        "Z"
      ],
      [
        "s",
        "1"
      ],
      [
        "u",
        "]"
      ],
      [
        "x",
        "C"
      ],
      [
        "|",
        "!"
      ],
      [
        "|",
        "M"
      ],
      [
        "|",
        "N"
      ],
      [
        "|",
        "º"
      ],
      [
        "~",
        "\""
      ],
      [
        "~",
        "'"
      ],
      [
        "",
        ""
      ],
      [
        "",
        "b"
      ],
      [
        "",
        "\u0011"
      ],
      [
        "",
        ""
      ],
      [
        "",
        "\u0011"
      ],
      [
        "",
        ""
      ],
      [
        "",
        "¬"
      ],
      [
        "",
        "Z"
      ],
      [
        "",
        ""
      ],
      [
        "",
        ""
      ],
      [
        "",
        ""
      ],
      [
        "",
        "\u0011"
      ],
      [
        "",
        "µ"
      ],
      [
        "",
        "Ä"
      ],
      [
        "",
        "ÿ"
      ],
      [
        "¨",
        ""
      ],
      [
        "¨",
        ""
      ],
      [
        "®",
        "+"
      ],
      [
        "®",
        "n"
      ],
      [
        "¯",
        "Ä"
      ],
      [
        "°",
        ""
      ],
      [
        "·",
        "Ä"
      ],
      [
        "¸",
        ""
      ],
      [
        "¹",
        ""
      ],
      [
        "¼",
        "M"
      ],
      [
        "¾",
        "'"
      ],
      [
        "¾",
        "m"
      ],
      [
        "¿",
        "\u0011"
      ],
      [
        "Â",
        "7"
      ],
      [
        "Ä",
        "e"
      ],
      [
        "Ä",
        "Ç"
      ],
      [
        "Ä",
        "ã"
      ],
      [
        "Ï",
        "Í"
      ],
      [
        "Ö",
        "#"
      ],
      [
        "Ö",
        "µ"
      ],
      [
        "×",
        "&"
      ],
      [
        "á",
        "\f"
      ],
      [
        "á",
        "\u0018"
      ],
      [
        "â",
        "\t"
      ],
      [
        "â",
        "3"
      ],
      [
        "â",
        "b"
      ],
      [
        "â",
        "f"
      ],
      [
        "â",
        "¼"
      ],
      [
        "å",
        "§"
      ],
      [
        "å",
        "ÿ"
      ],
      [
        "æ",
        "b"
      ],
      [
        "æ",
        "æ"
      ],
      [
        "ï",
        "\u0013"
      ],
      [
        "ð",
        "C"
      ],
      [
        "ð",
        ""
      ],
      [
        "ð",
        "Ì"
      ],
      [
        "ñ",
        "$"
      ],
      [
        "ñ",
        "<"
      ],
      [
        "ò",
        "s"
      ],
      [
        "÷",
        ""
      ],
      [
        "÷",
        "Í"
      ],
      [
        "ø",
        "!"
      ],
      [
        "ø",
        "K"
      ],
      [
        "ø",
        "f"
      ],
      [
        "ø",
        ""
      ],
      [
        "ø",
        ""
      ],
      [
        "ø",
        ""
      ],
      [
        "ù",
        "z"
      ],
      [
        "ü",
        "%"
      ],
      [
        "ü",
        "@"
      ],
      [
        "ü",
        "M"
      ],
      [
        "ü",
        "O"
      ],
      [
        "ÿ",
        ""
      ],
      [
        "ÿ",
        "ü"
      ],
      [
        "\u0000\u0000\u0000\u0001A",
        "!"
      ],
      [
        "\u0000\u0000\u0000\u0001A",
        " "
      ],
      [
        "Äø",
        "G"
      ],
      [
        "\u0000",
        ""
      ],
      [
        "\u0011",
        "®"
      ],
      [
        "\u0013",
        ""
      ],
      [
        "\u001c",
        "G"
      ],
      [
        "#",
        "\u0013"
      ],
      [
        "$",
        "¬"
      ],
      [
        "&",
        ""
      ],
      [
        "+",
        "\u001e"
      ],
      [
        ",",
        "@"
      ],
      [
        "/",
        "\u0013"
      ],
      [
        "/",
        ""
      ],
      [
        "0",
        ""
      ],
      [
        ">",
        "\u0010"
      ],
      [
        ">",
        "\u0019"
      ],
      [
        ">",
        "³"
      ],
      [
        "?",
        "\b"
      ],
      [
        "D",
        "e"
      ],
      [
        "D",
        "É"
      ],
      [
        "F",
        "'"
      ],
      [
        "L",
        "#"
      ],
      [
        "L",
        "G"
      ],
      [
        "O",
        "Ä"
      ],
      [
        "Q",
        "\u0019"
      ],
      [
        "U",
        "Ä"
      ],
      [
        "V",
        "\""
      ],
      [
        "V",
        "#"
      ],
      [
        "X",
        ""
      ],
      [
        "X",
        ""
      ],
      [
        "^",
        "\u0011"
      ],
      [
        "^",
        "\""
      ],
      [
        "_",
        ""
      ],
      [
        "a",
        "\u001a"
      ],
      [
        "d",
        "e"
      ],
      [
        "g",
        "Ä"
      ],
      [
        "i",
        "ÿ"
      ],
      [
        "j",
        " "
      ],
      [
        "k",
        "\u0011"
      ],
      [
        "k",
        ""
      ],
      [
        "o",
        "\f"
      ],
      [
        "q",
        "\u0018"
      ],
      [
        "v",
        "×"
      ],
      [
        "x",
        ""
      ],
      [
        "|",
        "\u0010"
      ],
      [
        "|",
        "\""
      ],
      [
        "|",
        "'"
      ],
      [
        "}",
        "Õ"
      ],
      [
        "~",
        "\u0011"
      ],
      [
        "~",
        " "
      ],
      [
        "",
        "\u0013"
      ],
      [
        "",
        ""
      ],
      [
        "",
        "\u0019"
      ],
      [
        "",
        "I"
      ],
      [
        "",
        "Å"
      ],
      [
        "",
        "Ë"
      ],
      [
        "",
        "ß"
      ],
      [
        "",
        "ä"
      ],
      [
        "",
        "ü"
      ],
      [
        "",
        "D"
      ],
      [
        "",
        "b"
      ],
      [
        "",
        "Ä"
      ],
      [
        "",
        ""
      ],
      [
        "",
        ""
      ],
      [
        "",
        ""
      ],
      [
        "",
        ""
      ],
      [
        "",
        ""
      ],
      [
        "",
        ""
      ],
      [
        "",
        "«"
      ],
      [
        "",
        "O"
      ],
      [
        "",
        ""
      ],
      [
        "¦",
        ""
      ],
      [
        "®",
        "I"
      ],
      [
        "¯",
        "\u0011"
      ],
      [
        "°",
        ""
      ],
      [
        "±",
        ">'Ä"
      ],
      [
        "¹",
        "9"
      ],
      [
        "º",
        "®"
      ],
      [
        "¼",
        "N"
      ],
      [
        "¼",
        "O"
      ],
      [
        "¾",
        "L"
      ],
      [
        "¾",
        "M"
      ],
      [
        "Â",
        "0"
      ],
      [
        "Ä",
        "c"
      ],
      [
        "Ä",
        ""
      ],
      [
        "Å",
        "þ"
      ],
      [
        "É",
        ""
      ],
      [
        "Ï",
        ""
      ],
      [
        "Ó",
        "Ó"
      ],
      [
        "Ý",
        "»"
      ],
      [
        "Þ",
        "'Ä"
      ],
      [
        "ß",
        "â"
      ],
      [
        "ß",
        "ÿ"
      ],
      [
        "á",
        "="
      ],
      [
        "â",
        "*"
      ],
      [
        "â",
        "8"
      ],
      [
        "â",
        "K"
      ],
      [
        "â",
        "p"
      ],
      [
        "â",
        "q"
      ],
      [
        "ä",
        "ª"
      ],
      [
        "å",
        "î"
      ],
      [
        "æ",
        "­"
      ],
      [
        "ê",
        "«"
      ],
      [
        "ì",
        "u"
      ],
      [
        "ï",
        "\b"
      ],
      [
        "ð",
        ""
      ],
      [
        "ð",
        ""
      ],
      [
        "ñ",
        "\u0017"
      ],
      [
        "ñ",
        "["
      ],
      [
        "ñ",
        "\\"
      ],
      [
        "ñ",
        "5"
      ],
      [
        "ò",
        "u"
      ],
      [
        "ó",
        "1"
      ],
      [
        "ó",
        "f"
      ],
      [
        "ó",
        "k"
      ],
      [
        "ó",
        "ù"
      ],
      [
        "õ",
        "Ë"
      ],
      [
        "ø",
        "N"
      ],
      [
        "ø",
        ""
      ],
      [
        "ø",
        "º"
      ],
      [
        "ù",
        "7"
      ],
      [
        "ù",
        "·"
      ],
      [
        "û",
        "ß"
      ],
      [
        "û",
        "æ"
      ],
      [
        "û",
        "ê"
      ],
      [
        "ü",
        "E"
      ],
      [
        "ü",
        "´"
      ],
      [
        "þ",
        "\u0010"
      ],
      [
        "þ",
        "["
      ],
      [
        "þ",
        "k"
      ],
      [
        "þ",
        "}"
      ],
      [
        "ÿ",
        ""
      ],
      [
        "\u0000\u0000\u0000\u0001A",
        "\u0001"
      ],
      [
        "\u0000\u0000\u0000\u0001A",
        " "
      ],
      [
        "\u0000\u0000\u0000\u0001A",
        " "
      ],
      [
        "ñ",
        "\u001e"
      ],
      [
        "ñ",
        "1"
      ],
      [
        "â|",
        "#"
      ],
      [
        "â|",
        "L"
      ],
      [
        "â|",
        "O"
      ],
      [
        "â|",
        "Oñ"
      ],
      [
        "Äø",
        ""
      ],
      [
        "=1",
        " "
      ],
      [
        "\b",
        ""
      ],
      [
        "\n",
        "q"
      ],
      [
        "\u0010",
        "\u0011"
      ],
      [
        "\u0010",
        "+"
      ],
      [
        "\u0010",
        "ø"
      ],
      [
        "\u0011",
        "X"
      ],
      [
        "\u0015",
        ""
      ],
      [
        "\u0019",
        ""
      ],
      [
        "\u001c",
        "F"
      ],
      [
        "\u001c",
        "Ì"
      ],
      [
        "\u001f",
        "\u0011"
      ],
      [
        " ",
        "-"
      ],
      [
        "$",
        "@"
      ],
      [
        "$",
        "¹"
      ],
      [
        "&",
        "\""
      ],
      [
        "'",
        "/"
      ],
      [
        "+",
        "\u0011"
      ],
      [
        "/",
        "\t"
      ],
      [
        "/",
        "w"
      ],
      [
        "/",
        ""
      ],
      [
        "4",
        "e"
      ],
      [
        "4",
        "Ë"
      ],
      [
        "7",
        "\u0013"
      ],
      [
        "7",
        ""
      ],
      [
        "8",
        ""
      ],
      [
        "<",
        "N"
      ],
      [
        ">",
        " "
      ],
      [
        ">",
        "\\"
      ],
      [
        "@",
        ""
      ],
      [
        "D",
        "c"
      ],
      [
        "E",
        "b"
      ],
      [
        "H",
        ""
      ],
      [
        "I",
        "+"
      ],
      [
        "M",
        "Û"
      ],
      [
        "N",
        "«"
      ],
      [
        "O",
        "Ë"
      ],
      [
        "Q",
        "8"
      ],
      [
        "T",
        "|"
      ],
      [
        "U",
        "­"
      ],
      [
        "V",
        "&"
      ],
      [
        "X",
        ""
      ],
      [
        "Z",
        "®"
      ],
      [
        "Z",
        "ÿ"
      ],
      [
        "\\",
        "L"
      ],
      [
        "\\",
        "´"
      ],
      [
        "\\",
        "º"
      ],
      [
        "\\",
        "Ú"
      ],
      [
        "]",
        "k"
      ],
      [
        "]",
        "Ú"
      ],
      [
        "_",
        "\t"
      ],
      [
        "_",
        "6"
      ],
      [
        "_",
        "Ä"
      ],
      [
        "a",
        "\u001b"
      ],
      [
        "b",
        "\u0004"
      ],
      [
        "b",
        "~"
      ],
      [
        "b",
        "<G"
      ],
      [
        "c",
        "c"
      ],
      [
        "g",
        "â"
      ],
      [
        "j",
        "µ"
      ],
      [
        "m",
        "e"
      ],
      [
        "n",
        "Ý"
      ],
      [
        "q",
        "?"
      ],
      [
        "q",
        "Z"
      ],
      [
        "s",
        "t"
      ],
      [
        "t",
        ""
      ],
      [
        "u",
        "U"
      ],
      [
        "u",
        "ª"
      ],
      [
        "v",
        "5"
      ],
      [
        "v",
        "Û"
      ],
      [
        "x",
        "B"
      ],
      [
        "x",
        "G"
      ],
      [
        "x",
        ""
      ],
      [
        "y",
        "y"
      ],
      [
        "y",
        "ü"
      ],
      [
        "|",
        "¹"
      ],
      [
        "|",
        "O"
      ],
      [
        "~",
        "L"
      ],
      [
        "",
        "\b"
      ],
      [
        "",
        "%"
      ],
      [
        "",
        "?"
      ],
      [
        "",
        ""
      ],
      [
        "",
        ""
      ],
[...]
